Ġ Ġ
Ġ t
Ġ a
i n
h e
r e
o n
ĠĠ ĠĠ
e r
ä ¸
Ġt he
a t
Ġ s
e n
ï ¼
Ġ o
Ġ c
e s
i s
o r
i t
a n
ã Ģ
ç ļ
a l
çļ Ħ
Ġ p
Ġ w
ï¼ Į
Ġ f
i on
Ġ b
e d
Ġa n
a r
in g
Ġ d
Ġo f
Ġ in
Ġ m
l e
o u
i c
ä º
Ċ Ċ
Ġt o
r o
Ġan d
a s
å ı
ãĢ Ĥ
c t
ä »
æ ľ
å ħ
en t
e t
ĠĠĠĠ ĠĠĠĠ
ĠĠ Ġ
Ġt h
Ġ n
s t
Ġ re
Ġ e
å Ī
Ġ h
â Ģ
å ®
o m
e l
è ¿
å ¤
Ġ l
ä ½
Ġ is
i l
ç Ķ
æ ĺ
r a
i m
å Ĳ
o l
Ġ =
u t
i d
Ġ T
å ľ
v e
ç »
at ion
ãĢ ģ
u s
o t
å Ĭ
Ġ g
æ Ī
i g
u r
c e
Ġ (
æĺ ¯
Ġ \
æ ĸ
a m
è ¯
o w
å Ľ
c h
ä ¹
u n
u l
Ġ S
ä¸ Ģ
Ġ A
Ġf or
Ġs t
l y
. Ċ
Ġ I
i f
Ġb e
å Ń
å °
æ ķ
è ®
æ Ĺ
Ġ C
Ġth at
v er
o d
å ¹
ãĢĤ Ċ
a d
s e
Ġ y
Ġ on
ä ¼
u m
Ġc on
é Ģ
å º
i r
å į
è ¡
it h
at e
æľ ī
åľ ¨
æ Ŀ
Ġp ro
q u
æ ī
a g
a y
Ġ v
Ġ -
é ĩ
å ¼
ä¸ į
; Ċ
Ġa s
ä¸ º
e m
t er
å ¯
å Ĵ
ĠĠĠĠ ĠĠĠ
ä¸ Ń
è §
å ĩ
. ĊĊ
Ġw ith
äº º
å Ĩ
r i
å Į
es t
åĴ Į
è Ģ
a b
ç Ľ
Ġ it
ĠT he
- -
Ġd e
is t
å ¸
å ·
æ Ģ
Ġa re
Ġ P
ä» ¥
Ġ M
re s
p e
o s
Ġa l
0 0
å ¾
he r
è ĥ
æ ł
Ġy ou
Ġo r
Ġe x
i v
Ġw h
ä¸ ª
es s
è ´
ct ion
t h
ç §
Ġ B
er s
m ent
Ġc om
Ġw e
a c
æ ³
æ Ń
ç Ń
p t
æ Ĭ
Ġ D
ç İ
p l
t e
äº Ĩ
¦ ģ
æ °
å ½
çĶ ¨
Ġ $
an d
è ¦ģ
Ġ "
æ Ķ
o c
o re
it y
ig h
n t
æ ŀ
çĶ Ł
ç ī
Ġ us
o p
é Ļ
ro m
ĠĠĠĠĠĠĠĠ ĠĠĠĠĠĠĠĠ
Ġb y
Ġ r
Ġn e
Ġ +
or t
a in
l d
æĹ ¶
å ±
Ġs u
* *
ï¼ ļ
åı ¯
Ġ R
âĢ ľ
Ġ {
é Ĺ
Ġs e
Ġ W
Â ł
å İ
å¤ §
âĢ Ŀ
k e
il l
Ġ H
2 0
ç º
Ġ E
æ İ
Ġ F
åŃ ¦
èĥ ½
ä ¿
è¿ Ļ
i ve
è µ
an t
Ġ he
é Ŀ
en d
n d
ç Ĳ
äº İ
è¡ Į
ä¸ Ĭ
Ġc an
p p
é ¢
å ¿
i es
å ĳ
å¯ ¹
ar t
æķ °
è ĩ
Ġth is
o g
æĸ ¹
Ġa t
é ĥ
Ġ L
in e
igh t
Ġh a
åı ĳ
e ct
åĪ Ĩ
i al
Ġf rom
u d
æĪ ĳ
Ġ N
Ġc h
u re
åĽ ½
ra c
ä¼ ļ
ä½ ľ
u e
è ¾
Ġs h
Ġn ot
æ µ
é ¡
ag e
æ ¯
as s
Ġ un
æĪ Ĳ
i z
) Ċ
å¹ ´
çĲ Ĩ
æ ²
Ġ G
å ¥
æ Į
Ġ le
: Ċ
æ³ ķ
åĪ °
è Ĥ
å® ļ
åĩ º
p er
ä¸ ļ
al l
g e
ou ld
ç ®
) ;Ċ
1 0
ul t
Ġ `
} {
am e
i e
ic al
ä» ¬
ic h
Ġ{ Ċ
im p
æĢ §
Ġw as
è ½
Ġha ve
å ¦
f rac
, Ċ
ä½ ĵ
ç ¨
âĢ Ļ
an s
ou r
T he
åĬ ¨
u b
re d
in t
Ġ k
æ Ħ
ä ¾
c l
Ġ }
ä¸ ĭ
x t
Ġc l
å Ł
el l
à ¸
æ ĥ
b le
å· ¥
f f
1 9
or m
æĿ ¥
çŃ ī
è¿ ĩ
a ct
ou t
o st
æ ĭ
å ĵ
in d
æ ±
æī Ģ
at ed
-- --
åľ °
r ou
' s
a p
_ _
å® ŀ
u st
è¿ Ľ
é ĺ
ç Ĥ
çİ °
id e
Ġre s
a k
åĲ İ
Ġ O
as e
Ġcom p
åĮ ĸ
Ġ if
b er
ä¸ İ
æ į
/ /
ç «
åĲ Ī
ç ¬
å¤ ļ
u p
å Ģ
ur n
Ġin t
åĲ Į
ar d
Ġ en
åĽ ł
å ī
ab le
i p
om e
d u
åº Ķ
Ġ Ð
é «
Ġ <
Ġa d
c c
Ġw he
é¡ ¹
Ġ *
Ġp l
æ ı
å¦ Ĥ
c on
ç ľ
é« ĺ
éĿ ¢
é ķ
åħ ¶
åħ ¬
ĠĠĠĠĠĠĠĠ ĠĠĠ
t her
åº ¦
d er
ion s
æ Ł
Ġa b
åħ ³
æ ¬
æľ ¬
ç ¡
ç Ĺ
Ġwh ich
èĩ ª
ç» ı
Ġcon t
Ġd o
Ġ J
å ģ
é ģ
Ġ U
äº §
Ġw or
Ġ j
ã ģ
ç ½
æ ¡
i le
e re
ation s
ä¸ »
ac k
res s
Ġal l
éĢ ļ
ï¼ ī
as t
åĬ Ľ
a re
åħ ¨
æ ´
ï¼ Ī
im e
ĠI n
d e
an g
a v
ig n
g h
åŃ Ĳ
. .
r u
a ch
ç Ł
ar y
éĥ ¨
Ġ\ (
( )
éĢ ī
å¾ Ĺ
èĢ Į
å® ¶
å° ı
èĢ ħ
éĩ ı
æ ¸
ç ¤
ic e
i a
on g
an ce
Ġt r
ç¨ ĭ
at a
Ġre t
Ġ qu
ou s
ä¹ ĭ
çī ©
ĠĠĠĠ Ġ
å° ±
ç ³
Ġh as
éĩ į
Ġd is
åĨ ħ
åĪ ¶
å¼ ı
Ġm e
è§ £
ä¹ Ł
1 2
éķ ¿
ent s
ä» ĸ
çĤ ¹
æĪĳ ä»¬
Ġa r
o k
åı¯ ä»¥
Ġw ill
åĬ ł
Ġp er
) ,
è °
è® ¾
æľ º
å »
en ce
è ·
æĪ ĸ
a ce
ä¿ Ŀ
p h
ç ĸ
at h
ä¸Ģ ä¸ª
Ġyou r
Ð ¾
å ¢
ç¬ ¬
Ġf un
20 1
r ing
f orm
ĠT h
s o
æ Ľ
éĹ ´
çĽ ¸
i re
e p
Ġ âĢ
å Ŀ
Ġ imp
it ion
Ġthe ir
æĸ ĩ
on e
æŃ £
ç ±
æĸ °
é ľ
ç§ į
Ġ |
å¼ Ģ
en s
v el
é¢ ĺ
j ect
é £
g et
` `
æı Ĳ
u al
æ ¶
å¿ ĥ
Ð °
Ġn um
or y
Ġb ut
f t
è¡ ¨
ou nt
äº ĭ
çĶ µ
æŀ ľ
Ġthe y
it e
ç® ¡
n e
åı Ĭ
Ġv al
æ¡ Ī
å½ ĵ
et h
} $
> Ċ
Ġret urn
ä½ į
w er
Ġo ut
æľ Ģ
l o
æľ Ł
l ow
ç¡ ®
e ar
Ġs y
Ġm ore
ä½ ¿
) .
or d
æ° ´
åħ ¥
ç³ »
è ¶
è® ¡
å¹ ³
æį ®
Ġm an
é ļ
r y
Ġon e
å» º
^ {
ä¸ ī
æĦ ı
åĬ ¡
é Ľ
pt ion
å° Ĩ
o se
Ġo ther
I n
èµ Ħ
é Ķ
a ke
er m
å¸ ¸
æĥ ħ
if f
Ġ '
or s
ut ion
a il
æķ Ļ
Ġs o
å¹ ¶
1 5
el f
å± ķ
l ic
ç Ŀ
c re
Ġfun ction
åī į
ç ´
æ° ĳ
å½ ¢
ĠS t
Ġg o
è Ĭ
el y
å¸ Ĥ
æŃ ¤
at es
ç ©
at er
è ī
Ġ V
å¥ ½
ĉ ĉ
ç Ħ
ãĢĤ ĊĊ
Ġ K
2 00
Ð µ
a us
è ģ
; ĊĊ
k s
ou nd
ç ł
æĹ ¥
Ġl i
Ġe v
Ġne w
éľ Ģ
Ġt e
Ġp art
ç» ĵ
Ġs p
n s
Ġs pe
Ġ [
_ {
æĺ İ
é ħ
c es
éĥ ½
c om
ä» £
æİ ¥
ro w
åĵ ģ
st em
od e
y s
æ ģ
1 1
y pe
: ĊĊ
æ Ļ
Ġ up
ä» İ
Ĥ £
çĽ ®
Ġal so
\ [
æľ Ī
Ġwe re
Ġ x
ir st
Ġo b
è§ Ħ
Ġsh ould
Ġs c
re e
w e
ç Ļ
åŁ º
Ġp re
æ¬ ¡
p ut
1 8
äº Į
er v
å¤ ĸ
ï¼ Ľ
ä» ¶
Ġd iff
åİ Ł
Ð ¸
æ¯ Ķ
ar i
å® ī
Ġp r
ra m
Ø §
æ± Ĥ
Ġcl ass
l l
åĮ º
ç ¼
if ic
çĶ ±
ä¿ ¡
è¯ ´
Ġcom m
ow n
S t
ver y
ç ¾
åĪ ©
è´ ¨
ä¸ ¤
æĶ ¿
ie w
i b
il d
o ok
è į
c ess
çĦ ¶
æł ĩ
Ġint o
Ġit s
cl ud
1 6
å §
ç ķ
Ġus e
] ĊĊ
le ct
å¤ ©
Ġne ed
w o
çĹ ħ
çŃ Ķ
åı ĺ
åĳ ĺ
? Ċ
re at
è Ħ
åĢ ¼
$ $
im es
æ´ »
Ġ .
è ¢
Ġ //
ver s
te xt
åħ ĥ
æĹ ł
am p
è ĭ
ä½ Ĩ
Ġfor m
ãĢ ĭ
å¯ ¼
éĹ ®
i ent
ãĢ Ĭ
ç» Ħ
Ġwhe n
Ġde f
Ġab out
éĢī é¡¹
ri b
éģ ĵ
iz e
Ġthe re
Ġt ime
è Ĳ
Ġd es
æĽ ´
Ġ Y
o ve
Ġb et
Ġth an
ĠI t
Ġg et
le ment
ç ²
p on
---- ----
çº ¿
Ġc ol
ub lic
en er
èµ ·
ç ĥ
r ic
Ð ½
} \
çī ¹
äº Ľ
Ġs ol
ĠTh is
çŁ ¥
æ² »
å¤ Ħ
é ª
o int
Ġa cc
Ġin ter
éĩ ĳ
åĲ ĳ
Ġ ro
( "
Ġs ome
Ġnum ber
è¿ ĺ
Âł Âł
Ñ Ĥ
è¿Ľ è¡Į
al ly
h at
= =
1 3
åį ķ
å ŀ
Ġf e
Ġs et
é Ĵ
1 4
Ġsu b
n g
ay s
r it
is h
ĠĠĠĠĠĠĠĠĠĠĠĠĠĠĠĠ ĠĠĠĠĠĠĠĠĠĠĠĠĠĠĠĠ
er t
Ġe m
Ġad d
æľ ¯
eth od
Ġm ay
Ġ Ċ
ĠĠĠĠĠĠĠĠ ĠĠĠĠĠĠĠ
å·¥ ä½ľ
Ġm od
Ġo ver
} Ċ
Ġre p
æł ¹
Ġas s
Ġ &
ol og
2 5
åľ º
Ġp os
Ġh is
at ive
çĿ Ģ
e x
æĮ ĩ
Ġwh o
Ġf ol
Ġthe m
Ñ Ģ
ç» Ł
æ ·
o v
# #
è¢ «
" ,
Ġp e
Ġ i
ç ¥
æĿ ¡
ble m
a x
Ġthe se
] Ċ
Ġt wo
on t
Ġan y
Ġst ud
Ġa g
l es
Ġn o
å¢ ŀ
Ġcon s
ä¹ Ī
r t
ĠC h
ing s
Ġex p
Ġh ow
ä» »
Ġdiff ere
ç± »
Ġf irst
= "
aus e
å° ĳ
Ġ} Ċ
c k
Ġwor k
Ġw ould
è° ĥ
è¯ ģ
é ¦
3 0
Ġe qu
çĽ ´
Ġ im
ç« ĭ
ä½ ł
åħ ·
f ore
æĮ ģ
ul ar
an ge
æķ Ī
ã Ĥ
äº ¤
Ġa m
Ġre l
ç ģ
æ° Ķ
Ñ ģ
è Ī
å¼ º
Ġpro du
Ġa pp
åı ¸
æ º
åĪ Ļ
Ġsy stem
Ġd ata
Ġspe c
æ £
at ing
ç§ ĳ
< /
i an
ç Ĭ
æµ ģ
Ġk n
éľĢ è¦ģ
Ġs a
Ġa ct
çŃĶ æ¡Ī
i ed
æĶ ¶
ç¤ ¾
ru ct
èĢ ĥ
Ġfol low
ou gh
âĢ Ķ
æł ·
Ġt ra
é ĵ
Ġbe c
Ġa p
åı ĸ
è¿ Ĳ
Ġ âĢľ
o b
Ġus ed
Ã ©
Ġre g
Ġ /
il ity
æ ®
i ble
o ol
oc k
in k
æĬ Ģ
Ġbe en
Ġpro v
ic s
r ight
is s
ot h
d s
ç¤ º
- >
éĩ Į
Ġm ethod
åıĳ å±ķ
p s
æ¯ ı
Ġ ì
Ġp h
æŀ Ħ
æĦ Ł
Ġe ach
Ð¾ Ð
ff ect
åĲ į
ar k
Ġcon st
åħ Ī
Ġin d
Ġ ra
ä» ·
ra ct
Ġsu ch
Ġun der
is e
è½ ¦
æŁ ¥
) ĊĊ
Ġy ear
Ġval ue
Ù Ħ
c he
æ »
åĲ Ħ
ul l
Ġon ly
we en
å ķ
1 00
1 7
ä¹ ī
op le
è º
ĠR e
æī ĭ
it s
å® ĥ
åĮ »
est ion
Ġtr ans
Ġwh at
u es
åŀ ĭ
v al
rou gh
as ed
ic k
è· ¯
æīĢ ä»¥
f ter
çľ ĭ
pe ct
æľ į
Ġres ult
æ² ¡
éĢļ è¿ĩ
éĹ® é¢ĺ
Ġthe n
å· ²
Ġre c
ç® Ĺ
o id
i el
s s
å £
åħ ±
åģ ļ
æĢ »
c ed
ä¸Ń åĽ½
è £
_ t
æĿ ĥ
Ġbet ween
Ġf ind
ç®¡ çĲĨ
: :
Ġd i
çİ ĩ
å ĸ
éĻ ¢
è Ļ
Ġh ad
åı Ĺ
èĤ ²
al s
Ġus ing
. s
è Į
P ro
Ġin clud
åħ¬ åı¸
ä½¿ çĶ¨
`` `
è¯ ¥
åĪ «
ç´ ł
Ġre m
ï¼ Ł
y p
èº «
Ġre qu
Ġli ke
Ġwhe re
é£ İ
å¦Ĥ æŀľ
å Ļ
ä¼ ł
åİ »
å¸ Ī
ç ¦
5 0
è¿Ļ ä¸ª
ä¼ ģ
it ies
åį ģ
amp le
__ __
åĮ ħ
å¾ Ī
Ġc o
Ġp ar
pl ic
åı¯ èĥ½
åı £
in al
ç Ī
æķ ´
è® ¤
Ġd et
on s
è ħ
åĩ Ĩ
ut e
æĶ ¹
res ent
é Ĥ£
Ġin v
ic t
ç§ ¯
çº §
ä¹ ¦
Ġat t
Ġc or
Q u
æĸ ½
åı į
çł Ķ
ç» Ļ
å® ¹
èĬ Ĥ
Ġpe ople
Ġo ur
ï¼ļ Ċ
2 4
c ri
er r
Ġm ost
T h
at or
e f
ĠâĢ ¢
ur re
æł ¼
æģ ¯
n ing
åĨ ³
c ul
ã ĥ
æ³ ¨
Ġp ublic
ction s
Ġof f
ç¾ İ
c y
vel op
Ġin st
o x
è½ ¬
Ġl a
åŃ ĺ
è¾ ĥ
ĠI f
u res
åĻ ¨
en g
è¡ Ģ
Ġ :
ä¹ ł
s q
åĨ µ
èī ²
åı ª
ment s
t t
o od
Ġ\ )
ter n
e c
ns wer
00 0
æĶ ¾
ow er
Ġv ari
ra y
Ġ ke
æ ¨
ä¼ģ ä¸ļ
éĢ ł
éĽ Ĩ
å½ ±
è ±
è§ Ĵ
Ġin f
è¿ °
Ġe l
rou nd
he n
e w
å® Į
Ġp ol
p r
æĥ ³
çĸ Ĺ
åį ³
çİ ¯
é ©
Ġin te
ç½ ®
ä¸ ĵ
Ġ z
g er
ation al
éĹ ¨
åĽ Ľ
èĩ ³
åĪ Ĺ
Ġs m
Ġ$ \
) $
çĬ ¶
å¤ ĩ
Ġg iv
sq rt
å¤ į
Ġhe l
è¾ ¾
i o
Ġa c
Ġth rough
is m
i x
ri v
if y
Ġg ener
åķ Ĩ
æ£ Ģ
Ġdiffere nt
Ġb u
Ġman y
æŃ ¥
ä¾ Ľ
g in
æł¹ æį®
Ġc all
" Ċ
Ġ #
f ul
p ar
åĪ Ľ
ĠU n
ur ing
è¯ Ĩ
ä¾ ĭ
ç½ ĳ
è® º
æĬ ¥
Ġs elf
å· ±
t imes
A nswer
n ame
æŀ Ĳ
id ent
Ġb l
re ad
Ġd ist
åĽł æŃ¤
\ )
v ent
éĺ ²
æº Ĳ
n ce
' t
le ft
é£ Ł
ar ch
æ²¡ æľī
åĽ ŀ
Ġs ign
t en
Ġs ur
Ġt est
Ġf act
ç¤¾ ä¼ļ
åĽł ä¸º
Ġc re
Ġ} ĊĊ
èį ¯
Ġc he
imp ort
m er
t he
or k
i ous
ĠW e
Ġimp ort
æĶ ¯
æĬ ¤
Ġdo es
é »
Ġpro cess
è´ ¹
èĩª å·±
p ro
å¼ ķ
Ġde velop
Ġm at
Ġex t
åĬ Ł
at ic
( x
Ġch ar
ç ħ
le t
Ġt erm
æĸ Ļ
ag es
Ð »
Ġ end
Ġm y
éĻ ¤
b e
Ġp oint
è® °
ç± ³
åĳ Ĭ
al th
éĿ ŀ
o y
in es
ĠP ro
è¯ ķ
åĽ ¾
de f
æĥħ åĨµ
urre nt
u ch
Ġl ist
è¯ Ń
E R
4 0
æ¸ ħ
åŃ Ĺ
æŁ Ĳ
è§ Ĥ
u c
æĹ¶ éĹ´
å®ī åħ¨
æĢ ģ
ä¸ Ķ
Ġ ent
20 2
6 0
$ \
Ġpro blem
åŃ¦ çĶŁ
form ation
æ¶ Ī
ce pt
** **
per t
he d
ĠĠĠĠĠĠĠĠ Ġ
ä¸» è¦ģ
ä½ İ
Ġre f
èĩ ´
Ġob ject
éª Į
¥ ¿
åİ ĭ
è¾ ¹
at ure
èĢ ģ
Ġ Ø
ç© ¶
è® ®
e ver
æ¨ ¡
ress ion
Ġm in
æķ ħ
l i
Ġa fter
Ġm ake
ç² ¾
ad e
re n
t ing
æµ ĭ
à ¹
åı Ĥ
Ġj ust
Ġsu pp
Ġp at
er g
æµ İ
è ¥¿
t o
å¿ ħ
æĺ ĵ
) )
as es
è® ©
æİ ¨
Ġkn ow
3 2
in s
Ġc ould
Ġbec ause
æĸ Ń
ar s
åĵ į
æİ §
ical ly
Ġs im
èģ Ķ
Ġf l
Ġin cre
$ ï¼Į
ä¸ ĩ
Ġp ers
** ĊĊ
Ġb oth
Ġc ell
_ s
g an
å ²
rou p
é¦ ĸ
in ed
æĢ Ŀ
éĻ Ĳ
al cul
æĪ ·
Ġ her
Ġl ong
èĲ ¥
è İ
Ġs ame
å¤ ´
è§ ģ
åħ »
as k
ä¸ ľ
ol ution
æĬĢ æľ¯
Ġh igh
è´ £
con d
{ \
ç» Ĩ
æµ ·
iel d
in ce
åı ·
od y
Ġ @
æĬ Ĭ
ĠC om
æł ¡
å¢ ĥ
iz ed
ĠH e
éĻ ħ
å¸ ¦
a pp
å Ķ
ç© º
Ġpro g
æ® µ
ic es
ire ct
æĬ ķ
I N
Ġa ut
å Ħ
ä¸Ń çļĦ
éĢ Ł
il y
Ġde c
e xt
d ot
Ġw ell
æŃ£ ç¡®
Ġe ffect
Ġde p
éĻ ©
Ġhel p
Ġst ate
? ĊĊ
ï¼ İ
æĸ¹ æ³ķ
2 2
c i
éĢ Ĥ
ant s
ä½ ķ
è¿ ĳ
ol d
Ġ u
ç»ı æµİ
è¯ ·
Ù Ĭ
è± ¡
. ,
w n
Ġfollow ing
çĻ ½
oc i
Ġl ar
O N
an n
ï¼ļ ĊĊ
åĳ ¨
èĮ ĥ
al e
Ġin s
it ed
- s
Ġb ack
ç³» ç»Ł
Ġm ain
m a
v iew
åĩ ı
b r
é¢ Ĩ
el s
' ,
ra ph
æľį åĬ¡
E x
c o
ç¦ »
Ġse e
Ġ Ã
( );Ċ
å¾ ĭ
æķĻ èĤ²
ot her
ç¥ ŀ
åĽ½ å®¶
æľ ª
ak es
Ġcon f
Ġst art
Ġyear s
R e
if e
åĦ ¿
Ġn ame
ç» ´
çĥ Ń
çłĶ ç©¶
è£ ħ
19 9
c ent
Ġc ar
olog y
åĨ į
â ĳ
Ġ )
Ġp ass
Ġl oc
Ġs er
Ġt ype
à ¤
ual ly
Ġm em
æ Ĥ£
Ġch ild
Ġgiv en
æķ° æį®
ä¿¡ æģ¯
Ġd iv
Ù ħ
ç§ °
è§ Ĩ
åħ ī
Ġw ay
ä¸ ĸ
id es
á »
é¢ Ħ
u g
Ġm ed
ro l
Ġc ount
Ġ >
éħ į
Ġf ound
æī į
t r
Ñ ĥ
s elf
a h
å± ŀ
ä¼ ĺ
Ġr ight
å½± åĵį
å°± æĺ¯
åħ ļ
Ġ ë
Ġ **
è ı
t d
Ġb el
å± ±
ì Ŀ
Ġapp ro
äºº æ°ĳ
an y
b ers
ist s
ç» Ń
. get
Ġres pon
ur al
_ d
çľ Ł
Ġre ad
æ· ±
ak ing
èģ Į
d d
ĠH ow
æĮ ī
Th is
Ġ et
ch n
S T
Ġh and
he s
ĠF or
Ġm on
Ġst r
a ve
2 8
A T
Ġ\ ]ĊĊ
Ġsh ow
2 3
Ġan s
Ġev en
äº Ķ
c dot
Ð º
Ġc ent
T o
åĬ ©
è¶ ³
Ġpart ic
i er
l ine
ĠA n
ĠW hat
åŁ İ
åį Ĺ
} }
é ¥
Ġ very
n ess
Ġ est
è´ Ł
èĤ ¡
åĬ ŀ
w ard
æĺ ¾
éĩ ĩ
è®¡ ç®Ĺ
Ġ ed
æĪ ĺ
â Ī
æ ¢
æİ Ĵ
et s
Ġin formation
l ed
Ġc ase
çº ¦
Ġs he
Ġm ult
åį ĩ
æŀ ģ
çĲ ĥ
Ø§ ÙĦ
åĳ ½
o le
æ Ĥ
Ġle vel
Ġe very
Ġ ,
Ġsm all
çķ Į
ĠA l
2 7
æī ĵ
Ġex ample
åĨ ľ
ç ª
Ġbe ing
ĠT o
ent ial
c er
åŃ ©
è¦ģ æ±Ĥ
p ort
Ġm et
s ible
å¹ ²
our ce
å§ ĭ
åĩ ½
å¸ ĥ
Ġw ater
C on
} ĊĊ
- b
Ġa v
éĩį è¦ģ
ä» Ģ
ĠâĢ ĵ
Ġwh ile
t on
æĪ ¿
g s
Ù Ī
iz ation
çĽ ĳ
çľ ģ
åĲĮ æĹ¶
if ied
æ²» çĸĹ
p os
Qu estion
r on
y n
a ir
å¯¹ äºİ
åĪĨ æŀĲ
qu e
ver t
re st
åı °
æĭ ¬
ï¼Ł Ċ
it ive
å¸Ĥ åľº
Ġprodu ct
Ġm uch
t a
æ ¼
\[ Ċ
act er
å¹ ¿
Ġar t
as h
å± Ģ
Ġe ar
ä»Ģ ä¹Ī
c ial
ot e
çħ §
-------- --------
id er
v ed
é Ł
ä¸į åĲĮ
Ġst ruct
2 1
y m
ä¾ Ŀ
åĩ½ æķ°
çĹ ĩ
p i
ç ¢
_ m
éĶ Ļ
Ġ err
" ,Ċ
å± Ĥ
æ´» åĬ¨
âĢ ¦
çļĦ æĺ¯
åı Ī
åĿ ĩ
å¤ ±
ç» ĩ
Ġcont ain
) :Ċ
Ġc urrent
æ¬ ¾
re t
h ip
è§Ħ å®ļ
I D
8 0
m ath
è¿ĩ ç¨ĭ
åŁ Ł
åĮ Ĺ
um ent
al ity
is ion
I t
Ù Ĩ
ç ĭ
å¿ «
ĠS e
ad d
Ġh um
Ġl ine
ä¸į æĺ¯
ç¬¬ ä¸Ģ
cri ption
le x
è¿ ŀ
Ġ= =
çĽ Ĭ
it t
o f
eng th
åŃ¦ ä¹ł
( -
l and
Ġsol ution
è¯ ¾
Ġpers on
/ Ċ
Ġle ad
R E
ĠĠĠĠĠĠĠĠĠĠĠĠĠĠĠĠ ĠĠĠ
Ġprog ram
) ;ĊĊ
Ġth ose
d iv
Ġcomm on
Ġpro te
çĶŁ æ´»
Ġt em
ĠE x
åħ¶ ä»ĸ
ĠC on
ar m
å¥ ³
s er
éļ ¾
r ite
Ġo per
Ġl ook
Ġf ile
éĥ¨ åĪĨ
ab ility
ir c
è¿Ļ äºĽ
Ġd uring
çŃ ĸ
m in
å»º è®¾
æĪĸ èĢħ
å¾Ĺ åĪ°
æł ¸
ĠY ou
åĽ ´
Ġf il
éĻ į
== ==
Ġex per
æĸ¹ å¼ı
em ent
è ¨
2 6
C h
ĠA s
Ġcon d
è¯ Ŀ
ĊĊ Ċ
an k
st and
è¯ Ħ
åĪ Ĵ
he re
è ŀ
en cy
r al
æĿ ĳ
åİ Ĩ
ess age
ĠThe re
Ġhe alth
æıĲ ä¾Ľ
æ ĳ
ä¸Ģ ç§į
åħ ĭ
åĪ ĩ
Ġse cond
è¯ ¯
Ġle t
çī ĩ
è ĳ
åŃ© åŃĲ
p en
åĲ «
æĿ Ĳ
ç ı
çĶŁ äº§
æ» ¡
( '
ä»ĸ ä»¬
å¼ ł
s et
æ¸ ©
ff ic
i red
Ġb re
èĬ ±
+ +
äºº åĳĺ
\ ]ĊĊ
Ġbe fore
Ġ ve
Ġgo od
Ġt ake
å¤ Ł
_ f
Ġs erv
âĢ ĵ
at her
åĩº çİ°
åģ ¥
ç»Ħ ç»ĩ
i k
ir on
åĨ Ļ
ä¾ ¿
ter s
Ġw ant
å¤Ħ çĲĨ
Ġd own
Ġc alcul
ç® Ģ
Ġans wer
å§ Ķ
Ġth ree
éļ ı
åĮħ æĭ¬
( \
æ ħ
. "
Ġag ain
i vers
æ ĵ
æ Ĵ
) .Ċ
Ġan al
çĶ± äºİ
åıĳ çĶŁ
Ġto t
n er
Ġst ep
èİ ·
g g
èĥ½ åĬĽ
å ¡
a w
Ġre se
Ġst ring
u le
Ġt yp
ĠW h
2 9
st r
v es
è¶ ħ
et y
riv ate
å· ®
ate g
Ð ²
Ġn on
åĩ ł
$ Ċ
ä¸ ¥
Ġall ow
Ġo cc
åħ³ ç³»
Y ou
å® ¢
åħ į
Ġd id
3 6
æĸ¹ ç¨ĭ
N ame
Ø ±
Ġ X
it ions
ä¸¤ ä¸ª
Ġo wn
åº ı
ä¸į èĥ½
p y
Ġn ow
Ġsa id
3 5
è¶ Ĭ
æī ¿
v ing
ra in
åį İ
è¯ »
a red
ä½ľ çĶ¨
Ġm ust
Ġin put
iv ity
çİ¯ å¢ĥ
Â ·
Ġs k
Ġwor ld
_ c
am et
Ġus er
m e
ä»¥ åıĬ
Ġd irect
t ain
at ch
Ġle ar
l og
Ġp ower
å®ŀ çİ°
å® ¡
St ring
ul ation
id ed
Ġstud y
æĸ¹ éĿ¢
ä¿ ®
re ct
Ġel se
è¨ Ģ
åįķ ä½į
v en
le ar
_ p
Ġg en
Ġl o
mer ic
Ġper form
Ġl ess
6 4
I d
Ġor der
Ġp op
Ġ Z
are nt
f ace
us s
a j
æĭ ©
t s
9 0
Ġ ident
iv ely
åĲ ¦
æŃ ¢
Ġm ade
Ġte chn
çĽ¸ åħ³
Ġex pl
a u
Ġmod el
çº ¢
æĤ£ èĢħ
ç¨ İ
Ġpl ay
y stem
C om
4 5
Ġ Ø§ÙĦ
am es
äº§ åĵģ
d ay
ct or
Ã ¡
W e
an e
ĠThe y
æ ¹
cc ess
Ġe lement
äºº çļĦ
Ġ !
é¡¹ çĽ®
åı ²
Ġdis c
Ġe lect
Ġ* /Ċ
ro ss
åħ ħ
ç¬¬ äºĮ
å ĥ
.. .
Ġimport ant
Ġexp ression
ĠD e
- t
E N
Ġd on
Ġrep resent
Ġl ife
Ġcall ed
Ġtot al
] ,
Ġl og
av a
Ġsupp ort
åº ·
al se
åį ı
Ġval ues
i ence
ic le
åĽ ¢
è¾ ĵ
éĢī æĭ©
Ġme as
æ² ¹
æ¶ ²
ä» ħ
Ġdet erm
Ġh im
Ġimp lement
Ġf am
it al
åº ľ
i or
æĸĩ åĮĸ
er y
erg y
ag n
3 3
ver n
pl es
Ġg u
Ġv oid
Ä ±
. S
ÂłÂł ÂłÂł
plic ation
ch ool
pl ay
æ¸ ¸
å ĭ
m at
ĠA r
éĺ Ł
Ġd er
åĨħ å®¹
. c
å® Ŀ
iv es
a ult
æ ļ
æıĲ é«ĺ
ä¸Ģ å®ļ
éĶ Ģ
_ st
åľ Ł
om et
Ñ ı
re qu
s p
i ents
è® ¸
c rib
é¡ »
os s
æĿ¡ ä»¶
åĨ Ľ
è´ ¢
ur s
å¾ ·
L ist
Ġb ody
Ġcont in
Ġwith out
Ġcomm un
Ġg row
Ġor gan
åħ· æľī
Ġch ang
n ot
ç§ »
èĪ ¬
iv id
Ġth ink
Ġd em
ä» ½
A R
ä» Ĭ
ĠA meric
st it
åŁ ¹
it le
æ ¿
å® ³
Ġre du
i um
æŁ ĵ
Ġg roup
lo od
. h
N A
W hat
en se
åº ķ
Ġ\ ]Ċ
v iron
Ġequ ation
Ġt reat
èŀ į
on d
äº Ĵ
Ð ¼
çģ «
Ġr un
ce ption
w ay
Ġke y
Ġrem ain
è¡¨ ç¤º
Ġd ay
ä½ľ ä¸º
Ġpl ace
Ġte xt
Ġr is
Ġf in
çĪ ±
å¾ Ģ
Ġde v
un d
Pro blem
S E
in ation
å¤ ª
r ation
_ n
le te
æį ¢
ion al
Ġ es
åĬ ¿
at ely
= \
é¢ Ŀ
æİ§ åĪ¶
Ġd el
7 0
è Ĩ
åħ¶ ä¸Ń
Ġin de
æ ¦
ĠĠĠĠ ĠĠ
èµ °
. m
æį Ł
Ġm ark
L E
åĢ Ļ
i od
ç« ł
Ġg ra
end s
Ð ´
çļĦ äºº
Ġbe h
The re
æī ¾
Ġb ased
as on
. p
im al
Ġwith in
at us
åĲ ¸
Ġtr ue
ä¸º äºĨ
l u
ç¾ ¤
Ġch ange
æ¿ Ģ
å¯¼ èĩ´
_ C
è¿Ļ æł·
çĽ´ æİ¥
å¼ Ĥ
O R
åŃĺ åľ¨
åĬŁ èĥ½
Ġcre ate
Ġp rivate
n al
ä¼ ¤
è¡ ¥
åĲ ĥ
æīĢ æľī
h or
oc ial
f or
æĿ ¿
æ¯ į
Ġc ap
Ġst and
åĥ ı
Ġp resent
è¡Į ä¸º
æ ¤
çļĦ ä¸Ģ
Ġb o
ro ll
ang u
Ġof ten
Ġpos sible
Ġspec ific
æłĩ åĩĨ
. g
æī §
a z
$$ Ċ
Ġ _
åį Ĭ
åĪ ¤
it ial
Ġre al
åĪ Ŀ
ä¼ Ĺ
Ġor ig
ou se
Ġunder stand
Ġs ize
Ġqu estion
Ġpro pert
m s
åĸ Ħ
o h
w ork
ust om
çĻ ¾
è®¾ è®¡
å¯ Ĩ
éĤ£ ä¹Ī
Ġdes ign
Ġc ost
í ķ
äº ī
is hed
æĶ¿ åºľ
Ġm ight
èĲ ½
ĠA nd
th is
ĠD es
d ate
ç¬ ¦
cl ass
é¦ĸ åħĪ
Ġs um
Ġh ist
S olution
é ¾
Ġv ol
çĤ İ
è¿Ļ ç§į
éĺ ³
Ġpr int
) ^
æ¯ Ĵ
Ġt ask
Ġcont rol
Ġsy m
C l
ç Į
ä¹ Ĳ
pl oy
Ġto p
.. ..
é© ¬
f o
ĠI nd
çĶ ²
Ġw rit
Ġs imp
Ø§ Ø
Ġinclud ing
Ã Ĺ
} ^{
ä¸Ĭ çļĦ
çİ ĭ
ert ain
ç» Ī
ord ing
éħ ¸
ç» ¼
Ġhe re
Ġv iew
éĿ ©
ä½ ı
u ro
- m
æĬķ èµĦ
ivid ual
ĠB ut
Ġinte rest
Ġcell s
in ess
ĠL e
åŁº æľ¬
å¾ ģ
com m
Ġo pt
. d
r an
Ġt ri
y le
å¢ŀ åĬł
ãĢĤ âĢĿ
é» Ħ
Ġme an
Ġth ough
T ype
du ct
Ġa round
ä¸Ģ èĪ¬
èĭ ¥
l ish
æ³¨ æĦı
g en
æĸ ¯
ç« ¯
19 8
ĠN ew
ys is
Ġl ast
Ġg re
Ġb ook
s on
R es
con om
Ġc ode
ans wer
èĥ½ å¤Ł
éŁ ³
Ġp ot
em s
ç»ĵ æŀľ
Ġv is
æ£Ģ æŁ¥
åı Į
Ġan t
at t
Ġpro f
re g
om en
åİ ¿
Ġterm s
A L
Ġdis e
e k
Ġl im
Ġn ull
ater ial
çĹ Ľ
å½ ķ
- c
âĢĿ ï¼Į
Ġ< /
åŁº ç¡
Ġe as
] .
çļ ®
r r
Ġc our
_ l
ĠS h
åŁºç¡ Ģ
ï¼ ģ
ç»ĵ æŀĦ
çŁ ³
Ġst ill
) ,Ċ
ä¹ĭ éĹ´
) :
Ġf ood
éĶĻ è¯¯
Ġtr y
ĠR es
åĳ ³
ar get
_ b
å®ŀ éĻħ
ĠĠĠĠĠĠĠĠĠĠĠĠĠĠĠĠĠĠĠĠĠĠĠĠĠĠĠĠĠĠĠĠ ĠĠĠĠĠĠĠĠĠĠĠĠĠĠĠĠĠĠĠĠĠĠĠĠĠĠĠĠĠĠĠĠ
Ġp res
Ġs l
åĬ ³
å¾ ®
Ġhum an
( )Ċ
ç ¿
re am
viron ment
éļ ľ
Ġ Q
è´¨ éĩı
å¿ µ
7 5
ĠC l
Ġen ergy
åľ Ĩ
ĠI s
cri pt
è§ ī
``` Ċ
ou n
( Ċ
Ġp o
å ł
Ġin c
Ġg reat
å·² ç»ı
Ġ\ [
Ġp ost
Ġinv ol
è§£ åĨ³
Ã ³
åºĶ çĶ¨
- f
I f
æĬ Ĺ
b s
at s
Ġm us
um e
åĽ º
Ġad v
Ġis s
èī ¯
er n
Ġb as
å¿ħ é¡»
Ġan other
- d
æĻ ¯
Ġ= >
Ġlar ge
Ġare a
ĠS o
Ġre st
A C
$ x
w are
Ġ ide
ç« Ļ
Ġresult s
Ġnum bers
å¯ Ł
çŁ¥ è¯Ĩ
éĵ ¶
èĭ ±
å· ŀ
æĭ ħ
æĵ į
è¯ ī
Ġmult ip
Ġc aus
t il
ä¸Ģ äºĽ
Ġl ab
Ġ ×
Ġstud ents
è¿Ļ æĺ¯
ä»¥ ä¸ĭ
Ġs ay
Ġind ividual
rib ut
V iew
C ont
è´ Ń
ĠHow ever
Ġkn own
ri es
le ction
f ig
4 8
m an
l ess
Ñ ĭ
æ Ĳ
Ġchild ren
( t
a ction
å£ °
: //
æ³ķ å¾ĭ
m l
Ġle ft
å® ¤
å·¥ ç¨ĭ
n ect
Ġc are
æ± Ł
ot s
æľ Ľ
Ġs ing
ivers ity
in ing
é Ĥ
Ġd ig
Ġar g
il ar
Ġrep ort
è¯ į
F or
A N
ë ĭ
è®¾ å¤ĩ
ne w
i en
éĿ Ĵ
ä¿Ŀ æĬ¤
ĠSt ring
Ġhe ad
Ġb est
Ġme ans
le ase
" :
lo b
éĥ¨ éĹ¨
w ord
$$ ĊĊ
Ġl ight
åĿ ļ
our ces
ri x
i que
al k
Ġchar acter
w ays
åĵ ª
ab les
Ġpro ject
á º
D ata
Ġbu ild
æĹ ©
å½¢ æĪĲ
æľº æŀĦ
clud e
Ġim m
Ġsign ific
Ã Ń
ition al
re f
çİ° åľ¨
è¿ ľ
ĠP h
Ñ Į
ro p
" );Ċ
o ver
def ine
Ġo pen
è½ »
Ġcom b
I T
ä¸ĸ çķĮ
Ġp ath
Ġam ount
s h
S e
Ã ¼
. com
ra w
( f
ur y
Ġph ys
l er
. t
ãĢ Ģ
S o
e ad
Ġh ig
_ P
çı Ń
Ġs it
r id
3 4
å£ «
Ġf ield
Ġgo vern
Ġl ow
Ġ ê
3 1
d i
å¥ ¹
Ġ %
å¿ Ĺ
orm al
å ¨
Ġne xt
éĥ½ æĺ¯
ç¼ ĸ
et ic
åħ³ äºİ
çĶ¨ äºİ
us er
in a
Ġb lood
ĠÐ ¿
s c
çľ ¼
Ġpro b
Ġm ar
ent ion
çł ģ
os ed
Ġm ove
ä½Ĩ æĺ¯
å¼Ģ å§ĭ
åı ¦
åħ· ä½ĵ
çķ ¥
Ġprov ide
3 7
å Ĥ
å¤§ çļĦ
ĠT r
Ġind ic
pr int
Ġs ince
Ġd at
ä¸ ´
**** ****
3 8
Ġpl an
Ġper iod
ç§ĳ åŃ¦
Ġman ag
om s
Ġne g
. f
ĠĠĠĠĠĠĠĠ ĠĠĠĠĠ
ä¸ĵ ä¸ļ
åģ ĩ
åĶ ®
å° Ķ
éĢļ å¸¸
ĠE ng
å¥½ çļĦ
æľī æķĪ
Ġp ur
åħ Ń
æ¦ Ĥ
a pe
åį ĥ
è´ §
åıĳ çİ°
Ġinclud e
iss ion
Ġcor rect
èĥ ŀ
æĻ ®
Ġn et
äº§ çĶŁ
3 9
è´£ ä»»
ere nce
æŀ Ĺ
æĹ ı
ĠW hen
Ġm en
Ġrese arch
V al
æķĻ åŃ¦
0 5
åģ¥ åº·
a pt
Ġb us
æĪĳä»¬ åı¯ä»¥
åı ¥
end ing
Ġab ove
iv ed
ç¡® ä¿Ŀ
ind ow
Ġerr or
è® ²
åİŁ åĽł
åºĶ è¯¥
y d
ä» ĺ
ç¨ ³
Ġb i
Ġla w
ĉĉ ĉĉ
y l
æĻ º
è® Ń
` ,
å®ŀ æĸ½
çĭ ¬
S S
ail able
v ious
angu age
{ Ċ
éĿ¢ ç§¯
åĽ Ń
èĩªå·± çļĦ
ä¸» ä¹ī
olog ical
Ġche ck
èī º
è Ľ
à ¦
d ing
D E
Ġimp ro
O ption
c ing
Ġap pe
ific ation
$ ĊĊ
vers ion
åı ¤
æ ¥
Ġch o
Ġacc ess
Ñģ ÑĤ
ä¹Ł æĺ¯
an ces
çĸ ¾
b ox
æĺ¯ åĲ¦
æĭ ī
un ction
id th
od el
å° ½
Ġp ract
Ġass oci
Ġqu e
é£İ éĻ©
å± ħ
ĠThe se
æī ¹
a ut
ä¸Ń å¿ĥ
ot t
ç Ĩ
9 9
åĿ Ĺ
# define
Ġs chool
å¯ Į
c os
âĢĶ âĢĶ
r m
ent al
** Ċ
## ##
Ġm il
d frac
ac es
} ,
it her
Ġr ate
Ġ< <
ĠS p
our s
Ġ Î
Ġd en
Ġo ld
æĺ Ł
or ies
ä» ĭ
åħ ´
Ġ| Ċ
e red
ic ro
æ¯Ķ è¾ĥ
or n
Ġt akes
ä¿ ĥ
che s
Ġrequ ire
m p
- \
Ġr ange
con t
Ġa ble
Ġdevelop ment
Ġha pp
Ġt imes
é ¸
æĹ¶ åĢĻ
( s
ä¸ª äºº
.ĊĊ Ċ
er ing
Ġinv est
åĿ Ĳ
æĿĲ æĸĻ
çª ģ
ç¼ º
Ġb en
Ġre ce
ç» ľ
Ġsu ccess
ç»Ĩ èĥŀ
in ter
Ġs ocial
è®¤ ä¸º
tt p
éģ ¿
èĮĥ åĽ´
èµĦ æºĲ
é ¼
Ġbet ter
Ġpartic ular
Ġmeas ure
Ġdes crib
N ow
lo ad
l am
Ġs om
Ġ\[ Ċ
Ġcons ider
con st
åĪ¶ åº¦
Ġinte g
Ġ ĊĊ
ĠP l
A B
éĺ ¶
Ã ¤
\ \
Â °
Ġm ov
( n
w w
Ġm aterial
ï¼Ľ Ċ
èĻ ĳ
è· Ŀ
Ġf inal
Ġcomp ut
åŃ¦ æł¡
ãģ ®
> <
çķ Ļ
Ġsp ace
Ġto o
å¤ļ å°ĳ
us h
I C
. âĢĿ
ä½ Ļ
ä¸ ¾
Ġs ide
Ġd ue
Ġpar amet
a f
Ġm ax
Ġse ver
ãĢ Ĳ
ir d
ãĢ ĳ
Ġse qu
, "
Ġris k
æĢ ¥
Ġex ist
Ġ q
ä¹ °
Ġf our
e y
çĸ «
Ġp ress
åĪ© çĶ¨
g a
ur ther
it er
) ;
Ø ª
åºĶ å½ĵ
ĠL et
å®ļ çļĦ
ĠĠĠĠĠĠĠĠĠĠĠĠĠĠĠĠ ĠĠĠĠĠĠĠ
Ġ( -
çĶ ³
ent ly
Ġab s
id s
b l
Ġsignific ant
Ġw ar
H ow
res pon
im ate
ç» §
Ġ ver
æĵį ä½ľ
Ġcomp on
Ġex pect
ĠÐ ²
) (
æľī åħ³
Ġfe w
p or
5 00
Ġen vironment
å¾ Ħ
æĪĲ ä¸º
Ġbel ie
å° Ħ
æ² ³
re m
æ¼ Ķ
ä»¥ ä¸Ĭ
Ġke ep
çŁ Ń
Ġmon th
_ S
- p
aj or
å¸ ®
çº ³
çĶ »
Ġen g
Ġagain st
b ack
éĴ Ī
åıĺ åĮĸ
P I
be gin
Ġs w
äº ²
Ġev ent
in c
A s
oc ument
Ġc reat
Ġo pp
åī Ĥ
æĶ¿ çŃĸ
Ġ" "
Ġres pect
æŃ »
eth ing
th on
å¦Ĥ ä½ķ
å· ¦
Ġg l
ĠE n
Ġex am
s in
å®Į æĪĲ
A n
äº ¬
å¤§ åŃ¦
} }{
åį «
4 4
è¿Ļ ä¸Ģ
id ence
çĦ¶ åĲİ
è¿Ĳ åĬ¨
y t
] [
ç¬¬ ä¸ī
ĠO n
çł ´
oc us
a i
æĪĳ åĽ½
Ġc r
C T
Ñ ĸ
çĽ® æłĩ
a it
Ġv ar
um ber
Ġst ore
Ġc ertain
åį ł
ç¥ ¨
à ®
or der
it or
ç £
ra g
ang le
Ù ĩ
val ue
s ub
un g
ç½ ª
Ġe conom
19 7
. l
_ M
è½ ½
5 5
s erv
åı ³
Ġgener al
éĢ ģ
Ġp red
Ġl and
ç ĺ
in clude
Ġloc al
ou th
ç³ ĸ
ç ĵ
Ġacc ount
Ġen c
Ġli k
æ°´ å¹³
Ġrespon se
Ġc ult
ï¼ī ï¼Į
en e
A l
ap s
Ġdise ase
og n
à¸ ²
Ġin itial
ä¾ §
e ction
ĠS ystem
Ġbre ak
Ġav ailable
Ġsim pl
Ñ ĩ
b ject
Ġsu gg
Ġ â
Ġth ings
Ġpr im
Ġp a
Ġ Âł
ro du
end ed
R O
f er
ĠC ol
Ġim age
Ġh ome
) .ĊĊ
äº§ ä¸ļ
im um
èĦ ĳ
id d
Ġm ill
Ġpot ential
Ġc ustom
ph a
Ġt urn
ç» Ŀ
d ata
c le
A r
og raph
\ ]Ċ
T r
Ġn at
Ġm essage
Ġbeh av
Ġsing le
Ġ âĪ
éª ¨
ä¸Ģ æŃ¥
åı ĭ
Ø ©
Ġsever al
is ed
ab ly
$ ,
ä» ¤
at ors
Ġar ray
Ġc irc
Ġwhe ther
C ol
ay er
åĪĽ æĸ°
åĲ ¬
0 1
Ġc ause
re l
Ġpro m
read y
Ġchang es
ç²¾ ç¥ŀ
Ġp ain
Ġ Â
Ġp arent
ard s
çļĦ åĢ¼
æĸ¹ æ¡Ī
pl ace
Ġl ength
éĵ ģ
$ ãĢĤĊ
ä»· åĢ¼
çº ª
Ġmethod s
éħ Ĵ
er o
ret urn
her s
Ġpos itive
ver age
ç ĩ
om in
b y
Ġf ree
á ĥ
è¡Į ä¸ļ
op h
Ġa ffect
Ġsim ilar
Ġout put
ĠUn iversity
ĠB e
Ġa ir
Ġle ast
åİĨ åı²
op y
äº ¿
Ġtem per
ç´ §
ç½ĳ ç»ľ
o ot
Ġp ut
ÑĢ Ð°
ver se
os p
** :
em ber
å½¢ å¼ı
å ©
èı Į
g o
Ġsom ething
st ring
ĠDes cription
us e
p ublic
Ġcomp lex
æı ı
ail s
Ġsugg est
rr or
U L
Ġm ajor
Ġ id
un e
6 5
Ġreturn s
é Ĩ
ou ble
Ġal ways
èĩª çĦ¶
Ø ¯
B y
" )Ċ
åį ±
par am
and om
b ol
A S
Ġstruct ure
[ i
Ġle g
Ġne cess
Ġv ir
Ġg r
è¯ Ĭ
ra d
ä¹ ĺ
åĩ »
ä¹ ¡
åħ «
Ġf ore
Ġst ates
çī Ī
al ign
itt le
å® ĺ
( self
.s et
å»º ç«ĭ
Ġtyp es
ä¿Ŀ æĮģ
ĠA d
Ġap plication
è¡Į æĶ¿
ul a
æİ ª
er c
Ġincre ase
Ġs ent
ĠA ll
Ġen s
Ġpos ition
Ġsh ort
èĻ ½
u ff
Ġs al
Ġm ot
as ter
_ id
ï¼Į $
åĪĨ åĪ«
Ġadd ress
ffic ient
Ġp ay
Ġrel ations
åĽ½ éĻħ
å±ŀ äºİ
Ġ/ *
n ces
è Ĵ
é¢ ĳ
å¾Ī å¤ļ
åģ ľ
æ ½
Ġ\ \
é ²
4 9
u pp
Ġpoint s
æĿ¥ çļĦ
åĲĪ åĲĮ
åĢ º
erv ice
``` ĊĊ
Ġrequ est
c al
Ġf low
le v
Ġst d
if t
rac k
æĤ ¨
Ġtreat ment
Ġc lear
ĠâĢ ĺ
Ġb ase
çĸ¾ çĹħ
éĶ ®
çŁ¥ éģĵ
an ag
Ġpat ients
åº Ń
one y
Ġd ays
ç»ĵ åĲĪ
l ished
Ðµ Ð½
. j
Ġgovern ment
ut il
ä»£ è¡¨
åŁİ å¸Ĥ
ig ure
Ġfe el
é¥ ®
Ġbec ome
ĠCom m
A D
åį ´
or th
rou ps
ist ic
Ġem ploy
å² ģ
æĿ İ
W h
ur ation
Ġh ard
. e
æ³ ¢
æī§ è¡Į
Ġ& &
is ter
å¾ ħ
at ures
ict ion
" >
è½ ´
æķĻ å¸Ī
ib ility
Ġs qu
æīĢ è¿°
E T
èĢĥ èĻĳ
è¿ĩç¨ĭ ä¸Ń
Ġre view
l ing
Ġlevel s
éĢł æĪĲ
åĮ» éĻ¢
è Ń
Ġcond itions
as ing
åĩı å°ĳ
Ġf alse
z e
ri e
Ġl anguage
# include
äº ļ
ä¹ Ļ
èĤ ī
éķ ĩ
on es
æł ĳ
å¼ķ èµ·
Ġrequ ired
Ġ Ñģ
æĮī çħ§
u f
I m
Ġact iv
6 6
Ġ\( \
éľĢ æ±Ĥ
____ ____
Ġal ready
Ġ- -
æ° §
stit ute
Ġa ge
à¸² à¸
åį ¡
Ġbe gin
lob al
ä»· æł¼
ä¸ļ åĬ¡
get her
Ġwork ing
Ġde g
Ġto gether
ke y
r ist
pe cial
ra ction
éĩ Ĭ
Ġt re
I S
Ġfam ily
æĽ ²
Ġst atic
Ġb ro
ric t
Ġg e
Ġc ur
ar ray
Ġp ort
Ġse lect
å®ĥ ä»¬
3 00
äº Ī
Ġm aking
ï¼ļ âĢľ
Ġbus iness
çŃĶæ¡Ī æĺ¯
Ġc rit
Ġ! =
ar row
_ T
åĬ³ åĬ¨
ĠC an
( m
` :
est ions
Ġhig her
) \
Ġvari ous
çĹĩ çĬ¶
Ġproblem s
b o
D e
Ġus es
A M
ar c
ed i
æıĲ åĩº
Ġgo ing
et a
åľ° åĮº
Ġdeterm ine
I ON
å° ¿
rib ution
ç»¼ åĲĪ
ul es
) )Ċ
7 8
Ġt arget
åĬł å¼º
èĽ ĭ
Ġed uc
ĠU S
è¡¨ çİ°
Ġam ong
Ġanal ysis
è¿ĺ æĺ¯
çĶ¨ æĪ·
) );Ċ
Ġwh y
w h
Ġcont ent
" .
ĠO r
é¦ Ļ
ä¸į æĸŃ
Ġcom e
æĶ¯ æĮģ
Ġsu per
Ġun til
ç¾İ åĽ½
Ġg ive
_ F
Ġm ass
Ġlear n
å¢ŀ éķ¿
åº Ĭ
Ù ģ
ĠA t
t y
ç» ĥ
Ġorig inal
ĠĠĠĠ Ċ
å¼Ģ å±ķ
æĺ ¥
ä¸Ģ æ¬¡
è¿ Ŀ
Ġsystem s
Ġre ason
and s
th ough
ess ion
ĠAmeric an
ĠâĢ Ķ
ç ¯
Ġrec ord
æħ ¢
åĪ° äºĨ
Ġ ur
æĢ§ çļĦ
åº ĵ
Ġprov ided
å°ı æĹ¶
Ġl ater
i ans
å¹³ æĸ¹
ç§¯ æŀģ
ï¼ī Ċ
éĵ¶ è¡Į
{ -
ç¡® å®ļ
ç´ ¢
ab ase
H ere
Ġcon text
Ġw omen
ä¸ĭ åĪĹ
æĢ İ
( c
Ġw rite
it ud
19 6
ic ation
os is
èĥ Į
Ġas k
en ces
éĿŀ å¸¸
åĽł ç´ł
ä¼ ¼
çĿ £
com es
T ext
Ġ ess
Ġan g
éĩĩ çĶ¨
th ing
ä½ĵ çļĦ
Ġf ocus
è®¡ åĪĴ
Ġob serv
Ġfunction s
Ġfact or
Ġe ither
ch an
iv ing
x y
ĠC ont
Ġear ly
èµ Ľ
Ġfact ors
Ġper cent
Ġwe ight
Ġs ens
Ġ ?
Ġdiffere nce
==== ====
Ġ er
u ation
p end
Ð ·
Ġc ases
Ġother s
Ġben ef
èĨ ľ
Ġneed s
Ġl ittle
ç¬¦ åĲĪ
Ġre ally
æ¤ į
çŃ ĳ
Ġl ower
ä¸ ĥ
èŃ ¦
å»º è®®
Ġs ource
Ð¾Ð ²
åĪ ĳ
Ġse c
çĶ ·
' re
ĠÐ ½
ens ion
E n
äºĨ è§£
æİ ¢
åį °
çī Į
çĬ¶ æĢģ
å¼Ģ åıĳ
g es
B ut
çĽ® åīį
éĢ Ĳ
ç¦ ı
al f
uro pe
ill s
æŃ£ å¸¸
Ġmultip le
è´Ł è´£
è¿Ľ ä¸ĢæŃ¥
æĢĿ æĥ³
Ġaut hor
ĠN o
Ã §
èı ľ
ä¸į ä¼ļ
] ;Ċ
å®ļ ä¹ī
Ġhist ory
4 7
äº ĳ
Ġsol ve
Ġcol or
æī ĺ
ut es
_ in
ĠT e
ĠUn ited
( p
ab el
Ġf ull
Ġte am
um n
rib ute
is on
Ġne ar
m m
us ion
or ld
Ã ¶
4 2
æī ©
a im
æķ° çļĦ
Ġro le
} (
Ġneg ative
Ñ ħ
! Ċ
é º
u k
Ġpre vent
ic ult
Ġt able
Ġcomp any
äº «
Ġc y
, âĢĿ
- l
ut ure
æķ £
ak en
åıĬ æĹ¶
è¡¨ è¾¾
èį¯ çī©
Ġspec ial
æķ° åŃĹ
æĿ Ĥ
Ġassoci ated
çĲĨ è®º
æıĲ åįĩ
d a
æİª æĸ½
éĽ ¶
åŃ £
4 6
Ā Ā
1 20
è§ ¦
Ġf requ
è Ĺ
Ġp age
9 5
em pt
. A
ä¸ī è§Ĵ
at ter
éĢ Ģ
Ġmark et
Ġcalcul ate
å½¢ çļĦ
Ã ł
en c
é» ĳ
Ġre d
åĲĪ ä½ľ
b b
Ġcount ry
Ġspec ies
Ġto ol
åĢ į
c m
ç»ı èĲ¥
åī ¯
çī¹ åĪ«
åıį åºĶ
èĤ ¿
Ġsimp le
Ġdisc uss
è§£ æŀĲ
ì Ĺ
Ð ¹
l n
çĬ ¯
iv en
f rom
Ġpol it
E rror
ru ction
Ġal ong
è®¾ ç½®
Ġha ving
E D
u x
v ar
Ġsur face
å® £
0 6
led ge
éĴ Ł
æĺ¯ ä¸Ģä¸ª
al pha
ä¸¥ éĩį
ear ch
s y
ur ity
çī Ļ
Ġse par
** [
Ġcon nect
i res
èĳ Ĺ
U n
ram e
S h
éģ ĩ
. b
m y
Ġg ame
èį ī
o pe
æ¶Ī è´¹
) =
Ġwor ks
ĉĉ ĉ
åħ¨ åĽ½
Ġappro ach
E S
Ġstr ong
Ġsa f
Ġf ail
Ġcour se
iv al
Ġ} ,Ċ
Ġa ction
\ u
8 5
Ġimp act
Ġf ac
Ġlik ely
èİ· å¾Ĺ
æĴ Ń
æ± ½
éĴ ±
å¸ ģ
è½ ¯
] **ĊĊ
çĪ ¶
in ary
e e
é¡ º
ĠP r
Ġf urther
èĤ Ŀ
å¦ Ī
i pp
Ġlear ning
è¯ Ĺ
ac he
he ad
um ents
æ¯ı ä¸ª
O T
at ory
Ġnat ural
_ D
æľ ¨
åħ¨ éĿ¢
Ġl oss
ĠS c
éģ¿ åħį
um p
ä¿ĥ è¿Ľ
åħ ¸
ç¿ »
Ġsub ject
Ġcan not
æķĪ æŀľ
æĸ° çļĦ
There fore
Ġwor ds
Ġb ig
é£ ŀ
å¸® åĬ©
ĠN e
ä»İ èĢĮ
åĨ ²
åĨ ·
() .
A P
C D
_st art
ä» į
æ¶ ī
Ġd one
èĦ ī
åľ° æĸ¹
I M
æ»¡ è¶³
Ġequ al
åĲĦ ç§į
p art
æĪĲ æľ¬
Ġelement s
Ġart icle
æĦ ¿
ar ing
o res
te p
Ġrelations hip
Ġeffect s
åĽ °
éĿ Ļ
Ġf ar
Ġus ually
ç» ¿
ut ions
og le
ä»» ä½ķ
Ġg roups
Ġprote ct
ĠC he
Ġ __
éĢŁ åº¦
æľĢ åĲİ
Ex ception
ic y
åı ¶
é¢Ĩ åŁŁ
Ġacc ording
ä½ĵ ç³»
" ;Ċ
æĸĩ ä»¶
åĤ ¨
çĲĨ è§£
Ġen ough
å½ Ĵ
Ġocc ur
Val ue
Ġs at
ä¿Ŀ è¯ģ
g round
Ġne ver
n a
Ġinst ance
Ġp ack
Ð ¿
æĶ¹ éĿ©
ound s
Ġinde x
ĠM ed
à¸ Ļ
åıª æľī
èĢģ å¸Ī
ĠG o
æ¨¡ å¼ı
ä¼ °
èĻ½ çĦ¶
è¾¾ åĪ°
æĸ¹ åĲĳ
å® ½
çĻ »
è· µ
Ġn ormal
âĢ¦ âĢ¦
æĹ ħ
iel ds
od es
ad a
ç» ©
Ġsequ ence
ĠSt ates
im ent
ç§ĳ æĬĢ
im pl
c ol
ch ie
ä¹ Ŀ
ĠA dd
ly ing
Ġm akes
plic ations
åĸ ľ
ith m
[ '
} )
ä¸į ä»ħ
Ġpop ulation
Ġdis play
id ing
( d
åĢ Ł
éĺ ´
Ġhe art
ĠE urope
.. .Ċ
o ad
g ed
Ġs ays
éĻ Ħ
Ġcor respon
é¾ Ļ
Ġbel ow
Ġh ours
w here
Ġstand ard
15 0
ĠØ§ÙĦ Ø
æĶ¶ åħ¥
Ġval id
æľº åħ³
Ġdef ined
æĭ Ľ
ĠThere fore
}{ \
o pt
æŀ ¶
Ġk ind
Ġcomp let
ĠS ch
Ġpress ure
av es
éĩĳ èŀį
ir m
çļĦ æĥħåĨµ
Ġare as
å¥ Ĺ
Ġprodu ction
ĠB y
g or
Ġexper ience
Ġw ays
åĪ »
. C
Ġdef ault
ne ction
r ont
Ġdiff icult
lo at
O n
é¢Ĩ å¯¼
ĠR et
æĬ¥ åĳĬ
// //
m it
Ġun d
Ġpre vious
çĽ ĺ
ap ter
+ \
{ align
se qu
Ġinf lu
æĮģ ç»Ń
v oid
ç¨ĭ åºı
å» ¶
äº¤ æĺĵ
ëĭ ¤
è°ĥ æķ´
Ġcond ition
æĺİ ç¡®
ĠB rit
qu ad
åĨ³ å®ļ
âĢĿ ãĢĤ
g est
ä¼ł ç»Ł
Ġwor d
it ch
èĻ ļ
ä¸į è¦ģ
Ġind ust
Ġprov ides
Ġ Qu
æĶ¿ æ²»
ĠR ep
çŃ ¾
çĶ³ è¯·
---------------- ----------------
Ġche m
è½ ®
è¿ ½
Ġl ink
è¶ħ è¿ĩ
çĶ ļ
Ġb rain
Ġcontin u
èģ ļ
Ġserv ice
Ġsu re
ain s
Ġact ivity
Ġstep s
Ġ Ä
Ġvari able
è·Ŀ ç¦»
s ide
å¤§ å®¶
èµĦ äº§
U T
Ġsc ient
Ġt ell
ç¬ Ķ
å®¹ æĺĵ
Ġb ir
Ġpropert y
Ġrel ated
Ġpropert ies
ort un
com p
end er
åħ± åĲĮ
ĠĠ Ċ
æ± ī
ç¼ ĵ
è¿Ľ åħ¥
å· ´
è¿ŀ æİ¥
Ġm oney
ĠTh at
è¿Ļ éĩĮ
ä½į ç½®
é ½
Ġexp ress
è¢« åĳĬ
ç¼ ©
å¸ Į
Ġlo ad
il ities
å¥ ĸ
Ġimpro ve
Ġest ab
ä¸ĩ åħĥ
ä¿Ŀ éĻ©
Ġf ri
_ name
æĿ ¾
âĢ ¢
I nd
O bject
å»º çŃĳ
5 6
Ġg raph
ĠA ss
é¡ ¶
or g
R L
æĮĩ å¯¼
çļĦ æĹ¶åĢĻ
G et
å®Į åħ¨
ãģ «
å¤ «
' ,Ċ
åĲİ çļĦ
\ sqrt
ä¸ °
ix ed
Ġa way
Ġ Ùħ
pe c
Ġass um
ë Ĭ
Ġgrow th
Ġqu ant
æķ° éĩı
çī© è´¨
èĭ ı
Ġp ub
T ime
å® Ī
æıı è¿°
Ġdef in
ro id
ç« ŀ
Ġso ft
Ġnet work
æ¶ ¦
m ost
Ġthe ory
Ġev al
19 4
e qu
è¯´ æĺİ
è¯ ĳ
o ff
ç½ Ĺ
}$ Ċ
Ġc al
æ´ Ĺ
åİŁ åĪĻ
æİ Ī
19 5
ä¿Ŀ éļľ
" >Ċ
Ġcreat ing
Ġe y
å® «
æľ Ŀ
St ate
ar th
I I
Ġconst ant
oh n
Ġ ill
Ġd u
æĽ ¾
. _
æĮ ¥
Ġqu estions
æĹ ¢
× Ļ
Ð ³
éĺ¶ æ®µ
èĤ º
æľī çļĦ
Ù Ĥ
éĺ »
åĳ ¢
^{ \
Ġcan cer
éĻ Ī
Ġnecess ary
Ġl ot
che d
Ġd am
å·² çŁ¥
ĠC ent
Ġac ross
èĤ ł
åħ³ éĶ®
Ġr ather
åĩ Ģ
nd er
Ġd r
ist ance
g ing
4 1
0 8
ç² ī
Ġtemper ature
ward s
ac c
is ing
Ġcontain s
| Ċ
. P
iss ue
Ġd est
åħ¬ å¼ı
box ed
å¹³ åı°
éĶĢ åĶ®
Ġ- \
U ser
èĢĮ ä¸Ķ
Ġneed ed
Ð° Ð½
18 0
å®ŀ è·µ
W hen
ic a
b on
h ib
Ġra di
æĦŁ æŁĵ
å¤ ®
i qu
ä¸Ĭ è¿°
Ġhow ever
æľī éĻĲ
åıĤ ä¸İ
æĺ¯ æĮĩ
^{ -
éĩį çĤ¹
èĤ Į
ol l
Ġde cre
à ¥
éģ Ĺ
n ow
Ġob tain
çģ µ
. add
æ¯ Ľ
Âł ĊĊ
Ġbl ock
èµĦ éĩĳ
æķ ĳ
ide red
Ġa chie
le g
åĳ ¼
çļĦ æľĢ
ĠD is
çİ° ä»£
çĻ Į
æĹł æ³ķ
( b
om an
Ġ í
Ġf uture
åį ļ
å ĺ
Ġm icro
e b
Ġj ob
Ġex ec
åģ ¿
æĬ ĺ
Ġ\( -
iz ing
al es
ä»» åĬ¡
Ġst re
r c
pl ied
7 2
ist ics
s um
è´ ·
ore d
èĦ ±
. st
Ù ĥ
æı ¡
Ġph ot
éĻį ä½İ
Ġtra d
çĽ ĸ
Ġme chan
ol ar
æĺ¾ ç¤º
å¹ ¼
å° ģ
åŁ¹ åħ»
Ġb it
de v
m od
Ġder iv
åĲ ¯
our nal
èĥ ĥ
åĿĲ æłĩ
6 8
pecial ly
Ġcons idered
ç« ¥
æīį èĥ½
i ol
pt oms
åº Ĺ
ä¹ĭ ä¸Ģ
l im
ĠO ne
L e
0 2
å¹¶ ä¸Ķ
O P
Ġact ually
Ġwho le
ĠEng lish
i j
æ¬ ¢
Ġadd ition
æŃ£ç¡® çļĦ
Ġa verage
åº §
ç¨³ å®ļ
f ile
h ol
ĠD o
ind ex
. M
è¾ ĳ
ar r
Ġstud ies
cre en
Ġcons um
åī §
A dd
è¿ĺ æľī
U S
æĽ´ å¤ļ
P l
ĠÐ ¸
S et
è¿Ĳ è¡Į
ot al
Ġcon cept
äºº ä»¬
Ġconst ruct
éĵ ¾
re ate
row s
äº¤ éĢļ
æĻ ļ
Ã £
ag s
Ġde ath
ð Ŀ
n et
ĠM e
p ose
_ B
t ml
Ġo ption
Ġd ie
èĪ ª
à¹ Ī
4 3
åĲ Ĺ
ĠM ar
Ġsh own
Ġphys ical
( a
Ø ¨
Ġpr ice
w ise
Ġse arch
ĠS he
a e
åĮº åŁŁ
è ĸ
Ġpass age
æ± ¡
Ð ±
F ile
Ġd ocument
è¯ ¢
Ġse en
is es
Ġcre ated
å¹³ åĿĩ
O M
Ġspe ed
ĠB l
èµ· æĿ¥
Ġdist ance
Ġp ast
le y
Ġinte ger
Ġmanag ement
å¥ ĩ
Ġst op
l ight
() `
Ġpl ant
et er
ĠÐ º
ĠP er
st ance
çŃī äºİ
Ġwe ek
ri or
Ġb ar
Ġpa per
7 7
Ġn ode
Ġyou ng
Ġon ce
Ġconf ig
çĽ´ çº¿
Ġm or
Ġ version
it es
ëĬ Ķ
Ġt ax
× ķ
oc al
ĠI m
ĠÐ ¾
O r
ï¼İ Ċ
err or
æŃ ¦
- g
éĿ ł
æĶ¹ åıĺ
Ġins ide
Ġstr ateg
å·¥ ä¸ļ
Ġfl u
Ġ )Ċ
I P
s el
ign ed
Ġproduct s
Ġan im
å¹´ çļĦ
çĨ Ł
am ent
Ġw on
ort s
ä¹ ³
ĠA f
åĿļ æĮģ
st ruct
Ġcl os
Ġd ru
æĪĲ åĬŁ
èº« ä½ĵ
Ðµ ÑĢ
it ing
le ep
Ġknow ledge
Ġun ique
èĤ ¾
m on
qu est
ç¨ĭ åº¦
8 8
ĠG e
è· Ł
Ġpart s
Ġcomp lete
Ġpos s
Ġd ire
\ (
ra p
æ· ·
åĮ» çĸĹ
Ġincre ased
in ally
ä¸įåĲĮ çļĦ
ìĿ ´
ĠW ith
ĠG od
ç±» åŀĭ
Ġdoes n
- in
ç©º éĹ´
itud e
è¡ ¡
éļı çĿĢ
Ġits elf
è§Ħ èĮĥ
åĪ º
S ub
ĠCh rist
èħ ¹
Ġr andom
ç¡ ¬
çļĦ éĩįè¦ģ
\ left
Ġth ird
m b
sy ch
Ġ ÙĪ
çĶŁ çī©
t ype
æĺİ æĺ¾
tt ps
Ġens ure
Ġan n
he mat
Ġbehav ior
Ġs ides
il es
oci ety
ĠP ar
è ĵ
_ h
i ver
Ġf all
- h
å¿ĥ çĲĨ
ĠS ci
il t
Ġgre ater
Ġmill ion
æĿ¥ è¯´
F irst
op er
ĠCom p
âĢĿ ,
Ġm ind
H e
Ġde b
ĠS ome
éĩı çļĦ
Ġd ouble
Ġc le
. D
M L
æ¹ ¿
åł Ĥ
4 00
}$ ï¼Į
Ġor g
ä¹ĭ åĲİ
åĬ ±
éĺ ħ
æ³ķ éĻ¢
0 9
æľº åĪ¶
èħ º
t est
Ġser ies
ide o
_ end
å¾ ª
Ġst atus
ä¹ĭéĹ´ çļĦ
éĺ ¿
K ey
' :
{ {
Ġcomm and
éĢ ı
æĬ ½
Ġobject s
Ġro ot
æĹ¶ ä»£
( $
ĠI D
res h
' ]
è® ¢
Ġm agn
Ġre comm
Ġcon vert
Ġd om
I G
ä¾ĭ å¦Ĥ
p ace
ä¹ ħ
pp er
à¸ Ń
Ġdiv is
ĠA b
am ed
Ġe p
Ġcon cer
Ġd ri
Ġmat rix
Ġcol l
Ġo p
} =
Ġreg ion
ç»ı è¿ĩ
un c
Ġc ou
ĠG erm
Ġdat abase
- w
åĮĹ äº¬
Ġ$ (
yn am
Ġent ire
Ġd ate
er al
Ġt itle
éķ¿ æľŁ
Ø ¹
çĽ® çļĦ
Ġmain tain
ä¸Ń åįİ
åŁ¹ è®Ń
$ .
_{ \
æ¸ Ĳ
b ar
æĦı ä¹ī
å®¶ åºŃ
çĶļ èĩ³
åıĤ åĬł
p x
ãĤ ĭ
é£Ł çī©
Ġr at
ce ed
æķ° æĺ¯
" )
å® ľ
äºĨ ä¸Ģ
Ġme et
Ġmem ory
Ġcount ries
ord in
å§Ķ åĳĺ
ç»§ ç»Ń
Ġperform ance
åİ Ĥ
Ġfor ce
æ¯Ķ ä¾ĭ
Ġpartic ip
Ġg ot
åĿ ı
Ġmin utes
Ġex act
æ» ĳ
It em
Ġcompon ent
Ġdirect ly
åĪ ¸
a o
ic les
ac y
æ£Ģ æµĭ
å®¢ æĪ·
A nd
Ġm ap
æĪ ı
ers on
ï ½
Ġint rodu
/ s
åį ĸ
ĊĊ ĊĊ
Ġch all
Ġac cept
Ġmem bers
Ġc ity
æ°ĳ æĹı
åį« çĶŁ
ch ar
( (
åħħ åĪĨ
åİĭ åĬĽ
âĳ ł
ç¯ ĩ
çĶµ åŃĲ
Ġform ula
Ġunderstand ing
Ġun it
éĴ ¢
Ġide a
Ġshow s
é ±
Ġnum er
Ġa x
S U
ĠC ar
tern al
æ± ĩ
æİ¨ åĬ¨
åĩº çļĦ
ip s
æ¹ ĸ
ä¸į å¾Ĺ
åİ ĺ
è° Ī
5 8
E M
m ber
æľŁ éĹ´
ç»Ħ æĪĲ
Ġt aken
[ ]
Ġes pecially
i et
Ġqu ality
an ced
Y our
Ġh alf
L O
ac ed
ro s
çŃī å¼ı
Ø ³
æī¾ åĪ°
r ide
ä¼ļ è®®
Ġsym ptoms
W ith
x im
Ġdev ice
çĽĳ çĿ£
åĮ» çĶŁ
Ġ| |
çļĦ å¤§
I s
Ġrec ogn
n o
Ġ- >
Ġhe ight
æĦı è¯Ĩ
C C
b re
Ġev idence
sel ves
é± ¼
Ġt w
ic ial
Ġcl aim
ful ly
çĩ ĥ
æĺ¯ åľ¨
Ġatt ack
it ation
idd le
5 9
19 3
s up
Ġsqu are
Ġh ol
Ġb ound
ê ³
ĠĠĠĠĠĠĠĠ ĠĠĠĠ
å ³
èīº æľ¯
Ġallow s
éĿ¢ çļĦ
ĠA rt
å®ŀ éªĮ
âĳ ¡
Ġd im
Ġiss ues
omet imes
Ġs ense
ç½ ļ
val id
ĠS ub
s k
. w
p re
ne y
ĠM ay
a ff
Ġthough t
P E
çī¹ çĤ¹
anag er
çĽ¸ åĲĮ
Ġs ite
èģĮ ä¸ļ
å¯¹ è±¡
Ġth ing
Ñ Ĩ
ĠÃ Ĺ
åŃ ķ
ure d
èĦ Ĥ
è´ ¦
Ġeng ine
itt ed
æİ Į
Ġhand le
on str
äºĭ ä»¶
a ctions
Ġopt ions
Ġet c
åı¯èĥ½ ä¼ļ
O ver
ove red
åıĸ å¾Ĺ
¤ Ĳ
Ġh ouse
åģ ı
à¸ £
Ġb al
0 3
7 6
li ke
min ist
æŃ Į
ut h
\ end
è§Ħ åĪĴ
iz es
= '
Ġmonth s
Ġav oid
Ġm ach
Ġh y
Ġg lobal
åİĺ ç±³
èĮ ¶
u it
æ±½ è½¦
çĥ Ł
Ġt er
pl ate
B e
åĲĪ çĲĨ
cre t
çļĦ éĹ®é¢ĺ
Ġcommun ity
éķ¿ åº¦
in o
yd ro
ast ic
L et
Ġm ole
Å Ł
Ġst at
Ġal gor
ä»ĸ çļĦ
åŁº éĩĳ
Ġto day
ä»£ åħ¥
Ġequ ations
Ġres ources
ĠS ince
m et
$ a
ĠĠĠĠĠĠĠĠĠĠĠĠĠĠĠĠ ĠĠĠĠĠĠĠĠĠĠĠ
åĪĨ éĴŁ
Ġg round
Ġtechn ology
ad o
Ġg as
il i
ä¸Ń å¤®
æİ¨ è¿Ľ
am s
è´¹ çĶ¨
Ġparamet ers
Ġc ateg
è¾ Ĩ
ĉ if
S ervice
res ents
æº ¶
he l
é© ¶
Ġpre c
In fo
Ġbl ack
\ frac
Ġimplement ation
è® ¨
Ġreg ard
çĺ ¤
Ġess ential
Ġb r
âĢ ĺ
æĪĲ ç«ĭ
$ (
Ġcl ose
åıĹ åĪ°
ä½ł çļĦ
el ta
A G
èĹ ı
c ular
æĢİ ä¹Ī
æ¯Ķ å¦Ĥ
p m
ä»£ çłģ
roll er
ĠP ol
æ¥ ¼
çĽ¸ å¯¹
{ x
Ġn ames
Ġserv ices
ra ft
ill ed
æĸ Ĺ
Ġf ive
Ġmod els
çĮ ®
Ġde cl
å¥ ¶
< answer
è¯ģ æĺİ
çī Ľ
19 2
Ġcol lect
ç© ¿
ä¸Ģ æł·
alcul ate
P ar
Ġiss ue
Ġev ents
Ã£ o
art ment
| |
é¡ ¾
t ings
èĭ ¦
Ġc ut
0 4
è°ĥ æŁ¥
Ġab ility
oun ter
Ġhapp en
Ġit em
os ition
å¼ ±
Ġ: =
ĠA fter
Ġin j
y thon
() );Ċ
é ī
Ġse ction
C H
Ġsimp ly
èĦ ı
ç®Ģ åįķ
äºĭ æķħ
çī¹ å¾ģ
æĿ Ł
ot es
Ġst yle
é¢ĺ çĽ®
her n
p oint
è° ¢
ĠM y
ç» į
un t
P h
Ġrem ov
å¦ ĩ
N ext
l or
åħĥ ç´ł
Ġform at
s ing
Ġex c
æł¸ å¿ĥ
ol ve
à¹ Ģ
N o
7 9
b da
m ing
æĸ½ å·¥
çĶŁ æĢģ
ä¸į åı¯
ĠA ct
æīĭ æľ¯
åĪ¤ æĸŃ
Ġadd ed
ĠSt ud
k en
Ġtask ed
Ġve ctor
p le
## #
åĨħ éĥ¨
ay out
ĠW ar
Ġcons ist
ç´ ¯
ĠThe n
Ġinst ead
c irc
æĺ ł
= {
ĠW orld
Ġdem onstr
st ract
the ta
éĩĩ åıĸ
ĠWh ich
r ate
% ï¼Į
Ġad j
Ġpat ient
ä¸Ģ èµ·
' (
Ġwrit ten
åħ °
-b ased
F F
al ing
èĤ ¤
Ġderiv ative
" ĊĊ
åĽº å®ļ
_d ata
p ir
- st
åĢ Ĵ
is f
åŃ Ķ
in it
åħ¨ çĲĥ
ç ¦ģ
éī ´
Ġrep resents
ãģ Ł
Ġh om
$ y
çĶŁ åĳ½
u i
Ġc ard
ult s
r s
b ook
ens ity
Ġprim ary
ä¼ ĳ
en n
ä¼ ´
ell ing
Ġgiv es
ç»ı éªĮ
F orm
Ġqu ick
ĠĠĠĠĠĠĠĠĠĠĠĠĠĠĠĠ Ġ
ĠN ational
Ġ"" "Ċ
d o
æľ «
Ġe ff
çİ° è±¡
, \
Ġident ify
o ber
æ´ ¾
ä¸Ģ å¹´
Ġmat ter
ĠL ist
Ġredu ce
l s
æ¸© åº¦
pt y
Ġexpl ain
A ll
æķ° åŃ¦
ĠÄ ĳ
Ġt aking
ĠA pp
æĢ Ģ
Ġcent ury
b ra
å° ¤
Ġh yp
é Ń
ra py
è® ¿
æĽ´ åĬł
inc ip
æĪĳä»¬ éľĢè¦ģ
an a
Ġeduc ation
éľ ²
ĠY our
ĠÐ ´
ĠAf ric
I V
il s
Ġ* Ċ
O S
éĽ ¨
Ġp ie
c ode
Ġdist ribution
Ġass ess
æľ ĭ
am in
o in
ä¸ĭ æĿ¥
p ri
å¹ ħ
Ġdevelop ed
an cial
Ġra d
Ġm om
Ġprodu ce
æ¸ ¯
å¤ ľ
Ġmult i
ĠG u
Ð° Ð»
Ġcomput er
I nt
ĠE arth
in put
Ġup on
èĽĭ çĻ½
çĸ ĳ
b it
l ist
çĥ §
æ¬ §
å¢ŀ å¼º
oc ation
æĦı åĳ³
UL L
à¸ ģ
Ġser ver
ãģ Ħ
Ð¾ ÑĢ
éļ Ĳ
U N
ur ch
Ġexpect ed
right arrow
Ġreg ular
t ool
' ve
æģ ¶
ä¸ª æľĪ
Ġpro per
u el
ç¥ŀ ç»ı
Ġn ature
ĠP M
Ġfil es
æ± ł
Ġwh ite
Ġindividual s
Ġperson al
æĪĳ çļĦ
' m
9 6
ï¼ī ãĢĤĊ
Ñ Ī
9 8
Ġinde pend
è´ «
çļĦ åıĳå±ķ
ram ew
æķ ı
] ,Ċ
Ð¾Ð »
ri ed
Ġeffect ive
f ect
ar ily
ãģ ¨
Ġdep end
æ´ ²
Ġtra ining
åķĨ åĵģ
i h
æĶ¯ ä»ĺ
Ġc ross
Ġus ers
ä½ľ ä¸ļ
æŀĦ æĪĲ
æĥ ¯
å½ ©
ìĹ Ĳ
å® ģ
ĠIn tern
Ã ª
åį ·
sp an
Ġst ress
Ġpred ict
ï¼ģ Ċ
Ġdi agn
åı «
' ll
Ġy et
èĢĥ è¯ķ
ĠĠĠĠĠĠĠĠ ĠĠ
l ock
Ġlim it
Ð¾Ð ´
åĪ ĺ
A d
Ġmed ical
Ġest im
ag ing
ach ing
éļ Ķ
è§Ĥ å¯Ł
m ission
åĨħ çļĦ
Ġfe atures
se c
è Ķ
å®ĥ çļĦ
çĿ ¡
Ġvari ables
ï¼Į âĢľ
æİ¥ åıĹ
} _{
C R
ch ange
ott om
ac hes
Ġl ines
Ġl ive
Ġcom es
ãĤ Ĵ
au gh
à¹ ī
å°± ä¼ļ
éĴĪ å¯¹
Ġs am
Ġh ost
Ġs em
éĢ Ĵ
le q
åĪ ļ
ve re
Ġappe ar
åħ¬ åħ±
æĻº èĥ½
ar ies
' Ċ
æĢ§ åĴĮ
Ġpolit ical
Ġst ory
éĹ Ń
ĠI nt
T est
å¸Į æľĽ
ç¢ ³
_ w
Ġun its
Ġinclud es
Ġcomp et
é² ľ
N ode
C E
` .
×ķ ×
ĉ return
Ġdet ect
è®¸ å¤ļ
Cl ass
Ġcon cent
Ġp air
st er
ä¹ İ
çº ¸
ul ate
Ġ Ï
Ġincre asing
u ild
Ġre v
åĨľ ä¸ļ
çĽ Ĳ
ul ations
Ġadd itional
é¦ Ĩ
æĪĳä»¬ çļĦ
ìĿ Ħ
Ġfe ed
ole an
è§Ħ æ¨¡
con fig
******** ********
Ġdo ing
Ġbe comes
b f
å®Ŀ å®Ŀ
R ef
- y
Ġeconom ic
ann el
Ġd a
Ġsub t
L og
Ġfollow s
å¦Ĥ ä¸ĭ
Ġcont act
èĦ ļ
é ¤Ĳ
\ ),
å© ļ
or ks
op s
æ² Ļ
Ġhe at
æĺ¯ ä¸Ģ
Î ±
æĭ Ł
Ã ¨
pl it
Ġt alk
Ġh old
çĶ °
åĬ ª
Ġ à¤
åĲĮ åŃ¦
Ġ ir
æ¯ ķ
Ġz ero
ĠV al
> ĊĊ
å¿ħ è¦ģ
ĠRe g
Ġbas ic
Ġprote in
u ck
Ġup date
_ g
Ġbec ame
Ġw idth
Ġj ava
Ġex erc
ç§ Ģ
s es
.... ....
æľĭ åıĭ
Ġref er
è´ µ
Ġpr ime
ac hed
l ation
å® Ĺ
æĦıåĳ³ çĿĢ
0 7
ĠH ere
C O
Ð¾Ð ¼
è®¤ è¯Ĩ
ĠA m
Ġbu y
å¼ ¹
æĺ¯ ä¸Ģç§į
ĠTr ans
èĥ ľ
Ġa ud
ĠM at
æĢ§ è´¨
Ġwe b
Ġs ort
å¨ ģ
so le
Ġpract ice
è¶ £
ãģ Ĺ
ĠD ef
Ġn uc
è ľ
Ġactiv ities
ä»ĭ ç»į
Ġs n
N ote
é¾ Ħ
éĺ² æŃ¢
æĭ ¥
ig ation
ĠA cc
Ġ Ã©
Ġac id
ï¼ļ $
Ġn ational
è¯Ń è¨Ģ
åĨ Į
åºĶ çļĦ
ç§ Ł
> </
éķ ľ
æĿ Ĩ
ĠE d
Ġsoft ware
Ġs ample
Ġbuild ing
Ġstud ent
Ġlong er
ÂłÂłÂłÂł ÂłÂłÂłÂł
d is
Ġsk in
Ġ+ =
ic on
Ġcomp ared
Ġ( !
or age
è¯¾ ç¨ĭ
B C
pon ent
ä¾ µ
åĩĨ ç¡®
er a
5 7
ĠP art
. [
ç«ŀ äºī
Ġmean ing
at al
ok en
it em
o ch
Ġli br
Âł Ċ
íķ ĺ
ãģ ¯
ism s
ä¸´ åºĬ
åħ³ æ³¨
[ "
ç¿» è¯ĳ
ĠA p
ar g
ĠD ep
åĽ½ åĨħ
Ġh ab
æĭ ¿
st e
ĠJ ohn
Ġb ring
Ġcon duct
åĦ¿ ç«¥
æĦı è§ģ
$$ \
ä¸ĭ éĻį
è¿ Ķ
Ġatt empt
Ġprob ability
c ome
Ġf em
ä½ľ åĵģ
A t
ww w
Ġal most
d f
Ġdig it
or ing
E vent
iv il
Ġdescrib ed
g n
\ pi
Ġpl ants
Ġeval u
ç¾¤ ä¼Ĺ
Ġb ox
Ġs un
ç»Ł ä¸Ģ
Ġ ri
ä¸ Ŀ
æ° ¸
5 2
å¸¸ è§ģ
æ® Ĭ
. x
S c
Re ad
èµĦ æľ¬
ãĢĤâĢĿ Ċ
Ġexper ien
Ġmat ch
è¡ £
å ª
æĪĺ çķ¥
row n
ens ive
Re quest
å¡ «
ç§ ģ
å®Į åĸĦ
è¯Ħ ä»·
at ively
éĢ Ķ
Ġtra vel
EN T
Ġa ff
ft y
in ks
å° ļ
ä» ª
Ġsc ience
Û Į
Ġr ule
lic k
æķĪ çİĩ
ramew ork
i ke
Ġcorrespon ding
ç® ±
Ġinst all
ĠM on
o on
Ġmax imum
æ¶ī åıĬ
âĳ ¢
Ġs low
ul y
×Ļ ×
ä½¿ å¾Ĺ
Ġse x
Ñ İ
Ġeas y
Ġl iter
Ġp ick
åĬª åĬĽ
ãģ ¦
5 4
èħ Ķ
Ġlook ing
åĮĸ çļĦ
m ar
if ier
ä¸Ĭ æµ·
$ï¼Į $
ab or
è®° å½ķ
åľŁ åľ°
Ġd raw
ou d
he t
åĩĨ å¤ĩ
Ġc ame
19 1
I L
r im
å¹¶ ä¸į
Ġpro pos
éĩį å¤§
F rom
Ġm ut
Ġcaus es
ĠN one
Ġem b
Ġthem selves
å®ī è£ħ
ron ic
D es
av ing
Ġrel ig
å¹¼ åĦ¿
Ġ ^
æľª æĿ¥
Ġmod ern
z a
Ġsome one
ri al
è®¾ æĸ½
Ġ il
åĨľ æĿĳ
er ve
æĬ ĵ
ĠG ener
Ġn ut
Ġl es
8 00
çĦ ¦
Ġar ch
çģ ¯
äº ¡
{ d
Ġse em
Ġchem ical
es e
c ks
g ar
an ks
N ew
ä¸° å¯Į
Ġp an
èĩª åĬ¨
äº¤ æµģ
10 1
h a
Q L
ä¾Ŀ æ³ķ
Ġabs ol
æµĭ è¯ķ
åĪ¶ éĢł
Ġp rior
IN G
Ġst e
Ġ\) :Ċ
in fty
r ast
ĠSt ate
åĮħ åĲ«
H E
ç¼ ĺ
æ´ ģ
k n
èĩª èº«
Ġparamet er
çĥ Ī
å¸ Ŀ
Ġ\\ Ċ
Ġit ems
å¯ Ĵ
ĠG et
Ġanim als
åĪĨ åŃĲ
èĤ ¥
èµĦ æĸĻ
çŁ ¿
ä¿¡ åı·
P S
Ġs us
act ive
ĠC al
Ġcaus ed
ĠP e
$ f
ac ity
é¼ ĵ
Ġl iving
Ġup d
ç»´ æĬ¤
åıĳå±ķ çļĦ
å¡ ŀ
av or
d om
é£Ł åĵģ
ĠN ot
äº¿ åħĥ
åģļ å¥½
Ġc red
Ġe ver
} +
çľĭ åĪ°
al t
æĳ Ħ
ter m
ĠS et
èĲ¥ åħ»
ĠÐ½ Ð°
éĢ »
] (
ed ia
Ġh or
å± ĭ
. n
Ġf ace
æ· »
âĢĿ Ċ
åŁº äºİ
Ġw indow
Ġrequ ires
çĹħ æ¯Ĵ
( i
ĠF r
åĪĨ ä¸º
çģ ¾
Ġs ix
Tr ans
Ġinter face
Ġinvol ved
cre ate
Ġdiffere nces
Ġwrit ing
Ġcontin ue
Ġvol ume
re ed
èĢ ³
æ¯ı å¤©
N ot
Ī ëĭ¤
\ n
6 00
æĹ¶ æľŁ
å¤ ı
Ġth us
Ġlar ger
cl es
äºº ç±»
Ġm ention
å± Ĭ
ãģ §
åĪ© çĽĬ
ä¸ī ä¸ª
è ¦
Ind ex
Ġaut om
ä¸ĭ çļĦ
{ array
ãĥ ¼
at ives
Ġstate ment
Ġright s
å·¦ åı³
çİ ©
çŁ ©
M ap
æľĢ å¤§
Ġprob ably
hes is
D ate
ìĿ ĺ
Ġon line
äº ®
at form
åİ ļ
çļĦ äºĭ
Ġsh are
ê °
Ġm iss
Ġpro ced
åħ µ
æ² ī
Ar ray
ĠA ng
oc ks
ĠC o
$ ãĢĤĊĊ
Ġcompon ents
.. /
Ġform s
ĠC or
Ġto ok
\ right
Ġì ŀ
çļĦ ä¸»è¦ģ
Ġread ing
åĮĸ åŃ¦
Ġprof ess
à¸ ±
ç¤ ¼
' )
ĠA g
ì ł
() ;ĊĊ
Ġs on
h ing
ì Ħ
ch o
à¸ ĩ
Ġout side
Ġass ert
u ed
Ġ\ ),
u ra
Ġsc he
Ġl ayer
M anager
é¢Ħ éĺ²
ĠÃ ł
ĠN ow
åĪ¶ å®ļ
äºº æīį
éĺħ è¯»
Ġcon nection
Ġte ac
Ġcent er
ĠHe alth
Ġinter n
Ġdire ction
åĳĺ å·¥
Ġf raction
Ġrese arc
5 1
æĶ »
ail y
Ġsimpl ify
è´ ´
pon se
Ġs leep
P ath
5 3
ĠĠĠĠĠĠĠĠĠĠĠĠĠĠĠĠĠĠĠĠĠĠĠĠĠĠĠĠĠĠĠĠĠĠĠĠĠĠĠĠĠĠĠĠĠĠĠĠĠĠĠĠĠĠĠĠĠĠĠĠĠĠĠĠ ĠĠĠĠĠĠĠĠĠĠĠĠĠĠĠĠĠĠĠĠĠĠĠĠĠĠĠĠĠĠĠĠĠĠĠĠĠĠĠĠĠĠĠĠĠĠĠĠĠĠĠĠĠĠĠĠĠĠĠĠĠĠĠĠ
ub e
åĳ Ī
! ĊĊ
Ġtest s
i ation
æĬ µ
6 9
Ġarg ument
( l
Ġget ting
ĠØ ¨
tr ans
Ġact ive
Ġ ...
Ġloc ation
oc ol
m ary
ç¤¾ä¼ļ ä¸»ä¹ī
Ġpol icy
6 7
it ary
Ġt rack
Ġ ÑĤ
çĭ¬ ç«ĭ
g ram
Ġbelie ve
æĸ ľ
Ġcl ient
ur l
è ¸
ç»¼ ä¸Ĭ
åŃ¦ éĻ¢
åĨ ł
( e
Ġf ields
Ġmus ic
yp es
éĢ» è¾ĳ
Ġb ill
O ut
ĠA ust
èģĶ ç³»
Ġt ree
æī¿ æĭħ
è´ ¸
pl ies
Ġopp ortun
çļĦ å½±åĵį
$ -
ä¹ł æĥ¯
é«ĺ åº¦
Ġc amp
ack age
å®¶ éķ¿
O L
ĠY ork
i ber
. org
. app
ç§ ĭ
ig en
ap an
ä½ĵ çİ°
og en
å² Ĺ
å·¥ åħ·
Ġlead ing
æķ´ ä¸ª
ail ed
Ġdef ine
è ª
Ġappro xim
a res
w ers
èħ °
O f
æµ ĵ
Ġgener ally
ight s
ĠD ata
ç ĳ
Ġo il
ç¬¬ åĽĽ
19 0
è¾ ħ
éº »
çī¹ èī²
Ġoper ation
ç² Ĵ
Ġv ia
ĠS outh
çī¹ æ®Ĭ
ren ch
impl ify
ab et
æ ĩ
éĹ »
åıĳ æĮ¥
r ong
E lement
il ter
( int
ĠCh ina
ĠN orth
æ¨¡ åŀĭ
ÑĢ Ðµ
Ġpr incip
() ,
ig ma
å· ¨
ä½ ³
Ġcar bon
æ³ Ľ
an c
Ġmaterial s
Ġstre ng
Con text
ist ry
æ¦Ĥ çİĩ
ĠM in
çĬ¯ ç½ª
Ġcontain ing
çĸ ¼
Ġ row
ĠT est
Ð¾Ð ³
éģ µ
ĠM ore
Ġse ems
r ated
é¡ µ
å§Ķåĳĺ ä¼ļ
à ¯
Ġfun d
Ġcle an
è± Ĩ
ä¸į è¶³
Ġsur v
% ,
Ġr ound
çļ® èĤ¤
ĠJ an
W rite
E m
' )Ċ
Ĩ Ĵ
A b
Ġset s
ore m
ĠÂł ĠÂł
Ġb acter
Ġact ual
ç ¹
Ġf ire
æ² Ł
Ġanal y
i ency
} }\
Ġl ove
æĽ ¿
åģĩ è®¾
åĩ Ŀ
Ġpop ular
ç§° ä¸º
Ġthere fore
Ġfin ancial
æŁ ±
Ġsk ills
ä½ Ľ
Ġsu ff
Ġl ack
ec ause
Ġmem ber
çĦ¶ èĢĮ
ograph y
Ġsec urity
Ġappro pri
f l
ä¹ ±
Ġun s
in ical
Ġrec ent
Ġc e
åĪĨ å¸ĥ
Ġinclud ed
pert y
Ġf ul
äºĮ æ¬¡
rac y
çļĦ æĸ¹æ³ķ
Ġ ;
æģ ¢
I F
Ġspec ified
ve y
Ġdi et
é¸ ¡
ç§» åĬ¨
Ġprocess es
æľīéĻĲ åħ¬åı¸
èĥ İ
Ġdesign ed
Ġsmall er
ä¾Ŀ æį®
us ing
è¯ ¦
N umber
E nt
åķĨ ä¸ļ
l a
Ġal tern
R ep
Ġs ources
Ġhist or
6 3
æ´ ĭ
ĠF irst
Ġde ep
æĶ¹ åĸĦ
Ñģ Ðº
T P
h o
part ial
åĪĽ éĢł
b ut
ä¸ĵ å®¶
um b
Con fig
å° ¼
Ġs ound
é© ¾
è¶ ĭ
ve c
1 10
ðĿ ĳ
m ap
è´ ¥
çİ° åľº
ĠAmeric a
Ġapp ly
iqu es
im age
è¯Ħ ä¼°
æ°§ åĮĸ
éĥ½ æľī
Ġprodu ced
Ġpat tern
ĠâĪ Ĵ
æĹ¥ æľ¬
è£ Ĥ
G o
O ne
Ġ( (
ĠI N
ĠRe view
Ġlar gest
Ġl ed
ĠP re
èĪ ¹
Ġsign al
æ¢ ¦
éģ į
Ġremain der
y a
Ġse g
âĢĿ ãĢĤĊ
M essage
Ġb ad
ul ated
ol es
æľĢ ç»Ī
Ġcomp an
è£ ģ
åĬŀ æ³ķ
F ield
Ġ( )
è§£ éĩĬ
à ½
Ġline ar
æĿĥ åĪ©
Ġmed ia
èĥ½ æºĲ
l in
D ef
Ġmove ment
ãĢĭ ï¼Į
â ĸ
Ð½ Ð¸
at o
é«ĺ çļĦ
C M
h ttp
- S
ä¹ĭ åīį
å± ¥
. print
Ġp sych
è¡ Ĺ
ä¹Ł æľī
à¹Ģ à¸
( A
è¿Ļæł· çļĦ
ä¸» ä»»
Ġt im
C P
er ver
éĩįè¦ģ çļĦ
å°¤ åħ¶
æģ¢ å¤į
ĠÐ ¼
w ith
Ġs creen
æ¡ ¥
os it
åª Ĵ
Ġtyp ically
( String
en u
Ð° ÑĤ
èĢħ çļĦ
Im age
user name
åħ¨ éĥ¨
o o
Ġmed ic
) ^{
py thon
_ H
Ġtrans form
çĤ¹ çļĦ
Ġlab el
Ġmom ent
ãģ Į
Ġp ict
Ġrequire ments
Ġw all
Ġf ront
p id
ĠWh ile
Ġhel ps
Ġh ydro
ot ic
ë ¡
f unction
ad es
Ġcent ral
ere nces
Ġs ometimes
å¤§ äºİ
++ ++
v is
åĵģ çīĮ
n ed
Ġex cept
é¥® é£Ł
_ V
ä¸Ģ çĽ´
åıĳ å¸ĥ
> >
st atic
in ct
ä½į äºİ
Ġhe av
Ġcol le
æĪĲ ç»©
) /
åĩº äºĨ
Ġcult ure
Ġcol umn
Ġro t
èĲ½ å®ŀ
Ġin it
Ġ} );Ċ
æĿ Ģ
Ġpur pose
å½ĵ åīį
Ġuse ful
çļĦ æĹ¶éĹ´
èį £
Ġcost s
Ðµ Ð»
Ġsc ale
Ġgre en
Ġsat isf
S ize
åħ¶ å®ŀ
Ġindust ry
Ġsh ape
Ġimm edi
an cy
}$ ãĢĤĊ
al le
è¡Į åĬ¨
Ġad minist
æī £
Ġwe bs
Ġalgor ithm
ç¹ ģ
ä¸Ģ ä¸ĭ
Ġg ain
#### ####
Ġoper ations
ĠE m
æĪ ª
/ m
act ers
lam bda
Ġinter p
S tep
p ath
éĿ© åĳ½
el t
Ġbook s
Ġden omin
èĥ ¶
ĠD r
Ġc m
Ġmod ule
å¤į æĿĤ
å¿« éĢŁ
che ck
è£ħ ç½®
å¯ »
éĽĨ ä¸Ń
ì ŀ
ä¸ ½
on al
åįı è®®
_ R
éĻĲ åĪ¶
_ r
Ġan c
Ġro om
am a
èĩª çĶ±
. B
ì §
Ġpub lished
Ġdiv ided
Ġim ages
åį Ī
_ i
æĮ ¯
æ¡ £
- M
å ´
ic o
æ¢ °
çİ ī
Ġdiv ision
} ,Ċ
E d
Ġstart ed
Ġs ociety
^ \
ä¸º ä¸»
Ġcomp ar
Ġb all
. T
Ġ );Ċ
ĠM an
åĸ Ŀ
U p
Ġf it
Ġgo al
en ing
ä¹Ł ä¸į
Ġr ules
M odel
ä¹ ı
as ks
O D
s l
åĳ¼ åĲ¸
ĠU se
es tern
U R
Ġdet ails
Ðµ ÑĤ
á Ģ
Ġdam age
Ġv iol
åıĬ åħ¶
om ial
Ġsit uation
Ð ¶
å° Ĭ
D is
æĻ® éĢļ
Ġtest ing
ĠN ULL
er ation
math bb
Ġvir t
Ġqu ite
Ġ vers
ĠE l
he st
åĲ §
Ġret rie
yn c
Ġfe ature
ãĢģ âĢľ
ĠC alculate
Ġar r
Ġachie ve
ad em
ur b
ä¼ļ è®¡
Ġtry ing
i os
Ġag o
ä¼ĺ åĬ¿
Ġsol utions
iction ary
æĹ §
ĠBrit ish
éĻ¤ äºĨ
. ex
ĠRet urn
e es
ä¸¥ æł¼
è§Ĵ åº¦
Ġback ground
ç³» åĪĹ
è¢«åĳĬ äºº
E X
i i
E L
ab led
Ġreport ed
æĹħ æ¸¸
Ġd ynam
ç»Ł è®¡
Ġdes cription
Ġparticular ly
ĠI I
Ġo s
Ġn amed
ĠC ons
Ġrece ived
e ks
Ġbu ilt
_t ype
en ame
å¼Ģ æĶ¾
k a
is ions
Ġco ver
Ġc apt
ous ly
èģĶ åĲĪ
Ġre pe
____ __
çĪ¶ æ¯į
Ġv ideo
ib r
Ġ um
æ½ ľ
ct ors
Ġn ight
å· Ŀ
. The
ä¸īè§Ĵ å½¢
re es
æ² ¿
è´Ń ä¹°
Ġ( Ċ
å² Ľ
te x
se e
è§Ħ åĪĻ
åĵª äºĽ
åħļ çļĦ
æĹ ĭ
ĀĀ ĀĀ
æİ¥ è§¦
ru pt
Ġsp read
ç£ ģ
åŃ¦çĶŁ çļĦ
Ġcom ment
g y
æİĮ æı¡
Ġprog ress
bo ard
ĠD NA
Ġeas ily
/ *
Ġcho ose
è¡Ģ ç®¡
Ġpro t
Ġacc om
Ġrat io
éĽĨ åĽ¢
çº ¯
ĠA c
\\ Ċ
f s
à¸ µ
am ma
è° ĵ
Ġtrans port
} -
Ġ= Ċ
Ġdec imal
éĩ İ
S ON
Ġocc urs
ç§ ĺ
Ġrem ove
åĪ© æ¶¦
Ġcap ital
éĽĨ åĲĪ
- Ċ
åħ¬ éĩĮ
é½ Ĳ
ob ject
æŃ¤ å¤ĸ
Ġs il
Ġì Ŀ
æľĢ è¿ĳ
as ons
ph i
Ġref erence
åĨ ¬
Ġref lect
ä¸ľ è¥¿
Ġn p
st d
Ġsym bol
æĬ ĳ
ĠÐ ±
ç»ı å¸¸
å®£ ä¼ł
I R
Ġdeg ree
æļ ´
H and
å¸ Ń
æĥħåĨµ ä¸ĭ
ç¢ į
çī© çļĦ
æĢ§ èĥ½
t ime
ĠA ug
ribut es
å¼º è°ĥ
Ġspe ct
ë ¥
Ġem ail
åĽ° éļ¾
åı¦ ä¸Ģ
ĠRes earch
ĠO ther
- to
Ġas pect
ç» ª
ç¬ ĳ
om y
Ġd og
kn own
æ¸¸ æĪı
åĬĽ éĩı
æ¥ ļ
math cal
Ġc opy
æĸĩ ç«ł
æķ´ ä½ĵ
il der
p at
_ L
i us
S C
pos ition
è ļ
æ¶ ¨
ed s
Ġfil m
èģĶ ç½ĳ
à¸ ¡
- n
Ġem ot
ĠO ut
è® ¼
Ġ/ **Ċ
æ¨ ª
åº Ł
Ġelect ric
èĥ ¸
æ±¡ æŁĵ
Ġtrans fer
ĠSci ence
e v
Æ °
Â »
åıª æĺ¯
. out
èĥ Ĩ
() )
æĸĩ æĺİ
Ġap plications
é ¹
ç¼ ´
èĢ Ĺ
çļĦ å·¥ä½ľ
rom e
cl us
è´· æ¬¾
Ġrespon sible
Ġem erg
te red
åĨ °
æ® ĭ
Ġdec ision
çĻ» è®°
èĭ Ĺ
Ġfrequ ency
Ġant i
Ġthrough out
â Ħ
Ġf ast
æ³ ¡
æ± ¤
ĠS upp
ind ing
ang er
çº ·
ĠÐ ·
d own
ribut ed
Ġchall eng
math rm
Ġresearc hers
èĢĮ æĺ¯
Ġlibr ary
Ġrepresent ing
Ġany thing
Ġcont ract
è¾ĵ åħ¥
T able
re c
Ġbenef its
ï½ ŀ
m u
ĠA PI
ĠR uss
os ing
Ġelect r
éĺ µ
¡ èĲ
Ġfe et
çĶ¨ çļĦ
Ġ eth
Ġcl imate
j ava
ä¹Ł åı¯ä»¥
uf act
à ´
Ġbas is
ri pt
Ġchar acters
èĩ³ å°ĳ
Ġwh ose
ist ory
x i
äºĭ ä¸ļ
Ġbe gan
Ġhealth y
å¼Ĥ å¸¸
ĠH is
çģ Ń
æ·± åħ¥
Ġrun ning
app ing
è¯ī è®¼
25 0
8 9
éĽ ·
Ġ= ==
ãģ ª
Ġr ates
æķħ äºĭ
enc ies
æķ° ä¸º
p an
åıį æĺł
ĠC O
å¾ª çİ¯
æľī ä¸Ģ
ar a
ial og
res ult
çĽ¸ äºĴ
ĠĠĠĠĠĠĠĠ ĠĠĠĠĠĠ
te ger
Ġh ttp
Ġinvol ves
çľŁ æŃ£
Ġm ode
Ġclass es
S ince
x x
ell ow
é¢ Ī
Ġdid n
f erence
land s
o ke
Ġco ordin
an te
ç¤¾ åĮº
ers hip
Ġincre ases
us ed
æĺ¯ å¤ļå°ĳ
Ġnot e
C ount
åĶ Ĳ
app ro
Ġear th
u z
C ode
éĻ Ĩ
Ġre place
Ġpro p
Ġap plied
Ġt en
Ġobserv ed
Ġexam ples
æİ ī
çĽĳ ç®¡
iz er
Ġent er
und red
ĠA nt
èĩª æĪĳ
ĠS T
é¢ ľ
A ct
" ]
éĢļ çŁ¥
âĳ £
i am
ĠJ apan
Ġinc or
if ies
åĩº æĿ¥
ä½ľ èĢħ
è¿Ĳ è¾ĵ
ĠE ach
on y
Ġt end
Ġlim ited
å¹ ¸
ext ra
an ation
Ġm other
æĹ¶ çļĦ
ol ic
æ® ĸ
Ġdo i
å£ ģ
Ġinst it
à ²
d es
Ġb ul
A cc
Ġcrit ical
Ġresult ing
ĠP a
Ġon es
b or
çĽ¸ çŃī
Ġinter nal
. L
çĽ Ľ
èµ Ķ
{ a
Ġh arm
. is
Ġem pty
it is
å®ī æİĴ
com ing
å¼ķ å¯¼
Ġvir us
Ġsc ript
åŀ Ĥ
Ġst ra
åĬĽ çļĦ
con ds
å Ĺ
h ttps
è· ĳ
ag ed
Ġl at
Ġatt ention
Ġ util
Ã ¢
èĢĮ ä¸įæĺ¯
. )
ĠS m
Ġst age
æĮ ĳ
èĻ «
Ġth ous
æ·» åĬł
è¿Ĳ çĶ¨
ĠM ath
AT E
_ RE
Ġbir th
åĸľ æ¬¢
çĶŁ ç´ł
pt ions
Ġdefin ition
Ġtool s
ed eral
d en
. log
åº Ĩ
Ð¸ ÑĤ
Ġparent s
Ġpre p
è¡¨è¾¾ å¼ı
b eta
Ġc atch
Re g
Ġappropri ate
an o
ĠCh ar
èĢ Ĳ
ap i
Ġnot hing
çħ ¤
Ġabsol ute
st ate
." ĊĊ
Ġequ ival
Ġm ess
Ġgen e
ç©º æ°Ķ
Ġm i
Ġsu p
Ġ .Ċ
æ¦Ĥ å¿µ
éħį ç½®
ì Ĭ
_ IN
Ġcompan ies
ä¸» ä½ĵ
vent ion
} }$
il os
æĳ ©
ĠW ill
Ġis n
å¹² éĥ¨
cl usion
i as
åĩº çīĪ
Ġm a
ä¸į è¿ĩ
Ġl ate
Ġh ot
æĪĲ éķ¿
Ġv o
ĠF rench
oc r
Ġdem and
Over ride
Ġf arm
Ġqu ery
åĴĮ åĽ½
ĠP ython
lev ant
Ġpo or
ra de
åĪĽ å»º
åį± éĻ©
åı¦ å¤ĸ
åħį çĸ«
un k
åıª è¦ģ
But ton
æĮĩ æłĩ
Ġ Ùģ
è´ ¯
åĪº æ¿Ģ
in i
å° º
çĪ Ĩ
Ġto wards
æľī ä¸Ģä¸ª
åľ Ī
äºĭ å®ŀ
ä»¥ åĲİ
Ġre ve
ry pt
è½¬ æį¢
Ġgener ate
è¯ķ éªĮ
{ b
ä¹ī åĬ¡
ra int
.s h
ĠO ct
è¯´ æ³ķ
Ġmach ine
A pp
Ġstart ing
Ġoff er
åĬŀ çĲĨ
m ax
è¯Ĭ æĸŃ
indow s
amet er
wh ich
Ġf oot
Ġext ract
éª ¤
* }Ċ
ç» ķ
Ġm is
Ġj ud
ar gs
è¿ŀ ç»Ń
è½ ¨
he m
Ġinflu ence
åģ ¶
æĹ¥ å¸¸
ì ļ
å¯¹ ç§°
Ġf ish
æ¡Ī ä»¶
èİ· åıĸ
ä¸į çŃīå¼ı
ç»Ħ åĲĪ
8 6
l t
çĤ ¼
Ġcho ice
è®Ń ç»ĥ
æ¯ «
M S
Ġco e
mat rix
Ã³ n
Ġre le
Ġinvest ig
att le
. F
åĳ¨ æľŁ
Ġth row
( this
é¥ Ń
å¥ ĭ
8 1
( r
ĠI S
Ġan imal
Ġ\ Ċ
å¥ ¥
åĪ© äºİ
æ §
10 2
é¼ »
Ġf at
am b
pr ime
çļĦ è¯Ŀ
ä¹Ł ä¼ļ
16 0
Ġview s
ĠK ing
M E
Ġdevelop ing
Ġin n
Tr ue
ĠB o
om a
Ġgo es
éĽ ª
Ġsub s
ĠP res
ä»¥ æĿ¥
_ N
æ ¾
++ )
æľī äºĽ
ãĢĤ âĢľ
ä¼ł æĴŃ
ĠD et
Ġm it
æľº ä¼ļ
ĠS w
Ġf loat
å½ »
Ġp en
åĪĨ éħį
Ġintern ational
. util
it able
ro y
Ġsy nt
Ġplay er
Ġrespect ively
M od
Ġal though
Ġsaf ety
èĪ ŀ
ĠL a
Ġbro ad
Ġv it
Ġsupp ly
Ġph ase
] )
tr ue
Ð¾ Ð½
um er
Ġcol lection
æ²» çĲĨ
çĸ« æĥħ
Ġb ool
Ġn orm
åıĮ æĸ¹
od ies
id get
ä¸» åĬ¨
å±ħ æ°ĳ
. "Ċ
Ġexist ing
æī ¬
å «
Ġear li
Ġwe eks
Col or
è¡¨ éĿ¢
æįŁ å¤±
math bf
ä»Ĭ å¤©
âĪ Ĵ
ĠA pr
Ġmil es
Ġad apt
ä¸ĸ çºª
Ġpl ot
Ø§ ÙĨ
Ġfri ends
Ġhigh ly
t es
ĠA ut
ä¸¤ ç§į
. in
è´¢ äº§
_s ize
Ġs end
Ġsub stitute
ĠIn ter
Ġ ult
am m
Ġe at
ur g
ĠS te
ari o
le vel
å¥³ æĢ§
ak er
Ġoff icial
ĠR ed
åĽŀ çŃĶ
ie f
è½¯ ä»¶
äºº åı£
Ġa st
se lect
éĢĲ æ¸Ĳ
Ġcommun ication
Ġst ri
Ġinf ection
Ġa im
un ch
ĠL og
ä¼ĺ åĮĸ
Ġmat hemat
ëĭ Īëĭ¤
æĦŁ è§ī
M A
, -
Ĥ ¬
Ġ vert
Ġd riv
Ġfil ter
ge q
ĠĠĠĠĠĠĠĠĠĠĠĠĠĠĠĠ ĠĠĠĠĠĠĠĠĠĠĠĠĠĠĠ
ĠC reate
( new
è° ģ
abet es
Ġsy n
æ³ķ è§Ħ
åĲ ¨
Ġe fficient
Ġd aily
Ġw alk
è¿ İ
éĨ Ĵ
Ġloc ated
Ġa w
ë¡ ľ
Ġsa ve
Ġvari ety
Ġexper im
å¾Ģ å¾Ģ
- e
çļĦ ä½ľçĶ¨
äº ¦
çļĦ æĸ¹å¼ı
ĠInd ia
åĽ¢ éĺŁ
åĲĮ æł·
èĳ £
Ġf ixed
iz ations
00 1
Ġpol y
e ch
or ph
åį µ
Õ ¡
Ġsmall est
åĽ Ĭ
Ġ$ $
åıĤ èĢĥ
h aps
Ù ī
Ġpl aces
ä¸º ä»Ģä¹Ī
) }
Ġallow ed
st ant
Ġw ent
è¯ ļ
cont ent
Ġc ook
Ġbeh ind
Ġexerc ise
Ġw rong
k t
åĶ ¯
Ġser ious
Ġadv ant
åıª èĥ½
ĠJ ava
requ est
è§£åĨ³ æĸ¹æ¡Ī
åĪ¶ ä½ľ
Ġquick ly
Ġang le
äºĨ ä¸Ģä¸ª
çĹħ äºº
u ge
Ġover all
æľĢ é«ĺ
D F
Ġin form
Ġorig in
æĸ° åŀĭ
çļĦ å°ı
Ġst ay
åıĤ æķ°
åī ©
Ġdenomin ator
ens ions
Ġc and
', '
å¤ļ ç§į
Ġsw itch
Ġbal ance
m itted
Ġst ream
ge bra
u ary
å³ °
Ġm id
ra b
Ġevery thing
Ġdru g
Ġrel ative
Ġth read
æĿ ¨
Ġ ut
å·¥ä½ľ çļĦ
çŃĶæ¡Ī ä¸º
In put
In ter
å¤ļ ä¸ª
yt es
en ge
s g
èĤ¡ ä»½
Ġm iddle
Ġs ch
Ġh undred
ĠEurope an
ĠF rom
Ġst ar
um an
Ġselect ed
çĬ¶ åĨµ
è¦ Ĩ
ãĢģ ãĢĬ
Ġa ctions
è´¢ åĬ¡
. R
Ġprogram s
\ begin
H T
è· ¨
Ġtr ig
æķ´ æķ°
Ġstore d
Ġexact ly
Ġre action
ï¼ī ãĢĤ
ines e
Ġdis co
Ġth reat
Ġhig hest
m t
æĺ¯ ä»Ģä¹Ī
ä¸Ģå®ļ çļĦ
åĬł å·¥
Ä Ł
os ure
ou ch
Ġconfig uration
E qu
_l ist
Ġcurrent ly
ä¸į èī¯
ne xt
è¯ģ åĪ¸
Ġperform ed
Ġv an
åĬł åħ¥
ing u
Ġsh all
Ġus age
c ast
éĢĤ å½ĵ
æĭ į
E ST
Ġn il
om ic
Ġst im
Ġlab or
Ġdev ices
Ġf ru
à¸ §
Ġre ach
co pe
Ġadj ust
å¹³ è¡¡
Ġpres ence
re en
f e
ĠH T
åľ¨ äºİ
b ody
ĠÐ ³
æĬĢ èĥ½
ÑĢ Ð¸
//// ////
è½¦ è¾Ĩ
Ġfollow ed
iss ions
Ġprocess ing
6 2
Ġf igure
Ġbl ue
Ġey e
ock et
uff er
Ġtrans l
8 4
Ġext ra
ĠG r
. pro
Ð½ Ð¾
A tt
Ġc op
Ġbut ton
Ġu int
ç¥ ĸ
b an
Ġ// /
od ing
Ġobtain ed
æģ Ĵ
Ġf a
< |
Ġbo olean
as et
12 5
å¸¦ æĿ¥
Ġre lease
ä»Ĭ å¹´
Ġhe ld
ä¼ĺ ç§Ģ
- C
Ġpur ch
m ore
èĤ¡ ä¸ľ
Ġhum ans
èī¯ å¥½çļĦ
Ġp ow
Ġl ay
' ;Ċ
Ġl ives
ï¼Į Ċ
æŃ£ åľ¨
è¯ º
éģĵ è·¯
Ġl en
ĠJ ew
9 7
éĢĤ åºĶ
æĭ¥ æľī
- B
ä¹¦ è®°
Ġide as
Ġper fect
Ġredu ced
å° ¾
çª Ĺ
å¦Ī å¦Ī
Ġqu al
èħ Ĳ
Ġmeas ures
p ite
Ġmin imum
íķ ľ
åĪĨ ç±»
å¹¿ æ³Ľ
Ġask ed
Å Ĥ
Ġso il
Ġsuccess ful
Ø Ń
( &
Ġsent ence
se ction
D A
å® ĭ
Ġb ottom
el ine
Ġsepar ate
åħ± åĴĮåĽ½
Ġconnect ed
Ġc ru
èĵ Ŀ
.. .ĊĊ
åı¯ä»¥ éĢļè¿ĩ
Ġde al
form at
ens or
P T
ro om
xy gen
çĸ¼ çĹĽ
/ d
======== ========
ri ef
èį ·
Ġremain s
Ġn a
.l ength
èĳ ¡èĲ
èĳ¡èĲ Ħ
ord ers
Ġinterp ret
ĠU RL
Ġset ting
Ġw in
( S
ou te
ç¾İ åħĥ
Ġarg uments
pt r
åŃĲ çļĦ
åİ ħ
b in
å±¥ è¡Į
å¤§ éĩı
Ġex ists
Ġsaf e
Ġvis ual
- term
P A
æŃ¥ éª¤
Ġb ank
r is
rel ated
Ġis ol
Ġc it
çļĦ åŁºç¡Ģ
Ġl ost
Ġcar ry
Ġman ufact
æĥħ ç»ª
ass word
out put
çļĦ åŁºæľ¬
Com p
% Ċ
P er
} ;ĊĊ
ç¬¬ åįģ
ĠTh us
| >Ċ
6 1
rough t
ĠPh ys
ro te
Res ponse
8 7
b t
B ox
è¯ ¸
_ pro
Ġenvironment al
ìĿ Ģ
Ġrepresent ed
æĮ Ĥ
åĿ Ģ
( g
Ġex pert
ä½ĵ ç§¯
Ġt issue
Ġexp and
P C
Ġestab lished
æ³ Į
st ances
.print ln
¸ °
Ġen h
}\ )
Ð½ Ñĭ
ê³ ł
}\ ).Ċ
Ġdiv ide
Ġor d
N S
Ġcon sole
è¿ ħ
Ġinter val
å¤Ħ äºİ
ĠCl ass
æĹł è®º
M y
æı Ĵ
], [
æļ ĸ
: âĢľ
çĶŁ éķ¿
Ġtra de
æµĭ éĩı
æĪĲ æŀľ
Ġform ed
Ġve h
Ġrece ive
æİ¥ ä¸ĭæĿ¥
² Į
Ġmus cle
åħ ģ
ĠJ ournal
Ġro b
äºº ä½ĵ
ĠM c
em plate
Ã© s
å¼ ĥ
v est
å®Į æķ´
Ġindepend ent
åĢ ¾
Ġc up
it ors
act ory
è¿ĩ åİ»
æīĭ æ®µ
Ġrecomm end
Ġpart y
äººæ°ĳ æ³ķéĻ¢
m osp
æ¼ ı
Ġcap acity
. r
ĠChe ck
ãĥ ³
Ġf lo
ĠRe ad
Ġit er
æ¬ ²
ç»Ļ äºĪ
æĮĩ åĩº
e q
Ġc am
è´¢ æĶ¿
Ġc ivil
æĪĳä»¬ æľī
Ġwor th
ä¼ Ł
çļĦ ä¸Ģä¸ª
ĠS tep
Ġc at
Ġleg al
åħ¬ å¼Ģ
Ġconst it
æľ¬ èº«
èĭ± è¯Ń
Ġb ab
Ġcl ick
Ġh our
éĢĤ åĲĪ
Ġw ait
Ġse vere
c el
Ġtechn iques
l en
N D
ç»¿ èī²
Ġ Ñĥ
éŁ³ ä¹Ĳ
12 3
ä¾Ľ åºĶ
å°ı äºİ
Ġthe rapy
. ;
å¹´ é¾Ħ
{ (
ce an
im g
è¯ģ æį®
osp ital
Ġsignificant ly
Ġfor ces
Ġpl atform
æĶ¶ çĽĬ
/ c
åĬ¨ çī©
è§ī å¾Ĺ
R ec
æľº æ¢°
as te
Ġl if
Ġcustom er
I O
Ġbehav i
id a
è°ĥ èĬĤ
Ġt um
How ever
ĠP at
ĠH ar
é© ±
du c
çĶŁ æĪĲ
Ġopt im
P r
al ed
ä¸ ģ
Ġlaw s
è§Ħ å¾ĭ
.app end
Ø ¬
Ġp hen
Ġwebs ite
Ġn av
ï¼ī ãĢģ
P L
z y
ĠA D
de red
ç ŀ
ĠI d
Ġr out
er ia
" "
æĿ¥ è¶Ĭ
Ġmil itary
ĠAust ral
éĩĳ å±ŀ
Ġfri end
å¡ ĳ
Ġm ath
Ġstreng th
Ġ ÙĦ
Ġcomplet ely
å· §
Ġmention ed
ip ment
éĶ ģ
ĠB ar
èĤ¿ çĺ¤
Ġcon sequ
Ġso on
- pro
T R
æħ §
l ar
Ġm m
åı¯èĥ½ æĺ¯
åį³ åı¯
ç£ ¨
om b
- up
Ġh ope
C L
æ¢ ģ
æĢ ķ
å°± ä¸ļ
Ġcomb ination
åħ¬ å®ī
ä½ĵ èĤ²
m en
Ġm ental
è¶Ĭ æĿ¥è¶Ĭ
åĲ¸ æĶ¶
- A
ob ile
Ġthink ing
Ġj oint
Ġadd ing
æĮĩ æķ°
è· ³
ĠS im
) ï¼Į
çº ¤
Ġestab lish
_ A
à °
æī ¶
Ġacc ur
çĶµ åİĭ
à¸ ¥
Ġpar a
ell a
çĶµ æµģ
G ener
ä»ĸä»¬ çļĦ
Ġbegin ning
Ġ ign
âĦ ĥ
Ġra pid
Ġtrad itional
å¹³ éĿ¢
é» ĺ
Ġhyp ot
Ġgen etic
å¤§ ä¼ļ
è¡Ģ åİĭ
Ġ ]
Ġp or
Ġs in
çŃĸ çķ¥
Ġenc ou
æ¯ķ ä¸ļ
ä¸»è¦ģ æĺ¯
Ġw arm
æł¹ æľ¬
Ġm er
ro ph
ition ally
å¤§ å°ı
æĴ ĳ
Ġcont roll
Ġshow ed
Ġfor ward
Ġli qu
a ur
( h
he nt
ĠM od
å¹´ æĿ¥
o e
æĬ Ľ
Ġdeterm ined
Ġb ran
å¤§ å¤ļ
j oy
Ġre asons
idd en
op en
è¡¨ æĺİ
èĴ Ļ
Ġexec ut
if ically
ĠM ark
Ġ{ ĊĊ
ri er
å·® å¼Ĥ
ãĤ Į
è¯· æ±Ĥ
éľ ĩ
Ġg ir
éĥ½ ä¼ļ
æĥ ł
Ġ Ñ
cre te
b all
Ġmov ing
æĪĲ åĳĺ
å¢ Ļ
Ġcomm it
éĿ¢ å¯¹
Ġcy cle
ur t
ang ed
çļĦ é«ĺ
Ġim ag
ĠS chool
æ³¨ åĨĮ
v a
çĽ ¾
g ress
åĨ³ çŃĸ
çĶ ĺ
ä¸Ģå®ļ è¦ģ
C S
ĠC ount
Ġnew s
= -
æ¤į çī©
ĠM ost
ä¼ ¸
Ð½ Ð°
æ· ¡
Ġconst ruction
ç»Ŀ å¯¹
åĴ ¨
çļĦ è§Ħå®ļ
åı ¬
æ¡ Ĩ
ĠAn al
h ood
C he
. id
f low
Ġmon itor
Ġle ave
u per
Ġant ib
Ġerr ors
ough t
âĢĿ ãĢģâĢľ
ult ip
à §
Ġpass word
Ġf avor
Ġbu ff
æĿ¥ çľĭ
Ġmultip ly
å¡ Ķ
åħ³ èĬĤ
Ġsu gar
A ut
_ re
Ġd ark
. con
ĠD i
Ġw ind
äºĭ é¡¹
pp ed
éĻ ·
éĤ£ äºĽ
Ġw ide
æ½ ®
g l
yn omial
è¿ ģ
} =\
Ġstruct ures
ph p
à¤ ¾
Ġa ware
Ġsp ir
}$ $ĊĊ
h i
ect or
ë ¦
éĽ Ħ
St atus
Ġres istance
ĠM us
m ed
Ġev olution
Ġinc ome
ter ns
Ġsc ore
Ġre levant
m ark
çº ł
ill ing
ä¸Ń åĮ»
11 1
T itle
ab ilities
åĨľ æ°ĳ
çĶŁ çļĦ
up date
éĩį è§Ĩ
ri a
èį Ĳ
åģļ åĪ°
æĢĿ ç»´
äºĴ èģĶç½ĳ
Ġother wise
æīĭ æľº
æ° ı
b i
åĵ Ī
ere nt
Ġgener ated
Ġk m
Ġc os
çľ ł
Ġp ages
Ġac qu
ri ent
Ġdise ases
Ġget s
Ġscient ific
appro x
c her
æĢ» ç»ĵ
ĠIntern ational
A A
è¡ °
Ġchang ed
åĲ ī
ang es
Ġp al
Ġc ool
ĠD av
ä¸Ģ èĩ´
' );Ċ
qu ery
å®ŀéĻħ ä¸Ĭ
SU P
à¸ Ķ
ĠF ind
Ġne igh
r l
Ġfam il
14 0
M ed
Ġful ly
Ġse a
ĠN et
Ġcl inical
T otal
q l
Ġext ends
åĲ Ľ
-- -
Ġc ounter
éĩį æĸ°
åĴ¨ è¯¢
åĬ¨ åĬĽ
pt ember
G iven
co hol
Ġb ur
Ġemploy ees
èĥ Ģ
ĠM et
é©¾ é©¶
Ġdirect ory
ĠS un
Ġp p
Ġinterest ing
ĠB i
éĹ®é¢ĺ çļĦ
Ġscient ists
ĠØ £
_ G
è° ·
D P
Ġabs or
ÂłÂł Âł
æĺ¯ ä¸į
ĠU p
ur ance
ä¿ Ĺ
è®¤ çľŁ
os ite
_p ath
Ġ ice
um ns
Ġimport ance
ì ĭ
Ġorgan ization
ric ult
Ġo xygen
å° Ŀ
ä¿® æĶ¹
è¾ Ľ
Ġf ra
ä¸Ģ æĿ¡
ĠTr ue
D et
Ġappe ars
ç» ĺ
éģĵ å¾·
ĠF eb
åħ ¼
}{ -
ĠGerm an
Ġpat terns
ĠTe chn
i pe
æ ©
Ġse ason
çī© çĲĨ
n um
çļ ĩ
_ v
åĩł ä¸ª
ä¸» é¢ĺ
ari an
æī© å¤§
å½ĵ äºĭ
Ġwe ak
D o
ell s
èĥĮ æĻ¯
, ĊĊ
Ġlo op
Ð¾ ÑĤ
$ {
Ġto ld
ĠR em
it ect
plic it
Ġel im
ĠP ress
é¥ °
èģ ĺ
æµģ ç¨ĭ
ell ig
pect ive
Ġdom ain
çĪ ¸
w orks
ä¸į åĪ°
Ġre ct
æļ Ĥ
ĠCh inese
Ġe ffic
ust er
D elta
é½ ¿
Ġm ount
æĸĩ åŃ¦
ĠB r
Ġident ified
Ġcomp are
for ce
g u
Ø§Ø ª
Ġst orage
() ĊĊ
T H
Ġin du
ĠM any
U I
Ġcol on
æľ¬ é¢ĺ
ç½ ²
åŃ Ļ
Ġf ather
Ġchar ge
à¸ ¢
æŀĦ å»º
ĠF l
åĪĨ è§£
Ġsc en
el oc
Res ult
Ġ$ {
äººæ°ĳ åħ±åĴĮåĽ½
åįı è°ĥ
if orm
è¾ĵ åĩº
Ġw ave
ç»ĵ æĿŁ
Ġres ource
Ä ĥ
Ġ ~
åľ¨ è¿Ļä¸ª
ic ate
Ġreg ions
.âĢĿ Ċ
Ð» Ð°
æĿ¥ èĩª
æĬķ åħ¥
ĠGo ogle
_ com
Ð¾Ð ¹
Ġcalcul ated
è¿ ¹
Ġbo ard
ä¼ģä¸ļ çļĦ
Ġapproxim ately
æİ¢ ç´¢
Ġd ensity
os es
Ġsit u
} ^
( y
Ġtra in
Ġu pper
æ³ ¥
( C
ÙĬ Ø©
ve ctor
Ġman age
åĬł å¿«
ĠC our
Ġp lease
ë¥ ¼
Ġro ad
ãĢ Į
æĽ´ æĸ°
å½ĵ çĦ¶
_ ST
å¤ļ çļĦ
ĠL aw
å½ĵ æĹ¶
Ġ ing
Ġfind ing
ir t
Ġeas ier
å¦Ĥ æŃ¤
Ġfail ure
Ġâ ī
ain t
" ).
çŃ ¹
ms g
Ġcharacter istics
Ġh ref
Ġdo ctor
Ã ´
ä¸Ńåįİ äººæ°ĳåħ±åĴĮåĽ½
f ort
ĠØ ª
h old
18 9
åĮ» åŃ¦
Ġsu st
åĭ ¤
se ct
Cl ient
çº¿ çļĦ
å¤Ħ ç½ļ
18 6
ä¸Ĭ å¸Ĥ
o oth
Ġro ck
Ġconf lic
åįĬ å¾Ħ
t age
Ġ< =
ç³»ç»Ł çļĦ
-y ear
æĹ ¦
stit ution
è¡¥ åħħ
13 0
Ġì ł
ad r
çİ° å®ŀ
Ġgen es
Ð» Ð¸
Ġcomp ound
Ġd an
åĲ« æľī
Ġprov iding
- de
/ **Ċ
çī¹åĪ« æĺ¯
è¿ «
Ġcommon ly
Ġde ad
ĠAl so
Ġf rame
r um
in ate
æŃ» äº¡
åº¦ çļĦ
åħ· å¤ĩ
Ġconf irm
ond on
çľŁ å®ŀ
ĠAcc ording
é¢ Ĺ
Ġf ight
Ġat mosp
ãĢ į
Ġm ig
ç¡® è®¤
ĠSch olar
ĠĠĠĠĠĠĠĠĠĠĠĠĠĠĠĠ ĠĠĠĠĠ
å±ķ å¼Ģ
ĠA re
ì§ Ģ
è´¸ æĺĵ
ç± į
Ġh ar
çļĦ ç»ĵæŀľ
åĪ Ģ
ĠM arch
p ackage
che n
omet ry
Ġf air
il le
_t o
} x
Ġbacter ia
ĠO f
Ġsol id
p a
3 60
' '
æĢĿ èĢĥ
7 3
Ġhim self
æĸĩ æľ¬
h am
ĠS er
_f ile
â Ĺ
èŀ º
ash ing
% ãĢĤ
d x
en ed
Ġb one
ĠG ree
y ond
æļ Ĺ
cl ose
ĠAl though
æ£ ®
åĬŀ åħ¬
X X
\ times
ĠØ ¹
Ġaut h
Se lect
Cont roller
ĠW est
éħį åĲĪ
ger y
Ġequival ent
ĠØ§ÙĦ Ùħ
Ġinteg ers
ĠWh y
re me
çŁ Ľ
å®ļ æľŁ
erv ation
äºĮ åįģ
Ġcon v
ĠO bject
ç¼º ä¹ı
çº µ
è¿Ŀ æ³ķ
å·¥ èµĦ
10 8
Ġaut o
æģ ©
olog ies
e ctions
Ġs i
Ġex ception
Ġpass ed
éļľ ç¢į
) -
U M
c a
èģĮ å·¥
Ġlet ters
( [
åĩº åı£
un s
ĠIn st
he ns
Ġra ise
Ġcon c
äº ķ
- re
on ic
çĲĨ å¿µ
ĠV ol
Ġm ag
Ġset t
Ġgrow ing
å®ŀ è¡Į
osit ory
æķħ çŃĶæ¡Īä¸º
è´§ å¸ģ
Ġrespon s
Ġw oman
è®¨ è®º
ĠF orm
ä¼ Ļ
è¿Ķ åĽŀ
åĲĪ å¹¶
æīĢ å¾Ĺ
Ġexper iment
Ġhapp ens
Go ogle
åŁº åĽł
ä»İ äºĭ
is ation
æŃ£ æĸ¹
f unc
Ġsubt ract
C lick
Ã º
ĠÂ «
Ġins ert
æµ ª
èĸ Ħ
é¼ĵ åĬ±
æ£Ģ éªĮ
Ġprote ction
åľ° ä½į
èµ ĸ
èº« ä»½
ä¸Ģ çĤ¹
Ġdescrib e
è¶ĭ åĬ¿
å¿ Ĩ
Ġaffect ed
Ġyour self
Ġb and
Ġcon ver
alle l
t an
Ġs av
Ï Ģ
Qu ery
æĸ¹éĿ¢ çļĦ
Ġext rem
Ġse cret
æ°ĳ ä¸»
.h tml
à¸ ´
å±ķ ç¤º
7 1
g r
Ġv acc
èĢĥ æŁ¥
10 5
Ġf lex
l ib
Ġdis s
Ġeconom y
Ġdivis ible
ass ert
s ize
è¡Ģ æ¶²
è¿Ľè¡Į äºĨ
12 8
S A
Ġsur round
Ġey es
c ount
Ġsol ar
éĢ Ĩ
/ j
è¿Ĳ èĲ¥
Ġass ign
å°± åı¯ä»¥
åħļ åĳĺ
Ġfood s
èĤ ¯
Ġ\) .ĊĊ
ĠWe b
ĠT ype
i ers
Ġc ore
ĠComm un
à¸ Ĺ
pect ed
Cont ent
åŃĺ åĤ¨
Ġbe yond
9 2
Ġsuggest s
O C
Ġent ry
å°ı åŃ¦
B N
Ġdist inct
åįģ åĪĨ
cy cl
br id
Ġsa w
Ġrest rict
ce mber
æķĻ æİĪ
ç»´ çĶŁç´ł
ĠC D
u ilder
il it
Ġra re
at in
ib ly
Ġen joy
æ¢ ¯
Ġpl us
cul es
as c
ĠAug ust
ĠH igh
æľī æīĢ
Ġne ut
ic ip
s igma
Ġmot ion
Ġstrateg y
çļĦ æĸ°
P oint
Ġass ume
Ġex ternal
Ġpresent ed
Ġsust ain
åľ £
æ³ ½
Ġd ry
Ġch ain
L ine
èµĦ æł¼
å¿ ½
â ī
ers ion
ĠH er
Ġpict ure
è´ ¡
act or
ex p
ä½ĵ éªĮ
ç Ĵ
in ci
çŁĽ çĽ¾
Ġevery one
è®¡ç®Ĺ æľº
Ġinst r
æĦ Ī
æ´ ŀ
Ġprofess ional
Õ¡ Õ
d b
Ġwork ers
åħ± äº§
k y
Ġal one
( B
st ream
Ġearli er
ĠF e
Ġdig ital
7 4
Ġindic ating
Ġmeasure d
åº Ħ
def ault
å§ ĵ
èĥ ¡
Ġ ...Ċ
ë ĵ
Ġpre fer
ra ge
å·¥ èīº
åĭ ĩ
z er
ol ved
et ch
åĲį ç§°
ĠJ une
èĤ¡ ç¥¨
Ġd ictionary
èµĶ åģ¿
ab s
æĭ ĵ
æĬ ¼
ĠA ctions
ress ed
t able
ç»ı åİĨ
\) .ĊĊ
å¾ Ĵ
× ¨
Ġremain ing
ot o
åıĳ è¡Į
l ink
. re
Ġdi ag
çĶµ è§Ĩ
at ically
Ġhand s
ord s
Ġpol ynomial
Ġm o
Ġt asks
Ġb urn
Ġre pl
ĠR el
ä»į çĦ¶
Ġgra du
åĬ¨ ä½ľ
ì ľ
ĠP ost
ild ren
os ph
z ym
ot ed
im er
çİ¯ èĬĤ
il on
Ġrel atively
Ġin hib
çĹħ æĥħ
n ers
c an
æĶ¯ æĴĳ
åĳĬ è¯ī
u a
f ord
æĲ Ń
Ġp ul
Ġpack age
ĠJ ust
åıĳ æĺİ
Ġform er
åĻ¨ çļĦ
Ġê °
Ġ$ -
Ġill ust
Ġoper ator
& =
åĩ Ń
i able
S P
Ġg rid
æ¶ Ĥ
E E
Ġv ary
æīĢ åľ¨
Ġv ict
æ¹ ¾
/ h
c ap
åĮº éĹ´
b al
se mb
k g
åªĴ ä½ĵ
åı¸ æ³ķ
Ġl as
çĸ ı
éĢĤ çĶ¨
G roup
( R
8 2
P ost
C A
Ġ[ Ċ
Ġsam ples
Ġcol d
ç² ®
Ġimmedi ately
b ig
å®ŀ æķ°
ph as
i ra
ê° Ģ
çĽ´ è§Ĵ
Ġcl osed
p ing
Ġr ise
Ġschool s
æĪĳä»¬ è¦ģ
Ġimplement ed
çļĦ æĢ»
n y
ĠDep artment
éĽ ħ
æľī äºº
f ield
ot ype
Ġun c
ĠCom put
Ġ ï¼ī
ove mber
ĠE qu
( v
Ġsee k
} ;Ċ
Ġmov ie
Ġst ru
Ġe in
æİ¨ èįĲ
ĠAfric a
Ġpro port
ĠIn stitute
! !
Ġocc up
Ġequ ipment
Ġdr ink
Ġsl ight
- D
op ic
Ġcall s
è½¬ ç§»
åŃ¦ ç§ĳ
çĮ ª
9 1
ĠS implify
æĥ Ĭ
Ġdeg rees
æĪ¿ å±ĭ
Ġrec ently
Ġcour t
å¤ª éĺ³
Ġconstruct or
Ġplan et
Ðº Ð°
èĴ ¸
æıĲä¾Ľ äºĨ
ä¸ Ļ
em p
çĽĳ æµĭ
ĠH ol
çĶµ å½±
Ġcult ural
Ġal t
æĺ¾ èĳĹ
ĠApr il
çļĦæĥħåĨµ ä¸ĭ
ì ķ
Ġdi abetes
Ġpro of
Ġcirc le
èĪ Ĵ
é¢ľ èī²
åħģ è®¸
è¯¦ ç»Ĩ
åıĺ éĩı
åĨ Ĵ
cl ient
æµģ åĬ¨
( X
æ²Ł éĢļ
w hat
- r
åĪĽ ä¸ļ
Ġdru gs
( M
Ġrem ember
åĲ ´
Ġform ation
é² ģ
Ġprote ins
Ġc ir
Ġcateg ory
æĽ´ å¥½
ilos oph
ify ing
Ġm ac
Ġsh ift
å¼º åĮĸ
ä¸ĭ éĿ¢
Ġcomm er
( P
æ´ ¥
Ġpartic les
åĢº åĬ¡
Ġcre ates
y ing
Ġ\ <
d ed
i ate
Ġold er
A fter
è¯¾ åłĤ
å¹³ è¡Į
æ» ¤
Ġpie ce
ĠCent er
åħ´ è¶£
Ġoff ice
ç´ł è´¨
ÐµÐ½ Ð¸
æ¶Ī éĺ²
ç¬¬ ä¸Ģä¸ª
Ġsit es
Ġfore ign
æı ´
å½ĵ åľ°
ĠIn c
Ġj e
èĦ ¸
Ġd oc
ä¸ ²
Ġdep ending
y les
çĽ Ł
âĢĿ âĢľ
Ġd omin
Ġf uel
{ c
å® ĩ
Ġrepresent ation
åŃ¦ ä¼ļ
åħĪ çĶŁ
Ġgu id
Ġn ga
åħ¬åı¸ çļĦ
Ġsol d
Ġout comes
and o
Ġspe ak
éĶ ħ
c il
im ens
çĶµ è¯Ŀ
å¹´ åº¦
R I
M P
Ġn ation
Ø§ Ø±
Ġcont rast
ä¼ ¦
èĳ£ äºĭ
Ġw atch
ĠJ uly
ä»ĸ äºº
è§Ĥ çĤ¹
Ġres id
Com m
)$ ï¼Į
å¯ ¸
åħĪ è¿Ľ
ym bol
è½¬ åĮĸ
8 3
çº ¹
è§Ħå®ļ çļĦ
ä¿¡ çĶ¨
\ in
åĸ ·
Ġimm une
Ġpre gn
ĠO ur
Ġbel ong
T ER
Ġ\) .Ċ
æµ ®
P age
Ġve get
U E
åĪĨ æ³Į
Ġprotect ed
ed ing
ä¸Ģ åĪĩ
åĳ¨ éķ¿
è¿Ļ ä¸¤ä¸ª
ä» ģ
Ġ\ ,
è· Į
å²Ĺ ä½į
ä¸īè§Ĵ å½¢çļĦ
Ġdef ines
R A
pl ot
g roup
it ter
] )Ċ
st art
if orn
T O
Ġbenef it
and le
Ġtre es
çļĦ å®īåħ¨
ateg ory
Ġcorrect ly
Ġw ild
The se
' d
$ ãĢĤ
_ e
é ŀ
æŁĲ äºĽ
å¤ ¹
ĠB ecause
Ġw ood
Ġw id
Ġs ong
hes es
ĠU ser
Ġdecre ase
Ġwas te
éº ¦
erv ed
A ss
åĪ° çļĦ
åĲĮ æ¯Ķ
ç¡® å®ŀ
åķ Ĭ
æĿ¥ æºĲ
N e
éĢļ ä¿¡
å¼ Ł
åĩ½æķ° çļĦ
tt y
Ġo x
18 8
Ġpl aced
Ġfore st
Ġproject s
éĿĴ å¹´
Ġfem ale
out hern
éī´ å®ļ
h y
ac ing
st yle
/ p
Ġtre ated
ĠReturn s
M e
Ġed ge
ãģ Ļ
am ental
$ .Ċ
ĠU sing
m ain
ĠJan uary
çĶµ åĬĽ
l ong
æĩ Ĥ
il ing
ĠN OT
é¡ ¿
å± ı
Ġdep ends
åĶ ±
ĠGener al
Ġindic ate
ĠPres ident
}$ ,
æĻº æħ§
S D
è¿ħ éĢŁ
ä¼ į
èĢģ å¹´
åĪ ·
èĪ į
in y
æ¶Īè´¹ èĢħ
ç¬¬ äºĶ
åĩ ¡
Ġle aves
ĠO ver
å¼ķèµ· çļĦ
Ġv eloc
Ġ> =
è ķ
Ġun a
_ O
Ġlead s
so ft
ä¹Ł å°±æĺ¯
ur ies
Ä ģ
p u
ĠĠĠĠĠĠĠĠ Ċ
èį¯ åĵģ
å½ĵäºĭ äºº
æľĢ å°ı
Ġvirt ual
/ or
æĶ¾ åľ¨
r as
äººæ°ĳ å¸ģ
æĪĲ åĪĨ
Ġatt ribute
éĥ¨ ä½į
Ī ĺ
Ġno vel
çĵ ¶
ãĢĤ ãĢĬ
Ġlog ic
æ´ Ľ
Ġwant ed
Ġs ession
ir ing
å¿ ĺ
ç®Ģ åĮĸ
ĠDe velop
ĠG en
Ġflu id
Ġ& =
åİŁ çĲĨ
èĦ ¾
äºº å·¥
Che ck
çļĦ åİŁåĽł
åĩ ī
ĠSe ptember
m es
ãĢĭ ãĢģãĢĬ
_s et
åį³ ä½¿
k an
æĪĺ äºī
Ġd rop
çı ł
ĠInd ian
l abel
: "
Ġremov ed
æĺ¯ çĶ±
o ption
Ġb order
æįŁ ä¼¤
æħ¢ æĢ§
Ġst ock
æĪĳä»¬ å¾ĹåĪ°
ĠC ong
18 7
ort hern
Ġsupport ed
ç¿»è¯ĳ æĪĲ
Ġdri ve
Ġhy per
Ġand roid
Ġb ud
ic ks
Ġident ity
éĻ¤ ä»¥
éħ ¶
Ġexp osure
Ġlet ter
à¸ ļ
al y
ä» ĵ
çĶµ æ±ł
. /
æ¶Ī åĮĸ
Ġrele ased
D B
Ġb rought
Æ° á»
æŃ¤ æĹ¶
n es
æķ ¢
æįŁ å®³
å¦ »
Ġ* /
åľ° äº§
Ġn orth
St ream
åĪĨ æķ°
Ġd ro
S ome
Ġf ear
Ġliqu id
Ġtop ic
åĲ¯ åĬ¨
Ðµ Ð¼
ĠL ondon
u an
N one
Ġf ib
P U
Ġd ou
å¯ ¿
è´ Ŀ
æī °
ä¸» ç®¡
è®¤ å®ļ
Ġcirc um
ç»Ļ å®ļçļĦ
Ġ ÂłÂł
ĠD em
Ġproced ure
åĩº è¡Ģ
ç§ Ĵ
k in
éĺ Ģ
Ġpercent age
List ener
éĴ Ļ
æ¨¡ åĿĹ
Ġstra ight
åĵ ²
C reate
ĠArt icle
æķ ¬
Ġk ing
ĠF in
() ;
Ġpart ial
ãĢĭ Ċ
æĢİ æł·
G B
un der
Ġp ull
èŀį èµĦ
åıĳ èĤ²
ĠY es
æī «
åĲĦ é¡¹
Ġwork ed
om as
èĢĮ è¨Ģ
å£ ®
æĻ ¶
. H
ric s
Ex pl
ber g
ĠI P
èª ī
25 6
ro ot
n cy
æĬ¤ çĲĨ
Ġg ave
çłĶ åıĳ
æ¯ı ä¸Ģ
éĽĨ ä½ĵ
æĹ Ĺ
Ġproper ly
Ġpropos ed
çģ °
ĠEng land
Ġvis it
b a
éĢĲ æŃ¥
åĲĪ æ³ķ
çļĦ åīį
ex port
Ð° ÑĢ
S ource
iforn ia
Â ²
Ġcom ing
Ġch annel
Ġs we
Ã ·
ç¾ Ĭ
çĽ¸ åºĶçļĦ
Ġanc ient
ãģ ĭ
æ° ¢
è¿Ľ æŃ¥
Ġnear ly
a ign
- th
æĦı æĢĿ
ĠM icro
æĿĥ çĽĬ
Ð¾Ð³ Ð¾
St art
i ance
æŃ£ å¼ı
ĠG reat
èµ µ
** *
Ġgiv ing
Ġn odes
Ġmet ab
Ġart icles
E C
× Ķ
24 0
å°¤åħ¶ æĺ¯
Ġh it
ĠC ity
Ġar gs
çĲĨ æĥ³
éĤ »
Ġf ont
- con
æ¯Ķ èµĽ
Ġh on
Ġm el
åĽ¾ åĥı
Ġconcent ration
ç´ «
Ġgreat est
ĠK e
æķħ éļľ
æº¶ æ¶²
Th us
Ġse lection
u ccess
ĠR oman
Ġal cohol
he ight
ç² ĺ
ĠF inally
ä¼ Ĭ
ul f
éĵģ è·¯
Ġmajor ity
ä¼ ¯
Ġtechn ique
Ġ rac
éªĮ è¯ģ
Com ponent
( const
ĠRe v
èĭ± åĽ½
Ġm ale
Ġnuc le
Ġset tings
angu ages
P re
re hens
9 3
âĢ ī
Ã§ Ã£o
n h
Ġcom pl
æ·· åĲĪ
ä¸Ĭ åįĩ
Ġpol ic
éļı æľº
ĠS y
Ġrelationship s
ĠV iew
ç»´ æĮģ
åĪ© çİĩ
æ¸ ł
å®ŀ çĶ¨
è¦Ĩ çĽĸ
ç«ĭ åį³
Ġw rote
) +
Ġrelig ious
ĠJ SON
é¢Ħ æľŁ
ĠE ven
åŃ©åŃĲ çļĦ
èµ ı
ĠJ e
T e
ruct ure
ë ı
è§Ĩ é¢ĳ
åĬł ä¸Ĭ
Wh y
10 3
ĠS ur
Ġ× Ķ
ä¸į å°ĳ
ĠÐ °
nd rome
éª Ĺ
Ġ Â·
åĬ© äºİ
Ġans wers
- x
** ï¼ļ
ed u
ol low
æĭ Ķ
T hat
) }{
å° ĸ
å¹ ķ
} .
éĩĳ é¢Ŀ
pl ing
æĹ© æľŁ
éĨ ĩ
ĠFr ance
Ġthe rm
åĳ½ é¢ĺ
Ġmet ers
çļĦ æ¦Ĥçİĩ
åĴ ³
Ġre cept
èĩª ä¸»
Î ¿
Ġp et
n am
Ġmem br
å±Ģ éĥ¨
è§£ è¿Ļä¸ª
è¿ ·
èģĮ è´£
Ġpre m
-t ime
Ġtr ust
Ġmess ages
Ġd anger
N O
à¯ į
Ġreturn ed
( w
het ic
Ġeff ort
Ġy ang
æŁĲ æŁĲ
b ug
ì ĸ
à¸ ª
Ġv on
æ¢ ħ
åī ²
Ġex cess
p ed
Ġg ames
Ġ( $
b ase
æķ° åĪĹ
æĮĳ æĪĺ
ç»ĵ è®º
val ues
Ġsign s
augh t
Ġsimpl ified
Ġb orn
it a
Ġcontinu ous
n el
Ġë °
Ġad ults
ç¼ĵ è§£
ĠF ran
æĹ ¨
> (
Ġpre f
æ¿Ģ ç´ł
ĠH el
18 5
Ġì ķ
Ġph one
- P
ĠPro gram
Ġcred it
Ġfamil ies
}$ ĊĊ
Ġcit iz
æľī åĪ©äºİ
Ġgra v
Ġc ry
ĠChrist ian
æĿ ¯
åĨį æ¬¡
ol or
æ¸ħ æ¥ļ
Ġe ating
à¸ ķ
Ġcaus ing
à¸ °
est ic
Ġindic ates
æłĩ å¿Ĺ
Ġstrateg ies
( k
ä¼ ı
Ġmet al
çļĦ åħ³ç³»
æĪ ´
Ġaltern ative
çªģ åĩº
I B
Ġha ir
å¯¹ åºĶ
æģ Ĳ
æ° ¨
Ġpower ful
ĠW ork
ĠOct ober
çī¹ å®ļ
åĮ Ģ
et ime
por ary
ru ary
Ġpract ices
åıĺ æĪĲ
ab il
Wh ile
è¢ ĭ
Ġ iron
ĠAss oci
Ġm al
Ġnuc lear
. to
ĠSe e
è¿ĺ è¦ģ
Ġlook s
ãĢĢ ãĢĢ
Ġinvest ment
b ed
Ġmot or
- H
çĻ¾ åĪĨ
é¢Ħ æµĭ
}$ $Ċ
- v
Ġpol l
æľº åĻ¨
Ġprevious ly
9 4
as ure
Ġro ll
Ġradi ation
Ġb ra
ä»£ çĲĨ
å®ĥä»¬ çļĦ
os en
æĸ¹ ä¾¿
+ b
ĠF alse
inci ples
çĽ¸ å½ĵ
anag ement
åĬ¨ æľº
æľĢ å¥½
Ä± n
.d ata
ograph ic
Ġs outh
um s
ìĦ ľ
S ystem
ĠGerm any
Ġrad io
ens es
å®ļ ä½į
ĠM or
Ġk id
Ġsal es
( u
çĶµ è·¯
Hand ler
S p
Ġt or
æ» ´
Ġstate ments
ra el
Ġmole cules
Ġmechan ism
Ġar m
Ġcom ments
Ġ( \
Ġse conds
we ight
ist or
k i
% )
Ġh orm
å½¢ è±¡
æĸ ĳ
SE T
åĬ¨ æĢģ
are st
__ (
Ġref ers
Ġl ic
ĠId ent
Ġf ramework
Ġk ids
èĥ½ éĩı
åºĶ æĢ¥
Ġbe aut
Ġinf lam
a ud
åįķ åħĥ
äºº çī©
9 00
E F
_ W
u y
ram s
ĠD iv
Ġh ttps
éļ¾ ä»¥
) =\
Ġbuff er
le m
Ġch ance
Ġf ig
Ġinvol ve
Ġm ent
Ġex change
O ST
Ġst ack
ĠV er
æī¹ åĩĨ
1 12
ĠPe ople
- F
Ġop in
Ġdis order
l is
L oad
_ con
word s
Ġsu fficient
re ement
çº¤ ç»´
L A
çŃī çŃī
- se
Ġt our
Ġg old
ĠE v
ä¸¤ è¾¹
åĪĳ äºĭ
ul in
Ġst aff
ob j
çķ ħ
åĲĮ ä¸Ģ
C all
s cript
ĠT ime
éŁ ©
æ· ĭ
æ°Ķ ä½ĵ
i Ã³n
ind er
Ġp un
åĵ ¥
iven ess
F igure
å¢ ¨
Ġclear ly
Ġvol tage
Ġany one
åºĶ å¯¹
çĽ¸ åıį
ĠRe c
C an
. <
åĽĽ ä¸ª
Ġche cks
Ã¼ r
çĵ ¦
ĠD uring
Ġgener ation
ĠP ub
Ġcomb ined
rag ment
çļĦ è§£
Ġ} ;Ċ
}\ \
Ġfind ings
f aces
èİ «
. W
reed om
Ġevalu ate
Ġallow ing
Ġp le
Ġe g
P lease
at abase
æķħ éĢī
åĲĦ ä¸ª
çĽ¸ æ¯Ķ
è§ Ī
ĠDe cember
ĠE duc
P art
æ³ °
Ġsh ared
Ġg ard
Ġchang ing
Ġpl ane
Ġmar gin
z en
é¢ĺ æĦı
ĠRep ublic
è¾ ©
æľī äºĨ
ĠO b
åĵª ä¸ª
25 5
ĠBl ack
çļĦ ä¸Ģç§į
v as
{ p
å² ¸
èħ ¿
- a
è´¡ çĮ®
å© ´
Ġ\ ).
c s
Ġth ick
N et
æıĲ ç¤º
æĢ» æĺ¯
Ġf ine
Ġcons ists
rodu ction
Ð¾ Ñģ
AR T
Ġbill ion
Ġass ist
ĠO pen
Ġun ivers
Ġch rom
el er
æ¡Ī ä¾ĭ
å° ĺ
10 4
Ġad opt
ra ys
_ se
ribut ions
æĢģ åº¦
à¤¾ à¤
m d
ãģ £
åħ± æľī
Ġ Ñĩ
ad ata
æĸĩ åŃĹ
re w
Ġhab it
ĠRet rie
Ġcand id
å¼ķ åıĳ
ĠJ es
ĠB oth
ĠPro f
th at
[ @
Ġ+ Ċ
Ġto ward
æĭ Ĵ
( {
Ġintrodu ced
ang ing
Ġ Õ
çĽ Ī
æ£Ģ å¯Ł
Ġcur ve
A p
. (
èĢĥ æł¸
Ġal ign
\) :Ċ
ĠU K
a el
i verse
w ater
Ġ à¦
Ġrel ation
Ġarch itect
Ġdisc overed
Ġcirc uit
× ľ
ĠAfric an
B ack
Ġoff ers
ĠF ile
pl oad
Ġrecord s
Ġm ort
air s
Ġfin ally
æĬĳ åĪ¶
ä½ľ åĩº
- like
åįģ äºĮ
Ġob vious
Ġn or
åŁº åľ°
è® ¯
Ġpro ve
åĲ Ĳ
z ing
id ers
æĭ Ĩ
å°Ĩ åħ¶
è¾ĥ å¤§
èŀį åĲĪ
.j s
æ± Ĺ
èµ ŀ
åĽ¾ ä¹¦
Ġh ous
ĠA B
ç« Ł
l ig
çĩ ¥
çļĦ è¡Įä¸º
Ġopportun ity
è° ±
å®¡ è®¡
çļĦ ä¸Ń
Ġcommer cial
Ġt ag
ow s
æ¯ı æ¬¡
U P
æĳ Ĩ
éĵ ľ
Ġpres ident
Ġw ants
åľĨ çļĦ
um in
Ġgo als
dis play
Ġauth ors
ãĤ ī
ĠGo vern
Ġin ner
stand ing
ä¿ Ħ
Ġreg ist
Ġinf ect
Ġd ra
av as
Ġadvant age
or ation
ĠCal ifornia
ĠM ich
Ġlink ed
Ġem phas
p o
ä½İ äºİ
Ġaspect s
Ġevent ually
M at
pos es
Ġupd ated
ĠAn y
ä¸Ĭ ä¸ĭ
-t ype
Ġper haps
æī İ
ĠA nswer
. name
ant ic
par se
Ġst ation
ë¦ ¬
éĶ »
Ġp riv
( T
çĵ ľ
Ġdest roy
Ġk il
Ġv ent
Ġg i
p g
ĠP ort
_ DE
_ x
Ġto x
ĠN ovember
7 00
Ġinter act
add ing
Ġexist ence
or ge
U til
Ġcommun ities
u racy
åŁº å±Ĥ
ç«ĭ æĸ¹
Ġm es
n ormal
æ¶ µ
< tool
ĠâĢ ¦
In stance
Ġregard ing
åĲĪ æł¼
Ġatt ributes
ĠCan ada
Ġdec isions
ion e
Ġb ed
Ġw at
Ch ar
Ġdep th
æľĢ å¤§çļĦ
Ġsur pr
/ b
åŃĲ å®«
å¹³æĸ¹ ç±³
u h
ag ue
ĠP al
è¿Ļ æĦıåĳ³çĿĢ
åĲĦ ç±»
lement s
è° Ĳ
j a
Ġ ï¼Ī
_in fo
éĤ ®
Ġf ix
_ k
ber t
Ġsay ing
U s
) *
Ø ´
ĠD ec
Ġb atter
omet ric
Ġbre ath
Ġveloc ity
Ġte aching
Ġexpress ed
ä½ł ä»¬
.âĢĿ ĊĊ
it o
Ġthous ands
ou l
åĲ« éĩı
èĤ ª
è¿½ æ±Ĥ
å® ı
Ġeff orts
crib e
Ġj ournal
Ġro ots
ä¸į åıĺ
ĠUn ion
c are
Ġcru cial
èµ ĭ
Ġnot ice
Ġv ill
ĠM al
j son
ĠB er
è¡Į é©¶
èĦĤ èĤª
ĠCol le
ĠB en
ent y
ĠT ext
D R
ep s
` .ĊĊ
am ples
äº§çĶŁ çļĦ
æĢ¥ æĢ§
Ġd oll
oun cil
Ġr ich
Ġqu adr
Ġwe ather
Ġtr uth
Ġredu ction
ç½ĳ ç«Ļ
ä¹ĺ ä»¥
}^{ \
ra v
ot he
è¯Ĩ åĪ«
çļĦ åĨħå®¹
ÃŃ a
æ¼ «
Ġspir it
u gin
Ġteac her
è¾ ¨
è®¸ åı¯
ĠH istory
ro ad
å°ı ç»Ħ
ĠB ook
å§Ķ æīĺ
_com ment
Ġchalleng es
! <
è¾¹ éķ¿
I Z
te e
Ġstart s
æľŁ éĻĲ
Ġfail ed
[ \
A X
E G
èĤ ¢
Ġsp aces
Ġf ederal
Ġv s
æī¾ åĩº
æĥħ æĦŁ
åıĸ åĢ¼
ĠP ark
Ġbl og
} +\
pec ific
Ġsur gery
ĠEx ample
. E
ag o
åĪĨ æ¯į
å¹´ ä»£
ok ing
åĿ ¡
Ġrecomm ended
ot ing
Ġw ire
ĠE ast
Ġper m
ç² Ĺ
Ġconsum ption
. y
åĪĨåĪ« ä¸º
iff erent
Ġser ve
ä¼¤ å®³
Ġstand ards
A ction
ome ga
Ġur l
åħ¸ åŀĭ
ar ter
Ġfl ag
| \
éĿ¢ ä¸´
æĳ ¸
ĠL ear
Ġmin or
æĵ ¦
ĠS ol
ãĤ ¹
\ text
åĬ¡ éĻ¢
Ġimm un
ä¸Ģ æĹ¦
ĠS an
t itle
à¸ Ħ
Ñģ Ñı
Ġax is
Ġprincip le
Ġpre tty
18 4
] \
æ§ ½
10 9
Ġdiscuss ion
ĠÙħ ÙĨ
æĬ ¢
ort ed
æģ °
å¼º åº¦
çĤ ¸
Ġexperien ces
çĤ ī
P R
R NA
ãĢĳ Ċ
æĤ ī
Ġpr ices
ä¹ Į
å¸¸è§ģ çļĦ
b les
Ġhistor ical
over rightarrow
Ø ·
< issue
ĠM ethod
ĠÙģ ÙĬ
. de
il er
Ġdescrib es
S cript
è´Łè´£ äºº
Ġs rc
. J
ogn itive
Ġteac hers
å°Ŀ è¯ķ
å°½ éĩı
R el
Ġst ars
ĠO ff
ĠAr ch
ap ers
æ¯ı å¹´
ashing ton
ĠDav id
Ġp ush
Ġs ell
æľ ±
èĢĥ çĶŁ
Ġdef ic
Ġatt ract
çł´ åĿı
- L
è ¹
)ĊĊ Ċ
æĻ® éģį
æ³ Ħ
ot a
ru ctions
am ily
åı¥ è¯Ŀ
ION S
çļĦ æ°´
Ġoper ating
Ġradi us
ç§ ¦
à¸ «
ä¸Ń åŃ¦
and er
pro cess
èĢĮ ä¸į
åıĳ çĹħ
$ A
Ġplan ning
æľĢè¿ĳ ä¸Ģå¹´
: **Ċ
.s ize
respon se
åĪ Ĭ
Ġcontinu ed
Ġf ill
ra ce
æīĢ è°ĵ
er ial
Ñ ī
æ¡ ĥ
Ġmagn etic
o i
Ġeffic iency
æ°ĳ äºĭ
Ġc ast
çĶŁæ´» ä¸Ń
Ġcar ried
æľ¬ ä¹¦
F e
Ġfund amental
Ġinterest ed
Ent ity
è®¾ ç«ĭ
Ġcustom ers
Ġcon vers
Ġmed ium
F rame
Ġdat aset
ing er
çļĦ åľ°æĸ¹
çº³ ç¨İ
Ġal gebra
æµ Ļ
Ġelect ron
Ġestim ated
ell o
}}{ \
Ġm ix
Ġra in
æĦŁ åıĹ
os a
åį± å®³
Ġsub sequ
Ġ/ >Ċ
ĠD on
äººæ°ĳ æĶ¿åºľ
as ion
ç§ĳ çłĶ
_ reg
Ġt rou
Ġb inary
åİŁ åĳĬ
r ations
ç¢ ±
åĪ« äºº
å°½ ç®¡
è¾ ĸ
all ed
æľī æľº
Ġbab y
éģ Ń
åĮ ¹
ĠB as
æĤ¨ æľĢè¿ĳä¸Ģå¹´
æĤ¨æľĢè¿ĳä¸Ģå¹´ ä½¿çĶ¨
ĠT wo
w idth
ÃĹ ÃĹ
avas cript
12 1
h ow
raint s
M I
æĬķèµĦ èĢħ
åŀĤ çĽ´
éĥ ģ
ven ue
æķ Į
é¡¹ å¼ı
M C
çº¢ èī²
Ġf aster
æľ Ĺ
_ \
Ġretrie ve
Pro perty
_ ID
ak s
Ġcor rel
Ġag ricult
M ore
us iness
Ġrespon d
Ġcre ation
Ġob j
æĺ¯ å¯¹
Ġrefer red
A SE
è¯ ±
L L
Ġre nd
E P
Ġparticip ants
ĠMat hemat
ä¹¡ æĿĳ
æĽ´å¤ļ çļĦ
Ġde lete
ific ations
or ial
çĦ Ĭ
Ġd ied
ĠP ublic
Ġê ²
çº¿ è·¯
ĠA tt
ç»Ĩ èıĮ
çİ° éĩĳ
Ġmin im
ä»» æĦı
Ġreg ul
åģļ æ³ķ
¹ æŀľ
ans ion
Ġextrem ely
Ġc overed
Ġreg ister
r d
é¡º åºı
å¾ Ĳ
Ġto ken
H ead
â ĨĴ
Ġm ist
Î ²
ar n
æ³ ī
ê ¸°
Ġy es
èī¯ å¥½
Ġdown load
áº ¡
åĽ½ åĬ¡éĻ¢
R em
äºº æķ°
iz ont
Ġreport s
Ġcomplet ed
Ġl anguages
A rt
Ġhigh light
Ġspec ifically
åĪĨ äº«
Ġtri angle
ĠF ree
t hen
çı į
Ġint ellig
` Ċ
åħ¬ æ°ĳ
Ġfunction al
é¢ĳ çİĩ
çī© åĵģ
Ġmot iv
Ġstru gg
Ġs plit
èĬ ¯
ĠD ist
éĢ ĥ
æ¤ İ
ĠN ote
æŁ¥ è¯¢
Ġc ities
à ª
çī© æµģ
ĠE lect
Ġre ality
ĠM ac
é«ĺ æł¡
Ġv ess
Ġinj ury
Ġne uro
åŃ¦ æľ¯
rem ove
( data
Ġsuccess fully
Ġb odies
åĪĿ å§ĭ
åľº æīĢ
Ġheav y
ne q
Ġmil k
imp le
ĠN umber
äºİ æĺ¯
ith ub
Ġen zym
Ġh ospital
ĠAmeric ans
ĠU s
ä¸į åĨį
. In
or a
Ġelect ro
Ġgood s
å¤ĸ çļĦ
è¿Ļ ä¹Ī
Ġl os
éĩĮ çļĦ
éģĩ åĪ°
äºº åľ¨
r ig
å² ©
o z
14 4
B ase
Ġcompar ison
çĶµ æºĲ
è¿ĳ å¹³
Ġprot ocol
in ity
æľ¬ æ¬¡
ä¸ ¹
èĶ ¬
$ ï¼Ī
ĠD ate
Ġder ived
é¸ Ł
å¹¿ åĳĬ
Ġbre ast
Ġgu ide
Ġprim arily
Ġtre nd
åı¯ä»¥ åľ¨
Ð° Ðº
ĠM ain
æľī åĬ©äºİ
rid ge
y e
Ġco ast
åĳ¨ åĽ´
Ġphen omen
p ost
od ay
erm ine
ĠC am
pon ents
Ġc ert
Ð¸ Ð½
Ġpur poses
çĽ¸åħ³ çļĦ
Ġex hib
Ġlearn ed
ĠM r
ĠU nder
ĠPa ul
Ġer a
ĠH ouse
æ¸ħ æĻ
ä¹ł è¿ĳå¹³
Ġb on
ç³ĸ å°¿
ä» ¿
åıĺ å¾Ĺ
ĠE xt
ç¢ İ
èĲ¥ éĶĢ
å¹¸ ç¦ı
èĩª è¡Į
Ġtri ed
Ġdel ay
g t
Ġmiss ing
Î ¹
Y PE
Ġj o
à¹ ģ
Ġatmosp here
Ġexpl ore
Ġinter action
ç±» ä¼¼
ro ke
ch ron
AT A
à ¨
æĹ ģ
Ġy ield
Ġv ision
Ġtri al
I A
çº¦ å®ļ
Ġinn ov
he et
ĠS ocial
å¿ĥ èĦı
$ =
åĮ» å¸Ī
æĹ¥ èµ·
c urrent
Ġshow ing
Ġdig its
Ġdiagn osis
() :Ċ
Ġwon der
çī ¢
Ġspe ech
åįı ä¼ļ
ĠIs rael
æīĵ éĢł
ri p
17 0
å®¡ æŁ¥
E nd
Ġob ser
Ġp ool
Ġhead er
Ġdis orders
ern el
t n
è¿ Ł
Ġredu cing
T C
up le
ĠG roup
Ġmeet ing
çĳ ŀ
æ³¨ éĩį
< sub
Ġeffect ively
/ t
Ġaccur ate
ĠIn itial
èĭ ¹æŀľ
. G
Ġplay ed
ibr ary
ĠB ra
Ġread y
if ul
æĭ ¼
re ci
åħ» èĢģ
è¿Ĳ ç®Ĺ
ĠE nd
ed it
% ãĢĤĊ
L ayout
( G
Ġcol umns
å¯¹ æĸ¹
ĠF urther
al a
we b
Ġtem plate
çļĦ è¦ģæ±Ĥ
Ġent ity
ĠB el
\ %
ear s
æĴ ¤
èĮĥåĽ´ åĨħ
os sible
æĲ ľ
Ġsh ap
æĿ¡ ä¾ĭ
áº ¿
_ add
Ġcoordin ates
M ethod
Ġnot es
< sup
ar p
el ines
Ġinteg ral
ãģ ĵ
Ġpre par
éķ¿ æĸ¹
Ġadv anced
____ _
å¾ĭ å¸Ī
è§Ĥ å¿µ
èĩª æ²»
åĶ¯ ä¸Ģ
äºĪ ä»¥
s m
adem ic
ro gen
æľīæķĪ çļĦ
impl ies
ä¸Ń éĹ´
Ġto wn
åĪ¤ åĨ³
Ġt ouch
Ġgl ass
Ġliter ature
ĠD ay
Ġf resh
Ġsm ooth
Ġslight ly
çĽ¸ ä¿¡
s v
Ġmov ed
è¡Į çļĦ
Ġun f
Ġprogram ming
ĠE st
Ġ( "
ri ve
æŃ£ç¡® çļĦæĺ¯
íķ ´
Ġtrans ition
x ff
] {
å¹¶ ä¸įæĺ¯
å°ĳ å¹´
( z
Ġ/* !<
h r
et te
æ¸ł éģĵ
é©± åĬ¨
èĽĭçĻ½ è´¨
Ab stract
Ġpl ans
å±ŀ æĢ§
ĠI mp
åŀ ĥ
Ġcard i
Ġpolic ies
Ġon to
Ġne arest
A re
æĸ° éĹ»
\ )Ċ
em ents
Ġoff ic
Ġfra ctions
åľ ¾
C K
åĬł å¤§
row ser
g al
Ġparent heses
çĽ Ĺ
gy pt
z on
10 6
g reg
Ġbelie ved
I ST
çī¹ æĢ§
Ġsex ual
çİ¯ ä¿Ŀ
Ġgr and
ç³» æķ°
åŀĥ åľ¾
Ch ange
) ãĢģ
è¿Ŀ åıį
: **ĊĊ
Ġf irm
)$ Ċ
Ġperiod s
å½¢ æĢģ
Ġpol ice
ub ic
semb ly
Ġne ur
Ġt ro
ann els
Ġpa id
Ġs ac
Ġsum mer
äºº çĶŁ
æľį çĶ¨
U RL
Ġuns igned
Ġpar allel
ym ph
c pp
Ġpie ces
å±Ĥ æ¬¡
ç¬¬ä¸Ģ æ¬¡
se m
è¾¹ çļĦ
du le
Ġsp ent
Ġc ere
æİ¥ è¿ĳ
P ub
Ġch ronic
æĶ¹ è¿Ľ
xi ety
/ >
ĠR iver
O b
. create
Ġh uge
ic ated
S QL
ĠCour t
éĶ» çĤ¼
Ġli ver
æķ°æį® åºĵ
çļĦ ä¸į
let s
urre ncy
Ġclass Name
æĪ¿ åľ°äº§
Ġcomp rehens
an ish
= (
Ġassess ment
D S
Ġconsist ent
K E
ĠPl an
ĠE conom
Ġthe orem
ĠT able
} _
Ġann ual
åŃĹ ç¬¦
ç¡ «
çľ¼ çĿ
at tr
æİ¨ å¹¿
ç¨ Ģ
ç³ĸå°¿ çĹħ
NA ME
Ġest imate
é«ĺ çº§
Ġconcept s
Ġinv ent
ĠFeb ruary
, y
å£ ³
Ġchall enge
è¶³ å¤Ł
â ħ
ä¸ª ä½ĵ
å¹³ æĹ¶
/ L
æĿĥ çļĦ
Ġsuggest ed
Ġdes ired
Ġman if
Ġl ock
Ġ" \
Ġt rac
Ġman ner
å¤ĸ éĥ¨
Ġl inks
Ġr ank
ĠEx p
æŀ Ŀ
ĠMed ic
_ de
Ġmain ly
Ġinflu en
Ġâ ĨĴ
Ġide al
h ost
Out put
å§ĭ ç»Ī
ĠAr ray
æ¸ Ĺ
Ġr ul
IN T
Ġrepe ated
æ» ĭ
Ġp y
Ġun e
Ex p
æĬ ±
Ġmod ified
F alse
Ġse ven
ĠIn f
h ouse
æīĢæľī çļĦ
åľ° çĲĥ
Ġe le
æľĪ ä»½
åı¯ è§ģ
B U
ä» ²
Ġplay ers
as m
æ¸ħ æ´ģ
Ġpl ate
çĸ ¹
2 20
å¹´ è½»
ä¸Ń æľī
æ³ µ
ant ed
Ġturn ed
v o
æĢ» ä½ĵ
Ġcamp aign
Ġn erv
ÙĬ ÙĨ
ä¸Ģ æĺ¯
Ġsal t
Ġte eth
è° ĭ
imens ional
Ġag ree
è®º æĸĩ
Ġwid ely
åĲĪ éĢĤ
-s h
Ġe ight
Ġsur vey
èĲ ¨
F actory
Ġpr inciples
Î ½
le br
åĲİ æĿ¥
Ġs en
ist ical
ax is
ĠJes us
Ġcontain er
ore t
art s
Ġinteg r
Ġ[ "
Ã ±
Ġg al
em ail
' .
Ġfrequ ently
Ġstring s
ars h
Ġdi vers
Ġb ond
æĤ£èĢħ çļĦ
urs or
ĠG l
a is
........ ........
Ø Į
C F
ĠìĿ ´
ãĤ Ĥ
RO M
AB LE
è¾ £
i ated
å®īåħ¨ çĶŁäº§
åħ¬ åĳĬ
est s
Ġfl at
Ġr ing
uc ose
æĪĲ çĨŁ
Ex ample
u ous
åģľ æŃ¢
ox ide
ĠA M
c d
ä¼ļ æľī
ï ¿
St ud
] :
ĠW ashington
æĶ¶ éĽĨ
çĽ Ĩ
â Ķ
( L
ĠĠĠĠĠĠĠĠĠĠĠĠĠĠĠĠĠĠĠĠĠĠĠĠĠĠĠĠĠĠĠĠ ĠĠĠ
Ġfin ite
å¥ ı
ä»£ è°¢
Ġmost ly
F l
ĠPh il
V is
çĶ¨ æĿ¥
ER T
ĠD irect
æĺ¯ æŃ£ç¡®çļĦ
ãĤ Ĭ
å¼ ¦
è¾ħ åĬ©
ich t
M on
g ative
Î ¼
Ġk ill
Ġconduct ed
æĶ¹ éĢł
æµĵ åº¦
Ġsign als
-------------------------------- --------------------------------
åĲ¸ å¼ķ
00 2
- T
R et
Ġveh icle
å¤§ éĥ¨åĪĨ
Ġpe ace
stit ut
or gan
Ġappro aches
ĠL i
Ġen able
Ġnet works
æīĵ å¼Ģ
Ġhe ard
l ate
é¦Ļ æ¸¯
Ġar ter
= True
p age
ÑĢ Ñĥ
n ames
Ġdes c
ph one
on ym
ĠS ervice
æĽ °
Ġ ðĿĳ
éĹ ²
å·ŀ å¸Ĥ
The y
Ġph ilosoph
ri an
Ġm outh
ĠThe ir
æİ¥ æĶ¶
ortun ately
P P
æ± ģ
ĠF ound
ĠO nce
Ġb rief
ĀĀĀĀ ĀĀĀĀ
åĬ¨ èĦī
èĲ¥ ä¸ļ
in ite
Ġpop ulations
Ġfru it
Ġcomb ine
Ð° Ð²
ç« ¹
Ġn h
Ġm aster
We b
ĠÐ ¡
m ation
ĠS ociety
éĵ º
( struct
us es
åħ¬ ä¼Ĺ
æĦŁ åĪ°
Ġopportun ities
k m
ĠIn formation
ĠR ober
ãĥ¼ ãĥ
ĠM ex
1 15
Ġdec ided
Ġìŀ Ī
in ations
$ .ĊĊ
ish ing
$ m
Ġorgan izations
æĪĳä»¬ å°Ĩ
åĵ² åŃ¦
å¹¿ ä¸ľ
éĥ½ ä¸į
è´¦ æĪ·
çĥ ¦
_t ime
el es
Ġf r
c ale
Ðµ Ð´
Ġre act
Ġdet ailed
Ġelectr ical
Ġamount s
param s
ĠIn s
æ³ķ çļĦ
åĲĮ æĦı
çİ »
Ø§ Ùħ
Ġp our
ĠW estern
éĩį å¤į
ili ar
ç§į æ¤į
E ng
ç»ı çĲĨ
Ġoccur red
or ter
åı¦ ä¸Ģä¸ª
æĥħ å½¢
éĩĩ è´Ń
å® ¿
éĢĤ çĶ¨äºİ
ä¾Ŀ èµĸ
åĩł ä¹İ
ĠCh urch
Ġsubject s
p arent
ä¸ŃåĽ½ çļĦ
Ġter rit
Ġsy ndrome
åıĳ è¡¨
å½ ¹
Ġconsider ing
äº« åıĹ
· ¸
åĿ ¦
Ġra ce
d t
ud d
Ġad ult
ne ctions
Ġcoll abor
| :
.f ind
ĠS olve
Ġpair s
amet ers
Ġcont ribute
é«ĺ æķĪ
Ġ rows
Ġquant um
O pen
èī ¾
Ġt al
et t
æµ Ĩ
Ġleg is
é©¬ åħĭ
ä½ĵ åĪ¶
ç»§ æī¿
Ø µ
è· ĥ
pe ed
Ġmen u
- related
å¤± è´¥
2 10
w ide
- R
åī ª
ĠL ong
B uilder
æ¬§ æ´²
Ġvis ible
ER R
Ġsp ring
å¹¶ åľ¨
ĠS ec
Ġrequest s
an cing
æķ´ çĲĨ
wh ile
å¸ĥ å±Ģ
éļ Ĩ
pert ies
ĠCont rol
ith ms
åł Ĩ
w ell
æİĴ éĻ¤
åħ± äº«
ä¸Ń æĸĩ
ĠG iven
æĿ ľ
ĠSe cond
j ection
å® ª
id o
ul s
äº ©
å¿ Ļ
Ã© e
ur ally
çļĦ çłĶç©¶
line ar
is k
çļĦ èĥ½åĬĽ
è§Ĵ èī²
Ġconflic t
å£° éŁ³
Ġn one
ip her
Ġab stract
p rivate
________ ________
S H
Ð¾Ð º
O W
Ġinvol ving
ĠM art
li k
at ural
å¤§å¤ļ æķ°
ci pl
em ory
Ġmeasure ment
åºĶè¯¥ æĺ¯
Ġassum es
Ġtemper atures
éĺ² æĬ¤
resh old
å¿ ł
Ġhe m
ol der
en a
Ï Ħ
_c ount
im et
é¢Ħ è®¡
ĠJ ames
å¹´ çº§
Ġstud ied
def ined
Ġd as
g ent
çªģ çł´
ÑĨ Ð¸
Ġill ness
18 1
Ġexperim ents
Ã ¥
ĠN on
. v
åįĩ çº§
Ġfeel ing
Ġcons ult
Ġhe ar
ç®Ģ ä»ĭ
åľ° çļĦ
Ġplay ing
Ġre nder
pp ing
L abel
ann ed
Ġdet ail
ĠW indows
äºĭ åĬ¡
F T
ĠSupp ose
éĺŁ ä¼į
Ġsitu ations
Ġth rows
Ġimpro ved
è·¯ å¾Ħ
Ġopp osite
âĢ ĭ
Ġe lev
Ġal b
ä»¥ ä¾¿
18 3
åı¬ å¼Ģ
çħ ®
Ġoff set
Ġpract ical
ĠColle ge
à¥ į
) ãĢĤ
Ġa u
op es
åĳ½ ä»¤
çļĦ å½¢å¼ı
ĠEx pl
ĠA ir
Ġj our
èĤĮ èĤī
Ġcou ple
OR T
Ġre ached
Ġr oute
Ġdiscuss ed
â ĺ
B ar
åŃ¦ æľŁ
æĽ² çº¿
Ø ²
Ãª n
ate ver
j e
Ġaut hent
ĠChe m
ãģ Ĥ
od ed
åľ° åĿĢ
Ġunder lying
ĠM odel
ä¼ĺ åħĪ
Ġdynam ic
ĠAustral ia
Y es
ĠOut put
10 7
ë ł
æķĻ æĿĲ
val u
å°ı çļĦ
ost er
çĸ« èĭĹ
Ġì Ĺ
Ġë §
ĠIt s
se arch
but ton
åľ¨ è¿Ļ
ĉĉĉĉ ĉ
èµ ¢
ç¼ Ŀ
ri ver
Ġris ks
Ġd Ã©
Ġno ise
ere n
Î µ
æ´ ª
ìĸ ´
å¿« ä¹Ĳ
comm on
af e
Ġcitiz ens
Ġ icon
u int
ĠS am
Ġtyp ical
D own
Ġhelp ful
c ar
ste in
ãĢĤ ï¼Ī
i at
á» Ļ
Ġc ro
ç»ĥ ä¹ł
Ġo cean
\ ).
å®¢ è§Ĥ
ell ed
é£Ł çĶ¨
Val id
ç»Ħ ä»¶
ent h
æİ¥ åı£
åĮº åĪ«
n ic
. class
Ġpers pective
m as
ffic ients
çĽ¸ åºĶ
Ġn it
éķ¿ çļĦ
ol a
om es
ap h
çŃ¾ è®¢
" )ĊĊ
c ase
ri age
as cular
æĥ³ è¦ģ
() )Ċ
Ġme ant
D L
åĪĹ è½¦
ĠP o
3 50
Ġex ceed
ä½ı æĪ¿
ä¼ĳ æģ¯
Ġpro s
Į Ģ
Ġf reedom
è¿Ļä¸ª éĹ®é¢ĺ
, âĢľ
] );Ċ
ĠIn te
æĬĬ æı¡
äºĭ æĥħ
Ġsym met
col or
åįĥ ç±³
å°Ĭ éĩį
ĠPro ject
ĠG reen
æĹĭ è½¬
á» ĩ
Ġsp end
èĢ ķ
Ġcontroll ed
è´¯ å½»
i very
Ġp ure
g amma
å¹¿ å¤§
Ġsp in
C I
çŃī çº§
æ·± åº¦
ä»¥ åīį
åıĺ ä¸º
éĥ ĳ
Ġbran ch
è Ŀ
ĠS al
E xt
\) .Ċ
is c
Ġdep ression
Ġw aves
B l
è®° å¿Ĩ
æł· æľ¬
{ n
Ġdo or
Ġw el
Ġext ension
ĠU N
Ġam pl
Ġincor por
Ġt ub
çĿ¡ çľł
çĽ® å½ķ
æł ı
Ġindust rial
~ ~
çĤİ çĹĩ
èĶ¬ èıľ
ĠVal ue
æµ ħ
ot ion
æŁ Ķ
Ġcare er
A m
çī µ
13 5
æ¯į äº²
å¿Ĺ æĦ¿
åħ±äº§ åħļ
Ġpos itions
æĮ ĸ
16 8
åĭ Ĵ
æ¸ħæĻ °
Ġì Īĺ
äº§åĵģ çļĦ
Ġport ion
Ġin her
ä¸ĵ éĹ¨
äºĮ æĺ¯
est ed
Ġre b
åĩº åıĳ
çļ Ĩ
Ġag ent
Ġins urance
.p ush
() ,Ċ
çļĦ å®ļä¹ī
æĬ¥ åĲį
o om
çĽ Ĵ
R ight
ç¤º èĮĥ
Ġnot ed
dev ice
Ġext ent
}\ ]ĊĊ
Ġn an
Ġbud get
ain ed
oper ator
æıĲ åīį
å¼ ¯
Ġpo inter
Ġcateg ories
å¤ļ æł·
Ã ²
il ed
el se
æ¯ı ä¸Ģä¸ª
ĠPro duct
Ġun less
b and
Ġg ender
æĳ ĺ
Ġhydro gen
éĢĶ å¾Ħ
Ġ ï¼Į
ad er
æĺ¯ æľĢ
å¤§ çº¦
an i
Ð¼ Ð¸
- G
ÑģÑĤ Ð²
Ġst able
åħ¬ è·¯
ĠH uman
Ã ¬
Ġin equ
Ġmus cles
Ġ{ \
By Id
ut s
ĠIntern et
Ġprof ile
Up date
er ies
w rite
Ġk illed
ĠP lease
ĠCong ress
çļĦ åĲĮæĹ¶
oth ing
ç¦» åŃĲ
- of
- k
ĠR ad
çĶµ æľº
å¾Ī å¤§
Ġ< -
, ,
ĠT HE
od er
Ġgra de
j s
( D
åĪĽ ä½ľ
ĠT ra
Ġtw ice
ĠÐ¿ ÑĢ
" );ĊĊ
ann er
. N
Ġmembr ane
m i
ç¥ Ŀ
Ġrespon ses
Ġmedic ine
er ior
go ing
& \
Ġencou rag
çľ¼çĿ Ľ
it ivity
plic ated
ĠM anagement
ten ance
æ·± åĪ»
ä¿Ŀ åŃĺ
å® ¾
æį ķ
ce ived
Ġex plicit
Ġcalcul ation
ĠPro v
åĽ½ æ°ĳ
T L
Ġsecond ary
ä¹ ĥ
izont al
æĪĳä»¬åı¯ä»¥ å°Ĩ
B S
ĠÐ½ Ðµ
Ġrec ip
Ġhappen ed
Ġstim ul
Ġassum ed
ang o
æµģ éĩı
çļĦ åıĺåĮĸ
Ġo dd
Ġcollect ed
Ġacc uracy
äº§ æĿĥ
Ġprof it
ĠDevelop ment
è¯ģ ä¹¦
ĠOr gan
_ value
å±± ä¸ľ
ric k
m g
Ġorgan ic
Ġhypot hesis
ĠSt and
é«ĺ éĢŁ
ĠE X
Ġall oc
ç© ´
i ot
Ġcrit eria
åģļ åĩº
Or der
ãģ ¾
Ġauthor ity
à¥į à¤
Expl anation
O ptions
ï¿ ½
ĠÐ Ĵ
éĩĬ æĶ¾
çģµ æ´»
n b
æıĲ äº¤
Ġst ories
ĠSt art
ä¼ł éĢĴ
Ġcam era
O DE
å¯ Ħ
è¿Ļæĺ¯ ä¸Ģä¸ª
Ġbe coming
ĠAdd itionally
Ġcolle ge
z ed
Ġquant ity
Â ±
Ġch urch
åĽ½ çļĦ
åĴĮ è°Ĳ
è®° èĢħ
æī§ æ³ķ
im ately
12 7
ĠC a
Ġb er
ic ed
F ig
ĠE very
ŀ ×
Ġsu itable
è¡¨ç¤º ä¸º
ĠCent ral
ĠEng ine
Ġm ere
Ġn ative
Ñ Ħ
åĩº çĶŁ
lo pe
åĤ ¬
Ġm ission
om orph
Ġes c
W idth
Ġke ys
ĠS en
Ġ( *
ë ©
åĵģ è´¨
_ ex
ĠEduc ation
æĤ ²
ĠF unction
Ġmod ify
Ġì ĭ
çĴ ĥ
ann ot
/ f
Å ¡
un gs
æĲ º
Ġtest ed
_ get
Ġdifferent ial
_ cl
ĠE gypt
Ġs oci
æ° ¯
çĽ´ å¾Ħ
.s p
åľº æĻ¯
Ġ> >
äº¤ æį¢
Ġth in
Ġlead ers
Ġe cho
) {
Ġm ixed
å¼º çļĦ
ĠN ame
è¿ĩ æķı
Ġm obile
Ġj son
ci um
Ð¾Ð ±
Ġseg ment
o ose
Acc ording
con nect
ĠA lex
18 2
Ġm ice
et ing
U sing
ĠR ich
åľ¨ æŃ¤
ãĢĭ ãĢĬ
clud ing
Ġtechn ical
in ition
Ġce lebr
Ġbir ds
w in
rit er
ä¹Ł è¦ģ
åı ī
åĪĨ ç¦»
ç¨İ åĬ¡
Ġrecord ed
ĉ public
æĺ Į
áº £
ë Ĥ
ig inal
åĳĪ çİ°
åĲ¦ åĪĻ
ĠF igure
Ġemot ional
\ ,
en v
g ment
Ġinf ections
Ġincor rect
Ġinter view
åĬ¨ è½¦
ro t
ent er
Ġg all
Ġ ul
l f
ç¨ ¿
Ġphys ic
åħ¬ å¹³
æ¾ ³
**************** ****************
çĲĨ çĶ±
Ġv ote
Ġare n
Ġpotential ly
ult i
ag er
an el
cycl op
" ))
åįĥ åħĭ
Ġwh om
Ġke pt
çļĦ æķ°æį®
Ġra ised
AT ION
åĲĳ éĩı
Ġbegin s
H z
ä¸ĵ åĪ©
Ġbi ological
åıĸåĢ¼ èĮĥåĽ´
Ġe c
ĠGree k
augh ter
éĺ² æİ§
Ġun known
. assert
Ġt ick
Ġgu ess
Ġtrans mission
Act ivity
é¼ ł
a per
Ġeg gs
å¾Ĺ åĩº
Ġn erve
d elta
A I
Ġst ores
çļĦ åħ³éĶ®
Ġf ert
åĺ ´
ol y
port s
ar ante
ĠHT ML
Se e
æµĻ æ±Ł
ãģ Ĩ
æĪĲ äºĨ
Ġhol ds
11 4
i y
Ġs ed
Ġch osen
oid s
11 3
Ġr ational
åĽ´ ç»ķ
r ho
Ġf elt
ç© ·
em ic
opt ions
æľī æĹ¶
çļĦ å¿ĥ
ĠC S
èĤ¯ å®ļ
Ġv ul
è®¿ éĹ®
çļĦ åħ·ä½ĵ
end if
Ġdri ver
Ġprodu ces
Ġt ab
å» ī
å¢ŀ å¤§
ìľ ¼
çĤ Ĵ
ãģ ķ
Ġd f
. value
Â Ń
Con st
æ¡ Į
Ðº Ð¸
Ġprep ared
ï¼ į
ä¼ł æŁĵ
å¯¹ å¤ĸ
p c
Ġl ose
Ġc art
im a
Ġph osph
. )Ċ
çļĦ çĶŁæ´»
Ġeval uation
Ġinf o
ĠW ater
åĴ ½
Ġm g
Ã Ł
Ġag reement
ĠS ign
æ¶Ī æģ¯
ä¸Ń å°ı
Ġse ctor
S upp
åı¯ æĺ¯
Ġd ans
åľ ³
ĠAssoci ation
å°± èĥ½
< String
å¿ĥ çļĦ
Ġm ys
Ġfour th
` .Ċ
å·¥ä½ľ äººåĳĺ
èĤ ©
Ġhelp ed
å¯Ĩ åº¦
éĢļ éģĵ
ìĬ µ
ĠS QL
åħ¶ æ¬¡
ĠJapan ese
F inally
ĠP ower
Ġs and
Ġa f
æ³ķ å®ļ
Ġint ended
Ġpro ceed
è§£ çŃĶ
Pro v
Ġwhere as
Ġexp ansion
st all
Ġdist ingu
14 1
_P os
å· ¡
S O
_C ON
Pro cess
Ġrun s
Ġconcer ns
ĠC H
oy al
Ġun iform
é ĸ
ë §
ĠOn ly
" ),Ċ
âĢĿ .
æħ İ
Ġby tes
æ¸ ¡
ĠT itle
Ġ\ )ĊĊ
ent ry
å®ŀæĸ½ ä¾ĭ
çļĦ è¿ĩç¨ĭ
Ġw ife
æ·± åľ³
a a
ol f
] ]
è¦ģ ç´ł
Ġk in
Ġt un
Ġsub stant
Ġd b
éģĹ ä¼ł
ĠJ ul
è®© æĪĳä»¬
Ġkeep ing
y st
is p
Ġclaim s
11 7
Ġ$ $\
Ġprom ote
Ġmathemat ical
ĠS um
Ġexplain ed
ut ive
çªģ çĦ¶
ä¸Ģ å¤©
Ġar riv
Ġmor ning
Ġconsequ ences
)$ ,
Ġun iverse
éĿĻ èĦī
åĩı è½»
h av
ç °
Ġpartic le
å£ ¤
ĠSp ring
ëı Ħ
åħ¬ å¸ĥ
Ġbound ary
Ġs ounds
Ġo d
ä¸ĵ é¡¹
Â «
å¹¶ æ²¡æľī
Ġo u
_ j
Pro duct
y r
Ġcol ors
è ²Į
Ġdist ributed
re p
Ġcl oud
O ff
Ġlay ers
æīĢ éľĢ
Ġflo or
re ated
as i
ĠAs ia
Ġd uration
xt ure
ç¬¬ åħŃ
Ġinde ed
Ġtell s
à¹ Ħ
Ġshe ll
{ R
ĠDef ine
å°± è¦ģ
Ġch apter
æ¨¡ æĭŁ
olog ist
Ġ×Ķ ×
_ un
åĢ¼ å¾Ĺ
Ġcoe fficients
Ġform al
Ġjob s
: **
erv ices
Ġbro ther
in fo
ou ter
æĪĲ å¹´
######## ########
ĠWill iam
re q
Ġout come
UL T
Ġapp arent
ĠA v
Ġext ended
éĻ ¶
Ġemploy ee
è¾ĥ ä¸º
ill a
Ġt it
Ġcomp osition
The n
12 2
"> </
è¾ ŀ
ï¼ī ĊĊ
Ġexperien ced
åħ¨ ä½ĵ
on ly
C ons
âĹ ı
v ice
æīĢ ç¤º
ell ent
12 6
åıĺ æĽ´
Ġdis pl
æľī çĿĢ
Ġd in
ĠWh ite
aut hor
Ġaw ait
Ġinter actions
Ġsequ ences
Ġb or
j ust
éĴ ł
åħħ æ»¡
è¿Ļæĺ¯ åĽłä¸º
æī© å±ķ
æķĪ åºĶ
å¢ŀ åĢ¼
Ġfeed back
- the
as p
èĻ İ
è¿ĺ åı¯ä»¥
h ab
_ ch
d raw
Ġan xiety
ĠB re
è¾¹ å½¢
Ġg od
Ġlead er
å®¶ çļĦ
æł¡ åĽŃ
æĬĽ çī©
Ġimplement ing
é¢Ħ ç®Ĺ
ĠS at
ĠRetrie ved
Ï ģ
Ġlat est
æĸ ¤
Ġc a
Ġur ban
ç¦» å¼Ģ
und le
çĪ¶ äº²
èĤ¡ æĿĥ
Ġvit amin
H el
wo od
ĠPM ID
Ġres olution
åħ³ èģĶ
æĭħ ä¿Ŀ
éĺ² æ²»
Ġr ough
Ġpart ies
Ġproced ures
å® ħ
é©¬åħĭ æĢĿ
b ine
Ġw inter
åıį å¤į
åĴĮ ç¤¾ä¼ļ
çŃ ĭ
Form at
k er
Ġwe alth
èĳĹ åĲį
Ġcor por
Ġnumer ous
Ġo rient
Ġdis p
Ġ Question
åİŁ å§ĭ
å§ ľ
æľ¬ æĸĩ
ari able
Ġpl ays
r ition
å¤ļ æ¬¡
ĠSt at
Ġgl ucose
Ġd ram
Ġp el
Ġdes pite
ĠT O
çĶ ľ
à¸ Ī
Ġpar se
O ther
Ġ ion
U rl
) ]
clus ive
Rep ository
å¤§ åŀĭ
è°ĥ çĶ¨
ĠÎ ±
Ġle aving
å¿ Į
Ġfa ith
çļĦ ä¿¡æģ¯
ä»¥ ä¸ĬçļĦ
æł¼ å¼ı
r ary
ãĢĤ (
å§ Ĳ
æĻ ĭ
em ia
éĤ£ ä¸ª
0 64
å¥ ī
ĠA R
åı Ļ
çĽ¸åĲĮ çļĦ
11 8
ĠĠĠĠĠĠĠĠĠĠĠĠĠĠĠĠĠĠĠĠĠĠĠĠĠĠĠĠĠĠĠĠĠĠĠĠĠĠĠĠĠĠĠĠĠĠĠĠĠĠĠĠĠĠĠĠĠĠĠĠĠĠĠĠĠĠĠĠĠĠĠĠĠĠĠĠĠĠĠĠĠĠĠĠĠĠĠĠĠĠĠĠĠĠĠĠĠĠĠĠĠĠĠĠĠĠĠĠĠĠĠĠĠĠĠĠĠĠĠĠĠĠĠĠĠĠĠĠ ĠĠĠĠĠĠĠĠĠĠĠĠĠĠĠĠĠĠĠĠĠĠĠĠĠĠĠĠĠĠĠĠĠĠĠĠĠĠĠĠĠĠĠĠĠĠĠĠĠĠĠĠĠĠĠĠĠĠĠĠĠĠĠĠ
ĠPro cess
åĨĻ ä½ľ
ĠÂłÂł ĠÂłÂł
åı¤ ä»£
Ġ ÑĢÐ°
ace book
Ġcertain ly
an es
çİ» çĴĥ
ĠÐ Ł
L ink
Ġhas h
Ġ" /
ĠH en
Ġmechan isms
st ood
Ġrec o
è´Ł æķ°
it ness
å¸¸ è§Ħ
ĠV ir
est amp
Ġdim ensions
Ġaffect s
ä¸Ģ ä½į
å¿ §
ĠPro te
éĶĻè¯¯ çļĦ
Ġvo ice
éĺ¶ çº§
E O
ä¹ĭ å¤ĸ
Ġtra ffic
al i
ï¼ ħ
Ö Ģ
Ġra w
æķ° åĢ¼
ä¸į éľĢè¦ģ
_ a
åĬł éĢŁ
å¤© çĦ¶
ä½ĵ åĨħ
ĠD el
èĦ Ĭ
æĿ °
æľĪ ç»ı
c ious
Ġlim its
Ġs od
èµ ¶
N um
çºł çº·
ed y
D ep
ĠAnal ysis
IN E
St r
Ġm ur
æ° Ľ
c ore
iss ues
Ġcom fort
Ġcon version
åı¯ éĿł
Cont rol
ĠT w
Ġadminist r
æ°´ æŀľ
Ġtechn ologies
Ġli ber
" :Ċ
ĠA ND
LE CT
Ġprom pt
T E
ĠE r
ific ial
Ġexp osed
Ġ ::
è¡¥ åģ¿
U se
æ» ŀ
O per
Ġst rict
L ast
åĨ »
æ¿Ģ åĬ±
Ġhe aring
it z
åĽ¾ å½¢
Ġlist s
Ġm as
åĽ½ æľī
è½¬ åŀĭ
Ġprof ession
ĠNew s
Ġelectric ity
ro g
ç¦ģ æŃ¢
Ġaccount s
ist ent
çĽĳ æİ§
åĬĽ åº¦
Ġconcer n
åĪĹ è¡¨
Ġtalk ing
clud ed
olog ists
Ġsc an
C ase
Ġdec ide
çĽ¸ ä¼¼
éĿŀ æ³ķ
Ġsc ope
.p ng
åħ¶ å®ĥ
Ġsum mary
Ġsc ene
åŃ©åŃĲ ä»¬
t x
ä¸Ģ æ®µ
æį ·
l ast
æ¶Ī éĻ¤
Ġte ach
. $
æ³ »
h as
cent er
å¦ Ļ
n ode
Ġopen ing
ç»¼ä¸Ĭ æīĢè¿°
ä¸°å¯Į çļĦ
) `
l ocal
Ġfam ous
Ġdet ection
Ġcoe fficient
S earch
T oken
Ġmanag er
åĿ Ľ
ĠDo es
j i
çĶ¨ èį¯
èĸ ª
pl ant
Ġobject ive
Ú ©
ä½ĵçİ° äºĨ
Ġp in
Ġst ated
AT H
ĠM ake
Ġpow ers
çī© ä½ĵ
Ġadv ance
Ġphys ics
_ y
Ġres ist
In teger
Ġmor al
17 5
æĻ ĵ
", "
Ġrelig ion
O ur
ic ular
Ġbl ocks
ä¿® å¤į
our se
( {Ċ
^ n
Ġ\ )Ċ
æıĲ åıĸ
empt y
åĲĦ çº§
Ġapp oint
Ġpre v
oun ced
Ġri ver
å¤Ħ çļĦ
end ar
c up
éĩį éĩı
Ġeduc ational
: (
13 2
ĠJew ish
Ġre actions
Ġc ognitive
ain er
ĠH IV
çİ°ä»£ åĮĸ
ri um
Ġinterest s
è´§ çī©
Ġmole cular
o pl
F A
é¥ ±
æ· Ģ
ar ia
çĶŁ çĲĨ
à ¼
Ġcontrol s
çŃī æĸ¹éĿ¢
al ian
ĠP y
Ġ"" "
Ġrem ote
it ative
Ġdeb t
ag raph
Ġcho ices
Ġfocus ed
è¿ĩ åº¦
ç§ ©
in ux
( N
æĪĲ å°±
ĠL ine
Ġsh ip
Comm and
ç µ
ä¸į ç¬¦åĲĪ
Ġmonitor ing
è§£è¿Ļä¸ª æĸ¹ç¨ĭ
Ġattack s
d ir
ad os
n ull
Ġin ches
am il
ĠRe f
F ilter
M ode
ind u
head er
ĠÂ »
æĪ Ĵ
17 9
cl ick
Ðµ Ð¹
ä¿Ŀ çķĻ
æĹ¥ æľŁ
ìĬ ¤
c ers
å½¢ çĬ¶
O H
è¿Ľ åı£
Ġsec ure
Ġal le
Ġaccept ed
- level
ĠĠĠĠĠĠĠĠĠĠĠĠĠĠĠĠ ĠĠ
æľ¬ è´¨
r ant
20 3
Ġupd ates
è½¬ è®©
Ġcontin ues
Ġneigh b
Ġcomp r
ĠCount y
IZ E
Ġdoc uments
Ġinstr ument
Ġacc um
ĠS ing
off set
çĶ± æŃ¤
ĠA S
çļĦ è·Ŀç¦»
Ġenh ance
Ġ ÙĬ
Ġl ov
. Get
ä¸į å¥½
å¿ħ çĦ¶
ĠS k
æŃ£ æĺ¯
Ġgra d
åŃ£ åº¦
ĠI l
/ g
Ġengine ering
I E
Ġachie ved
ĠĠĠĠĠĠĠĠĠĠĠĠĠĠĠĠ ĠĠĠĠĠĠĠĠĠ
er ate
Ġprincip al
Def ault
Ġse ctions
M ax
Ø ®
and a
Wh ich
ed ge
Ġby te
ç´§ å¼ł
b en
æ°´ çļĦ
) ãĢĤĊ
Ġsurv ival
Ġ à®
Ġadv ice
] ï¼ļĊ
å§Ķ ä¼ļ
ĠC ouncil
m ic
-------- ----
leg al
Ed it
_ E
ĠL ife
åĢº åĪ¸
ĠÐ· Ð°
çĪ ·
Ġdisco ver
çģ Į
Ġcl ar
ãģĹ ãģ¦
Ġsub stance
r int
Ġmov es
æł ĵ
Ġdim ension
Ġimp ossible
æĤ Ł
on ia
Ġ ãĢĬ
Ġdec ades
åįļ å£«
åŃ ¤
çļĦ æ²»çĸĹ
Ġcomp ute
å½ ¼
à¹ ĥ
? ?
åĲĪ æĪĲ
Ġp ix
M enu
æĬ «
Ġimplement s
ĠT ur
ä¸Ĭ æ¶¨
ãĥ «
ĠUS A
ìĿ ¸
Ä ħ
ç±» çļĦ
åľ° çĲĨ
Ġtum or
Ġp ark
äºº ç¾¤
Ġbehavi our
ĠA rab
ä½Ĩ åľ¨
ĠB ank
Ġac ids
Ġp urs
åĵģ ç§į
å¦Ĥæŀľ ä½ł
(- \
ä½¿çĶ¨ çļĦ
ä¼ł è¾ĵ
çļĦæľĢ å¤§
è¥¿ æĸ¹
Ġb ow
Ġautom atically
Ġmeasure ments
æĿ¡ä»¶ çļĦ
æĭħ ä»»
( j
ĠD an
Ġtem p
åı¯ çŁ¥
ĠQ ue
ç¬¬äºĮ ä¸ª
éģµ å®Ī
Ġbig gest
et e
Ġres pir
ĠCon f
Ġgu arante
iz z
ĠÐ ļ
Ġfact s
æµ ¸
> username
ãĢĭ ï¼Ī
è¯´ çļĦ
Le vel
Ġb le
AG E
ĠM il
é© »
à¸²à¸ £
å¿ħè¦ģ çļĦ
è®¤ çŁ¥
act s
ç¢ °
H P
å¯¹ åºĶçļĦ
Ġph r
j avascript
R C
çĸ ²
ìĬµ ëĭĪëĭ¤
Ġem p
r or
ipp et
Ġy ellow
Ġp ip
çĶŁ åŃĺ
å¹¼åĦ¿ åĽŃ
\ sin
éĥ½ èĥ½
du ction
æ¡Ĩ æŀ¶
Ġun t
é» ı
Ġend s
ad s
Ġb right
Ġj u
Ġman ip
å¼º åĪ¶
åĺ ī
ĠPer form
as ma
Ġì Ħ
Ġb its
ĠK ore
åĴĮ åħ¶ä»ĸ
ä» Ļ
cdot s
Ġnumer ator
æĮĩ å®ļ
Ġfor ced
Ð¸ Ð»
n i
ĠH ome
f alse
Ġb attle
et ies
Ġst ick
éģµ å¾ª
å¯Ĩ åĪĩ
ä½į æķ°
Ġinstit utions
$ b
M B
ĠN av
Ġobserv ations
Ä Ļ
ch a
ä¸ī å¹´
èĪ Į
à µ
ĠZ e
ri ents
Ġ ï¼īãĢĤĊ
Ġwe ap
13 3
è¡¨çİ° ä¸º
} /
Ġdisc ount
Ġgard en
in ated
Ġopin ion
å®¡ æł¸
Ġadd s
é£İ æł¼
æŃ£ç¡® çŃĶæ¡Īæĺ¯
ç®Ĺ æ³ķ
ĠĠĠĠĠĠĠĠĠĠĠĠĠĠĠĠ ĠĠĠĠ
ld ots
ä¸¥éĩį çļĦ
Ġhapp y
åį §
çĶ³ æĬ¥
Ġn g
è¦ģ æ³¨æĦı
Ø§Ø ³
Ġ- ->
t yp
C urrent
æ» ļ
ol ving
Ġj oin
Ġin sect
æŃ£ æķ°
Ġphot o
ÙĦ Ùī
Ġexpress ions
sh ow
Ġact s
Ġre in
ï¼Į $\
Ġpl astic
éľ ī
ä¸Ģ ä½ĵ
çİ° æľī
ĠO per
¬ ¼
St yle
è¯ Ī
ç»Ļ åĩº
åĢ ¡
Ġcon nections
06 2
ric es
17 8
w ar
ĠF ore
Ġrepl aced
11 6
ãĤ ¤
æ·± åĮĸ
Ġpol ar
Ġexpl anation
, b
æĳ ĩ
ĠLe vel
m id
let ed
çļĦ ä¸»
Ġext reme
Ġnorm ally
Ġo l
ap se
Ġadminist ration
é«ĺ äºİ
åįĬ å¹´
å¤© æ°Ķ
è±¡ éĻĲ
æ³ķ æ²»
F O
é« ĵ
Ġserv ed
çļĦ çĽ¸åħ³
æİ¥ çĿĢ
++++ ++++
Ġcharacter istic
ploy ment
åįĩ é«ĺ
Ġ[ '
éĥ½ åľ¨
æŀ ª
åĬł éĩį
Ġfac ilit
æĶ¯ åĩº
ĠK ey
r ates
) {Ċ
ĠEn vironment
W indow
{ C
ĠGe orge
Q U
ĠO F
ĠV is
åĮħ è£ħ
_ EN
Ġpay ment
ä¹ĭ åĴĮ
ang ular
ç¨ į
Ġt ables
Ġen em
Ġl atter
Ġv ac
Ġmanufact ure
m o
âĪ ł
Ġ ÑģÑĤ
is ters
Ġper man
éĶ ¥
ain ing
çĭ¬ çī¹
Ġre form
Ġend point
ĠZ h
è§£ å¾Ĺ
Ġvert ical
4 50
ic ations
Ġpass ing
Ġst uff
ĠM ax
Add ress
" ><
Ġproport ion
å®ŀçĶ¨ æĸ°åŀĭ
å¯» æī¾
.p ath
E ach
T ask
1 19
$ P
åģ¥ åħ¨
å¤ º
Ġt ail
Ġhand ling
ist an
ci ence
Ġd ut
ĠM ary
ç¼ĸ åĪ¶
ĠT V
éĶ Ĳ
es is
åĲ ¹
éĥ½ è¦ģ
F ind
P osition
Ġc ash
Ġdep artment
Ġsc ores
åŃĲ å¥³
åľ° çĤ¹
Ġt ut
åİŁ æĸĻ
ane ous
ER S
Ġcomplex ity
æĺ¯ æľī
Ġfam iliar
æĴ ŀ
æİĴ æĶ¾
Ġz one
Ġh at
ĠØ ³
M in
f il
Ġ[ ]
çĹ °
Ġse ed
Ġcon vent
He ight
)$ ãĢĤĊ
éĴ »
Ġident ifier
æ°Ķ åĢĻ
çĶ· æĢ§
ĠM ass
Ġexpl ains
Ġread er
ool s
Ġlook ed
Ġm aps
Res ource
å®ļ çĲĨ
Ġaud ience
åķĨ åĬ¡
æĽ´ ä¸º
åİŁ æĿ¥
çĶ² çĬ¶
ĠL ike
çģ« çģ¾
C o
ĠInst ead
ç£ ·
ĠSt re
ĠJ oh
ĠN a
ä¼ĺ è´¨
-d imensional
" ;ĊĊ
Ġh un
ul um
ç¬¦ åı·
ann ica
Ġat oms
A V
v i
Ġp ump
Ġvict im
å®¡ æī¹
AB C
An other
éĽ ¾
éĥ¨ ç½²
y roid
Ġunc ertain
ĠP oint
èĩ £
æľ¬ åıĳæĺİ
S implify
ch i
ç®Ģ ç§°
ĠBrit ain
ä¸Ģ é¡¹
æĮĩ æĮ¥
AN D
é¦ Ī
Ġì Ĥ¬
ĠRuss ian
Ġdepend ent
ĠJ ack
æĤ ¬
_st ate
çļĦ åıĳçĶŁ
im m
Ġpurch ase
Ġdriv ing
Ġsens itive
_ index
ç§¯ ç´¯
çº ²
æ¿Ģ åıĳ
èĬĤ çĤ¹
Ġst ages
M any
Ġinst ructions
Ġque ue
çļĦ åı¯èĥ½
çº¿ ä¸Ĭ
ĠAn n
ĠIs lam
ri end
Ġk new
os c
Ġmarket ing
P os
åĢŁ æ¬¾
ec ute
å® Ļ
Ġ* )
c in
çŃ Ľ
çıŃ çº§
ä¹ĭ ä¸Ń
u id
æķ´ åĲĪ
Ġap art
Ġa id
P M
Ġc ache
ä¸į å¤Ł
ĠB ay
è¿ ª
Ġqu ot
å°ı æķ°
Ġturn s
Ġb in
çĶµ æ°Ķ
åĲĮåŃ¦ ä»¬
rol og
æĭ ľ
+ y
ĠE p
ĠG ood
ĠC ap
ĠT reat
ĠW rite
Ġclos ely
Ġsh op
è¡Ģ ç³ĸ
åľ¨ ä¸Ģèµ·
Ġnecess arily
Ġ&& Ċ
- z
ĠD O
éĨ ī
ä¸ ¸
éĶ ĭ
Ġst em
B lock
èĥ ģ
æĽ¾ ç»ı
æ¶Ī æ¯Ĵ
Ġkind s
ag on
é¡º åĪ©
dd en
f it
ä» °
ÑĤ Ð¾
Ġ) ãĢĤĊ
å°º å¯¸
å¸¸ æķ°
ĳ ×
Ġtrans formation
Ġpregn ancy
Ġconcer ned
Ġqu i
Ġout er
Ġ{ {
åĽ½å®¶ çļĦ
è¯» ä¹¦
Ġ*/ ĊĊ
åį± æľº
Ġb inding
çĤ Ń
å®¡ çĲĨ
ä»¥ ä¸º
Ġhealth care
o es
g i
f all
Ġtox ic
it ems
Ġc as
ĠW il
Ġorgan isms
Ġmark ed
V er
Ġcomp ounds
å¤± åİ»
ocr atic
Ġappear ance
S erver
Ġval u
Ġ Å
çļĦåŁºç¡Ģ ä¸Ĭ
åĩºçİ° äºĨ
Ŀ ¼
ater al
w ing
Ġme ets
Ġhundred s
D ec
ta u
Ġz u
c at
åİ» å¹´
Ġser ial
å®³ äºº
< T
.t xt
Ġthough ts
Ġlar g
Ġtop ics
ing ly
æĬĢ å·§
bl ock
13 1
cont rol
æ¬¡ æķ°
æķĪ çĽĬ
f loat
ĠTechn ology
12 4
Ġg ar
ĠGovern ment
em a
ĠL ou
Ġposs ibility
è®¾ æľī
Ġl ived
ĠDet ermine
åŃĺ æ¬¾
G e
è¿Ľ ç¨ĭ
Ġë ĭ
Õ ¸
Ġc ars
å§ ¿
Ġf illed
Ġb es
pro duct
ĠRuss ia
ĠE mp
Ġb ag
F S
ud e
Ġdog s
åĽ¾ çīĩ
el ess
Ġst ability
Ġprint f
Ð» Ñı
v an
çļĦ é£İéĻ©
Ġê ·¸
Ġf oss
Ġmay be
çļĦ åıĸåĢ¼èĮĥåĽ´
åĿĩ åĮĢ
æĿĥ åĬĽ
Ġcon j
- ch
Ġins ulin
à¸ Ľ
ĠPro blem
Ġtri p
Ġl ung
ĠW H
Î »
èĵ Ħ
play er
å¾Ī éļ¾
çİĩ ä¸º
Ġ ï¼īĊ
Ġc ards
Ġposs ibly
AL L
Ġgir ls
ĠI II
Ġpan el
å®¹ éĩı
çļĦäºĭ æĥħ
Ġear n
Ġreco very
æĢĿ è·¯
ĠThe ory
ä¸» å¸Ń
# endif
ĠâĪ Ī
Ġlist ed
èµ ¤
å°ı é¢ĺ
me ga
Ġsp ot
ĠIm age
Ġconf idence
ĠRe act
å¦ĩ å¥³
om ain
as y
åĭ Ł
åĢ¼ ä¸º
ĠM ultip
B uffer
Ġis land
} (\
åľ¨ ä¸ŃåĽ½
è¾ ī
æĽ´å¥½ åľ°
ĠSp anish
æĿ¡ä»¶ ä¸ĭ
å¹¶ éĿŀ
Ġd ialog
ĠØ ¯
! --
Ġcy cl
Ð°Ð½ Ð¸
æı Ń
K e
çĶ¨ äºº
hol der
Ġsu dden
Ġinteg ration
Ġim plies
á» ĳ
Ġdetect ed
Ġint ent
Â· Â·
ĠE nt
Ġcont ents
C B
( name
Ġdisc rim
ipp ed
å±ħ ä½ı
à¸ ·
éķ¿ æĹ¶éĹ´
æ¬ £
Ġrev olution
Ġt rib
) :ĊĊ
çĹħ åıĺ
Ġcr im
å¾ ¡
çļĦ åĨħ
g ener
Ġac ademic
Ġrespons ibility
è¿Ľ èĢĮ
f ind
c is
Ġp ri
R T
ĠTh omas
Th read
F unction
all oc
è®¤ è¯ģ
é¸ £
Ġbusiness es
Equ al
èĪª ç©º
Ġmetab ol
è¿Ļ æ¬¡
åħ·ä½ĵ çļĦ
åĲĦ åľ°
å¹² çĩ¥
j o
é«ĺ è¡Ģåİĭ
Ġtrans action
æķı æĦŁ
is hes
Ġreve aled
åįģ äºĶ
Ġcir cul
Ġdiv iding
} -\
éĤ ¦
Ġown er
ser ver
è¿ĺ ä¼ļ
ĠP sych
t op
åı ł
. py
ĠM ap
ĠG al
ithm etic
at ial
Ġcl ock
èħ ¾
åıĳ éĢģ
ê µ
ĠB ig
ÑĤ Ð¸
eth yl
B ook
Ġdef ect
Ġexperim ental
äº§ éĩı
V ID
çļĦ åŃ¦çĶŁ
A nal
åĲĳ ä¸Ĭ
å®ĥ æĺ¯
Ġassoci ation
R S
Ġass ets
}$ .
æ³¨ å°Ħ
åŃ¦ èĢħ
Ar g
\ {
Ġar my
æ¡ Ĥ
æ¯ ģ
è¸ ª
ib ilities
ĠComp any
Ġem issions
Ġo k
Ġapp reci
Ġch art
Ġl ymph
æĲ ŀ
æıĲä¾Ľ çļĦ
rast ructure
M ost
ĠCh apter
Ġinstit ution
ad ow
ac ent
pl ed
èĥ °
] $
lo se
all ow
13 6
Ã¡ s
l ines
Ġ( `
" .Ċ
ç®¡ éģĵ
al am
çľŁ çļĦ
ĠMed ical
Ġm ouse
. on
uz z
ĠWh o
AC T
) )ĊĊ
Ġsupport s
Ġvari ation
Ġ{ "
Ġvul ner
ĠP en
ĠMich ael
or al
æĸ° æĹ¶ä»£
Ø ¶
Ġcon clusion
Ġdel iver
Col umn
å®ĩ å®Ļ
å§ Ĩ
èĤº çĤİ
ak ers
æº ĥ
åľŁ å£¤
Ġhe nce
" }
I X
Ġs lope
ik i
èį ¡
ĠW ell
Ġsm art
Ġcons cious
s w
15 3
M D
åı¯èĥ½ çļĦ
éĹ´ çļĦ
Ã ¹
ç¤º ä¾ĭ
Ġc atal
Ġclos er
i ology
ĠT op
Ġviol ence
Se cond
Ġunder stood
ç®Ģåįķ çļĦ
Ġsc al
ç» ³
åĴĮ å¹³
# if
) $$Ċ
h tml
çĶ²çĬ¶ èħº
Ġwh atever
æ´»åĬ¨ çļĦ
qu are
t ract
æľĢ ä½İ
EX T
Ġentire ly
_ key
ĠC ath
å°± åĥı
è®¾å¤ĩ çļĦ
Ġsubstant ial
Ùĩ Ø§
ä¸¾ åĬŀ
ĠC ode
Ñģ ÑĮ
Ġw ish
Pl ayer
ins ert
ĠM ag
ĠAn other
å¤© ä¸ĭ
åĬŀåħ¬ å®¤
Ġp ig
Ġsurround ing
im b
\ theta
Ġam b
Ġl ip
Ġwall s
èļ Ģ
æĪĳä»¬ çŁ¥éģĵ
æĢ ª
Ġinput s
à¯į à®
æıĲ éĨĴ
Ġlarg ely
æĺ¯ åĽłä¸º
Ġp as
ĠR ob
åĽĽ å·Ŀ
Ġstat istics
ï ¹
is is
Ġ} ;ĊĊ
r un
ĉ Ċ
ĠP et
è¿ĳ å¹´æĿ¥
ĠProf ess
åı° æ¹¾
ist a
Ġoff ered
Ġdel ivery
ç½ĳ ä¸Ĭ
e per
Ġmin ute
Ġmathemat ics
Ġme at
Ġs cre
Ġpain t
ĠS ov
Ġs ke
un it
åĢº æĿĥ
st atus
Ġl ie
å´ ĩ
Ġbeaut iful
av el
éħ ¬
_n ode
çĶµ èĦĳ
Ġw est
cos ystem
Ġve ctors
Ġwas n
Ġspect rum
Ġtreat ments
èµ ł
åĬŁ çİĩ
åĮº çļĦ
Ġap plic
æŁ¥ çľĭ
r at
P e
Ġv ast
Ġreplace ment
åĪ ł
Ġopt imal
ĠT H
ä¸´ æĹ¶
Ġexp ensive
å¼Ģ åħ³
Ġmain tenance
å¸Ĥåľº çļĦ
çī §
Ġto ler
çĤ¹ åĩ»
or rect
in n
R ow
Ġrapid ly
è®© äºº
æĪĲ çļĦ
ĠT om
16 5
è§Ĵ çļĦ
è¿Ļ å°±æĺ¯
Ġ" ,
u v
åĹ ½
åĪ° è¾¾
è¯ķ é¢ĺ
% .
æīĭ ç»Ń
T op
Ġcall ing
éĩĮ éĿ¢
Ġed itor
åĵį åºĶ
æł ª
æĦ¿ æĦı
Ġbro ken
åįķ è°ĥ
ire ction
ä¼¼ ä¹İ
- ex
éĺ Ķ
æİ ĺ
å¼ §
Ġcont ribution
èī °
il ib
é¦ĸ æ¬¡
Ġloc ations
å¯¹ æ¯Ķ
å¯ º
O K
å¤§ éĩıçļĦ
çŁ© éĺµ
æĭ Į
Ġ) ,Ċ
Ġd ed
c ard
ke ys
ĠA I
å± Ī
ç¡ ķ
Ġdes cript
åįģ åħ«
å¸¦ æĿ¥çļĦ
Ġalgor ithms
Ġdemonstr ate
//////// ////////
çľĭ çľĭ
ç»ıæµİ åıĳå±ķ
ĠSe ction
ãĥ »
j ango
Ġcharacter ized
Ġcall back
çĶŁæ´» çļĦ
ub s
Ġdo se
ãĥ Ī
che ma
12 9
à¼ ĭ
ad ian
æ¡£ æ¡Ī
un ctions
brid ge
17 7
- N
Ġe ll
ä¸»ç®¡ éĥ¨éĹ¨
ĠB ro
è¾ĥ é«ĺ
åĨĽ äºĭ
éĥ¨ çļĦ
Ġcircum stances
çĩĥ çĥ§
ck now
I LE
ä¸ļ ç»©
Ġbr and
âĶ Ģ
èĢģ äºº
Ġm ir
an al
rain ing
et al
{ m
u ing
èµ ģ
Ġinter net
ĠMedic ine
è´Ł æĭħ
ä¾Ľ ç»Ļ
Ġdanger ous
ä¸ŃåĽ½ çī¹èī²
Ġinst ruction
ĠC all
Ġro les
S ign
Ġsus p
ag en
Ġr id
ĠPr int
D C
å¾· åĽ½
ç¾İ ä¸½
ç»´ ä¿®
Ġfor t
Al though
Ġtrig ger
il ation
Ġass igned
Ġsignific ance
Ġcap able
ĠM ill
åįĹ çľģ
comm and
ĠM a
ĠH y
å®¤ åĨħ
çº¿ æĢ§
ç§© åºı
{ y
é¡¶ çĤ¹
æł¹æį® é¢ĺçĽ®
æ±Ł èĭı
ëĵ ¤
. '
é«ĺ çŃī
Ġd ir
_d ir
æ°¸ è¿ľ
Ġp i
as tern
Ġdecre ased
ç§Ł èµģ
M T
um a
ap pe
å¥¹ çļĦ
å¹³ çŃī
Ġchrom os
Ġor al
over line
viron ments
Ġl it
Ġte le
Ġinflam mation
ĠF ood
iv a
.sp ring
æŁĲ ç§į
åĪĩ å®ŀ
åķĨ æłĩ
Ġdi ameter
Ġb oy
ĠThe orem
å¯¹ åħ¶
Ġindic ated
çļĦ æķ°éĩı
Ġexc ellent
Ġexec ution
æĵ ħ
è§£ æĶ¾
äº ı
Ġsn ippet
Ġre venue
ct x
ĠC ell
èĢĥ å¯Ł
$ n
ä¸į çĶ¨
æī¿ åĮħ
14 5
17 6
Ġdom estic
çļĦ çī¹çĤ¹
ç¾¤ ä½ĵ
Ġposs ess
èĥ º
åĪ© æģ¯
Ġbatter y
³ ´
Ġs outhern
ä» Ķ
ĠB C
éħĴ åºĹ
aut h
çļĦ éķ¿åº¦
Ġk h
ĠS uch
ĠW here
æĺİ çĻ½
que ue
åıĳ çĥŃ
Ġst ret
ĠL u
éĹ®é¢ĺ æııè¿°
Ġrecogn ize
ç½ ©
Ġrecogn ized
\ cos
åĲ Ĭ
ay a
Ġcomprehens ive
{c ases
áº ¥
Ġquadr atic
ĠÐ ľ
ĠN ov
çł Ĥ
ä½ĵ éĩį
. \
çĥ Ĥ
çĻ½ èī²
ĠRober t
Ġê ³
æ¤ Ĵ
ar ly
g ence
ĠN or
Ġm ask
åľ° éĿ¢
Ġelectr ons
ĠÐ »
by te
Ġch annels
èĳ¡èĲĦ çīĻ
ĠA ccess
Ġanal og
crib ed
Ġnames pace
el le
é«ĺ è´¨éĩı
ĠL and
è§Ĩ ä¸º
Ġemerg ency
es ter
Ġcontain ed
cont in
Ġre ject
Ð¾ ÑģÑĤ
æıĲåĩº äºĨ
S L
ĠT ex
. *
à¸µ à¹Ī
D NA
è§£ éĻ¤
ĠEn ergy
( _
æ³ķ åĽ½
Ġing red
Ġag ents
æĭĴ ç»Ŀ
. put
14 2
_ str
ä¿Ŀ åģ¥
16 2
åĩºçīĪ ç¤¾
g ers
å« Į
åĴ³ åĹ½
Ġcal cium
? âĢĿ
Ġhelp ing
à¸ ¸
ol ars
uild ing
15 6
Ġdemonstr ated
ï½ ľ
lo ok
Ġf av
3 20
åľ¨ ä¸Ģä¸ª
Ġst om
am ine
åĽł åŃĲ
Ï ĥ
åİŁåĽł åĪĨæŀĲ
ÙĬ Ø±
åįģ åĽĽ
Ġprodu cing
C ell
Ġmove ments
æ³¢ åĬ¨
T ypes
f ramework
ost ic
ì Ľ
13 7
, B
æķ°æį® çļĦ
æ¬ ł
æĶ¾ åħ¥
è¡¨ è¿°
Ġcompet ition
Ġn om
Ġset up
Ġd ict
Ġmagn itude
var phi
ä¸» å¼ł
Ġ[ ]Ċ
ä¾Ŀ çĦ¶
Ġmat ches
æĬ ļ
Ġremain ed
è½¬ åıĺ
Des cription
èĢĥèĻĳ åĪ°
id ity
Ġast ron
åŁ ĥ
Ġl ies
Ġh idden
ç®¡çĲĨ çļĦ
æİĴ åĪĹ
ĠB et
Em ail
é£ŀ æľº
Ġintellig ence
itud es
Ġs ie
_t est
em pl
Ġacc ident
Ġt issues
å¸¦ åĬ¨
Ġar bit
Ġpr ison
äºĮæ¬¡ æĸ¹ç¨ĭ
ä¸ §
ĠM iss
äºĴ åĬ¨
Ġel if
Ġsu c
åħ¨ èº«
i ro
ĠO R
Ġre verse
% %
ë Ŀ¼
åĬ³åĬ¨ èĢħ
Ġappe ared
æľĢ ä½³
èİ ±
Ġl ayout
con s
Ġt u
æ»¡ æĦı
Ġb ott
im it
Ġn ice
ä¸Ģ å®¶
Ġd ys
{align ed
åĬĽ åĴĮ
± ä¹Ĳ
15 5
å·¥ äºº
im eter
99 9
display style
Ġs an
çļĦ éĢŁåº¦
E CT
è¸ ı
åĲĮ å¿Ĺ
G L
Ġcl uster
Ġdisplay ed
) |
ĠP erson
æĭ ĸ
Ġco al
Ġsche me
d y
iv o
å©´ åĦ¿
Ġinit i
V ersion
Ġlist en
Ġexpert s
æĽ´ æĺ¯
15 2
Ġn orthern
Ġemb ed
c out
é¡¾ å®¢
Ġpe ak
è¯Ń æĸĩ
\ boxed
[ :
æľ¬ å®ŀçĶ¨æĸ°åŀĭ
St ack
å¹¶ åıĳ
è½¬æį¢ ä¸º
Ġanal ys
33 3
th s
çļĦ é£Łçī©
c ule
å®ŀçİ° äºĨ
Ġactiv ation
Ġrel ax
f g
z z
Ġdisco very
{ A
Ġed ges
æĥ³ è±¡
L ocation
k l
ant ly
ĠSm ith
Ġe ast
ç´§ æĢ¥
Ġlab els
Ġal ter
å¤Ħ ç½®
å¯¼èĩ´ çļĦ
E l
.ĊĊ ĊĊ
æľŁ çļĦ
Ġsav ed
w a
ë ŀ
le an
ä¸Ń åħ±
èĩ Ĥ
< ?
åįģ ä¸ī
éĤ Ģ
à¸Ń à¸ĩ
ãĤ Ī
éĺ´ éģĵ
) \)
m odel
Ġcapt ure
ĠCol or
y cl
ä½¿ åħ¶
ĠIn cre
çĭ Ĺ
yt ic
Ġelect ronic
Ġinter m
S im
Ġsupp osed
Ġintrodu ction
Ġaccom pl
Ġwrit er
f ol
Ġestim ates
ĠÂłĠÂł ĠÂłĠÂł
ĠJ er
os h
om er
}, \
éĥ¨ ä»¶
ens us
L ength
ĠD ise
Ġcr isis
ĠÂ ±
Ġent re
Ġrot ation
åĩı åİ»
Ġess ay
æĻ ¨
Ġr ig
ĠComm it
æ±Ĥ è§£
ĠSub stitute
_ of
åŁİ éķĩ
AC K
ĠAd v
å¿ į
Ġimprove ment
S he
R ed
ra pper
Ġ" Ċ
æĢĢ åŃķ
Ġthe oret
( *
ĠR NA
Con nection
ç³ Ĭ
ä¸į çŁ¥éģĵ
ĠAt l
Ġthous and
et ics
OP T
Ġvalu able
Ġscen ario
Ðµ Ðº
Ġì §
Ã ¦
çļĦ æĬĢæľ¯
Ġinitial ly
W ork
ÙĪ ÙĦ
èģĮ èĥ½
Ġfun c
å¸¸ å¸¸
Ġa th
Ġatt ached
Ġn am
çĸ Ĩ
åıĳçĶŁ çļĦ
Ġt ube
Ġf le
Ġd ream
æĮĩ çļĦæĺ¯
ç¨İ æĶ¶
ĠØ ¥
c uss
è± ª
" ),
åĬł çĥŃ
Ġex it
éĹ ª
ä¾Ŀ çħ§
Ġa uf
ĠÐ µ
äºĴ çĽ¸
ÂłÂłÂłÂłÂłÂłÂłÂł ÂłÂłÂłÂłÂłÂłÂłÂł
åįģ å¹´
S um
re act
Ġin valid
å· ¢
éĻĦ è¿ĳ
èĤł éģĵ
Ġmanag ed
ĠS uper
o is
ps ilon
åĪĻ æĺ¯
O G
æ¶Ī èĢĹ
ĠP ers
Ġnumer ical
Ġg ap
_ res
ä¸Ģ åĲį
ra pe
ustom er
Ġf lood
Ġì ĺ
ual ity
Ġcom o
ĠIdent ify
çĽ´ åĪ°
s is
æĹ¶ åĪ»
Ġint ake
ä¸ŃåĽ½ åħ±äº§åħļ
sl ant
ra k
ĠS up
v ol
æĬĢæľ¯ çļĦ
âĢ ²
è° ¨
Ġuser name
$ ^{
Ġep is
- old
ĠP eter
æĸ¹ çļĦ
ĠS l
Ġth or
Ġb an
f irst
Ġcrit ic
Ġm apping
é ³
æ¢ Ĺ
æľįåĬ¡ åĻ¨
ĠStud y
ĠM ount
Ġcl ients
åĲĪ çī©
Ġinstall ed
ç¤¾ä¼ļ çļĦ
Id ent
Ä į
Ġor dered
ĠO ld
Ġarchitect ure
ä¸Ģä¸ª äºº
ç¯ ®
ĠC ON
å¤§ åĬĽ
å¦Ĥ ä»Ĭ
ĠL ord
è½¨ éģĵ
ĠG lobal
ðĿ Ĳ
_M sk
ãĥ ª
G ame
- be
Ġan not
ä¼ļ å¯¼èĩ´
ĠE rror
äºº åĬĽ
ä¹Ł åı¯
Ġphot os
Ġconf igure
èĭ¥ å¹²
../ ../
Ġdispl ays
s rc
Ġsens or
' ).
çļĦ åİŁåĪĻ
Ã¡ n
Ġmark ets
_st ring
Ġh ier
å°ĳ æķ°
ĠPar is
. read
ne ver
un a
ĠI V
åľ¨ è¿ĻéĩĮ
å¾ ½
. I
æº ª
Ø§Ø ¯
opy right
Ġco ff
N T
çĶµ éĺ»
u cl
AC E
Ġver tex
n umber
R un
Ġh ole
åīį çļĦ
åħĪ åĲİ
ä¸¤ æĿ¡
Ġmill ions
et her
æķ° ç»Ħ
r ich
åħ³ éĹŃ
P s
åĲĮ ç±»
èĩª ä¿¡
Ġcon ven
Ġfeel ings
Ġor bit
èĬ ½
Ġb ind
Ġ+ +
éĤ£ æł·
um es
ĠN ext
ĠĠĠĠĠĠĠĠĠĠĠĠĠĠĠĠĠĠĠĠĠĠĠĠĠĠĠĠĠĠĠĠ ĠĠĠĠĠĠĠ
15 8
Ġcr ime
F C
Ġwor se
re y
og ene
éĥ½ åı¯ä»¥
ĠL atin
Ġmed ication
ĠFr ank
Ġn arrow
è¾ Ĳ
ig ate
t i
15 1
åĲį ä¸º
- E
ä¸Ń èį¯
å¥ĭ æĸĹ
çļĦå¤§ å°ı
Ġbuild ings
ÙĪ Ø±
Ġim per
e ed
åĬŁ æķĪ
SU B
æ°Ķ ç®¡
14 7
Ġt ip
Ġanaly ze
ãģĻ ãĤĭ
. </
. a
åĨ² çªģ
ĠØ Į
éĻ ª
Ġsol ving
çĲ ´
æŁ ³
ä¸į çŁ¥
Ø £
Ġdifficult y
Ent ry
ac ific
ĠComm ission
H A
at i
Ġcomp osed
Ġsee ing
æĦŁ åĻ¨
2 30
åĮ¹ éħį
Âł Ġ
É Ļ
åĽł å¼ı
N ull
- and
ic ing
p ass
sc ape
× ª
Ġclass ification
ä»¤ äºº
åı£ èħĶ
æłĳ ç«ĭ
.j pg
Ġneut ral
here nt
ĠSp ace
Ġnut rients
16 9
æŁ ľ
ç»ı åħ¸
Ġun iversity
(f unction
à¦ ¾
èĤ ĥ
ĠS pec
èĩª è§ī
Ġr ub
S M
ĠF ig
ç»Ŀ ç¼ĺ
çł ĸ
Ġag greg
bl ing
Ġmass ive
-f ree
ç´¯ è®¡
è¡Ĺ éģĵ
çļĦ è¿ĩç¨ĭä¸Ń
Ġfun ds
çŃ Ĵ
åįķ çĭ¬
åĩº æĿ¥çļĦ
Ġc u
å®ŀéªĮ å®¤
n u
con text
Ġaud io
ĠUp date
çī© ä¸ļ
æµ· æ´ĭ
Ġch lor
éª ĳ
Ġprep are
Ġconsum er
ĠIS BN
ç»Ŀå¯¹ åĢ¼
Ġm oon
ç¨³å®ļ æĢ§
Ä Ľ
Ġdivers ity
Ġdirect or
Ġover ride
}$ ãĢĤĊĊ
Ġver ify
æĮ ¡
ĠN ode
Ġfl ight
èµ· åĪ°
æľī ä»Ģä¹Ī
å§ »
Ġgal ax
Ġdis k
ĠMex ico
Ġas c
es h
Ġcomput ers
ĠR E
Ġclass ical
b urg
ä»¥ ç¡®ä¿Ŀ
æĥħ èĬĤ
16 4
ê³ ¼
Ġthe ories
Ġr Ã©
in ction
Ġbo ost
é«ĺ ä¸Ń
S l
Ġalb um
Ġen vironments
ĠC ard
åįĹ äº¬
Ġ ÙĨ
åŁİ ä¹¡
Ġexec ute
B A
} }Ċ
ĠPart y
Ġs ale
åİŁ åŃĲ
M ain
Ðµ Ð²
Ġlow est
å¤ļ é¡¹å¼ı
ĠDes ign
? "
r ans
ĠO ption
Ġad vert
n on
ÙĪ ÙĨ
Ġask ing
ç»Ĩ èĬĤ
ä¼Ł å¤§
stitut ing
th read
æĸĩ çĮ®
Ġco oper
ä¹Ł èĥ½
åł µ
Ġcont roller
{p matrix
Ġb io
( H
Ġext end
Ġmedic ations
åĪĨåĪ« æĺ¯
l ife
Ġe cosystem
P D
l ers
æĭĽ çĶŁ
OR D
00 3
çļĦ ç¤¾ä¼ļ
Ġattempt s
g ithub
Ġd aughter
å¤§ å¹ħ
Ġh us
^ x
çĵ ·
ov ie
çĽ® çļĦæĺ¯
.spring framework
ĠP age
Ġsh ot
Ġf re
Ġb ones
Ù İ
çĮ «
æĿĳ æ°ĳ
ic an
ri angle
Ġlog ging
r ine
Ġd os
op ath
ic ago
Ġatt end
Ġp od
Ġac ute
20 4
Ġun able
ç¼ĸ è¾ĳ
ĠD en
çĽ ²
Ġreg ression
y nt
Ġinst ances
è¾ĥ ä½İ
] ;
ra di
ç²® é£Ł
è®© æĪĳ
å¾® ä¿¡
Ġf er
èĨ ı
åħļ å§Ķ
n an
åı¥ åŃĲ
J ohn
ĠI mm
æĭ ¨
æī¿ è¯º
çļĦ å¤ĸ
æĻļ ä¸Ĭ
åĽ¢ ç»ĵ
Ġneigh bor
Ġc av
çļĦ æĤ£èĢħ
\ leq
Ġstat istical
éĵ Ŀ
Ġste el
ï¼Į ãĢĬ
og g
Ġacc eler
Ġse eds
PI O
C ar
el ih
Ġfig ures
åĺ ±
ad ing
è£ħ å¤ĩ
Ġcorrel ation
çº³ åħ¥
Ġsc hed
Ġmulti plication
çļĦ æľī
ac cess
Ġvess els
Ġlead ership
Ġprint s
Ġpers ons
( F
9 78
ĠLear ning
A c
ĠJew s
ĠFound ation
ç¼ Ĩ
Ġgrav ity
Ġinterpret ation
v ille
éļ Ļ
Ġha z
othe rapy
åĮĸ ç®Ģ
ì ĥ
operator name
Ġra il
oles ter
å¥ ĳ
çĨŁ æĤī
å·¥ä½ľ ä¸Ń
V ector
ad or
è´« åĽ°
ä¸» æĮģ
Att ribute
å¼º çĥĪ
mat ory
åĲĮ æŃ¥
çļĦåĢ¼ ä¸º
æī ĩ
è½¬åĮĸ ä¸º
ĠJ ud
L ong
æĻ ķ
çŁŃ æľŁ
à ¶
åº· å¤į
ä¸¾ è¡Į
èľ ľ
ç¼´ çº³
Ġrece iving
ĠM iddle
åħį è´¹
Ġnat urally
Ġguid elines
p ack
æĦŁ åĨĴ
nb sp
æİ¥ ç§į
Ġto oth
Ġwe ar
Ġv oc
å»¶ éķ¿
: \
um ps
ç²¾ ç¡®
éĺ³ åħī
ä¸į ç®¡
Ġ Ùĥ
çļĦ å¥½
æĽ ¼
à¥ ĩ
ë Ĳ
æĶ¾ å¼ĥ
U D
æĮĩ ç¤º
T S
e vent
æĹł åħ³
Ġh o
ä¼° è®¡
Ġf if
åı¦ä¸Ģ æĸ¹éĿ¢
Ġord ers
ex ample
Ġknow s
Ġimm ig
++ ;Ċ
Ġopen ed
. text
Õ «
\ alpha
D iv
ĠCh ange
å¹ »
Ġinequ ality
å°ı è¯´
in ic
Ġinter vention
ĠK h
å¤§ åŃ¦çĶŁ
Ġox id
Ġspec ify
let on
çļĦ çĽ®çļĦ
éĻ µ
Ġall erg
ail ability
å¤© çļĦ
å¤ļ å¹´
ipp ing
éŀ ĭ
æħ¢ æħ¢
Ġsubsequ ent
åħ¬å®ī æľºåħ³
Ġsat ell
Ġhe t
ĠI r
ä¸į éĢĤ
Ġth reshold
ĠC are
Ġg ram
Ġthem e
elih ood
av ax
Ġne ither
Ġfind s
edi ate
ä¼ ª
ĠÏ Ģ
éŃ Ķ
in f
ĠT er
Ġteam s
é¢Ĺ ç²Ĵ
Q ue
Ġimmedi ate
Ġprov ider
ãģĹ ãģŁ
Ġs ick
Ġspe aking
å¢ŀåĢ¼ ç¨İ
( q
ĠM ont
ĠSim ilar
å½¢ åĬ¿
Ġperform ing
ç½Ĺ æĸ¯
ĠÎ ¼
ach ine
k o
ãģ ı
çļĦ çĹĩçĬ¶
åľ¨ çº¿
ul ating
Ġcomp ens
lement ary
ìľ¼ ë¡ľ
ĠCont in
å¾Ĵ åĪĳ
åĸ Ĥ
Ġdi oxide
se ud
per m
Ġclos est
å®¹ åĻ¨
- day
ĠÃ ·
unt ime
Ġp and
re nd
è¿ĺ èĥ½
Ġdecl ine
Ġmaintain ing
Ġshe et
Ġdra wn
Em pty
æ°ĳ éĹ´
æ¡ ¶
L a
æ´» æĢ§
Ġis t
Ġcl ust
c hers
id ents
17 2
A ccess
ä¸Ĭ éĿ¢
\ cdot
)) ;ĊĊ
çļĦæľĢ å°ı
å¹³ ç§»
ð Ł
Ð¾Ð ¶
Ã© t
Ġmar riage
çļĦ ä½¿çĶ¨
16 1
å¢ŀåĬł äºĨ
å¤« å¦»
?ĊĊ Ċ
i pt
c p
åıį é¦Ī
Ġë Ĥ
. )ĊĊ
çĪ¸ çĪ¸
Ġvacc ine
/ (
Ġkil omet
æľ¬ äºº
ĠÃ ¼
Ġslow ly
ĠTex as
Sh ow
Ġint ensity
çķ ª
å½¢æĪĲ çļĦ
åī Ĭ
çħ§ çīĩ
Ġsub stances
Ġdiag ram
F IG
ĠC ivil
- line
åıĳ æĢ§
Ġhom es
Ġwill ing
ash ion
Ġd x
Ġhor izontal
ĠSec urity
ä¸į è¶ħè¿ĩ
Ġapp lying
æĺ¯ ä»¥
d r
Ġsepar ated
éļĲ æĤ£
, '
Ġdi verse
li ament
à¤ ¿
Ġelim inate
r angle
ìŀ Ĳ
ç»Ī ç«¯
äºº å¤§
f ortunately
éĢłæĪĲ çļĦ
çļĦ ä½įç½®
. :
ä¸į åľ¨
16 3
æ¯ı æĹ¥
ä¸Ģ æĸ¹éĿ¢
Ġf iber
[ j
æĹł æķĪ
d ated
çļĦ åŃ¦ä¹ł
G E
atter ing
Ã¨ re
Ġpar agraph
s uch
æľī åı¯èĥ½
å®ŀ ä½ĵ
ĠG old
æĺ¯ ä¸ºäºĨ
_c ode
irc raft
oc hem
Ġorig inally
Ġun ion
ĠCon vert
ĠMus lim
ĠW he
0 10
Ġre nt
æ£® æŀĹ
Ġmys elf
ä¸ª æĢ§
ak an
Ġm amm
Ġad equ
l ength
çī¹ å®ļçļĦ
èĳ¡èĲĦçīĻ è¯Ń
åı£ æľį
ĠCon stitution
15 4
Ġdoll ars
Ġw estern
ĠSe a
Ġtr uly
í ĸ
éŃ Ĥ
Ġg one
åıį å¯¹
Ġw et
ĠM S
åĩ ¸
Ġ} );ĊĊ
. io
sum mary
c ell
ER E
Ġ ..
æľŁ å¾ĴåĪĳ
éĤ ª
A PI
ĠMore over
ï »
Ġdou bt
Ġdraw ing
æĭĵ å±ķ
åıĳ ä½ľ
æ¬¢ è¿İ
13 4
am bda
b el
Ġreg ulations
hip s
M et
ĠT em
ĠO h
Ġobserv ation
Ġs now
ĠB ack
U B
Ġincreasing ly
13 8
Ġabs ence
Ġn arr
Ġsur faces
ĠE vent
red ict
Ġjust ice
Mod ule
èĬ ³
ĠSystem s
ĠSov iet
in ating
åĻ¨ å®ĺ
ĠT or
æ£ ī
çļĦ åİĨåı²
ĠB usiness
_s h
ĠE ffect
Ġn as
æŃ¤ æ¬¡
åıĳ åĩº
Ġdivis or
s im
æ³ ³
è¿Ľ å±ķ
est yle
Ġchar ged
Ġab normal
el lect
æ¶Ī å¤±
ç»Ļ å®ļ
ë °
arch y
ĠNet work
Ġj ump
æıĲé«ĺ äºĨ
Ġv ital
" /
k es
x f
Ð¾Ð ·
Ġstrong ly
Ġdemonstr ates
ê ²
k ing
æĦŁ æĥħ
ç¼º éĻ·
äºº å£«
ç¾İ çļĦ
èĥİ åĦ¿
2 25
ĠÐ¾ Ð±
N a
ant a
ìĭ ľ
im ages
ĠT otal
Ġar ms
åĪ° åºķ
Ġessential ly
Ã© n
çīĩ æ®µ
æ£Ģå¯Ł éĻ¢
æĮ ¤
åįı åķĨ
Ġd ies
éĽ ķ
âĢ į
Ġm sg
Ġcup s
Ġinfect ed
å¤ļ åħĥ
Ġtrans lation
14 3
æľ¬é¢ĺ èĢĥæŁ¥
Ġvers ions
çĶ¨äºº åįķä½į
Ġn i
D O
\ <
æ·ĭ å·´
åħ Ħ
il a
Ġpart ner
Ġanc est
20 5
r ical
Ġst roke
ä½ĵ ä¼ļ
Ġlog in
ìĹĲ ìĦľ
d ers
char ge
åĲĦ èĩª
ĠSc ient
W here
Ġencou rage
16 6
ir us
ane ously
Ġstudy ing
ĠG ra
ĠP R
åŁ¹ èĤ²
Ġmanag ing
Ġstom ach
æŀĦ éĢł
å¦ ¹
é«ĺ åİĭ
Ġsim ult
Ġmet ric
ist ence
æ£ ±
è¾Ĳ å°Ħ
at en
Ġang les
ä½ ©
ãĤ ¯
OR M
éĻ¢ æł¡
ĠĠĠĠĠĠĠĠĠĠĠĠĠĠĠĠ ĠĠĠĠĠĠĠĠ
æľ¬ ç§ĳ
Ġsimpl ifies
çĽĳçĿ£ ç®¡çĲĨ
åĦ¿ åŃĲ
app ed
_n um
Ġg ly
Cont ainer
áĥ Ĳ
al d
æ Ĩ
lo or
ir ms
Ġ íķ
ad der
ram es
it ely
. php
å¤§ åĪ©
er os
Ġf ab
Ġult imately
Ġb rowser
åıĸ åĨ³
Ġ .ĊĊ
æĳĦ åħ¥
H S
ĠChar les
Ġsk ill
ĠN AS
å©ļ å§»
V ol
Ġì ĥ
T ree
çļĦ ç®¡çĲĨ
Ġt ang
æľ µ
ĠM o
Ġge ometry
æĭĽ èģĺ
ar ation
ĠC ost
å µ
æŀ ¢
æīĵ åį°
æĶ» åĩ»
Ġhold ing
æī© å¼ł
28 0
Ġdrink ing
éļĶ ç¦»
æİĪ æĿĥ
ĠIs land
å·¨ å¤§
ad min
aus s
ik a
Ġne ural
Ġmechan ical
æľĢ å¤ļ
Ã ½
Ġsp orts
vert y
Ġb atch
z il
Ġdevelop er
ĠD ie
èĭ ¯
å¼ķ åħ¥
/ v
ĠComm on
U RE
ä»¥ åħį
Ġrep air
Ġgr ass
ä¸į åŃĺåľ¨
é£ŀ è¡Į
ari ant
ĠT R
urre nce
ĠM ad
æĺİ çļĦ
ĠEx ception
ä¹Ł å°±
æŁĲ ä¸ª
/ S
âĢĻ ,
ĠD u
Ġrecogn ition
Ġv i
ĠCons ider
Ch apter
çĭ Ĥ
ut ed
tain er
Ġfunction ality
ê ²Į
olester ol
æľī ä¸¤ä¸ª
Ġconvert ed
rom ise
Ġsh aring
åıĸåĨ³ äºİ
äºī è®®
åİĭ ç¼©
çª ĥ
Ġp adding
Ġchemical s
Ġinf rastructure
Ġconstit ution
Ġfl our
ä¸ī ç§į
{ v
Ġbehavi ors
å·¥ åİĤ
Ġjour ney
Ġor b
m ann
à¸ Ĥ
Ġp H
agn etic
ï¼Ī ï¼ī
Ġqu arter
Ġne ck
Ġr u
éĿ¢ åĲĳ
åĲİ æŀľ
åħ³ å¿ĥ
Ġp il
end l
çĬ ¹
Ġ ],Ċ
æ·· åĩĿ
Ð´ Ð°
è¿ĩ æ»¤
Ġpoll ution
åŃ¦ çļĦ
ç½ Ĳ
åĬ ²
$ k
} )$
ä¸Ĭ äºĨ
æĶ¶ è´¹
P at
æĿ¥ äºĨ
Ġdep art
Ġover l
Ġaware ness
ç«ĭ æ³ķ
om atic
ç»Ł çŃ¹
_ url
åĪĿ æŃ¥
Ġf ault
ĠSt r
M M
Ã¶ r
Ġim aging
Ð½ Ñı
Ġk ernel
Ġa qu
Ġe lection
ĠAb out
ast y
Ġal ert
åŁºç¡Ģ è®¾æĸ½
Ġsens itivity
éŃ ı
Ġbelie f
Ġt aught
Ġexam ination
èĢģå¹´ äºº
Ġn ations
èĭ± æĸĩ
ç¾İ æľ¯
str ong
ch ing
ĠM em
ä¸¤ æ¬¡
èģ Ĭ
Ġsim ulation
åįı åĲĮ
åľĨ æŁ±
ĠStud ies
Ġar ithmetic
27 0
å®¡ åĪ¤
ere r
ilib rium
Ġab und
print f
èľ Ĥ
æĸĩåĮĸ çļĦ
å½» åºķ
ĠL ar
( in
Ġvill age
Ġmach ines
Ġobser ve
Ġtem por
ãĥ ©
Ġimpro ving
èº« ä¸Ĭ
æ½ľ åľ¨
Ġl Ãł
Ġcomm ands
Ġv Ãł
s cope
Pro ject
Acc ount
åģļ äºĨ
ĠMathemat ics
ĠCh ildren
ĠH and
ä½ľ æĸĩ
éŁ µ
.w rite
Ġcent uries
M ark
ç§į ç±»
Head er
Ġt ens
ĠRep ort
Ġus ual
Ġab use
Ġreg ulation
Ġfac ilities
Ġso le
åİŁ æĿ¥çļĦ
è¡¥ è´´
Ġsh ock
ĠA BC
è¿Ļ ç±»
& =\
è¾ Ī
Ġreason able
re al
Ġcon crete
å¼ Ħ
Ġv en
Ġt ight
k ins
Ġclass room
ĠC AN
Ġdef end
ç»© æķĪ
15 7
_ config
Ġreg ional
_ LO
ĠFurther more
ep end
åĬ³åĬ¨ åĲĪåĲĮ
é«ĺ æ¸©
çĽ¸ ç»ĵåĲĪ
Ġens uring
èĤ¡ä»½ æľīéĻĲåħ¬åı¸
Ġg ro
m essage
æİ¥ åľ°
åįģ ä¹Ŀ
ç¬¬ ä¸ĥ
æĭħ å¿ĥ
ĠS il
åī ĳ
æĿ Ń
æĽ´ æį¢
ĠL abor
Ġt one
app er
ĠI ll
åĪĳ æ³ķ
ĠCan cer
V M
= None
à ³
ĠC r
çĩ ķ
ç¡ ħ
Ġh al
ol it
åŃĹç¬¦ ä¸²
å®ª æ³ķ
Ġ\ {
Ġorg ans
ãĤ ¢
ä¸Ńåįİ æ°ĳæĹı
Ġphilosoph y
. net
.s ub
Ġprofess or
le ctions
ìł ģ
å¨ģ èĥģ
à ·
è®© åŃ¦çĶŁ
ps i
Ġatt ach
è¿ Ī
åĳ ķ
17 1
Ġa cknow
ä¸Ģ çº§
-s pecific
ad v
mod ule
Ġf u
Ġm and
]( #
Ġsp atial
c raft
am i
/ l
æĸĹ äºī
åı¯ å¾Ĺ
åĲĪçĲĨ çļĦ
æĥ ľ
éĩį åºĨ
__ _
Ġcorrespon ds
Ġst orm
ou nce
ÑģÐº Ð¸
äºĮ çº§
æ° ®
f ill
o ice
- K
Ġs izes
Ġa head
åĽ¾ è±¡
Ġgener ates
Ġredu ces
Ġprocess ed
Ġtransport ation
çļĦ åĬŁèĥ½
Ġb anks
Ġinvest igation
ic ious
Ġsuc ceed
f n
ĠP C
æĽ ¹
ĠØ Ń
L S
Ġ Ùĩ
c all
Ġtri als
èī² å½©
Ġm ob
V ER
as is
é«ĺ èĢĥ
Ġh op
åĨ² åĩ»
Ġsche dule
_ log
N on
Ġre new
Ġcour ses
æ¶² ä½ĵ
æĺ Ĩ
ar ks
Ġmi xture
äºº ä¸º
red it
æĸ° çĶŁ
ĠÐ¾ ÑĤ
J ava
æĹ¨ åľ¨
t ons
r b
Ġsign ed
æ³ ª
D ialog
æ² Ī
Ġstruct ural
Ġhard ware
èĥ ĸ
ĠS erver
rit ing
aut o
Ġveget ables
ĠJ un
are n
å±ķ çİ°
ĠD E
æĸ° åĨł
è¯¾ é¢ĺ
Ġbon ds
u ce
ä¸ĭ åįĪ
Ġaccording ly
D uring
éĥ Ń
åı¯ æĮģç»Ń
Ġdef e
A Y
Ch ild
ĠMicro soft
ĠSci ences
Ġf ract
ë ¶
ä¹ĺ ç§¯
Ġconstruct ed
Ġpost s
ĠL ook
Ġdes ire
Ġt ips
å¹² æī°
åħ¬ åĽŃ
åĽł èĢĮ
å·¥ åķĨ
Ġexam ine
Ġsize of
Ġle af
çīĪ æľ¬
Ġb rown
Ġarr ang
ament e
erm an
ri ers
Ġat om
Ġ' '
ä¸ĵ çĶ¨
æĺ¾ çĦ¶
æµģ è¡Į
Ġl ots
oc racy
bre ak
c ia
ä¸ ¢
is a
- W
ĠM ars
e h
th rop
ĠØ§ÙĦ Øª
ä¹Ł è®¸
áĥ ĺ
ĠCommit tee
çļĦ ä¸¤
ĠR un
ĠO x
æĽ´ å¥½çļĦ
Ġre vers
Ġin line
14 6
ä¸ŃåĽ½çī¹èī² ç¤¾ä¼ļä¸»ä¹ī
á» §
Ġt ank
æĪª èĩ³
Ġsh ut
Ġ ÑĢ
ex pected
Ġesc ape
ä¼ Ĳ
Ġst one
Ġconvent ional
sp ace
Ġre n
Ġadopt ed
og ram
ter ior
irect ory
Ġinteg rated
Ġmor ph
ä¹¦ éĿ¢
T ag
14 9
Ġob st
ç²¾ åĩĨ
G F
Ġh yd
Õ ¶
å¯¹ æŃ¤
Ġpl asma
Ø «
rit is
y te
éĹ ¹
å¹¿ å·ŀ
Ġdep ict
ĠÐ¿ ÑĢÐ¸
çºª å¾ĭ
Ġcom plicated
åıĳ è¾¾
Ġpresent ation
S ession
çº ½
" .ĊĊ
Ġcult ures
Ġe en
ĠT ry
ĠN S
è¿ĩ çļĦ
çĽĪ åĪ©
äºĭ çī©
Ġs ending
Ġident ical
à¸ ¹
Ġì ľ
ik ip
}\\ Ċ
ĠB ur
Ġimpact s
Ġment ions
ä¹Ł æ²¡æľī
Ġregard less
< int
13 9
plic ate
æľįåĬ¡ çļĦ
ä¸Ń æ¯Ĵ
çĥ ¯
Ġfe wer
á» ĥ
åıĹ çĲĨ
ĠD ifferent
BU G
Ġdis cipl
èģĮ åĬ¡
Ġcar b
ĠJ ose
çľģ çº§
W idget
Ġcomp act
Ġless on
Un it
Ġar rest
- qu
ĠP op
Ġd ust
Ġcare fully
i ant
hy th
C ard
Ġver b
Ġcent re
å¤į åĲĪ
æľ¯ åĲİ
ig ital
ĠA T
ï¼ Ŀ
ä¸ĩ äºº
å°Ĩ ä¼ļ
å®Ĺ æķĻ
.A dd
åºı åĪĹ
ĠM er
Ġsp ending
å¦ ¥
d et
_b ack
Ġdeb ate
lev ision
èĥľ åĪ©
Ġg ather
Ġrecept or
Ġfru its
Ġcoff ee
ĠRich ard
Ġdynam ics
B o
Ġint est
å¯¼ åĲĳ
2 16
Ġt ru
Ġread s
Ġcons ervation
Ġcon sec
çª Ħ
Ġmole cule
æ··åĩĿ åľŁ
Ġart ificial
Le ft
Ġemot ions
ĠIt aly
ï» ¿
aw a
Ġc ubic
æ¦ ľ
Ġaddress es
ld er
æł¼ å±Ģ
. ch
if ts
Ġsupport ing
om al
ĠB ase
el a
ol ds
ĠF ederal
ĠOff ice
Ġsort ed
éĿ¢ç§¯ æĺ¯
Ï Ĥ
é¡¹çĽ® çļĦ
) [
In s
æĢ» ä¹¦è®°
ë Ł
æ³ķ åĪĻ
ĠI T
å®ŀ ä¾ĭ
Ġum a
ĠÐ¿ Ð¾
ĠAut hor
Õ ¥
çŁ³ æ²¹
æĽ¿ ä»£
ãĢģ $
+ x
çĹ Ĵ
æĺ¯ ä¸ŃåĽ½
in er
ãĥ ĥ
è·¯ çº¿
æļ ĳ
Ġf ro
éĶ ¦
æĿ¡ æ¬¾
éļ¾ åº¦
ĠÙĪ Ø§ÙĦ
ç¦» å©ļ
15 9
ĠW ould
Ġwait ing
æĶ¶ åĪ°
// /
Ġaff ord
ä½Ĩ ä¸į
åĸ ī
Ġneur ons
ä»² è£ģ
/ w
Ġw itness
Ð² Ð°
Ġres erv
Ġc yt
Ġf ly
ĠĠĠĠĠĠĠĠĠĠĠĠĠĠĠĠ ĠĠĠĠĠĠ
Ġgrow n
ĠD own
ov a
è®° è½½
çº¦ æĿŁ
Ġconsum ers
Ġfun ding
æĹ º
æ£ Ĵ
Ġk g
I mp
te en
æĬĽçī© çº¿
Ġj avax
å¤§ èĦĳ
çļĦ ä»·æł¼
ĠHen ry
p et
Ġpublic ation
ak ed
æĢ Ĵ
Ġ _{
åīį åĪĹ
çļĦ æĢ§è´¨
çļĦ çĥŃ
Be fore
em porary
ĠL ast
è¯Ń åı¥
Ġal pha
ĠIn put
åįģ åħŃ
g ot
ä¾ĭ åŃĲ
å¼ķ é¢Ĩ
æ¸ħ æ´Ĺ
eps ilon
Ġoper ators
y ou
çŃī å¾ħ
v m
åŃ¦ ä½į
ĠK ar
à¹ ĩ
ĠAr gs
è¢ Ń
åıĺ å½¢
éħį å¥Ĺ
æĸ° å¢ŀ
G en
( value
Ġconvers ation
Ġmo ist
B D
åĵ Ń
Ġb ird
ars er
Ġmanufact uring
Ġregular ly
Ġd il
Ġwalk ing
Par am
éĴ ®
æĲ ¬
èĩ³ ä»Ĭ
ref ix
ĠÑ į
à¹ Į
Ġrest aur
Ġe igen
ĠH ence
åĭ ¾
Ġstand ing
Ġinf inite
Ġsk y
å¯Ĩ å°ģ
ari os
Ġcheck ing
è¿Ļ ä¸¤
çĽ¸ åĬł
å¥ Ķ
el eration
ĠF ROM
åľ° ä¸ĭ
å¦Ĥæŀľ ä¸Ģä¸ª
ĠP DF
åŀ «
ĠIn teger
Ġfin ished
åį ľ
æľ¬ éĻ¢
Ġwould n
Ret urn
Ã µ
éĻ ķ
æİ¢ è®¨
Ġveh icles
Ġas ym
se y
En ter
) }Ċ
ak i
Ġf ails
ä¼ļ åĳĺ
or i
ĉ f
è°ĥ è§£
ress ive
Ġbuy ing
Ġart ist
çĹħ çļĦ
ikip edia
å¼ ¥
Ġprop ag
F L
æī¹ è¯Ħ
Ġbi as
m n
Ġvert ices
Ġgir l
ogen ic
s en
> ();Ċ
Ġal s
Ġcomput ing
ä¸Ģ ç³»åĪĹ
Ġbo ys
è¿Ļ æ®µ
Ġc ab
Ġw a
names pace
ç¥ ¥
ĠA C
è¯» èĢħ
r h
éĿĴ æĺ¥
Ġconst raints
z one
ĠM use
è¿Ļ æĹ¶
Ġcor ner
valu ate
æŀ ļ
æķĻèĤ² çļĦ
ag ues
ĠA st
Ġdec ay
Ġcandid ate
Prov ider
Î ¸
ä¼ļ åĩºçİ°
Ġprov ed
ĠF lor
Ġsol di
Ġlabor atory
ĠJ ac
ĠØ§ÙĦØ £
Ġofficial s
Ġphenomen on
çĶŁ èĤ²
ĠP ract
æĶ¶ ç¼©
_d ict
ĠF acebook
Ġch am
_S IZE
åĪł éĻ¤
Ġin verse
åĴĮ åıĳå±ķ
Ø °
Ġcry st
Ġnerv ous
Ġsurv ive
Ġbig ger
Ġexpand ed
- on
è¢« å®³äºº
ĠFran cis
äºĮ æ°§åĮĸ
åħ¬ çĽĬ
Ġth r
ãģ į
b ool
ï¼ļ ãĢĬ
z o
14 8
£ ¼
Ġpre val
Ġref erences
Ġp ounds
èµ° åĲĳ
ä¼ł æī¿
t emplate
ĠB ill
Ġext ensive
Ġ ]Ċ
ul er
åıĸ æ¶Ī
è¡£ æľį
Ġt iny
f a
Ġc odes
(" /
Ġdeb ug
é¥ ¼
èĳ ±
é¸¡ èĽĭ
æĿ¡ è§Ħå®ļ
ĠS earch
im ary
ä¼łç»Ł çļĦ
Î ·
ï¼ģ âĢĿ
å°ļ æľª
ac iÃ³n
un te
Ġas ync
å¹ Ĥ
Ġsoldi ers
Ġexpl o
Ġ{ }
Ġg ast
ig e
ad y
åģļ çļĦ
Ġend ed
cl aim
Ġfall s
ĠCar ol
< SUP
pr ise
Âł The
- J
Ġsod ium
ĠP ath
æĬµ æĬ¼
ns on
æĥ ©
åĪ¶ åĵģ
çĪ± çļĦ
Ġr ural
ä¸ĭ åİ»
Ġ! ==
åĬ £
Ġadv oc
Ġload ed
éĺ Ĳ
Ġpick ing
Ġgreat ly
Ad apter
t ocol
Ġep id
å¦ Ĭ
ç¨ »
. ap
Å ¾
Ġtherm al
Util s
èĻļ æĭŁ
æ°Ľ åĽ´
åĲ« ä¹ī
åĨ· åį´
ĠO pt
AS K
and on
Ġen abled
ç»Ħç»ĩ çļĦ
W S
ink ing
ol i
es ity
æīĢå¾Ĺ ç¨İ
v in
åŃĺåľ¨ çļĦ
_ user
ut ton
Ġco vers
åħ³ç³» çļĦ
Ð¾Ð ¿
è½¬ åĬ¨
at ar
åĽŀ åĪ°
Ġprior ity
ĠC urrent
v ision
_ text
Ġrespir atory
ç»ĵ ç®Ĺ
in te
æĬ« éľ²
è¿ĺ éľĢè¦ģ
25 7
Ġmeas uring
ç¨ĭåº¦ ä¸Ĭ
. next
ĠS a
Ġhorm one
ä¼ĺ æĥł
A uth
Ġde aling
è¿ĩ äºİ
ĠAr my
H D
i em
ĠT ake
Ġs el
hold ers
Ġam ino
d ouble
åľ¨ ä¸Ģ
ĠC ur
æĺ¯ ä¸įæĺ¯
Ġ{ }Ċ
Ap plication
Ġm ao
è¯ķ çĤ¹
× Ĳ
v otes
ĠB udd
èį Ĵ
ĠG raph
ĠTh anks
Read er
æĬ¥ éģĵ
Art icle
us hed
ĠÐ Ĳ
Ġla unch
æį Ĳ
èĨ ¨
æľŁ è´§
Ġs or
åŃ¦ å®¶
è¾ ½
Ġsome what
17 4
Ġperman ent
Ġsustain able
w est
ä¸į äºĨ
Ġcommun icate
å¹ ½
éħ ®
Ġnav igation
M O
Ġt ags
Ġin ject
ĉ for
Ġent ered
ÑĤ Ð°
Ġcrim inal
Ġa ircraft
on a
_ ,
Ġpre ced
Ġpath s
çº¿ æ®µ
Ġl ungs
Ġs q
Ġrel iable
å¯¼ æķ°
Ġdef ense
å¾Ī å¤§çļĦ
act iv
D r
G rid
A g
B O
Ġequ ally
N N
Ø§Ø ¨
ĠP acific
å½¢æĪĲ äºĨ
Ã¼ n
Aut hor
è®¤ åı¯
äººåĳĺ çļĦ
Ġâī ¤
U nder
Ġsh r
æįŁ åĿı
Ġgu ard
Ġinfluen ced
åĸ »
Ġass istance
ãĢĭ ,
åĽłä¸º å®ĥ
åĩ ¤
ĠW omen
èĩ³ äºİ
Ġpass es
ĠÐ Ŀ
ĠK now
Ġen um
ERR OR
(f ile
- res
Ġconcent rations
force ment
éĿĴ å°ĳå¹´
_ .
Ġoption al
Ġmat ters
Ġtrad ition
o ir
Ġpolit ics
Ġph arm
w s
æµģ éĢļ
Ġcol our
å»º æĪĲ
Ġequ als
ÐµÐ» ÑĮ
Ġcalcul ations
Ġisol ated
ĠT oday
16 7
l ie
. -
åĲĪéĢĤ çļĦ
ĠD C
ç¼ĸ åĨĻ
Ġemploy ed
Ġens ures
Ġreview s
Ġunivers al
è¿Ŀ çº¦
ĠBrit annica
Ġe gg
éĽĨ æĪĲ
æĭ ĺ
ç§ĳ çĽ®
åı¯èĥ½ å¯¼èĩ´
Ġb read
Ġeng age
An y
ru g
ä¿¡ å¿ĥ
Ġle gs
igh ter
ol s
ĠLou is
ĠF ire
æŁ ´
Ġtrou ble
ific ate
Ġgovern ments
çļĦ è´¨éĩı
ĠR ome
ct ic
å¨ ł
ä¸Ĭ è¯ī
çĦ¦ èĻĳ
æĥ ĳ
æľī åĵªäºĽ
åī© ä½Ļ
Ġbreath ing
rit ten
æĮģ æľī
adem y
Ġk it
æĸ° èĥ½æºĲ
' :Ċ
ĠT im
ĠI L
Ġmin imal
V D
ä¹ĭ æĹ¥èµ·
" ));Ċ
æ¯ı ä¸ªäºº
è´¢ å¯Į
Ġc ov
[ -
Ġc yl
åŃ Ŀ
ï ¬
çļĦ å¹³æĸ¹
Ġb ought
comm it
G R
å¾Ī å¿«
Ġ| -
R ange
æłĩ çŃ¾
ap or
ç« Ń
Ġflow s
å¹² åĩĢ
Ġfound ation
í Ļ
ç¿ ¼
it ory
r ange
å¦Ĭ å¨ł
Ġcorrespon d
åį° åº¦
ĠA ma
Ġrect angle
_T YPE
çļĦ æĿ¡ä»¶
ĠOn line
Ġr an
Ġy e
ĠL o
Ġch ief
SE LECT
Ġbelie fs
æĺ¯ ä¸ª
Ġappro ved
Ġtarget s
æĮĩå¯¼ ä¸ĭ
ä¸ŃåĽ½ äººæ°ĳ
Ġpar ams
ä¼ļ åľ¨
Ġexp ort
m al
Ġb low
KE Y
00 4
çļĦ æķĪæŀľ
åı¯ä»¥ çĶ¨
Al so
Ġlo an
pon ential
é¢ ģ
Ġchalleng ing
P RO
Ġrequire ment
S m
Ġorgan ized
h n
ĠE th
p are
ĠCath olic
â Ĥ
Ġsuff ering
Ġwar ning
å¤§ å¤§
èĨ Ģ
åıĺ åĬ¨
Ġaccess ible
Ġt an
let ion
Ġp apers
Ġch ick
å· ©
It ems
éªĮ æĶ¶
Ġkid ney
for ward
Ġs elling
Ġhe ro
Ġput ting
å¯¿ åĳ½
c or
ä»Ģä¹Ī æĺ¯
Ġneg ot
Ġtax es
çļĦ ä¸ľè¥¿
Ġflow ers
åįı åĬ©
å¦Ĥæŀľ æĺ¯
Ġin comp
ĠE U
ĠC R
LE D
å¤ļ åĲĥ
im als
g un
Ġê² ĥ
ĠU I
á» ģ
Ġfor get
ä¸į åı¯èĥ½
åģľ è½¦
Ñ Ĺ
Ġag es
èĢĮ åľ¨
ĠEmp ire
22 2
i ological
ro py
åħ» æ®ĸ
é»Ħ éĩĳ
ĠSe lect
çļĦ ç²¾ç¥ŀ
Ġcap ac
çĭ Ń
éħ ¯
èĨ Ŀ
é¢ĨåŁŁ çļĦ
ĠCh all
ĠS ym
Ġhor se
q quad
è¯Ħ è®º
ce ive
u gh
et ary
Ġrem ark
åĲİ ç»Ń
at an
Ġs pl
ĠO N
Ġseem ed
åĽŀ æĶ¶
ä¸į å®ľ
Ġbenef icial
Ġdist rict
Ġresult ed
åĪ¶éĢł ä¸ļ
. V
Ġcompound ing
ĠW al
art icle
å®ı è§Ĥ
Ġcomp at
v are
èĦ ĵ
ĠC ult
å®« é¢Ī
Ġfact ory
ĠEn cyclop
z i
Ġthan ks
Ġquot ient
ĠC A
17 3
Ġdirect ed
avel ength
u its
Ġres et
Ġn ine
å¯Ĩ çłģ
Ġdeterm in
åĲį åŃĹ
ç±»åŀĭ çļĦ
ĠInitial ize
å¾ĹåĪ° äºĨ
ä¼ł æĦŁåĻ¨
Ġdest ination
ay ers
Ġap plies
Ġvers us
Ġconfirm ed
Ġsupp lement
ot er
Ġcont ributions
/ n
ĠÃ §
åºĵ åŃĺ
åĢį æķ°
æĪĸ æĺ¯
{ }
çĹ ķ
æģ ĭ
Ġstre et
clus ions
Ġdeterm ining
In valid
ä¸ª åįķä½į
çĶŁæĢģ çİ¯å¢ĥ
Ġpredict ed
Ġfrequ ent
åŁ ĭ
Ġopt ical
Ġmod ules
ìļ ©
Ġexecut ed
Ġs ich
ru it
å¸¸ çĶ¨
Ġemploy ment
å¡ĳ æĸĻ
ĠEx per
Ġload ing
II I
æĪĳä»¬ åľ¨
k u
ĠB ased
ĠRev olution
Ġpr on
çĸ ®
if er
ĠC amp
Ġn ur
Ġhus band
ĠR ights
èİ ²
eng er
m ia
èĭ± éĽĦ
Ġvalid ation
ĠN ature
Ġco verage
éģ ¥
O nce
acc ount
T wo
\ }$
åĦ Ĵ
ĠL ic
èī² çļĦ
A ng
åŃķ å¦ĩ
ĠW ord
åĪĿå§ĭ åĮĸ
ĠM el
èĬ¯ çīĩ
æĹ¥ åĨħ
2 60
ĠKing dom
- cent
ĠL ow
æĲľ ç´¢
Ġê° Ģ
Ġpict ures
Ġrout ine
çļĦ åĿĲæłĩ
ĠAd minist
B ody
æİ¨ åĩº
æĺİæĺ¾ çļĦ
sub set
å¼Ģ åĲ¯
att y
Ġfarm ers
å¢ŀ éĢŁ
St ore
Ġf rag
æĤ ¦
ĠArray List
ä¸Ĭ æľī
åŃ Ł
Ġoper ate
Ġdecre ases
E SS
= $
ç½ļ æ¬¾
æ¼ Ĥ
Ġst yles
ä¸Ģ ä»½
ä¸į åºĶ
çĥ ¤
Ġlog ical
Ġdocument ation
è®¾ å®ļ
åıĳ æĶ¾
IT Y
ĠF ull
ĠNAS A
çĤ ®
Ġdecl ared
Ġs ou
çĻ¾ å§ĵ
Ġcont ribut
he alth
Ġag ency
åı¯ä»¥ æĺ¯
m iss
éĺ² èĮĥ
Ġrad ical
ft en
æł· çļĦ
ru ption
Ġre ward
æķ°åŃĹ åĮĸ
Ġknow ing
çİ° çĬ¶
åīį åĲİ
ac her
ä¹Ł åľ¨
rop ical
æĪĳ æĥ³
_d ate
æ°´ åĪĨ
ä¸į å¦Ĥ
è°ĥ çłĶ
ä¸ľ åĮĹ
Ġmax im
Ġl ig
Con nect
Ġha ven
aw s
:ĊĊ Ċ
èı ²
æľī æĿĥ
ìļ Ķ
Ġam az
ç¾İ å¥½
ç¼ ¸
b es
Ġg el
ĠTh rough
Ð¸ Ñĩ
ĠHT TP
Ġprefer red
> -
// Ċ
Ġelse where
çĶµ åĻ¨
H ome
å¾Īå¤ļ äºº
Ġdiff er
Ġpsych ological
å¥ĸ åĬ±
é» İ
ĠStud ents
Ġact ing
. __
Ġm ic
éĴ ¾
Ġrepe at
ĠTh ree
ĠVir gin
ol t
Ġr h
çļĦä¸Ģ äºĽ
G raph
Ġp ed
å¼ı çļĦ
ì ĺ
pi red
Ġsub mit
Im pl
.j son
åŃ£ èĬĤ
ĠĠĠĠĠĠĠĠĠĠĠĠĠĠĠĠ ĠĠĠĠĠĠĠĠĠĠĠĠĠ
N G
æĹł éĻĲ
S pec
æĹł äºº
Ġcoordin ate
4 80
ĠSh ow
Ġtheoret ical
å¯¹ è§Ĵ
ä¾Ŀ æ¬¡
ra ined
ä¸į å±ŀäºİ
æľīæķĪ åľ°
ĠQu estions
ic i
Ð¾Ð» ÑĮ
Ġwor ry
Ġag reed
Ġtem porary
ro duct
æ³ķå¾ĭ æ³ķè§Ħ
P a
ĠR om
im ation
ç»Ł æ²»
Ġdep os
in stance
od ule
Ġë ª
åĿļ å®ļ
âī ¤
è´Ł åĢº
äº¿ ç¾İåħĥ
T arget
Ġ ______
Ġg un
Ġident ification
co ver
Ġt aste
éĩĳèŀį æľºæŀĦ
çļĦ éľĢæ±Ĥ
ĠS ep
D ocument
' )ĊĊ
Ġa ward
ĠS ervices
ĠRes ponse
rape ut
ar se
Ġmig ration
Ġint ellect
æī Ń
S w
Ġlic ense
$ _{
å°ı åĮº
è¢« ç§°ä¸º
Ġpl ugin
à¸Ĺ à¸µà¹Ī
ä¸Ģ æĸ¹
au x
æĲ ħ
ĠG ame
çĶµ åĬ¨
Ġor th
æŃ£æĸ¹ å½¢
- ne
åĩ Į
Ġpar ser
Ġadvant ages
çŃī èħ°
g ra
Ġm ales
Ġ( '
åĨĽ éĺŁ
/ C
Ġim plications
ĠTh ose
00 5
ĠL anguage
åĲĮæ¯Ķ å¢ŀéķ¿
Ġsm oking
çºª å¿µ
Ġche st
çļĦ äº¤
7 50
Ġdig est
Ġyoung er
ç¢ ĳ
ä¸Ĭå¸Ĥ åħ¬åı¸
ollow ing
h al
Ġinvestig ate
Ġprevent ion
Ġtra ce
) !
åı¯ çĶ¨
Ġcalcul ator
Ġfin ish
åĪĩ éĻ¤
æľº çļĦ
å¾ģ æĶ¶
Ġprofession als
èµ· è¯ī
áº Ń
Ã´ ng
åıĳ ç¥¨
Ġcl ot
åĻ ª
t ag
ï¼ ŀ
ĠK n
Ġstrong er
Ġevalu ated
ç¾ ½
.st ate
ä¹³ èħº
Par ameter
ell er
(" %
Ġp it
_m ap
éĤ ĵ
Ġsch olars
ĠB rown
Ġtra ined
Ġchar ges
èĬĤ èĥ½
è¾¹ ç¼ĺ
ĠBo ard
\ to
åĽŀ å½Ĵ
å¾Ī å¥½
èĳ£äºĭ ä¼ļ
è¡Į ä½¿
çķĻ ä¸ĭ
_D ATA
pr ice
à¦¾ à¦
å¨ ĺ
éħ ±
çĨ Ķ
çŃī çĹĩçĬ¶
Ab out
reg ister
Ġagricult ural
Ġc row
Ġintrodu ce
} )^
Ġjo ined
ĠMe an
ï¼Ľ ï¼Ī
ï¼Ł âĢĿ
åĩł ä½ķ
çĪĨ çĤ¸
se cond
P O
ĠCh icago
Ġstand s
ĠEngine ering
éĩĩ éĽĨ
ess ions
ä¸ī æĺ¯
ç§į åŃĲ
V A
ide os
ĠN O
Ġswe et
ro le
Ġtra ct
me an
V AL
Ġcons erv
Ġmat rices
pro perty
Ġbet a
ä¸į åĬ¨
çļĦä¸Ģ éĥ¨åĪĨ
Ġg ate
Æ ¡
éĽ¶ åĶ®
çľĭ åĩº
y es
å±Ĥ éĿ¢
Ġremov ing
Ġsam pling
Ġfavor ite
iot ics
åĸ ĺ
Ġto w
çĪ ¬
å¾Ī å®¹æĺĵ
ãģ£ ãģŁ
è¯´ è¯Ŀ
Ġassum ing
ä»ħ ä»ħ
Ġweight s
j u
L ear
: A
at aset
pro ject
De vice
Ġplan ets
C ross
çļĦ æķ°
r ants
Ġch olesterol
Ġ$ {\
Ġrec urs
Ġmount ain
é©¬åħĭæĢĿ ä¸»ä¹ī
Ġwat ers
ien ces
å¯¹ è¯Ŀ
Ġinitial ize
roll ed
Ġ\[ [@
ä¾Ŀ éĿł
Ġhe ter
çļĦ åĴĮ
Ġregist ered
èħ Ĭ
Ġrob ot
Ġ ##
æµ ´
c ur
è¦ģ æľī
Ġdire ctions
è½¦ ç«Ļ
l at
Ġsp an
èĳĹ ä½ľ
================ ================
ro ve
æķĳ æı´
ent e
è§Ĩ è§ī
ä¿¡ ä»»
ĠM D
à¸ ³
èĩªæ²» åĮº
ad i
æ¢¦ æĥ³
Ġden ote
çļĦ æīĢæľī
Ġdriv en
-s ize
ock er
Ġindu ced
åŃ¦ åİĨ
lis her
-b y
äºº åĴĮ
è¿ĩ å¤ļ
å¢ŀ å¤ļ
æľŁ æľĽ
æľ¬ æ¡Ī
_ error
ä¿¡æģ¯ çļĦ
è ©
ak a
ĠE s
æĻ Ĵ
Are a
S I
Ġdiagn osed
= False
Ġcould n
Ġbe ar
Ġeffect iveness
ĠProfess or
æº ¢
p es
ĠInd ex
ãģ Ŀ
ĠBe fore
ä¹° åįĸ
ĠE ss
è¾¹ å½¢çļĦ
ĠP RO
Ġphr ase
åħ» æĪĲ
å½ĵ ä¸Ń
her ic
Ġstrugg le
Ġeth nic
ack et
Ġfem ales
are a
åĨħ è§Ĵ
Ġfe ver
Ġassum ption
Ġpo verty
Ġsuper ior
åī ĸ
Ġmort ality
sc ill
ol id
çłĶç©¶ çĶŁ
ĠIn vest
Ġ\) :ĊĊ
ĠS E
ĠMart in
æĮĩ ä»¤
æ²³ åĮĹ
Ġat omic
ç§¯ åĪĨ
æīį æĺ¯
ä¸ ĺ
Ġsub set
æĿ¥ è®¡ç®Ĺ
Ġu g
az ine
Ġdis appe
- or
ä¿¡æģ¯ åĮĸ
Ġman ual
= &
Ġprec ise
Ġaccom mod
IC E
es c
Ġremov al
Ġt id
å¦Ĥ åĽ¾
Ġdist urb
âĶĢ âĶĢ
ä¸ĸçķĮ ä¸Ĭ
å¤ĸ åĽ½
åĩº åı°
all s
âĢ¦âĢ¦ Ċ
åıį å°Ħ
ĠÑ Ħ
Ġ :Ċ
EN D
ic ide
è¿Ļç§į æĥħåĨµ
Ġform ing
Ġ} )Ċ
æ°§ æ°Ķ
ĠR ight
Ġsem i
íķĺ ëĬĶ
å¤§ æķ°æį®
Ġsh oot
ä¾ ¯
Ġc urrency
à¸ Ĭ
çĺ ¦
Ġpro min
Ġdestroy ed
t otal
æ³¨æĦı äºĭé¡¹
( id
Ġbe am
å¤© æ´¥
c ut
çļĦ çİ¯å¢ĥ
å¼ ĺ
æ¡ ĳ
Ġt uple
Ġp ray
qu ire
. error
Ñ ĳ
çļĦ çİ°è±¡
ä¿Ħ ç½Ĺæĸ¯
ish ment
av ed
åıĳ åĬ¨æľº
Ġread ers
T A
L C
à¸ģ à¸²à¸£
_l ength
åĢ¾ åĲĳ
Ġwarm ing
åĬł ä»¥
Ġo v
P H
_ class
åħ¨ å¸Ĥ
åĮº åĪĨ
- com
pl us
ëĤ ĺ
() ->
ul ates
ang les
æ¯ķä¸ļ çĶŁ
æĦı å¤ĸ
åģ ·
5 12
Ġchild hood
ut ely
ĠL ibrary
Ġserv es
D ir
ĠM R
æ°´ ä¸Ń
æĮī éĴ®
èĲ¥ éĢł
åī¯ ä¸»ä»»
åĩ ¯
Ġst er
Ġ{ }ĊĊ
Ġcell ular
Ġhand ler
Ġut ility
Ġinv ention
ĠF il
l angle
Ġfair ly
Ġyou th
y an
éĢĤå½ĵ çļĦ
Ġhous ing
ig in
åħħ è¶³
Ġ rom
at he
è¾ĥ å¤§çļĦ
éĢı æĺİ
Ġmar ried
, C
æ°Ķ æ¸©
Ġ× ©
E v
Ġ )ĊĊ
Ġsh arp
rid ay
Ġocc asion
ä»£è¡¨ å¤§ä¼ļ
ä»·åĢ¼ è§Ĥ
Ġcreat ive
ĠO cean
å¤ļ æķ°
ĠSc ott
}$ .Ċ
èķ ´
åĭ ĥ
Ġgener ator
æ¯Ľ æ³½
Ġinstr uments
Ġ$ $Ċ
æŁĵ èī²
å¤§ æ°Ķ
Ġdis pos
Ġpres ents
åľ°åĮº çļĦ
ç¡ķ å£«
Ġst rain
[ edit
Ġp s
äººå·¥ æĻºèĥ½
ĠStand ard
ä¾Ľ çĶµ
n p
g on
. annot
Ġiss ued
-s cale
ĠF ield
Ġaccur ately
ĠInd ust
ut o
st on
ç³»ç»Ł ä¸Ń
F P
onym ous
out s
ĠS D
Ġdo ctors
Col lection
Ġb ridge
Ġn u
æµ· å¤ĸ
Ġconst ants
Ġcom plications
å®ŀ è´¨
T ake
ĠÐ³ Ð¾Ð´
Ġfight ing
éĢī çĶ¨
Ġs ulf
è®© åŃ©åŃĲ
st one
P assword
æľº åĬ¨è½¦
Ġsuff er
Ġtor ch
æľī æľŁå¾ĴåĪĳ
.m odel
Ġre ly
P ublic
ĠN ations
ĠH ave
Ġtransl ate
ç¡ Ŀ
G A
åĪ¶ åĬ¨
ĠSp ain
Ġinst ant
Ġfl ags
Ġworld wide
ĠS ar
Ġrep rodu
Ġterm inal
" ]Ċ
å¾Ī å¥½çļĦ
ì Ĥ¬
iz za
Ġlif estyle
ĠA ge
æķ ·
Ġap ples
ed er
æĹłè®º æĺ¯
ir th
çļĦ ä¸ī
Ð¸ Ñģ
Ġst ead
å² Ń
Ġauthor ities
Ġenzym e
æĪ¿ äº§
Ġconsec utive
s ince
ĠL ab
const ruct
åĩł å¹´
Ġguid ance
æ¯Ľæ³½ ä¸ľ
( void
t otype
b uild
ĠPhys ics
ä¸ĩ åĲ¨
Ġed it
ĠP an
_m odel
åıĳ çļĦ
h ome
os ion
è½» æĿ¾
Ġro cks
ĠD B
Ġanaly zed
m ethod
è¡¨ æ¼Ķ
oh yd
ĠDe v
Ð° Ð¼
ĠImp lement
Ġle ct
av en
ç² ¥
ĠÏ Ħ
æ¸ħ çĲĨ
ynam ic
à¤¿ à¤
éĿ¢ è¯ķ
èĥ½åĬĽ çļĦ
Ġ ions
æĿ¥ åĪ°
Ġres olve
Ġdev iation
åĩŃ è¯ģ
ãģķ ãĤĮ
Ġresid ents
Ġma is
Ġexam ined
M R
ut ch
éĥ İ
çĶµ ç½ĳ
å½¢ å®¹
ĠRe al
! (
Ġsymbol s
Ġ[ [
åĪĨ æķ£
ä»ĸ åľ¨
am an
Ġun us
çĸ ¡
rou s
Ġf ashion
ĠØ ¬
ç¬¬äºĮ æ¬¡
l ag
ĠH aw
( input
çĲĨ æĢ§
ï¼ ľ
å¤Ħ åĪĨ
M ENT
* Ċ
ĠB ible
å¤į åĪ¶
èĴĻ åı¤
ä¸Ģ è·¯
Ġt urb
Ġtro ops
ĠC PU
Ġfert il
Ġt i
ov ascular
åĵª éĩĮ
çļĦ æłĩåĩĨ
ne um
ĠA L
E B
Ġper mission
ive red
F ull
Ġprepar ation
åįļ çī©
ĠBra zil
Ġu pload
og ether
Ġsynt hesis
í Ĭ
ag ement
çĶ¨ æ°´
åĩº åİ»
Ġindepend ence
åĳķ åĲĲ
Ġc ord
Ġê ¸°
as ic
Ġapp end
Ġt ensor
Ġsum mar
å·¨ å¤§çļĦ
ĠI ran
å°± æľī
Ġl ens
çĦĬ æİ¥
éĢĤ éĩı
h ma
is ely
Ð» ÑĮ
èĩ Ń
Ġfol der
ì Ļ
ä¼ĺ çĤ¹
s ource
Ġc v
Ġterrit ory
Ġhar vest
å»¶ ä¼¸
ever al
us ers
ĠH all
erv let
D on
ordin ate
Ġsyn chron
Ġdeath s
Ġbut ter
2 11
Ġas sembly
ĠÐ ĳ
Ġpub lish
( st
* )
r ating
çļĦ æ¯Ķä¾ĭ
Ph one
ĠV ari
ç»Ī äºİ
Ġequ ilibrium
ĠDise ase
æ¸ ´
ins on
ĠCon fig
é¥ ²
M an
åŃĹ æ¯į
ĠS pecial
Ġ} ,
Ġvalid ate
Ġcut ting
Ġpar as
ĠS ource
Ġmatch ing
ĠCO VID
a fter
à¸ ŀ
Ġopp osed
pir ation
d c
ĠMuse um
å®£ å¸ĥ
N ames
Ġclass ified
æĶ¶ èİ·
F ound
èĩªèº« çļĦ
er als
ç¿»è¯ĳæĪĲ èĳ¡èĲĦçīĻè¯Ń
æħ Ī
Ġ ÙĤ
Ġcor re
p assword
æĭĽ æłĩ
Ġdefin itions
V C
w args
M ath
U ID
ĠC ross
Ġreal ize
æ¬ º
çĹħ åĽł
place ment
In st
ç©º è°ĥ
æĸľ çİĩ
or ia
Ġd ates
Ġlimit ations
Î º
Ġsqu ares
irt ual
_ AD
ĠÃ ¶
% ãĢģ
åİ Į
æ¯ı æľĪ
Ġfoss il
requ ency
Ġparticip ate
Ġa us
å¼¹ æĢ§
Ġinj uries
è´ ¤
Ġint r
å¯¹ å¾ħ
im ents
Ġ× ĳ×
Ġf asc
ä¼Ļ ä¼´
meric an
çİ Ľ
oc ytes
Ġf aces
Ċ ĠĠĠĠĊ
ask et
or ous
Ġf ragment
çīĽ å¥¶
å°ı æĺİ
è®² è§£
Ġcomm itted
edi at
Ġinform ed
æĤ¨ çļĦ
Ġlas er
m ake
ĠY ear
) x
Ġimag ine
put e
Ġpref ix
Ġgrad ient
ab a
we et
qu es
ĠL ake
y er
Ġmanif est
b ur
å¸¦ çĿĢ
ĠB it
åį« æĺŁ
éĵ ¸
Ġ× ľ
Ġcro ps
Ġconsider ation
Ob j
Ð¸ Ð¼
ploy ee
Ġrob ust
å¤į ä¹ł
Ġturn ing
% ï¼Ľ
ro vers
éª¨ æĬĺ
åĴĮ ç®¡çĲĨ
åĩı å°ı
/ A
à¹Ī à¸²à¸
ĠIt alian
Ġpo et
Ġass et
ay ment
éħĴ ç²¾
h and
åįĥ ä¸ĩ
ç´§ å¯Ĩ
åĿĩ è¡¡
å¸Ī çĶŁ
æĬ½ åıĸ
Ġhous es
ig it
á» ĭ
P anel
H ello
rict ion
Ġspirit ual
Ġn urs
ĠE R
b orn
Ġmoment um
ĠV ict
Ġm un
éļı åĲİ
æĸ° é²ľ
ok es
. res
Ð ¡
ĠS af
æ¤ Ń
ä½¿ åĳ½
J SON
ä¸¤ èĢħ
Ġte levision
è¡Įä¸º çļĦ
ĠStre et
Ġb il
Ġnew ly
âĳ ¤
åĽĽ è¾¹å½¢
W orld
éĻĪ è¿°
Ġcont rad
á» į
ĉĉĉĉ ĉĉ
Ġbacter ial
åĽ½ å¤ĸ
èĢĮ éĿŀ
éĹ´ æİ¥
Ġshap es
Ã¡ c
åħ¬ åĬ¡
w an
ĠJava Script
è¯Ī éªĹ
t arget
æĢ» é¢Ŀ
çĨ Ĭ
Ġdomin ant
ï¼ļ $\
\ )ĊĊ
é ¬¼
éģĹ äº§
Ġsh ares
Ġinterval s
å®ŀéĻħ æĥħåĨµ
f ish
ĠØ§ÙĦØ ¹
omet er
Ġcarry ing
åľĨ å½¢
âĢ¦âĢ¦ âĢ¦âĢ¦
æ» ¨
ĠL oad
Ġsy s
äººæ°ĳ æ£Ģå¯ŁéĻ¢
è®¡ éĩı
c r
åıĺ éĿ©
k it
Ġany where
Ġent ries
Ġf ell
ĠI re
ĠD er
_t able
ä»Ķ ç»Ĩ
Ġrec ipe
st s
( o
ĠLe e
çªĹ åı£
åıĳ çĶµ
å¡ ĺ
ident ial
Ġ áĥ
Ġthe rap
ur i
åīĤ éĩı
Ġoff ering
ç§ĳåŃ¦ å®¶
æĥ³ æ³ķ
å© Ĩ
ed ef
= x
Ġdefin itely
Ġstop ped
ĠS pe
çĹħ ä¾ĭ
æīĵ åĩ»
å®¶ æĹı
M ay
ric ulum
Ġmaintain ed
D i
ç¡¬ åĮĸ
çĲĨ æķ°
Ġw ound
æ¼Ķ åĳĺ
re nt
çĹĽ èĭ¦
Ġinc ident
am ing
Ġmar ks
Ġagricult ure
Pr ice
èµ ļ
ç¼ĸ åı·
Ġinter rupt
ãĢĭ ãĢĤ
Ġla un
æĢ§ æł¼
Ġpar am
Ġcare ful
S k
Ġch ances
Ġprec ision
éĻĲ äºİ
Ġnot ion
ential s
ĠAustral ian
d ict
éĤ£ éĩĮ
æ¹ĸ åĮĹ
Ġcon ve
å¸Ĥ æ°ĳ
J son
ĠL ink
ĠPol icy
Ġm ild
ä¼Ĺ å¤ļ
ä¼´ æľī
çļĦ ä¼ģä¸ļ
- (
ĠS outhern
éŁ §
Ġc in
Ġwork er
Ġnum py
` )
x e
ĠF our
åıĳçĶŁ åľ¨
åħ¨ çľģ
ç¥ Ń
æľī åºı
ç»Ļ åĩºçļĦ
Ġc rypt
ĠM A
ne e
Ġvirus es
æĪĺ æĸĹ
ĠN um
åĲĦ åĽ½
æĬ¥ èŃ¦
Ġseek ing
In it
Ġdist ances
_ ptr
Ġdefic iency
æĥ §
Ex ec
Ġhand les
å®¶ éĩĮ
æķħ æĦı
Ġloss es
Ġë ¶
Î ³
ip se
ä¾¿ äºİ
ç³ ķ
Ġë ı
Ġpl ain
å¹¶ å°Ĩ
P arent
ns el
ĠOr der
Ġmed ian
)) ,Ċ
æ¸Ĺ éĢı
Ġmac ro
æŃ¦ æ±ī
Ġrecept ors
)$ .
en cing
çĶµ ç£ģ
æľª æĪĲå¹´
æ¸ħ åįķ
# :
åĴ ĸ
ä¸į å½ĵ
Ġhappen ing
p read
Ġt mp
Ġcomp osite
è¿ĳ æľŁ
Ġcult iv
Ġcon vey
Ġbox es
ig er
requ ire
Ġw al
if iers
Ġsw im
å» ·
G ET
Ġë ĮĢ
Ġ{ @
2 12
æĲº å¸¦
vare psilon
åĲį è¯į
ä¹ĺ æ³ķ
ha ust
Ġz e
æĮ º
Ġ` `
æĺ¯ éĢļè¿ĩ
ë© ´
Ġme al
Ġim g
Ġw avelength
Ġwhe el
æ³ķ äºº
æĪĸ åħ¶ä»ĸ
Ġen ables
ä¸ļ ä¸»
Y Y
ist ed
Ġt error
Par ams
åİ¿ çº§
S R
Ġb a
Ġded icated
P ort
bin om
Ġenem y
éĢī ä¸¾
Ġp d
' ;ĊĊ
éģ Ĥ
Ġexerc ises
ä½ı å®ħ
Ġweap ons
E ffect
å¢ ĵ
å¤´ çĹĽ
åŃĲ éĩĮ
éħ µ
Ð°Ð» ÑĮ
ä¸Ģ å¼ł
low er
Ġpl t
Ġbl ind
ĠL ocal
åĪĴ åĪĨ
P ol
åĮĸ åĲĪçī©
ĠLe g
çļĦ æł¸å¿ĥ
åĳ Ģ
ĠSe cret
Ġcomb inations
c ies
Ġt on
ç»ĵ æł¸
Ġd ent
ï¼ļ ï¼Ī
Ġord inary
ĠEn ter
Config uration
it ure
Ġcon clude
Ġs oc
ĠC T
Det ails
ä¸Ģ æī¹
ä¹ĭ è·¯
åľĨ å¿ĥ
Ġ ram
å²ģ çļĦ
Ġc out
ON E
ĠCon st
id en
Ġgener ating
éļı æĹ¶
at ur
à§ ĩ
Ġvari ations
Ġrec over
P erson
åĳ½ è¿Ĳ
Ð° Ñģ
Val ues
éĢļ é£İ
ul ator
re r
èĥ½ åĲ¦
Ġenc oding
ox ic
äºº ä¸İ
Ġtr ick
çĵ £
ä¾¿ åĪ©
åł ¡
Ġnit rogen
åĳĬ çŁ¥
æĹ¥ çĽĬ
Ġr ice
_B ASE
å¥³ åĦ¿
pl ugin
Ġsur ve
hav ior
çľŁæŃ£ çļĦ
Ġcolle agues
æºĥ çĸ¡
Ġag encies
in cluding
Ġcapt ured
Ġpack et
è®² è¯Ŀ
ç¢ Ĺ
æĺ¯ ä»İ
ig an
æľŁ å¾ħ
Ġconstant ly
. remove
. view
çĽĳ å¯Ł
$ ãĢģ$
Ġf t
ĠP ass
èĬĤ çº¦
ĠI ss
Ġris ing
ĠÐ± Ñĭ
-h and
Ġign ore
ä¸ĵ é¢ĺ
åº Ļ
ĠC reat
Æ°á» £
Ġs lic
ç§ĺ å¯Ĩ
Down load
ĠA ction
ä¸Ģ ä»£
et ra
B M
ĠX ML
Ġadj acent
å·© åĽº
æĶ¶ è´Ń
æĮ¯ åħ´
ĠÎ ²
Ġcalcul ates
å¿ĥ éĩĮ
Ġvari ance
Ġrespect ive
Ġann ounced
Ġ rib
at ile
Ġc rop
3 30
V ar
ĠCont ent
Ġfor th
F R
y y
_f or
æĿ¿ åĿĹ
Ġhouse hold
ist ing
åıĳ å°Ħ
åħħ çĶµ
Ġaffect ing
Ġn ic
æ· ĺ
P tr
ĠB a
. load
æ´»åĬ¨ ä¸Ń
ĠCan adian
r if
å°½ å¿«
Ġfocus es
æĲŃ éħį
Ġb at
ĠH a
Ġad m
ä¸ª æķ°
ç»ıæµİ çļĦ
Ġm u
Ġauthent ication
- ray
ç¼ĸ çłģ
ĠY et
åį ĵ
ĠB al
Ġprint ed
çļĦ éĥ¨åĪĨ
æĭ¬ åı·
å®ŀ æĹ¶
g rade
ç«Ļ åľ¨
ä¸įä»ħ ä»ħ
Ġì ļ
Ġemb ry
ä¸İ åħ¶
Ġp ra
$ B
Ġc ube
leg ate
ĠĠĠĠĠĠĠĠĠĠĠĠĠĠĠĠ ĠĠĠĠĠĠĠĠĠĠ
çĮ Ľ
Ġa ux
Ġoffic er
è¿Ļ å°±
éĴ ©
è¡ Ķ
à® ¿
De lete
èĤ ļ
é»ĳ èī²
ot or
æŃ£å¸¸ çļĦ
æľª æĿ¥çļĦ
Ġidentify ing
åı¯èĥ½ä¼ļ å¯¼èĩ´
Ġd raft
Ġbound aries
Inter face
æ±Ĥ åĩº
qu estion
ĠN orthern
Ġto m
ĠD iff
] ;ĊĊ
ĠT erm
Ġbas ically
Ġj ur
Ġf is
åºĶ åľ¨
éĹ´ éļĶ
p in
Ġefficient ly
Ġflex ible
B ecause
ĠM en
Ġgen ome
Ġland scape
å¤ĸ ç§ĳ
Ġreason ing
æĪĸèĢħ æĺ¯
HT ML
è´Ł èį·
è£ħ é¥°
Ġ× Ĳ
| -
per ature
çº¦ ä¸º
Ġur ine
çľĭ æĿ¥
çļĦ ç¬¬ä¸Ģ
wh ite
éĤĢ è¯·
ãģĦ ãĤĭ
-- Ċ
çħ İ
R ad
ian a
Ġs ocket
ĠR est
ç²¾ åº¦
gress ive
Ġre aches
æľīåħ³ éĥ¨éĹ¨
Ġmere ly
ĠD ar
æ¯« ç±³
Ġreport ing
Ġf Ã¼r
id ae
çĶµ ç¼Ĩ
w as
act ivity
Ġanalys es
Ġhe x
Ġabsor ption
æ¸¸ æ³³
tain s
Ġbi ology
! "
y al
ig ue
ys ical
æĮĩ åįĹ
' ĊĊ
Ġcy cles
}) ^{
çŃī æĸ¹å¼ı
Ġperson ality
sq l
- value
Ġequ ality
Ġexcess ive
è¥¿ çľģ
ĀĀĀĀĀĀĀĀ ĀĀĀĀĀĀĀĀ
- off
å¸ ķ
çļĦ çĽ®æłĩ
ab ul
Ġf an
Ġprom ise
æİĴ åĲį
Le ave
Ġdec ade
Ġbran ches
ä¸Ģ éĥ¨åĪĨ
Ð¸ Ð²
ain e
ĠCon ference
ĠAcc ount
æ®ĭ çĸ¾
ãĢ ķ
ogg le
ĠS em
ä¾µ æĿĥ
éģĵ çĲĨ
{ k
ìł ķ
ä¸Ĭ åįĪ
áĥĲ áĥ
ä½ł åı¯ä»¥
. This
æĹł çº¿
Ġsur g
åįł æ¯Ķ
Ġgrow s
åºķ éĿ¢
å½ĵ ä»£
æĳ© æĵ¦
ì ¹
è¯ģ å®ŀ
n ab
ST R
Ġown ers
Ĩ Į
/ T
Ġg ut
æ´» åĬĽ
åįģ ä¸Ģ
çļĦ ç»ĵæŀĦ
A v
åį ¸
å®ŀ ä¹ł
Ġdeterm ines
igen ous
I con
ĠFlor ida
æĽ´ é«ĺ
éŁ ¦
Ġsepar ately
è¾¾ æĪĲ
o or
é»Ħ èī²
è¿Ľè¡Į æ²»çĸĹ
um ing
åķ ¦
select ed
Ġ Ñı
ä¸Ĭ æĺ¯
Ġd eng
èħ »
å®½ åº¦
Ġsub str
Ġm ol
ĠC OM
Ġsp here
-b it
æī¶ è´«
ĠJ o
Ġenc oun
åĮ» èį¯
ĠC irc
åį ¢
åħ¬ æŃ£
âĸ ³
}\ ),
Ġindust ries
[ [
ĠH or
b c
Ġprevent ing
çļĦ æŃ£
bol ds
Ġbring s
Ġarriv ed
Ġnear by
Ġdecre asing
Ġrough ly
æĲ ı
åŁºç¡Ģ ä¸Ĭ
Ð³ Ð¾
Ġl ob
çİī ç±³
P arser
C ON
Rec ord
ĠKe ep
_ ;Ċ
æĢ ¨
ä½ĵ è´¨
è¯Ĺ äºº
Ġmetabol ism
éĿ¢ç§¯ ä¸º
ĠF re
æıĲ èµ·
Set tings
çĸ¾çĹħ çļĦ
( true
Ġaccount ing
ell ular
ĠF und
G amma
å®ŀ åĬĽ
èĤ Ľ
ä»ª åĻ¨
m ut
n ership
çĸĹ æ³ķ
çīĻ é½¿
Ġsepar ation
Ġinst ruct
èĤĿ èĦı
Ġon going
× ł
Ġ ip
è§Ĥ æµĭ
V L
h ar
V E
åħ ĳ
T emplate
bolds ymbol
éķ¿ æ±Ł
_in it
çĶ¨ éĢĶ
åıįæĺł äºĨ
çģ ¸
ĠT imes
20 6
çļĦ éĢīæĭ©
è¯· ä½ł
; &
ãĢ Ķ
ĠRep ly
Ġthor ough
h m
Ðµ Ñģ
Ġmultip lying
å¡« åĨĻ
Anal ysis
æ°ĳ æ³ķ
Ø§Ø ¹
equ iv
Ġind irect
ox id
ap ed
Ġmut ations
: C
æľī å¾Īå¤ļ
æ¶ Į
×ķ× ª
ĠAc ademy
ç¦ı å»º
æ£ µ
O mega
åİ ī
Ġ\( -\
Ø± ÙĬ
ãģĤ ãĤĭ
' ]Ċ
Ï ħ
OPT IONS
. end
Ġm ood
Ar gs
ä»£ æķ°
ĠV ector
Ġkeep s
æ¸ Ķ
å¨ ±ä¹Ĳ
Ġlog ger
å¾Ī å°ĳ
Ġorient ation
Ġp up
å ļ
Ãµ es
ĠP ot
Ġtrans mit
ä»ĺ æ¬¾
æĥ³ åĪ°
åĩºçİ° çļĦ
* (
Ġind ices
ĠInt roduction
Ġarg ue
ĠAma zon
ç»ĦæĪĲ éĥ¨åĪĨ
Ġgradu ally
æĺ¯ éĶĻè¯¯çļĦ
ĠW ood
© ëĭĪëĭ¤
Ġm eth
m em
an ch
ï¼ ¿
âĺ ħ
Ġ} ),Ċ
En c
è¯ ŀ
é¡µ éĿ¢
en ess
æĶ¾ æĿ¾
Ġf etch
èµ «
. parse
è¿½ ç©¶
ĠL ight
å¹´ åºķ
un ct
çŁ¥è¯Ĩ äº§æĿĥ
ĠÐ¸ Ð·
Ġhabit at
åķ ¡
Ġsent ences
éĥ¨ éĺŁ
.t ype
çĶŁ åĬ¨
çļĦ æķĻèĤ²
Ġper t
ç¨³ å®ļçļĦ
Ġtra its
Ġpart ition
æĬ ¬
ãĤ ·
ĠPro b
ap plication
mon ary
4 20
* x
Ġinter section
Ġingred ients
ipher al
M ar
Ġcop per
ä»¥ æŃ¤
å½ķ åıĸ
ä»İ ä¸ļ
Ġhol es
à ±
åĲĪ ä¼Ļ
al so
åįķ ä¸Ģ
è¯· éĹ®
ĠPort ug
ign ment
form ed
Ġpart ners
ä»½ é¢Ŀ
Ġ ÑĢÐµ
Ġper ception
åıĻ è¿°
çļĦ ä¸¤ä¸ª
äººåĬĽ èµĦæºĲ
Ġcateg or
èµ ´
the re
ick er
C al
ãģ£ ãģ¦
ä»£çłģ çīĩæ®µ
Ġh ur
à§ į
â Ĩ
n n
Ġdel ivered
åŃ¦ä¹ł çļĦ
" ;
b ro
Ġfeed ing
èħ¹ éĥ¨
å¼ Ĺ
ĠN atural
ä½ł å¥½
æĪĲ éĥ½
çļĦ å¹³åĿĩ
Ġg lo
ä¸º æŃ¤
âĢ¦ Ċ
Ġsatisf ied
åĲĮç±» é¡¹
æīĢ èĩ´
çļĩ å¸Ŀ
[ Ċ
åĬ¨ è¯į
å¤įæĿĤ çļĦ
å®Įæķ´ çļĦ
Ġde eper
Ġassign ment
éľĢè¦ģ çļĦ
ĠPro p
Ġav ailability
æĶ¾ ç½®
Ġchem istry
the less
äºĭä¸ļ åįķä½į
æ¦Ĥ æĭ¬
Ġt all
ĠC alcul
onal d
Ġgre w
åī ¥
< div
Ġt ou
Ġthere by
æĬĵ ä½ı
Ġcent ers
Ġnucle us
Ġharm ful
Ġd ow
Ġcomm ission
Ġwor st
ad ed
Ġtw enty
åĪ¶ çļĦ
Ġwrit es
he ll
Ġb omb
Ġg ases
æĺ ı
åĩº åĶ®
è¿Ľè¡Į çļĦ
-p oint
åİ ¨
ues day
Ġf inger
Ġlegis lation
èħ¹ æ³»
` ï¼Į
ĠV en
æĿĨ èıĮ
ä¹ĭ å¤Ħ
Ġpath way
it amin
èģĶ çĽŁ
L ocal
add ress
Ġsit ting
æĪĳ åľ¨
Âł and
Ġscreen ing
Mat rix
C ache
Ġpick ed
çĽ¸å½ĵ äºİ
D M
C G
Ġm ail
des cription
æľĢ ä¸º
ä¸Ģ è¾¹
Ġsong s
P UT
åı Ķ
ĠIre land
Ġfac ing
äºĶ å¹´
Ġcomp aring
_ NAME
ĠV an
å¾ĹåĪ° çļĦ
æĺ¯åĲ¦ æľī
çĶ¨ çĶµ
Ġdec or
Ġrece ives
æ¿Ģ åħī
Rel ated
å¿½ è§Ĩ
Hel per
Ġgr ant
ç¬¬ åħ«
ç»Ī æŃ¢
ĠL inux
ch ain
Ġweak ness
Ġpl ug
Ġ/ \
á» Ľ
i est
re v
çĶµ åķĨ
å¿ĥ èĤĮ
ĠÃ ¨
Ġtrans actions
Ġsc r
Ġne u
æī¿ åıĹ
) ),
Ġarbit rary
æ¯ı å°ıæĹ¶
ĠM aterial
Ġgraph s
f ont
Ġw ur
æİĴ åĩº
Ġpro l
Ġour selves
Ġfil ename
å®¶ äºº
èĮ İ
l an
à¯ ģ
Ġad min
Ġacc ord
å¸¦ é¢Ĩ
ĠPM C
ĠV iet
er d
Ġcalcul ating
v ard
_RE G
å¯¹ çħ§
Ġexpect ations
Ġd edu
ĠW orks
per or
Call back
J ust
Ġmar ine
Ġinter ior
ä¸¤ å¹´
èĬ ¬
du ctor
Ġisol ate
çĽĳ æĬ¤
Ġsup plies
ĠC ast
Ġy ields
Ġdam aged
è§£ åĩº
æİĴ åºı
Ġins ights
con f
ç¦ı åĪ©
Ġ\( (
Ġnew sp
Ġb is
çģ¾ å®³
æİ¢ ç©¶
l ab
Ġbi om
ment e
éľ į
Ġabsor b
.j oin
Ġc aught
ob s
ic ians
åĲİ æľŁ
æ£ ĭ
Ġar rays
Ġb ath
çĸ«æĥħ éĺ²æİ§
Ġcor on
æĪĲ äºº
end o
èĭ į
çļĦ åı¯
In tern
.ap ache
à§į à¦
ist ant
è°ĥ æİ§
íĬ ¸
Ġl iv
äº§ä¸ļ éĵ¾
Ġ ãĢģ
æĸĩ çī©
è°ĥ åº¦
ãĤ ¿
Ġsimult aneously
Ġres erved
it i
å·® è·Ŀ
lik ely
Ġaut on
Ġte a
å¹¶åıĳ çĹĩ
áº §
è¯¯ å·®
åľ° éľĩ
it age
Ġacc eleration
? :
ãĤ ģ
åīįåĪĹ èħº
he ast
ry ption
èĪ Ł
Ö Ĥ
ï¼ ı
cept ions
æµĭ å®ļ
åį³ å°Ĩ
Ġfound ed
Ġo scill
ä¾ ¦
å¼Ģ åı£
ãĢĭ ãĢĤĊ
te ct
ä¹Łå°±æĺ¯ è¯´
' '(
Ġextract ed
Ġcandid ates
Ġo ste
æĶ¾ å¤§
Ġround ed
Ġadequ ate
Ġd ial
ĠCam bridge
Ġaim s
æŃ£æĸ¹ å½¢çļĦ
×Ļ× Ŀ
åıĸå¾Ĺ äºĨ
ä¸ĵä¸ļ çļĦ
äº¤ åıī
ĠUn ivers
uns igned
Ġdut y
Ġg ran
åıĳçĶŁ äºĨ
æĴ¤ éĶĢ
æĬĳ éĥģ
å· ¾
ĠG L
Ġprov en
Ġconf erence
ĠAm ong
Ġimprove ments
Ä± nd
æĬµ æĬĹ
] _
æľī å®³
ĠR oyal
è£ ķ
è¶ħ å£°
- ph
20 8
Ġinitial izes
Ġrecommend ations
e a
A ns
çķ ľ
æĪĲ äº¤
. k
åĲ ŀ
Ġtransl ated
and roid
vent ions
ro at
id ade
erc ise
oc s
. update
æ¸© æļĸ
66 6
Ä± r
æıĲ åĪ°
( I
å¹¿ æĴŃ
Ø º
Ġserv ing
Ġhead s
Ġclaim ed
Ġnut rition
è¿Ļ ä¹Łæĺ¯
2 24
_ per
Ġs ight
st ore
he a
] .Ċ
C ategory
ub ble
ĠJose ph
åĿļ åĨ³
ç¡¬ ä»¶
.c urrent
çģŃ çģ«
åįģ ä¸ĥ
rapeut ic
C or
ä½ĵ æ¸©
Ġfab ric
å°± è¯Ĭ
ĠGr and
Ġtrend s
æ¸ħ éĻ¤
æĿĥ å¨ģ
æĹ¶éĹ´ çļĦ
Ġvis ited
Ġtreat ing
ĠP ut
ru le
å¾ħ éģĩ
N C
id ad
Ġd ella
ft ware
ãĢĤ "
Ġhe ating
* /
Log in
Ġview ed
çŀ ¬
èĨ¨ èĥĢ
èĬĤ çĽ®
åħ Ķ
åľĨ éĶ¥
Be an
Ġacqu ired
èĦ Ĩ
ĠEconom ic
H ash
. user
Ġg est
sk i
å¤ĩ æ¡Ī
Ġt ension
ä¸ī å¤§
ides pread
ateg y
Ġoptim ization
H igh
Ġcont ra
Ġwhe never
ĠGu ide
ĠÐ ŀ
Ġhard er
ĠW all
_ array
} );Ċ
Ġappro val
çĻĮ çĹĩ
æł¹æį® é¢ĺæĦı
ph ant
Ġin hab
éĽ¶ ä»¶
e g
Ġfl ash
Ġpro hib
ç® Ń
Ġanal yt
Ġ ).
æĦı å¿Ĺ
Ġtra ding
ä¾µ çĬ¯
o inter
çĶŁ æ®ĸ
å±Ĥ çļĦ
pl an
St orage
P ress
Ġcirc ular
form s
. close
Ġab andon
Ġrare ly
Ġwith draw
ĠÐ ł
æľºåĻ¨ äºº
Ġlegis l
( Q
_c ol
ear ing
In te
AB CD
è¶Ĭ å¤§
Ġparticip ation
Ġd ot
a Ã§Ã£o
ĠA z
è¾ħ å¯¼
Def inition
ĠS u
å¼ķ è¿Ľ
Ġval ve
ìĦ ±
åĬł è½½
n av
è¿Ļä¸Ģ çĤ¹
l g
Ġlik elihood
è¶³å¤Ł çļĦ
E very
Ġc Ã³
Ġo w
ä¹ĭ ä¸ĭ
Ġcl ub
h andle
ĠOther wise
ĠM oon
Ġres on
åĨħ åŃĺ
ĠO S
ĠÐ ¶
Ġmetab olic
. as
. Text
is ition
ul ed
Ġvol unte
æī ĳ
ĠB ab
èĥ½åĬĽ åĴĮ
Ġtext ure
éķ¿ ä¸º
æłĩåĩĨ çļĦ
Ġconcer ning
åĪĿ ä¸Ń
_ U
Ġmet adata
ess ages
å¹² é¢Ħ
Ġsil ver
çº¿ ç¨ĭ
ag ger
. z
it ual
, x
P ython
el d
åĲİ éĿ¢
h op
æĦŁ è°¢
_n umber
A F
åĩł ç§į
H R
ĠI O
Ġpred iction
çī ²
çĻ¾ å¹´
st ack
Ġpro test
æĪĳä»¬åı¯ä»¥ ä½¿çĶ¨
ìŀ ¥
/* Ċ
ĠSw ed
Ġshe l
Ġprint ing
sh are
ĠÐ Ķ
Ġlov ed
Ġ ;Ċ
ucl ide
Ġent ities
åŃ¦ å¹´
èģ ª
Ġsu it
ä¸Ģ åħĥ
ï¼ī ãĢĤĊĊ
Wh o
Ġd rain
33 9
Ġrec all
Ġn ose
; ;
Ġd ental
ĠCol l
+ c
æłĩ è¯Ĩ
Ġsp inal
ä¸ Ī
åıĹ çĽĬ
æľĢ æĸ°
Ġmonth ly
èĪ °
Ġless ons
ĠUS B
. K
. âĢĻ
çĲĨ è´¢
Ġexplicit ly
Ġapproxim ation
Ġc el
(" #
Ġc oc
Ġmet a
Ġoccur ring
h igh
Ġ Â°
æłĩ è®°
c ence
æĭ ³
ĠPol it
å»ºè®¾ çļĦ
D D
í ĺ
er red
åįķ çº¯
Que ue
æĤ ł
he ets
Hand le
at io
och ond
00 8
Ġperson nel
äºº åĿĩ
çļĦ ä¸įåĲĮ
åı¯ åľ¨
clud es
æĶ¯ éĥ¨
Ġenzym es
ra q
à¤ ¨
è§Ĥ ä¼Ĺ
ib l
Ġterm in
åĳ¼åĲ¸ éģĵ
Ġex ponential
ĠL ess
ast s
æ¼ Ĩ
ĠS ometimes
ÐµÐ½Ð¸ Ñı
cy cle
Ġsatell ite
æľĢ å¥½çļĦ
åįµ å·¢
éĢļ çĶ¨
ãģ ĳ
log in
Ġsen ior
p ub
æĺŁ æľŁ
Ġinnov ation
äººæ°ĳ ç¾¤ä¼Ĺ
ĠSup reme
ä¸İ åħ¶ä»ĸ
Ġb lo
å¥½ äºĨ
çļĦéĩįè¦ģ æĢ§
ä»ĭ è´¨
ĠCol umb
æī£ éĻ¤
Pub Med
Ġsus pect
r ance
ä¸Ĭ ä¸Ģ
lect ric
åħħåĪĨ åıĳæĮ¥
çļĦ ç»ıæµİ
å®ī å¾½
IM E
çĶ¨ åľ°
Å ¼
es ian
iz able
app end
ĠApp ro
çŁ¥ åĲį
22 1
A pi
¹ Ħ
æĮĸ æİĺ
çļĦåı¯èĥ½ æĢ§
ans wers
ok ed
éĢĤ å®ľ
å®īåħ¨ çļĦ
Ġmod erate
( E
ien e
æŁ ı
æıĴ åħ¥
Ð Ł
è´« è¡Ģ
æł ½
Ã¢ n
On ly
th al
L oc
Ġwindow s
Ġsatisf y
è ¤
ul as
× ĳ
Ð½ Ð¾Ð³Ð¾
ä¼ļ ä¸Ĭ
Ġar c
ĠUn fortunately
ë ħ
Ġob esity
N P
Ġprov iders
Ġint ention
ult y
è´ ª
æĹħ è¡Į
23 4
ian o
åįļçī© é¦Ĩ
æľī å¤ļå°ĳ
ä¹łè¿ĳå¹³ æĢ»ä¹¦è®°
! âĢĿ
åħ ½
ì ²
ĠJe ff
âĢĿï¼Į âĢľ
Ġ ðĿĲ
end a
å¤į åħ´
Ġcal ories
Ġsm oke
Ġinf lation
éĹ ¸
Ġrec ording
äºº èº«
act ic
Ġevery day
reg ular
ĠS P
.g o
Ġbl ank
æīį ä¼ļ
ä»ĸ è¯´
æĸ¹ éĴĪ
ch t
Dis play
å®ŀè·µ ä¸Ń
br al
it als
ç¤¾ äº¤
imet ers
æŃ£ è§Ħ
æĶ¹éĿ© å¼ĢæĶ¾
çĶŁäº§ ç»ıèĲ¥
O p
Ġc ats
E ven
Å Ľ
ï¼ī ï¼ļ
å¯ ĵ
Ġgain ed
Ġeas tern
Ġfall ing
ut en
Ġcont rovers
æ² «
ne ys
olog ic
äº¤éĢļ äºĭæķħ
âĪ ļ
Ġun w
Ġquant ities
ĠS O
7 20
Ġbal anced
Ġnot ation
éĶ ¡
( get
è§Ħ ç«ł
ĠMed ia
ĠÂ £
Ġfore cast
ra it
èĬ Ŀ
Ġhab its
ĠH ash
Ŀ åįľ
Ġ{ '
Ġcur ves
éĵ¾ æİ¥
åĭ ĺ
æĸ¹ å·®
æ°´ èĤ¿
ott ed
ä¸Ĭ çº§
riv ial
s hip
Ø§Ø ¡
çļĦ è§Ĵåº¦
.st atus
çª Ŀ
ï¼¿ ï¼¿
è¯´ æĺ¯
åĳ¨ è¾¹
Ġde ploy
æħ °
ed nes
ay lor
èį¯çī© æ²»çĸĹ
Ġev olved
Ġoffic ers
ĠKore a
end ment
Ġcover ing
å¥ Ī
Ġexp enses
IG HT
Ġfif th
Ġscen arios
Ġhy pert
Ġpregn ant
) <
Ġsh orter
è¶³ çĲĥ
é¢ĳ ç¹ģ
dot s
Ä ĩ
Ġ[ @
ä¹¦ æ³ķ
ĠAb stract
åīį éĿ¢
Âł the
æ® ¿
Ġrep ository
al ities
Ġpo ison
Ġorgan ism
åĩ ¹
ç»ĵ çŁ³
Ġcan cel
çļĦåĢ¼ æĺ¯
D ist
èĲ½ åľ°
Ġins ight
Ġinsect s
ï¹ £
} y
Ġad oles
æŀģ å¤§
are t
Ġob lig
op her
Ġinj ection
Ġn icht
Ġm ine
B ig
g raph
> =
ir ds
Ġest ate
Ġfrequ encies
Y S
ĠC lick
Ġs ought
G S
éĢĢ ä¼ĳ
indu ced
Ġf o
ĉĉ Ċ
çĥŃ éĩı
Ġbreak s
ook s
ĠMin ister
Ġm ock
Ġl ang
æľº åľº
ĠM ove
Con f
æµª è´¹
Ġsh ips
ë ²
ost on
ent ed
Ġpoint ed
ä¸Ģ ä»¶
ĠComput er
åĨĻ åĩº
Ġcount s
Ġr ating
åİ ¦
Ġwatch ing
ĠCh ild
èº« è¾¹
çº³ç¨İ äºº
çŃī å¥ĸ
ĠDiv ide
çļĦ äº§åĵģ
Ġdis rupt
Ġd ual
ç±» åĪ«
_s ub
Ġpos it
èº«ä»½ è¯ģ
* /Ċ
Ġreve al
å°ı åĦ¿
Ġf ellow
pend ent
å°± åĮ»
row th
åĽ¾ä¹¦ é¦Ĩ
åĽ¢ ä½ĵ
Ġdest ruction
Ġed ition
ĠUn it
. min
S ec
è¿ĳ æĹ¥
ç«ŀäºī åĬĽ
Ġincre ment
« çĹ
Ġ| |Ċ
u um
æµ ĩ
Ġcomplet ion
ĠChall enge
> +
28 5
r in
çľĭ è§ģ
be red
åĮĹäº¬ å¸Ĥ
èĢ Ģ
_b y
ig o
ud io
åĩº ç§Ł
il ename
è¿ĩç¨ĭ ä¸ŃçļĦ
B I
% ;
Ġjud ge
è¡ į
ç»¼åĲĪ å¾ģ
G u
çĪ± åĽ½
çī© èµĦ
is chen
ĠOx ford
er as
å·² æľī
Ġrel ief
å·¥ç¨ĭ å¸Ī
Ġlength s
åĨį çĶŁ
åµ Į
ĠAs ian
ĠĠĊ ĠĠĊ
pl ier
åĲĳ ä¸ĭ
om ers
Ġhorm ones
.sh ow
å¾® çĶŁçī©
ĠD ocument
åĽŀ å®¶
ĠDes pite
_ arg
åĩĨ åĪĻ
Ġuncertain ty
Ġelect ed
æĭį æĳĦ
Ġrec ycl
çĸ² åĬ³
åı« åģļ
ĠSupp ort
ĠÐ¿ ÐµÑĢ
Ġsus cept
ge red
è¾ĥ å¤ļ
Ġpay ing
åĲ ¾
it ting
he imer
Ġsp ort
ĠG re
Ġexcept ions
èµ· äºĨ
Ġg ift
æī ģ
Ġfil ms
Ġcap abilities
_ X
Ġsurpr ising
pe ction
åīį æıĲ
æ²³ åįĹ
åı ¹
æĬķ æłĩ
æĢİä¹Ī åĬŀ
de c
å½ĵ å¹´
Ġover w
Ġmin erals
æĸ¹ ä½į
å¤§ ä¼Ĺ
AP P
> `
ĠC ase
é»ĺ è®¤
Ġvir al
ĠC L
Ġdesign ing
çļĦ æľīæķĪ
æľ¬ åľ°
_ (
Ġinc red
l ich
æĺ¯ éĿŀå¸¸
Ġburn ing
Ġcook ies
ĠIm port
à®¿ à®
_ val
ĠH ill
éĿ¢ åīį
æĬ ¹
ĠW ang
Ġantib odies
Â ³
ä»İ ä¸Ń
æľª ç»ı
Ġintellect ual
Act ive
Ġw idget
Ġst abil
Ġtext s
æĪĸ è®¸
Ġbu ck
ç´ł åħ»
Ġlist ening
åĲĮæĹ¶ ä¹Ł
ĠH istor
åĵ ¦
ĠJoh nson
_ read
Ġlaun ched
Ġr anges
ç» µ
T T
Ġsuggest ing
çľĭ çĿĢ
çļĦ åºĶçĶ¨
- order
ĠE astern
Ġpar ad
Ġfoot ball
å°± ä¸į
å¥³ çĶŁ
Log ger
æĻ® åıĬ
ĠVirgin ia
æģ¶ æĢ§
ĠØ ±
à¹ Ĥ
Ġd rag
Ġcomfort able
Ø§Ø ¦
Ġmet er
Ġw ine
Ġl uck
åįı ä½ľ
ĠSt ar
s plit
Ġsynt ax
åĿĩ ä¸º
èµĦæľ¬ ä¸»ä¹ī
qu ired
Ġcont ributed
s a
çķ ¸
ĠS and
De cl
æ¸¸ å®¢
ĠHel p
Ġdifficult ies
as a
åľ° è´¨
çļĦåīį æıĲ
æĹł éľĢ
Ġex haust
Ġunder t
we red
-c alled
Ġend ing
Ġbor row
è¿ĺ æ²¡æľī
Ġd ress
.c ore
Ġcardi ac
åĽł æķ°
Ġt ur
am ination
Ġw idespread
æĬ¥ èĢĥ
Ġc raft
45 6
Ġh ide
èŀį åħ¥
Ġep it
ìķ Ħ
iz ers
st ic
rac le
å¦ Ĩ
Ġobject ives
ednes day
çº§ åĪ«
åĮĸ å·¥
è¯į è¯Ń
ç¼º å°ĳ
qu ir
çļĦ æĸ¹åĲĳ
Ġte en
Ġse at
20 7
> &
æĿĥ éĻĲ
Ġfocus ing
ie wer
ä¸»è¦ģ åĮħæĭ¬
( user
ä¸į ä½Ĩ
è¿Ļ åı¥è¯Ŀ
æķ ¦
ĠØ ´
Ġfe els
Ġrepresent ative
Ġpain ting
H ttp
." );Ċ
P OST
ĠB est
Ġf atty
ä½ĵ æ£Ģ
æĹ¶éĹ´ åĨħ
ãģ ł
Ġ" %
èŃ¦ å¯Ł
åĩº åħ·
æĪĳä»¬ é¦ĸåħĪ
-c olor
< br
æľ ´
f rame
Ġlibr aries
Ð°ÑĤ ÑĮ
Ġs ends
Ġm uc
è¿Ĳ ä½ľ
Ġconsequ ence
æĸ° çĸĨ
ä¸ĭ è½½
* }
Ġas ks
ĠEnvironment al
ä¸¤ äºº
ab out
Ġapplic able
å°± åľ¨
Ġbre aking
ä¸ľ æĸ¹
ĠCommun ity
çĽ¸çŃī çļĦ
æĬĹ ä½ĵ
ocol ate
æľº éģĩ
Ġl ift
å¸¸ çĶ¨çļĦ
Ġassum ptions
Ġminim ize
Ġge ometric
Ġfac ility
Ġcompet itive
åĵª ç§į
In itial
Ġdem ands
ãģĭ ãĤī
P y
n ia
Sub stitute
ãģĵ ãģ¨
ĠÐ ĵ
èĩªåĬ¨ åĮĸ
Ġdiagn ostic
ĠWith out
ĠAg ain
2 14
å¤§ éĻĨ
ap sh
Ġf urn
ort ion
ĠM essage
R ect
çĩĥ æĸĻ
c ient
Ġdes ert
ä¸Ģæł· çļĦ
çĽ¸ éĤ»
- co
0 11
( err
çĥŃ æĥħ
ĠYou ng
hel p
Ġil legal
i otic
o j
N av
é¸ Ń
ĠAp plication
Ġvary ing
M ultip
Ġmin eral
add r
å°½ åı¯èĥ½
"/ >Ċ
è§£ è¯»
è·¯ çĶ±
gor ithm
ç»ı è´¹
ĠGe org
cl osed
äºļ æ´²
i ac
èĩ³ åħ³
çļĦ æķĻåŃ¦
ir ts
ç¼ĸ ç¨ĭ
25 2
åĪĿ æľŁ
æĦ ī
ĠI F
åĨ¬ åŃ£
E st
Ġv eter
Ġpl anned
å¾Ĺ äºĨ
çĮ ľ
sec urity
ĠN ever
AT US
Ġmanag ers
Õ¸ ÖĤ
åĿ ĳ
Ġab ilities
pl er
r ons
Ġe ine
å¸ ½
âĢ Ĥ
ä¸į åıĹ
çĦ¦ çĤ¹
Ġint ra
[ n
å¸Ī èĮĥ
Ġprec isely
f ast
Ġt ill
ors es
$ C
à¤ °
Ġcheck ed
aus es
á»§ a
ä¸į éĶĻ
Ġneighbor hood
ph al
æĽ´ å¤§
æľī çĤ¹
ĠH ospital
æĮĩ æİ§
Ġt f
ing le
Å Ļ
Ġearth qu
_ SE
w hen
2 32
ä½ľ å®¶
Ð¸ Ðº
è¾ĥ é«ĺçļĦ
ĠQu ant
æĸĩ èīº
let es
å¿ĥ æĥħ
Ġt ar
uclide an
Ġpl enty
Ġìĭ ľ
amil ton
ĠC re
. It
ĠE in
Ġmus ical
adv ant
hol ds
ä¸¤ ä¾§
æĺ¾ å¾Ĺ
ç»ĦæĪĲ çļĦ
.annot ation
åıį èĢĮ
æµ ©
Ġthan k
] :Ċ
W ord
Ġs ister
ĠB ul
çĸĹ æķĪ
ĠW ay
Ġfil ters
t riangle
Ġre q
ç®¡çĲĨ åĴĮ
ĠN az
( string
ĠÐ² Ñĭ
Ġev il
Ġmin us
ĠE arly
Ġconsider able
æ² ĥ
Ġc able
Ġproduct ivity
åĶ® ä»·
Ġheav ily
Ġeng aged
D ay
up s
Ġtum ors
ol ves
çķ ı
Ñĸ Ð²
Ġconsist ing
åı¯ä»¥ ä½¿çĶ¨
äº« æľī
æĸ° æĬĢæľ¯
å¹³æĸ¹ åİĺç±³
ĠÐ ¢
ä¸į ä¸Ģå®ļ
æµ ¦
Ġcomp os
èĥ ļ
ĠO bs
è®¢ åįķ
åĤ¨ å¤ĩ
äº Ń
Ġperfect ly
Ġro d
b ot
ãģ Ĭ
åĴĸ åķ¡
ĠÂł Ċ
Ġhy brid
Ġarter y
æ¢ ¨
el ay
/ M
} </
è¾ĥ å°ı
Ġvulner able
D I
Ġh all
Ġj a
ĠCon d
Ġa z
æĳ Ĭ
æ³¨æĦı åĪ°
or b
ĠDiv ision
æ»ĳ åĬ¨
Ġv ideos
Ï ī
ĠP ak
Ġfavor able
åħĭ æľį
Ġth yroid
ib ration
èį£ èªī
auss ian
{ F
å¸¦ æľī
åıĺ åİĭ
Ġinf ant
Ġs oul
.e qu
.sh ort
ent ity
ĠC ustom
ÙĦ ÙĬ
_t rain
â Ĭ
ir al
çķĮ éĿ¢
u j
çłĶç©¶ æīĢ
å¤ª å¤ļ
åıį æĢĿ
Ġg lob
æĴ Ĵ
o a
- j
ä¸į æĺĵ
ack s
Ġtell ing
Y ear
å§ ĳ
Ġê µ
hem atic
æ°ĳ çĶŁ
Ġc á»§a
æ© ¡
it ar
ä¸»è¦ģ æľī
r and
od o
å®ŀ åľ¨
}{ (
ĠCon nect
çļĦ çĬ¶æĢģ
ä¸į å¼Ģ
3 10
com fort
Ġregist ration
éľĢè¦ģ åľ¨
Pro perties
)) )
è¦ģ åľ¨
é£ ĺ
( pro
Ġcho osing
æĽ¿ æį¢
á ŀ
ul o
Off set
æĪ¿ åŃĲ
Ġcontroll ing
Â ®
( key
è¿ĺ åľ¨
çļĦä¸Ģ é¡¹
íķ ł
Ġsl a
Ġcool ing
Ġir rit
Ġcollabor ation
ĠLic ense
Ġover come
ä½Ļ é¢Ŀ
ĠCor por
Equ als
S te
åĶ ¤
çļĦ æĢĿæĥ³
Ġent ering
èĪĴ éĢĤ
{ r
36 5
do i
.pro totype
U C
{ e
Ġsurg ical
2 15
G O
Ġc ort
Ã¨ s
} )Ċ
hel ial
Ġst ake
æŀĦæĪĲ äºĨ
id i
ĠF amily
Ġfac ed
åħ¶ ä¸ŃçļĦ
æĻ Ĥ
çĽ´è§Ĵ ä¸īè§Ĵå½¢
anc el
at isf
Ġcl im
u er
.s plit
ãĤ ĵ
S erial
w d
æĺ ¨
Ġf irms
å¢ĥ åĨħ
. Data
æ°¨ åŁº
Ä «
ĠEx amples
Ġvar ies
æĶ¾ å°Ħ
Ġgr anted
äº§ èĥ½
Ġsl ave
äºĮæ°§åĮĸ ç¢³
ps y
çļĦ æ¦Ĥå¿µ
40 4
âĢ ķ
( res
åĤ¨ åŃĺ
Ġaccom pan
_l en
Ġadministr ative
Ġsche ma
Ġre put
( request
ĠL os
Ġp seud
ĠAtl antic
_ en
c f
= >
Ġhol id
éĹ ·
Ġm l
çļĦ ä¸Ĭ
(f alse
ĠB Y
ä¹ Ķ
ac ion
.m ax
ener ation
ĠTh ough
plic ity
Ġprec ip
æľīåħ³ è§Ħå®ļ
è®¸åı¯ è¯ģ
ä¿® è®¢
å¦ ¨
Ġdi ver
) }^{
Ġf est
_c ast
ĠBl ue
åıĤ çħ§
Ġcont emporary
Ġforest s
Ġdescrib ing
ran ch
åĽŃ åĮº
Ġb ot
å¥ ł
23 1
å¾Ĺ ä»¥
æķ´ æĶ¹
Ġint ense
ĠBer lin
ut ter
ä¸į å¤§
åĨħ å¿ĥ
() );ĊĊ
éľī ç´ł
. un
åĨľ äº§åĵģ
Ð Ĵ
til de
Ġpriv acy
ĠSm all
L P
ä¸ª äººçļĦ
å°ģ å»º
Ġtransfer red
æľį è£ħ
ĠĠĠ Ċ
è¾¹ çķĮ
Res ults
è½¬ åĲĳ
èĦ± è´«
Ġfe e
çĶŁ æķĪ
è¡¨ åĨ³
$ c
L o
) `:
æĸĩ æ¡£
_ output
è Ł
éĢ ¾
èĢĥ çĤ¹
è¿Ŀ è§Ħ
åĪĨ æĪĲ
D atabase
Ġsol ved
Ġseg ments
C alculate
ĠE ll
Ġre aching
âī ¥
ç»ĵæŀĦ çļĦ
30 1
Gener al
æ³¨ åħ¥
Ġ ________
ĠS i
¬ ¸
å¾Ī æľī
e z
èĴ ľ
åķĨä¸ļ éĵ¶è¡Į
ç¡® å®ļçļĦ
] .ĊĊ
Ã ¸
Ġd t
et he
äº¤ å¾Ģ
åĪĨ è£Ĥ
éļı æĦı
ĠB lood
Ġgener ations
Ġdis crete
æ¶īåıĬ åĪ°
ch ild
ong o
( str
è¿ĲåĬ¨ åĳĺ
å³ ¡
t re
åįķè°ĥ éĢĴ
æĿĤ å¿Ĺ
H istory
aps ed
äºĭå®ŀ ä¸Ĭ
- known
ç¡® è¯Ĭ
f ilter
æĬĹ çĶŁç´ł
Ġadv is
æī¿ è®¤
Ġ" -
con sole
æł¸ ç®Ĺ
åĪĨ åī²
èĢ ¶
k al
Ġ" ./
ost ream
Pe ople
Ġl osing
ĠØ¹ ÙĦÙī
Ġun defined
è´µ å·ŀ
Ġdifferent ly
00 6
è¯ļ ä¿¡
åľ° è¯´
Trans action
b ell
O B
O RE
Ġrestrict ed
app ly
åĩĢ åĪ©æ¶¦
Ġinvestig ated
Ch annel
ä½¿çĶ¨ äºĨ
g rad
.st art
ogene ous
_f rom
ãģ ¤
ĠS che
h an
åĲį åįķ
Ġble eding
ĠS n
èĴ Ĥ
3 40
Ġi o
y o
Ġcor n
Ð½ Ð¾Ð¹
Ġlight s
ä¸ Ľ
Ġfunction ing
Ġk illing
24 5
- induced
Ġarg ued
ä¸ĭ è·Į
Ġclass ic
_ image
Ġstrateg ic
å·¥ ä¼¤
Ġsign ature
ut ation
å¯¹ç§° è½´
p op
ĠT ree
h yd
ox y
Ġaddress ed
æĿİ æŁĲ
å¯¹è§Ĵ çº¿
éĵ ħ
å½ °
Ġpredict ions
ig ger
. config
Ġëĭ ¤
Ġdist ributions
[ x
a ired
p ress
è®° å¾Ĺ
O F
èģļ çĦ¦
Ã¤ n
ist ically
æĢ§ çĸ¾çĹħ
{ {\
ä¸Ģ å¸¦
ĠĠĠĠĠĠĠĠĠĠĠĠĠĠĠĠ ĠĠĠĠĠĠĠĠĠĠĠĠ
Ġp m
Ġcop ies
) ).
ĠR h
Ġp enc
Ġp uzz
ĠStud ent
Right arrow
ä»· çļĦ
çŃī éĹ®é¢ĺ
Ġ ib
Ġp ag
Ġar ise
-m aking
Ġreg ime
Ġe lder
åĢ¼ çļĦ
-be ing
Ġper ceived
éĴ ¥
åĲ¦ å®ļ
IV E
åĴ ¬
è¦ģ çĤ¹
ĠAre a
Ġthick ness
åīį å¾Ģ
å¸ĥ ç½®
Ġmut ation
× ©
Ġsystem atic
ĠF ar
st ra
ĠHe ad
Ġdistingu ish
Ġsupp ose
ĠSc ot
ĠT ask
Ġinvest ors
ç¡® ç«ĭ
ill ion
à¥ ĭ
ÑĢÐµ Ð´
ĠĠĠĠĠĠĠĠĠĠĠĠĠĠĠĠĠĠĠĠĠĠĠĠĠĠĠĠĠĠĠĠ ĠĠĠĠĠĠĠĠĠĠĠ
00 7
åĿ Ĭ
Ġabsol utely
Æ°á» Ŀ
æĪ¿ éĹ´
ly mp
ole cular
ĠC rit
ÑĢ Ð¾Ð²
Ġart ists
A nt
åħ¬ æĸ¤
ri val
äºī åıĸ
æ¦Ĥ è¿°
Ġunt uk
å°Ĩ åľ¨
Ġbe ings
éģ ®
éĽ Į
Ġp ipe
Ġcont amin
éļ ¶
ge x
èĪª å¤©
äº§çĶŁ äºĨ
abul ary
Ġrout es
_C L
Ġh osp
æī ®
åİŁ æĸĩ
ind s
de lete
Ġreturn ing
Ġn est
æ³ Ĭ
èĻ ¾
ens ed
Ġmet als
æ°´ æ³¥
_S H
Ġ Ñħ
g ame
Ġnot iced
Ġflo ating
Eng lish
Ġcorpor ate
is ons
ĠOb ama
' ],
Com mon
Ġcommit ment
ne x
T I
ĠA ff
Ġmin ing
Rep ort
Ġp izza
çĶ¨ åĵģ
ĠSer ies
$ g
æīĭ æ³ķ
r us
Ġaim ed
Ġ Ú©
M apping
éĩį çļĦ
og a
In f
ob ic
æłĩ é¢ĺ
i ability
Ñĥ Ð´
Ġ- --
çļĦ å¸Ĥåľº
ĠSimilar ly
r f
á» ±
åıĪ æĺ¯
ÑĤ ÑĮ
æŁĲ ä¸Ģ
urs day
Ġ ),
á» ¥
az z
"" "Ċ
Ġexecut ive
Ġcomb at
å®īåħ¨ æĢ§
Ġbelie ves
çļĦ æľºä¼ļ
ä¹¡ éķĩ
Ġprov ision
. trans
Ġst ations
ĠÏ ĥ
çŃī åĽłç´ł
æķĪ åĬĽ
æĤ£ æľī
åīį è¿Ľ
å®¡ è®®
éĨ ĭ
æī« æıı
3 80
Ġk a
ä»¥ å¤ĸ
ar an
æķ´ æ²»
Com bine
ĠVol ume
b ial
it us
Ġse es
à¦ ¿
anal ysis
åľ° åĽ¾
ä¸» è§Ĥ
æľĢ æĹ©
åİ» éĻ¤
sp ring
Ġball s
Ġpromin ent
l Ä±
20 9
ot ypes
Ġcarb ohyd
çº º
Ã¡ t
} |
ĠS on
.m ap
æĲħ æĭĮ
Ġv ag
å®ĺ æĸ¹
Ġfl ux
.g ov
ĠâĢ ŀ
æ´» è·ĥ
{ B
æŃ¦ åĻ¨
çĨ ¬
} .Ċ
æĺ¯ çĶ±äºİ
Ġbar rier
] ),Ċ
Cont act
Ã© m
è¥¿ éĥ¨
Ġsing ular
ul us
åıĸ åĩº
âĢ Į
çĻ» å½ķ
è¿ĳ ä»£
é»ı èĨľ
Ġcon g
Ġcons ent
ç»Ļ äºĨ
: B
Ġfib ers
Ġmy th
- axis
C ustom
ãĥ³ ãĥ
2 13
ï¬ ģ
f rak
Ġ }{
Ġcomput ed
}$ $
ĠNe uro
ä¹ĭéĹ´çļĦ åħ³ç³»
ìĻ Ģ
ĠS ie
åĪĨ ç±³
çļĦ åŃ©åŃĲ
resent ation
ĠSh ould
ä¹¦ åĨĻ
ä¸¾ æİª
Ġthread s
Ġcour ts
æŀ £
ĉĉĉĉ ĉĉĉĉ
ä¿¡ å¿µ
ĠC y
Ġunus ual
_st atus
Ġm eng
è£ħ ä¿®
Ġdesign s
ou ds
ac co
ze ch
è¯¢ éĹ®
çĿĢ åĬĽ
ä¾ĽåºĶ åķĨ
Ġsubtract ing
Ġgot o
Ġsc ales
è¿Ľ åº¦
ol o
é¢ ĩ
æ¼ ł
Ġpay ments
Ð½Ñĭ Ñħ
éĢļ è®¯
Ġh tml
) </
éĢ ¸
ac er
çļĦ è®¾è®¡
Ġn Ã£o
èĲ İ
Ġc ra
è¾ĵ éĢģ
å¯» æ±Ĥ
ä½Ĩ è¿Ļ
23 5
Ġv om
åĲĪ éĩĳ
Ġen v
lo op
_in put
Ġprom oting
ĠRe quest
ag ram
Ġb ron
ass ium
Se ction
èħĲ èļĢ
a que
z t
Ġreal ized
_ EX
x imate
Ġclean ing
_ object
d ia
çĹħ çĲĨ
Ġpoly mer
Ġcount y
s i
Ġinterm ediate
ol ver
Ġal arm
Ġdef ining
çĭ ¼
ĠN ative
åıĺ æį¢
å¥ ´
j oin
æ±¡ æ°´
ĠMethod s
Ġdeng an
Ġwel come
pl t
å¯¼ ä½ĵ
ĠApp le
ie ce
å¿ĥ çģµ
ud a
è¶ħ è¶Ĭ
Ġinvolve ment
Ġcook ing
çļĦ è¡¨çİ°
Ġev ident
od els
Ġt ons
ä»¥ä¸ĭ ç®Ģç§°
ç¥ĸ åĽ½
èµĦ è´¨
b our
Ġdi pl
Ġbelong s
ĉ var
å¥½ åĥı
éĺ³ æĢ§
åħĦ å¼Ł
.in fo
eng ine
ĠG ene
çŁ¥è¯Ĩ çļĦ
ĠG PIO
Ġ) ;ĊĊ
å°ģ éĹŃ
åľ° ä¸Ĭ
å¼ķ çĶ¨
åĩº èµĦ
ĠG all
be fore
{ S
ar on
çİ Ħ
/ x
ĠI raq
ic ian
è¿ĩ æĿ¥
¯ ¸
ÙĪ Ùħ
point s
è®© ä½ł
ĠM ic
ĠB ob
å¿½ çķ¥
åĤ¬ åĮĸ
æĥħ å¢ĥ
Ref erence
{ f
Ġem pir
ĠPr ice
Ġbound ed
ĠL es
ĠH am
ĠL iber
åĬŀ äºĭ
b u
Ó Ļ
Ġd ance
R Y
Res earch
ĠTw itter
Ðµ Ð·
Ġd ense
çľ ī
Ġoutput s
Ġmod es
Ð°Ð» Ð¸
Ġo m
Ġinstall ation
è¦ģæ±Ĥ çļĦ
åĬ Ŀ
ĠL ie
æıĲåĩº çļĦ
æķ° é¢Ŀ
èĥ ±
ear chers
æŀ ¯
{ "
Ðº Ð¾
Ġwe igh
Ġreg ulate
Ġtrans mitted
ĠB ern
ĠFor ce
Ġch air
éĺ² çģ«
Ġconscious ness
Ġmus e
Ġred irect
ig m
è¥¿ å®ī
çªģ åıĳ
Ġfacilit ate
çĲĥ çļĦ
Ġantib iotics
Ġis lands
it ational
æĹ¥ çļĦ
math frak
-c ol
.to String
ra ine
Us ers
ä¸į äºĪ
{ P
is play
Ġamaz ing
3 75
ov ing
ĠInd eed
Ġspecial ized
. cl
ogen esis
Ġ( [
)) )Ċ
çİ¯å¢ĥ çļĦ
Ġref lection
ID S
ro oms
ĠS elf
à¸£ à¸°
M sg
Ġinc idence
× ĵ
.t est
ç»ıæµİ åŃ¦
æĬ½ æł·
Ġregul atory
ĠDan iel
g ree
æłĩåĩĨ åĮĸ
H C
view s
et c
äºº æĸĩ
Ġbeaut y
Ġgener ic
Ġperiod ic
ĠA P
äº¤ ä»ĺ
ch anged
çļĦ èĮĥåĽ´
ĠL ED
æĪĳ æĺ¯
Ġtot ally
s ome
ĠS ir
/ B
m ol
æ ª
Ġ ÅŁ
å®ĮæĪĲ äºĨ
Sim ilar
ĠS imple
Ġìķ Ħ
è¥¿ åĮĹ
æ¤ ħ
ä¾Ŀ æīĺ
ĠM ur
å¼ł æŁĲ
Ð½ Ñĸ
al and
è¡Įä¸ļ çļĦ
Ġalgebra ic
s ed
åįĹ æĸ¹
Ġreflect ed
_ out
ĠI R
im estamp
Ġbring ing
Sh are
5 50
ë į
æĶ¯ æ°Ķç®¡
ĠM ah
çŁ «
et ric
ÑĢÐ° Ð²
æĦı åĽ¾
Ġhon est
Ġexhib it
æĻ¯ åĮº
conom ic
l oc
Ø³ Øª
em e
åį° è±¡
Ch anged
ĠR en
åĬ¨ çĶ»
us al
yn chron
åĬłå¼º å¯¹
ĠO k
24 3
ĠCom ment
^{ (
Ġemphas is
Ġsla very
\ "
ol n
Ġhead ers
ĠPl ay
æŀ¶ æŀĦ
ä¿® æŃ£
æĸ° åħ´
Ġguarante e
Ġevolution ary
msg id
W indows
ar ters
åĮ Ļ
æ¢ ³
ĠH ard
æĽ´ æľī
Ġdevelop ers
æ¹ĸ åįĹ
40 1
kt op
- right
dom inal
M ake
ä¾ĽåºĶ éĵ¾
, t
è¯Ĺ æŃĮ
Ġmeaning ful
æĪĲ æķĪ
i ations
( result
{b matrix
{ Z
ä½ı éĻ¢
ä¸ª åĪ«
èĭı èģĶ
ĠR a
ura ble
è¿ľ ç¦»
co very
åİļ åº¦
Ġs aving
éĿ¢ ä¸Ĭ
inter face
ç«ĭæĸ¹ ç±³
am ins
amp s
Ġcl othing
æ¸ £
ç»ĵ å©ļ
è§Ħ ç¨ĭ
Ð½ Ñĥ
åī© ä¸ĭçļĦ
Ġ> >>
Ġmagn et
O UT
Ġro of
è´Ń çī©
åľ¨ ä¸Ģå®ļ
åĲ¬ åĪ°
Ġdeg rad
æģĴ æĺŁ
åģ¶ æķ°
_ I
Ġexperien cing
Ġplatform s
æł¡ éķ¿
çī©è´¨ çļĦ
ant o
Ġpan cre
\ _
Ġc rack
ĠC SS
ĠP A
Ġde com
Ġsav ings
Ġche ap
Ġ ?Ċ
p ad
Ġent ertain
z es
Ġdiscrim ination
Ġ| ĊĊ
Ġprotect ive
ct u
est roy
Ġsever ity
æľĢ åĪĿ
Ġregard ed
msg str
() ãĢĤĊ
ä¸Ģ ç»Ħ
Ġâ Ħ
< <
OD O
Ġre con
æļĤ æĹ¶
à¸²à¸ ¡
éĶ Į
ab ling
cont roller
ç®¡çĲĨ éĥ¨éĹ¨
pos itive
> ,
ĠF ort
ĠO l
Ġf ant
è¿ĺ åİŁ
å¹¿ åľº
æľº ä½ĵ
åĵ º
39 3
W riter
AM P
Ġpartial ly
Ġland s
ä¸¤ çĤ¹
å¹¿ä¸ľ çľģ
ou red
åħĥ ä»¶
Ġres c
att ed
è¿ĩ æ¸¡
Ġderiv atives
ĠR ock
Ġcomp ression
åħ´ å¥ĭ
å¿ĥ ä¸Ń
Ġpe er
ur face
éľĢè¦ģ æ³¨æĦı
ëĵ ľ
ìĥ ģ
Ġì ĸ
çİĭ æŁĲ
çºł æŃ£
Ġinher it
àµ į
Ġc ot
Ġal ive
Ġrequ iring
P op
Ġcur riculum
p th
èĻļ åģĩ
çº· çº·
Ġinvent ory
Ġtarget ed
Ġsl aves
è§Ħ æł¼
Ġtrack ing
âĢĻ .
éĽ ĩ
el ly
Ġmet rics
Ġrandom ly
Ðµ ÑĢÐ°
è·Ł è¸ª
.sh ape
å¹¶ æľª
ç¼ĵ æħ¢
e cho
å¥¹ ä»¬
L ike
ä¸º ä¾ĭ
èĬĤ å¥ı
Ġs essions
ï¼ ĭ
Ġr hyth
][ '
Ġe ase
é¢ ħ
æ¯Ĵ åĵģ
og rap
Ġk on
Ġmar bles
Ġcons ume
Ġad vent
ĠB on
ys ics
ou rier
Ġtim estamp
Ġm erg
âĢĿ ï¼Ī
ĠP ur
åĴĮ ä¸º
P ORT
åŁİ åĮº
æ¹ ĺ
W ill
Ġmotiv ation
éļ¾ é¢ĺ
_m ax
Ġeth ical
ç¡« éħ¸
- out
æĸ ¥
æŃ §
Ġemot ion
Ġch ose
äº§ çī©
áĥ Ķ
ĠHe art
au ge
ĠS M
+ (
è´ ¾
èī ³
Ġgi ant
èµ° è¿Ľ
ç«ŀ èµĽ
ĠÂ ©
ĠAnd roid
ç« ĸ
áº¡ i
æµ ı
be an
Ġhe aling
è®º åĿĽ
Ġ >Ċ
ç§ĺ ä¹¦
è´ º
cl er
B B
æ° Ł
è¡¥ åĬ©
çļĦ æ³ķå¾ĭ
éĢ ¼
, n
Ġpix el
Ð° Ð¹
å¢ŀ çĶŁ
Ñĸ Ð´
Ġanim ation
Ġpropos al
Ġcardi ovascular
Ġrestaur ant
Ġin i
åħ¬ è¯ī
Ġpurch ased
. index
ĉ t
æłĩ çļĦ
fo o
éĻĦ å±ŀ
Ġdifferent iate
Ġtra v
_ on
Ġfr ust
çļĦ çŁ¥è¯Ĩ
Ġg erm
ä»£ æĽ¿
IT E
ÑĪ Ð¸
Ġrestrict ions
Ġpriv ile
ass es
Ġacknow led
it arian
çī º
åŃ¦ åĳĺ
fol io
Ġt ends
" ],Ċ
ä¸ľ åįĹ
æľī æĹł
çĲĨ äºĭ
Ġgreen house
ang an
Ġkilomet ers
]ĊĊ Ċ
. List
Ġc ursor
çļĦ è®¡ç®Ĺ
_t rans
Ġmodel ing
å½¼ æŃ¤
_ device
åĩº å¸Ń
Ã© es
we ek
å¥³ äºº
Ġd ating
Ġconnect ing
g b
0 12
æĢ» éĩı
è®² è¿°
{ t
âĳł âĳ¡
Å ĳ
qu ence
ÑģÑĤ Ð¸
è¿ľ ç¨ĭ
I ter
as hes
äº¤æĺĵ æīĢ
Ġdivis ibility
-st ep
Ġo t
çļĦ æķħäºĭ
Ġper mit
ag ent
_ z
ç° §
æĿĲæĸĻ çļĦ
util s
Ġpack ages
é©¬ ä¸Ĭ
áº¥ t
e or
{ H
ìĿ ¼
` ĊĊ
| nan
Ġconf usion
ç» ĳ
åĤ ħ
ë§ Į
åĢŁ åĬ©
Ġown ership
Ġdri vers
o ples
ä¸Ģ åĳ¨
æĶ¹ ä¸º
- V
æĪĲ è¯Ń
' ),Ċ
Ġdro pped
æĹł çĸĳ
W H
ä¸¾ æĬ¥
an ol
ä¸Ģ åıª
ç»Ļ æĪĳ
ç²¾ å½©
Ġpsych ology
ref erence
ä¸Ń æīĢ
åĮĸ åĴĮ
âĢĶâĢĶ âĢĶâĢĶ
Ġrac ial
éħį å¤ĩ
Ġbab ies
åĨħ æ¶µ
ograph ical
éľ ľ
æĦŁ çŁ¥
Ġenc ounter
- left
Ġc tx
åľ¨ æľ¬
n ote
èĤ ĸ
Eng ine
Ġ/ >
å¹¿ è¥¿
ang ers
çĺ Ģ
èĴ ĭ
Ġh am
end or
ç»Ĩèĥŀ çļĦ
æĸĩ ä¹¦
is i
æ¡ ©
Ġtri es
ĠE D
Ġenh anced
Ġk om
æĮī æĳ©
âĪ ŀ
åīį æľŁ
Ġindepend ently
im en
i ar
ĠRes ults
åĪ¶åº¦ çļĦ
ĠØ£ ÙĨ
Ġpul se
_ all
æĳĦ å½±
Ġs ad
Ġtrans f
å² ³
Ġsubt raction
æĴ °
æ² ¸
Ġdem ocracy
Ġpl ates
åľ¨ è¿Ļç§į
í ĥ
åı¯ä»¥ è¡¨ç¤ºä¸º
æĿŃ å·ŀ
struct or
Ġmoist ure
èĥ° å²Ľ
Ġla id
Ġsun light
çĪ± æĥħ
ç¬¬ ä¹Ŀ
] ).
éĶ Ī
Ġtra uma
å¸Ŀ åĽ½
80 2
ant i
.x ml
éĢīé¡¹ ä¸Ń
Select ed
çģ ¶
å¤´ éĥ¨
åĪĨ å·¥
æľī æ²¡æľī
ĠM as
é¢Ĩ åħĪ
åı¯èĥ½ éľĢè¦ģ
Ġpe pt
å« ©
æľª èĥ½
Arg ument
Ġser um
èĩªè¡Į è½¦
Ġcontinu ously
d k
Ġis ot
ä¸Ģ åľº
èº ģ
ä¸º ä¸Ńå¿ĥ
ĠF OR
éŃ ħ
Ġc um
uc le
erv ing
Sc ore
ãģ Ī
ä¹ĭ æīĢä»¥
çļĦ æŃ£ç¡®
ĠR oad
å¤ ķ
æģ ¨
Ġw ra
æĽ´ å¤§çļĦ
as ant
ĠB u
ĠN ut
ä¹Ł ä¸įèĥ½
! }{
] ),
or iginal
Ġvictim s
Ġco h
air y
ĠInte rest
z heimer
å½±åĵį åĪ°
book s
a an
Ġtim er
_ at
ĠAdminist ration
åĶ ĩ
é«ĺ ç«¯
Ġphysic ian
çļĦ åħī
path y
Back ground
it Ã©
Ġ+ \
Ġb ounds
.c ss
Ġdiet ary
ä¸ĭ éĿ¢çļĦ
çĶ· çĶŁ
T ab
¤ ĳ
Ġdis charge
Ġ Ø§
* ,
ä¿ ±
u fficient
in et
lic t
åĪĽ æĦı
Ġclust ers
æĵħ éķ¿
çīº çī²
Ġprog ression
Ġa vec
è·¯ ä¸Ĭ
Ġh i
ç®¡çĲĨ åĬŀæ³ķ
Ġobvious ly
æ· ®
çļĦ æĿĥåĪ©
upp ort
ĠR T
Ġnull ptr
ĠT ri
çĶ³è¯· äºº
Pro file
æĺ Ĥ
. array
Ġin cl
ĠCent re
Ġvess el
Ġp neum
ä¸į å¤ļ
Ġfin ance
çłĶç©¶ éĻ¢
åĮ»çĸĹ æľºæŀĦ
æº¶ è§£
comm un
æ¬£ èµı
éľ ¸
Ġb x
æıĲ éĹ®
è¿ĩ äºĨ
_ int
åĩł å¤©
Ġindic ator
ut or
k k
ĠT urn
åĲĦ ä½į
æĬ¥ è¡¨
T ra
Ġv otes
ä¿¡ è´·
Ġsome where
olog ically
ä¸» å¯¼
uc lear
- per
åĽ½åĨħ å¤ĸ
) ->
ç¬ ¼
åĨħ èĨľ
ins ic
an z
è¡ĮæĶ¿ æľºåħ³
cript s
åĨ³ è®®
E rr
å¯¹ æīĭ
g age
ë ª
ĠPh ot
ï¼Ī ï¼īãĢĤĊ
ĠPl ant
Ġsent iment
En abled
é ł
Ġret ail
äºº æł¼
Ġt y
am era
Ġdifferent iation
éĩįè¦ģ çļĦæĺ¯
Ġcircul ation
Ġg rain
$ (-
ess ment
}} -
ĠLe ague
atch ing
ĠSh ort
V ert
Ġsymmet ry
Ġì§ Ģ
22 3
S n
åħ Ĩ
Ġun likely
å½± åĥı
Õ¡Õ ¶
Ġt ong
m ail
h u
èģļ éĽĨ
act ors
çıŃ ä¸»ä»»
åºķ éĥ¨
6 50
_ dev
om ething
ä¼łæŁĵ çĹħ
ç®¡çĲĨ äººåĳĺ
roduct ive
ĠH ig
ET H
Pl ay
å¼ Ĭ
(n um
ke ep
n ight
Ġopp osition
pos ed
çĭ¬çī¹ çļĦ
c n
Ġput s
è¹ Ī
ìł ľ
Ġf ed
ĠC lear
ĠM aster
Ġbu g
ç»ıæµİ ç¤¾ä¼ļ
Ġpen et
- class
D id
CT ION
Ġeven ing
.P rint
lu gin
ä¾¿ ç§ĺ
åĲĪæ³ķ æĿĥçĽĬ
ĠK en
He alth
Ġcon cluded
ĠChrist mas
ul ative
N F
ody nam
b ow
ol ation
Ġreve als
Ġcoll apse
f ree
Ġc oding
ĠG ard
\[ \
Ġref uge
ĉ s
is dom
ĠØ§ÙĦØ ³
à¸± à¸ļ
Ġphot ograph
Ġad verse
ĠDef ault
Ùħ Ø§
Ġmur der
åĸĦ äºİ
ĠĠĠĠĠĠĠĠ ĠĠĠĠĊ
Ġgraph ics
ĠRem ove
. query
ne cess
ĠAs k
raw ing
Ġwe aring
rom agnetic
Ġmun icip
Ġon set
æĶ» åĿļ
$ r
, and
check ed
; (
Ġconver gence
in ner
Ġnon linear
pre ne
ir ty
æľª çŁ¥
éĩį ç»Ħ
Ġeng agement
ap ters
Ġleg it
Ġhon or
ri ble
åĿĲæłĩ ä¸º
çŁ© å½¢
Ġqu iet
ĠPl ace
': '
Ġpart nership
met ric
Ġher self
Ġimp air
elf are
t or
{ D
æĸ¯ åĿ¦
Ġpath ways
Ġbehavior al
athe red
Ġflex ibility
oc c
å»º éĢł
Ġb tn
æ¶ ¯
ĠD ou
Ġ- Ċ
b est
Ġm os
Ġsc roll
ä¹¦ ç±į
ĠD am
orm s
is che
Ġ" <
Ġown ed
æĦ ģ
åĪĩ æį¢
å¤§ æ¦Ĥ
Ġag ed
Ġlog s
az e
Ġr anging
Ġsens ors
Ġsens ory
ãĥ Ń
åĲĥ é¥Ń
Â ©
Ġd op
éŁ© åĽ½
ĠVal ley
_m at
ä¾¿ æĺ¯
Ġt a
ï¼Ī -
å±ı å¹ķ
" The
_l ock
Ġbroad cast
em ma
Ġcou nsel
è¾ Ł
Ġadapt ed
ĠDist rict
I AL
/ kg
æķĻèĤ² éĥ¨
çĥ ·
ĠF red
Ġconsum ed
è¢ ģ
åľ¨ åħ¶
- align
ra ble
æī© æķ£
æŃ£ å½ĵ
åĮ»çĶŁ çļĦ
Ġpix els
éĥ ¡
Imp lement
çĽ¸ äº¤
Ġnam ely
ĠH u
P V
Ġins pired
.... ..
åĲ¸ çĥŁ
ch or
tr l
ĠMod ern
Ġtrans cription
è¥¿ åįĹ
Ġ ub
ä»İ å°ı
æŀģ éĻĲ
ĠĠ ĊĊ
íķĺ ê³ł
h us
06 3
çĽ´ æĴŃ
ĠMultip ly
èĤ¾ èĦı
$ p
X ML
ä¹Ł ä¸įæĺ¯
g inal
ĠM it
Ġcomput ation
b d
ĠIm pro
EE E
ĠCarol ina
Ġpost ed
omorph ism
æĪĳ å°±
Ġsole ly
ä¸§ å¤±
Ġw ww
èĳ Ľ
åįķä½į çļĦ
æĹħ å®¢
Ġhaz ard
çĿ¡ è§ī
C V
d ocument
Ġengine er
p ret
Ġsign aling
åĬ© åĬĽ
( V
å¸¦æĿ¥ äºĨ
Ġasym pt
as ia
äºĳ åįĹ
ĠM ovie
åĲ ķ
å¸ Ĳ
èµ· çĤ¹
C RE
ä¸¤ ä½į
) }\
æĶ¶ åıĸ
ac le
é¾Ļ å¤´
Ġproport ional
ĠMathemat ical
åħ¨ å¹´
æĮ «
ĠH ot
Ġast hma
åĬŀ åŃ¦
Ġwrit ers
ç»Ļ ä½ł
ĠR andom
æŃ¤ ç±»
í Ħ
et ween
int s
it ches
l ined
} [
0 20
ab b
_C H
Ġlater al
ĠDirect or
Ġcap s
ç¼º çĤ¹
Ġf i
Ġri vers
Ġthe rapeutic
ĠÃ ¤
è¯ µ
t w
> I
åı¸ æľº
D ao
Ġdriv es
æľī æľĽ
Ġprogram me
Cons ider
Ġcopy right
30 2
ĠCl inical
ol er
Ġassess ed
um my
ict ure
Ġapparent ly
Ġsub mitted
ater nal
Ġcomb ining
çĻ ľ
Ġloc ally
è½½ ä½ĵ
åĩºçİ° åľ¨
åİ» äºĨ
çļĦ éķ¿
Ã§ a
ä¿ĥ ä½¿
å¦Ĥæŀľ æ²¡æľī
Ġcir cles
val uation
t z
åĪ ®
- form
ĠS olution
åħ¶ ä½Ļ
28 8
Ġconven ient
å»ºç«ĭ äºĨ
. new
Ġatt itude
è¿Ļ ä½į
à¹ģ à¸¥
æĪĲ ä¸ºäºĨ
çĶ» éĿ¢
æīĭæľ¯ æ²»çĸĹ
æ²³ æµģ
å¿ĥ æĢģ
ĠBas ic
Ġkey word
ĠInd ones
Ġâ Ĩ
å¾ Į
åįł æľī
Ġmicro sc
Ġdis ag
ä¸Ĭæµ· å¸Ĥ
Ġsur ge
æĭħ å½ĵ
Ġr ats
äººæ°ĳ ä»£è¡¨å¤§ä¼ļ
. To
{ s
ĠB oston
ä¸į åĪ©
è§Ĩ åĽ¾
B P
ile y
çİ¯å¢ĥ ä¿ĿæĬ¤
ĠT re
are r
L ayer
Ġa er
ail ure
ä»£çĲĨ äºº
em o
Ñ ĺ
çĪ ½
èģĶåĲĪ åĽ½
è ³
Ġinter ventions
_m ode
Ġpost erior
ush ing
C ore
æĶ¿çŃĸ çļĦ
Ġn in
æ°Ķ è±¡
á»Ľ i
23 3
L ook
Ġlab ing
ij n
æĪĳ è¦ģ
ub le
çħ¤ çĤŃ
ĉ this
ĠRes ources
çļĦ æĦıæĢĿ
ĠA ns
æĢ» ä¹ĭ
á» ¯
Ġ' <
çĽĹ çªĥ
âĪ Ī
ç¹ģ æ®ĸ
ĠOrgan ization
Ġt ap
_P RO
à¸²à¸ ģ
æĬ½ è±¡
ut able
æ°´ éĩı
Ġsudden ly
á»Ļ t
M icro
5 40
ĠE uclidean
$ t
-in f
Ġst ere
_h w
Ġintegr ity
æİ ©
åĪĨ ä¹ĭä¸Ģ
æ¯ı åĳ¨
è§Ĩ éĩİ
áĥĺ áĥ
çļĦ æ¯Ķ
(p ath
ĠC ore
Î ¯
æİ§ èĤ¡
Ġcommit tee
åľ¨ å®ŀéĻħ
âĢĿ ãĢģ
äºĶ ä¸ª
2 19
Ġconflic ts
ĠRead ing
$ S
ä¸ī çº§
Ġphys ically
S pace
çĭ ±
app oint
Ġch at
Ġautom atic
ä¸ĸçķĮ çļĦ
Ġs es
åĽŀ æĬ¥
Ġscal ar
Ġb are
Ġ` ``
ç¬Ķ è®°
ĠMon day
ä½ľ çī©
æĬ¤ å£«
æĢ» åħ±
aff e
Ġa ver
Ġf ur
çĪĨ åıĳ
Ġelev ated
æķ ²
Ġsc ar
åħ¬ äº¤
Ġant icip
ä¸į åıĬ
ä¸º åŁºç¡Ģ
æºĲ äºİ
æ´ Ĵ
å¥³ åŃ©
çĶ¨ æ³ķ
ĠH ttp
æĸ¹ç¨ĭ ä¸º
_F B
est e
ad as
åıĳ è¨Ģ
Ġlif etime
ie val
Âł df
ĠÑģ Ð²
ĠTreat ment
( @
äº§ åĲİ
åº¦ åĴĮ
Ġtoler ance
Ġo ch
Ġin herent
åı£ ç½©
Ġsl ice
åı³ ä¾§
èŃ¦ åĳĬ
åħļ ä¸Ńå¤®
Ġsuff ered
åī§ çĥĪ
) ?Ċ
} _{\
åħ¬ åħĥ
ä¼ļ çļĦ
Ġthreat s
3 12
- trans
å¤ı åŃ£
Ġconv in
Ġem ission
æıı åĨĻ
Ġ' /
åĲį çļĦ
Ġ ãĢĲ
ĠO lymp
y g
è¶ħ å¸Ĥ
åĳ³ éģĵ
Ġlab our
ĠW at
Ġphenomen a
\ geq
Ġm erc
ĊĊ ĊĊĊ
Ġpat ch
const ruction
è¡¡ éĩı
! \
Ġ-- >Ċ
æµı è§Ī
W ell
åĬ³åĬ¨ åĬĽ
Ġreflect s
id x
åł ª
å¹³ å®ī
é¥® æĸĻ
Ġslic es
å¼º å¤§çļĦ
ĠLine ar
st yles
che m
Ġpreval ence
w orth
ik an
Ġsymmet ric
.s c
26 4
åģ¥åº· çļĦ
_p oint
2 17
Ġjud gment
ĠR ow
Ġste am
H older
ãĥ ¬
Ġë ³´
2 18
çŁ £
Ġart s
ĠH amilton
èº« ä½ĵçļĦ
Ġpay load
l ot
ĠI ter
åĽº éĨĩ
Ġ Ñĸ
Ġb ases
Ġfit ness
ĠJ im
M apper
apsh ot
åħĥ çļĦ
Ġend l
ä¸ī åįģ
ra f
Con d
ĠT ax
if ting
ä¸ª çĻ¾åĪĨ
Ð° Ð´
Ġcal endar
R ole
ateg ories
ĠEqu ation
Ġo ct
åŃĹ æ®µ
Ġtransform ed
ĠW ikipedia
Ġen orm
å¤§ è§Ħæ¨¡
Ġscient ist
e ur
b ul
S creen
ĠSaf ety
, $
Ġearli est
rec ord
{ L
æĺ¯ æĪĳä»¬
å¸¸ åĬ¡
ĠR am
Select or
æķĻ å®¤
)) ;
ĠĠĠĠĠĠĠĠĠĠĠĠĠĠĠĠ ĠĠĠĠĠĠĠĠĠĠĠĠĠĠ
æ¨¡ æĿ¿
ĠÙĦ ÙĦ
Ġdis abled
_T R
Ġencourag ed
Ġt ropical
Ġb asket
Ġcre am
çļĦ åħ¶ä»ĸ
Ġinflu ences
Ġs ql
Ġvict ory
ĠMus ic
Ġinitial ized
ĠPhys ical
} `
A ST
æĿ¥ å®ŀçİ°
Ġlog ar
AS H
æļ´ éľ²
ĠEx ec
åºĶçĶ¨ äºİ
T F
ä¸Ģ çĶŁ
å¼Ĥ è®®
B it
æĸ¹ç¨ĭ ç»Ħ
Ġvari ant
nd ef
à¸± à¸Ļ
O pt
ÙĬ Ø¯
Ġman us
P ool
Ġmark ers
Ġout do
äºĮæ¬¡ åĩ½æķ°
-de pendent
in st
Ġ ich
29 0
as ets
Ġrest ore
éĺ ģ
ĠH om
d p
æĶ¶ èĹı
åĪĨ ä¹ĭ
d at
Ġb ah
æĺ¯ åı¯ä»¥
Ġ' \
i ams
P G
Ġbe at
Ġìŀ Ĳ
sc ious
é¤Ĳ é¥®
Ġp ython
Ġser vers
ä¿¡ ä»°
Ġmov ies
pl ane
C ost
Ġfat igue
éĻĦ åĬł
ĠWH ERE
Ġf rames
Ġun em
Ġop ens
æļ´ åĬĽ
in en
Ġperform s
Ġdom ains
_ Ċ
åĴ ¸
Ġcommun ications
çļĦ çĲĨè§£
pect ives
Ġd ip
æĢ» ç»Ł
ĠL im
Ġrep et
åĨħ å¤ĸ
ĠBudd h
he res
* m
ĠH um
ä¸Ģä¸ª æľĪ
Ġf ing
\ |
or ney
æ¼Ķ è®²
Ġsym pt
Ġaccept able
ĠU r
ĠPub Med
Ġbo ot
Ġsett lement
Ġstri ke
C md
Ġdis h
èĪ ¶
Ġro se
Ġë į
Ġ\ $
æĢ» å±Ģ
ä¸Ģæ¬¡ æĢ§
Ġtravel s
Ġdo ct
æĩĤ å¾Ĺ
Ġcompl iance
çļĦ çĶŁäº§
G DP
è§¦ åıĳ
x ml
Ġt rem
ĠL iter
ĠCom par
. âĢľ
27 5
am ount
æĦŁ åıĹåĪ°
ç¬¬ä¸Ģ èĬĤ
.s ave
F G
Pro gress
åĨ ¯
25 4
Ġunder go
æĹ¥ å¿Ĺ
æĻ¯ è§Ĥ
Ġemerg ing
B L
ä¸Ģ çīĩ
å¨ ľ
qu er
åĽºå®ļ èµĦäº§
ĠT aylor
æĪĳä»¬éľĢè¦ģ æī¾åĪ°
ç®¡ è¾ĸ
Ġv a
< !--
{ N
Ġv ice
çļĦ æĸĩåĮĸ
Ġme als
åĽº ä½ĵ
Ġg land
ĠJac ob
ĠSt an
æĢ§ åĪ«
åĮ» ä¿Ŀ
or dered
Ġconfigure d
ind e
æĽ´ å®¹æĺĵ
éĥ¨ éķ¿
éĻ¤ éĿŀ
å°ı æľĭåıĭ
åĢ¼ æĺ¯
Ġpen al
å°ı åŃ©
b ound
Ġjoint s
Ġcham ber
Ñĥ ÑĢ
Ġë ĵ
Ä± ÅŁ
Ġposs ibilities
åĢ¾ æĸľ
end e
ä¸ŃåĮ» èį¯
Ġmechan ics
ĠCom bine
æµģ æĦŁ
P DF
èµ° äºĨ
us et
ĠO K
Ġoverw hel
.g if
èĨ ³
Ġwebs ites
Ġel astic
åĬŁèĥ½ çļĦ
éģ £
Ġembed ded
ë¶ Ģ
ĠN at
rypt ed
ab eth
Ġstreng then
åĩĿ èģļ
èµĦæºĲ çļĦ
Ġstr ange
å¹ħ åº¦
Ġsq rt
ä¸İ æŃ¤
ĠF lu
ä¸Ģ æĹ¥
ĠH it
mer ce
æĺ¥ èĬĤ
ç¹ģ èį£
Ġ" .
Ġ" $
éĹ¨ è¯Ĭ
á» ©
-z ero
Ġsoci eties
ĠP rom
ĠAlex ander
Ð½ Ðµ
à¹Ī à¸Ń
åĳ Ĩ
ber ry
ä¸į èµ·
b uf
Ġar th
éĢļå¸¸ ä¼ļ
N E
Ġpres erve
ol ine
Ġapp s
å¤į åıĳ
ath an
èĪŀ åı°
ĠV ersion
éĥ½ æ²¡æľī
åĩº è¡Į
Ġfe es
Ġt eles
åĪĨæŀĲ åİŁåĽł
wh o
éĤ® ä»¶
/ \
Ġrecip ro
Ġal ph
èĨĢ èĥ±
Ġrel ate
Ġun expected
Ġar rive
- en
ĠH an
æ» ¥
)$ ĊĊ
ĠS us
Ġdoll ar
Ġ ...ĊĊ
ri o
Ġisol ation
èĶ ¡
: ",
æİ¢ æµĭ
è½´ æī¿
ord ination
(" \
ç¬¬äºĮ èĬĤ
Ġ$ |
Ġdist inction
åĮĸ çĸĹ
éĢĢ åĩº
UN T
Ġsal ary
ab ases
Æ°á»£ c
ë ĮĢ
Ð½Ñĭ Ð¹
äºĨ å¯¹
AM E
Ġìł ľ
çħ Į
24 2
ç´ Ĭ
ĠExp ress
ä¸į æŃ£ç¡®
æĹ¥ åīį
Ġch ocolate
åı· çłģ
.s end
a ire
Ġdel ta
Ġarch ae
åħ¬åĬ¡ åĳĺ
èº« å¿ĥ
è®¤ åĲĮ
æ°ĳ ä¼Ĺ
è£ ¤
23 8
Ġun like
as ive
Ġwur de
er ge
oc a
ill er
é¢Ħ èŃ¦
Ġeng aging
Pr int
ãĥ ķ
çŃī å·®
Ð¸ Ñı
_ params
Ġwin ning
ĠF riday
Ġag ing
Stud ent
ĠÃ ¡
tain ing
Ñģ Ð¿
Ġopin ions
Ġben ch
å± ĳ
Ph i
O UR
Ġver te
art y
éĢī åıĸ
Ġrend ering
å¼º å¤§
çİ°åľ¨ çļĦ
Ġg ent
ĠC apt
é«ĺ åħ´
ĠD a
back ground
ur ations
ä¸Ģ äºº
ä¹Ł ä¸įä¼ļ
ĠB or
_ u
éĻ¢ éķ¿
ĠBl ock
Ġjur is
Ġrel ie
å¤§ ä¾¿
F ree
å»ºè®¾ å·¥ç¨ĭ
ä¸ĭ äºĨ
Ġr ings
Ġb ars
ĠBi ology
22 8
è§£åĨ³ éĹ®é¢ĺ
Ġmir ror
ĠB io
Ġequ ity
. edu
Ġ) .Ċ
Ġg ang
ĠI M
Ġpro jection
- ass
.get Element
à¸Ķ à¹ī
imp rove
ira ble
ĠWhe ther
èº« é«ĺ
oper ative
Sub tract
Ġ ãĢĤĊ
æľī åĬĽ
ä¸į ä¹ħ
è¾Ľ è¾£
em on
åİ» åĮ»éĻ¢
èĤ¥ èĥĸ
pe at
r v
Pro gram
ann a
èĢķ åľ°
d m
c b
ĠN E
æ°´ åĪ©
og ens
Ġbul an
ä¸ĭ æĸ¹
Ġco in
Ġg rams
è¢« åĬ¨
è®© ä»ĸ
ree k
ĠM ember
Ġen gin
Ġh orses
ĠN orm
ĠAnd rew
St at
Ġ× ŀ×
ç¬¬ä¸ī æĸ¹
çļĦ åĽ½å®¶
Ġent it
Ġd y
Ġun con
b ec
Ġed ited
ĠSen ate
ĠE q
åŁºæľ¬ çļĦ
Ġprocess or
æī§ ä¸ļ
è±¡ å¾ģ
R ate
Ġmass es
æ¿Ģ çĥĪ
Ġemb od
çŃī çļĦ
çĶµ è§£
ç¦ ħ
ä¸Ģä½ĵ åĮĸ
ĠL y
åĲĮ æľŁ
as er
.t itle
ar ct
ynt hesis
åħ¥ åı£
Ġ// Ċ
æ±ī è¯Ń
ĠR ule
åĪ¤ åĪ«
Ġp ace
Ġappe al
åĽłå¼ı åĪĨè§£
Ġse iz
ÐµÐ½ ÑĤ
$ {{
ä¼łç»Ł æĸĩåĮĸ
-sh aped
Ġra bb
$ ï¼ļĊĊ
}} +
å¹³ ç¨³
è¿Ļ æĿ¡
åħ¬å®ī å±Ģ
Ġarrang ement
Ġexpl oration
RE S
Ġtim ing
Ġinter f
íĻ Ķ
Ġìł Ħ
_ UN
Ġk ay
å·® åĪ«
Ġv or
u ity
, c
ë ³
. ).
ĠComm and
G C
åıĹ ä¼¤
t m
Ġoccup ied
ĠJe an
é£Łåĵģ å®īåħ¨
ĠIr ish
Ġtow ns
ĠStat istics
- min
äºº å¯¹
å¯Į åĲ«
w all
Ġ× ķ
çħ§ é¡¾
å·¦ ä¾§
on th
Ġsynt hetic
Ġs oph
Ġanaly zing
å¤ª å¹³
Ġexpert ise
ä½ľ é£İ
Ġent ers
Ġse vent
c u
} >Ċ
å¤± ä¸ļ
ç½Ĺ é©¬
Ġcolon ies
ç»Ļ åŃ©åŃĲ
æľī å¤ļ
Ñ Ĭ
Ġp ad
åİŁ çĤ¹
è¡Ģ çĹĩ
æ²» æĦĪ
Ġaccompan ied
/ a
éĴ ī
< td
Ġshould n
è°ĥ çĲĨ
= [
ç»ĺ çĶ»
Ġw ider
Ġbo at
Ġmer ge
ent ral
æ³ķ åĪ¶
ä½ĵ çİ°åľ¨
Ġcryst al
ĠC zech
ĠAl zheimer
Ġmist ake
ä¸ªçĻ¾åĪĨ çĤ¹
C a
ĠNew ton
ĠDis cuss
Ġir r
Vol ume
æĤ Ķ
æģ ¼
# Ċ
å¤į æķ°
Ġcar cin
çļĦ æ´»åĬ¨
åĲĮ äºĭ
æĸĩ ä¸Ń
3 45
æ¶µ çĽĸ
Ġcooper ation
Ġcav ity
åľ¨ è¯¥
ĠIslam ic
us r
e an
Ġover view
Ġmes h
ĠF ac
Ġengin es
ä¸»è¦ģ çĶ¨äºİ
ĠTr ump
ab els
+ n
ĠN ic
ç¢ ĺ
Ġgen us
æĳĺ è¦ģ
ĠComput e
èµ Į
T ool
åĲİ åĨį
Ġstead y
) ]Ċ
_id x
Ġclos ing
å¤© åľ°
èĪ Ĩ
ç¦ ½
e lement
ĠG DP
3 15
ä»¶ äºĭ
och astic
æĬ Ħ
Ġdis advant
25 1
.go ogle
æĤ£ åĦ¿
éĺŁ åĳĺ
ĠMay be
Ġgra ins
.t ime
çĶŁäº§ çļĦ
ĊĊĊĊ ĊĊĊĊ
Ġch ip
ell i
Ġf ut
Ġestablish ment
ĠU V
Ġign ored
è¡ĮæĶ¿ å¤Ħç½ļ
è®¾ç½® æľī
ÐµÐ½Ð¸ Ðµ
Ġnarr ative
es cription
è½¦ çļĦ
´ Ģ
t mp
Ġindu ction
ne g
åº ŀ
åİĨåı² ä¸Ĭ
ay an
id al
Ġ` /
h ot
ĉ m
Ġh ook
Ġevalu ating
ĠìŀĪ ìĬµëĭĪëĭ¤
Ġalloc ated
Ġiter ate
è¡° ç«Ń
T rack
b led
ĠD id
.r un
P erm
æĶ¿åºľ çļĦ
Ġcoast al
ä¼ļ ä½¿
çļĦäºº çĶŁ
sm all
requ ired
ros is
ä¹Ł åı¯èĥ½
é«ĺè´¨éĩı åıĳå±ķ
iz on
pon s
Ġasc ending
f d
å¯¼ åħ¥
æĹ ±
è¿Ŀæ³ķ è¡Įä¸º
ĠR o
çĽ¸ å¯¹äºİ
çļĦ çĤ¹
æĦı å¤§åĪ©
èĢģ æĿ¿
Ġdest ruct
ament o
æº ¯
ĠCor rect
éĤ£ ç§į
. ),
ĠHar vard
il ateral
Ġrel at
åıĹ æįŁ
Ġmit ochond
ĠD ue
ĠEn c
ä»ª å¼ı
èĳ ¬
éħ ·
reat ment
Ġlist ener
ro se
ĠAl tern
ç§¯æŀģ æĢ§
¡ °
_w ith
Ġf n
åĨħ åľ¨
çĮ İ
S uccess
åľ¨ åĮºéĹ´
og lob
Ġper f
çł´ äº§
å¿ĹæĦ¿ èĢħ
Ġgrav itational
Ġrefer ring
or us
Ġper imeter
Ġprov ince
æ¯« åįĩ
Ġact ively
t k
æ²ī æ·Ģ
ĠB uild
Ġrequest ed
ĠW ild
_M ASK
Ġb att
éĢļè¿ĩ å¯¹
æ°ĳ èŃ¦
Ġtrac ks
ĠJust ice
æīİ å®ŀ
è¾ĥ å°ĳ
èµĭ äºĪ
Ġcyl inder
Ġch ains
ç² ª
ĠF ed
åħļ ç»Ħç»ĩ
Ġbur den
Ġro oms
Ġmark er
.c ol
Ġinter active
Ġlo ans
å¤ĸ äº¤
co in
Ġload s
Ġcolon ial
å£° æĺİ
æīĭ æĮĩ
AR D
ãģª ãģĦ
ener gy
it an
ore r
ĠP ri
................ ................
å¤´ çļĦ
IN D
R ule
ĠO s
áĥĶ áĥ
riend ly
R est
ĠW in
< p
inc oln
ç¥¨ æį®
åĴĮ åĽ½å®¶
æĶ¯ æŀ¶
ãĤ ¸
Ġqu ote
Ġchromos ome
ĠL at
é¸ ¿
ĠReg ister
è°ĥ åĬ¨
èĽ ĩ
ĠSun day
ä¸į è®º
æĹ¥ èĩ³
Cont in
è´£ ä»¤
å¨ ĥ
ĠPar liament
y our
Ġcount ing
bt n
Oper ation
ĠR ound
è¡Ģ æ¸ħ
è »
Ġabsor bed
Ġvari eties
F ragment
Ġclot hes
Ġp ap
åĽŀ å¤į
\ rangle
ç¢ §
æŁ¥ æī¾
pend icular
Ġdiscuss ions
çļĦåıĸåĢ¼èĮĥåĽ´ æĺ¯
T w
Ġcm d
Ñ į
ĠL ew
ĠRem ember
åīį æĻ¯
Ð¾ Ñĩ
let ter
Ġr outer
00 9
ĠH o
. open
èı Ĭ
Ġse ats
Ġchick en
è®¤è¯Ĩ åĪ°
Ġserious ly
_ and
× Ĺ
(l en
Ġbas eline
åİŁ æľ¬
ä¼ļ å¯¹
æ³ķ å®ĺ
rop ri
çŃ¾ ç½²
Ġdeep ly
Ġin cent
æİ¨ è¡Į
. i
Ġcl inic
ick ing
ĠSo ftware
. string
ç ·
ĠB attle
ĠPa per
èĮ Ĥ
å½ Ń
ä¸ī æ¬¡
Ġpass ion
ĠÐ ĺ
èħ¹ çĹĽ
* b
I l
ç§» æ¤į
_M AX
æīĢ åŃ¦
Ġpo em
bl ue
y ear
30 3
Ġocc urrence
ĠPal est
~~ ~~
çĸ ±
à¸²à¸ ¢
è¯¸ å¤ļ
Net work
ĠD atabase
æķĻ çłĶ
ĠRes ource
_ ERROR
ĠEd ward
(n ull
æ½ľ åĬĽ
Ġaccord ance
AN T
- comp
Ø§ Ùģ
22 6
éĻĦ ä»¶
Ġ" #
å» Ĭ
Ġrepeated ly
ĠO tt
ĠG ET
ra id
.S et
çĽ¸ ä¹ĺ
ç¬¬ä¸Ģ æŃ¥
Ġeconom ics
çĥŃ çĪ±
ĠVis ual
ìŀ ħ
ric ts
å½ĵ ä½ł
å¯¼ æ¼Ķ
ĠE uro
å¢ĥ å¤ĸ
v y
Ġs ender
Ø§Ø³ Øª
ĠA N
å¹³æĸ¹ æł¹
ĠF is
Ġevery where
æ°´å¹³ çļĦ
çİ© åħ·
Ġappoint ed
Ġcon form
åĨħ åĪĨæ³Į
es ium
w r
åħĪ å¤©
. O
rou te
éģĩ åĪ°äºĨ
F in
i ating
R oute
ä»¥ å¾Ģ
Ġcomp lement
ç¬Ķ èĢħ
Ġcollect ive
åĪļ åĪļ
äº¤ äºĴ
p erson
Ġan at
ëŁ ¬
Ġc ow
G lobal
ĠT EST
ĠR ay
lin ux
p ower
> You
æĶ¿ åĬ¡
æĸ° å»º
eng ers
_ US
is en
åŃ¦å¹´ é«ĺ
re nce
ul se
çļĦ æł¹
, D
æµģåĬ¨ æĢ§
un gen
Ġepis ode
æĹ¥ åŃĲ
Ġf et
ex tern
åĬ³ åĬ¡
n ings
à¸²à¸ Ļ
âĸ ¡
Ġinflam matory
ĠH un
çļĦ ä»·åĢ¼
ä¸Ģ çº¿
i ostream
å¥ī çĮ®
T erm
ĠP os
Ġtrad itions
çĻ «çĹ
Ġprev ents
è§£åĨ³ è¿Ļä¸ªéĹ®é¢ĺ
æ°Ķ çļĦ
24 1
d l
ia h
åľ¨ ä½¿çĶ¨
n ov
30 4
Ġconf ront
Ġantib ody
çĻ¾åĪĨ æ¯Ķ
åĪĳäºĭ è´£ä»»
çĻ«çĹ «
Ġpre y
Ġmer ch
ä¸į è§ģ
è¿ĻéĩĮ çļĦ
æ£Ģ ä¿®
Ġstop s
å¿ħé¡» æĺ¯
_ check
å°ı åŀĭ
åĸ Ĭ
ot ers
Am ount
s ave
ĠZe aland
\ Ċ
ĠK im
- O
ĠD igital
ï¼ī ï¼Ľ
ĠTe am
ĠÎ »
çļĦ çī¹å¾ģ
Ġper ipheral
çŃīå·® æķ°åĪĹ
åĮº åĿĹ
Ġor ange
çļĦä¸Ģ èĪ¬
Ġcontract s
Ġcan cers
ir k
LO G
Ġinf ants
sequ ently
ement ia
Ġpro ps
ask a
ĠK enn
AL SE
ĠH em
Ġtechn ological
it ate
è®¡ æķ°
Ġinv asion
ix el
Ġatmosp heric
æľ¬ åĵģ
6 25
{ g
ĠC opyright
. X
ĠC I
. ",Ċ
B R
ĠB rain
< std
st ud
iss ance
* n
Ġpro j
çİ¯å¢ĥ ä¸Ń
epend ent
Ġt ape
ur ities
çĬ ¬
Ġocc as
Ġvac uum
ä¸į å¿ħ
çļĦ éĿ¢ç§¯
/ O
du ate
å¥ĩ æķ°
ĠTh ank
Ġdat etime
g it
Ġ íķĺ
æŃ£ éĿ¢
yl van
ä¸ĢèĪ¬ æĿ¥è¯´
Ġarr anged
(" .
åŁº åĩĨ
. Error
Ð° Ñı
V R
Ġviol ent
éĩı ä¸º
G ood
Ġmag ic
st rap
æĶ Ģ
Ġaccess ed
Ġold est
Ġpip eline
( K
Ġco inc
Ġph ilos
=" /
Âł m
Ġ ãĢĤ
ĠU k
Ġ_ ,
Ġch amp
Ġang ular
Ġa ug
- end
et o
Ġwonder ful
åı¯ä»¥ å°Ĩ
Ġsatisf ies
n ya
d ist
chn ology
ä»ĵ åºĵ
Ã¦ dia
æ¶¦ æ»ĳ
P N
Ġret ire
ĠM arc
åĪ¶ çº¦
ä»·åĢ¼ çļĦ
ĠVal id
Ġstraight forward
Ġto k
Ġìł ķ
yn asty
è¯Ĭ çĸĹ
Ġl ingu
çģµ éŃĤ
Ġmom ents
é¹ ¿
è¿ĳ ä¼¼
ĠC art
ĠB ang
å¤ļ äºĨ
èĬĤ æĹ¥
Ġsp ots
ail ing
æĪĲåĬŁ çļĦ
å·¥ ä¼ļ
ç¼´ è´¹
Âł S
Ġdim in
T D
Ġselect ing
æīĵ çł´
ç¼© çŁŃ
= Ċ
and ler
- i
æŀ ķ
æŃĮ æĽ²
ĠQue en
R oot
Ġcompens ation
Ġl ake
äºº äºº
è¿ĩ å¤§
éķ¿æĸ¹ å½¢çļĦ
èĩ´ åĬĽ
Ġemerg ed
Com ment
Sh ort
åĬ «
æľ¬ æĿ¥
ãĢĭï¼Į ãĢĬ
up iter
." "
èĳ¡èĲĦ ç³ĸ
F ont
ĠAg ency
.h as
att ice
Ġrect angular
23 6
ĠA ri
Ġp ens
Ġdiff usion
ãĢĭ (
Ġexpl an
Ġsp oken
Ġel ig
ĠA k
æ¯ķ ç«Ł
å¥³ å£«
ov ed
èĢģå¸Ī çļĦ
} ")Ċ
ul ous
Ġsubstr ate
Ġju ice
ol is
Ġmar ginal
or ters
r ust
ĠAl gebra
=" #
Ġvent ric
å±Ģ éĿ¢
Ġpow der
ì Īĺ
çķ ´
ĠL uc
per ial
} a
3 24
_m essage
å¦ĩ ç§ĳ
AR Y
ĠInte g
æī¿ è½½
W R
å¤ĸ æ±ĩ
Ġdeterm ination
Ðµ ÑģÑĤ
Ġag gressive
ï¿½ ï¿½
Ġdiag onal
å±Ģ éķ¿
å°Ĩ æĿ¥
ĠD utch
Ġìľ Ħ
ãĤ ı
Ġa ster
C ap
å¤ ¸
éĢ ¢
æĿ ł
Ã© r
z h
_ pos
Ġstrict ly
× §
ĠP ay
ä¸į å¤ª
ĠM id
èİ·å¾Ĺ äºĨ
Ġcere mon
Ġdis aster
Ġf usion
ä¼ĳ éĹ²
A x
æĮ¯ åĬ¨
çĶµ ä¿¡
qu ot
é½¿ è½®
ĠL oc
èĥĮæĻ¯ ä¸ĭ
Ġpref erences
Ġra ising
åĽŀ å¿Ĩ
èĥ°å²Ľ ç´ł
Ðº Ñĥ
èĶ ½
å®ļ å¾ĭ
à¥ Ģ
ad el
ot imes
Ġl ui
åıĪ æľī
çħ§ æĺİ
åħįçĸ« åĬĽ
B ytes
ç¿ ł
) "
Ġsupp lements
Ġear ned
b us
å¼ĺ æī¬
ĠM ajor
æ·Ģ ç²ī
Ġc ough
f c
ä¸Ģ åĿĹ
j ud
æĸ° åĮº
åĲĳ åīį
åħ¶ä»ĸ éĢīé¡¹
ë ³´
çļĦ è¯´æ³ķ
ĠT ai
* a
Ġph ases
T oday
Ġt ough
Ġsatisf action
Ġdefect s
ib li
Ã§ Ãµes
n ie
s ign
ç»Ļ ä»ĸ
P ass
Ġí Ļ
C lose
éħ °
Ġread ily
Ġmod ification
Ġle ak
Ġint u
Ġbre eding
- cl
ä¸Ĭ è¯¾
ĠG ar
åĽŀ æĿ¥
ĠRes ult
Ġ"" "ĊĊ
ĠÂłÂłĠÂłÂł ĠÂłÂłĠÂłÂł
åºĶ ä¸º
è§Ĩ åĬĽ
æİĴ æ°´
ÂłÂłÂłÂł ÂłÂłÂł
) $$ĊĊ
}$ ï¼Į$
atal og
A E
æķĻå¸Ī çļĦ
Ġ< !--
åĽ½å®¶ åĴĮ
Ġch a
é Ħ
ĠJ ones
ç½ ¢
æľºæŀĦ çļĦ
ain ts
ne a
Load er
old ing
ç»ĵæŀľ æĺ¯
å¤ĸ åĩº
å¦» åŃĲ
æĹ¢ çĦ¶
Ġcut s
ĠJ on
Ġjust ify
éĶĢåĶ® é¢Ŀ
Ġgalax y
F urther
éĺ³ å¸Ĥ
Ġpand emic
ĠCl imate
ĠTh read
m os
Î ´
åħ¬ ç§¯
ĠAg ricult
Ġp u
ç¼© å°ı
çļĦ ä½ĵç§¯
ĠS aint
Ġappro ximate
{ u
Ġra ys
24 6
h s
ä¸ĵ ç§ĳ
ĠÃ ®
il ly
\) :ĊĊ
è°Ī åĪ¤
åįķ è¯į
put er
Ġd ens
in itial
Ġdepend ence
ĠÃ© t
Ġtick et
ĠD EF
è¢ ĸ
Ġap i
è½´ ä¸Ĭ
Ġthe sis
çľĭ æ³ķ
å»¶ ç»Ń
ãĤ Ħ
Ġsu a
ĠMe chan
Ġ/ **
åĮĹ æĸ¹
ä¿¡ æīĺ
åĨľ æĪ·
Ġannot ation
U V
Ġp itch
æķĳ åĬ©
åĨħå®¹ çļĦ
Ġfe as
p us
ä¸įå¾Ĺ ä¸į
_f e
Ġes cap
valid ate
åŀ Ħ
åĮĸ ä¸º
çĪ± å¥½
å«Į çĸĳ
Ġar rival
æģ¶ å¿ĥ
å¥³ åŃĲ
ĠFrancis co
f in
Âł A
Ġf lying
ĠG ive
åĭ ¿
± °
Ġrep roductive
^ *
çļĦ æĢģåº¦
ä¸¤è¾¹ åĲĮæĹ¶
." )Ċ
F iles
_add r
/ re
Ġd ari
D iff
ä¸»è¦ģ çļĦ
Ġadjust ed
ĠPract ice
éĶ Ĥ
Ġlong est
æĻº åĬĽ
Ġr itual
ä½ľ æĪĺ
é«ĺ è¾¾
Ġactiv ated
èĪŀ è¹Ī
Ġaddress ing
h ard
èĪ¹ èĪ¶
Const raints
_ new
ure au
éĺ² æ°´
æĢĢ çĸĳ
ad en
Ġspe aker
Ġsearch ing
app a
Ġans wered
æ¿Ģ æ´»
Ġshap ed
} :
Ġcoll ision
Ġpe oples
M ove
Ġad s
X G
Ð° Ñħ
Time out
Ġqu eries
æ¨¡ ç³Ĭ
èĭ Ķ
Ġcert ificate
ä½Ĩ çĶ±äºİ
åĢŁ éī´
æŃ£ ä¹ī
Ġstra ins
ĠF ront
ĠI de
é¢Ī æ¤İ
åıĺåİĭ åĻ¨
ĠH as
Ã ®
P F
lear n
Ġbut tons
è¯Ħ å®¡
Lear n
çĽ´ æµģ
Ġstim ulation
åĨł çĬ¶
Ġbul k
çļĦ æĦıä¹ī
Ġm s
ell ar
co res
os ity
åĲį ä¹ī
åıĪ ç§°
Ġoper ational
ffect ive
is er
Ġro yal
Pro of
Ġc od
å°ı å¿ĥ
ĠPr ime
ĠCar l
å¤ĸ çķĮ
Ġ` _
Ġflow er
é¢ ĸ
24 4
. New
Ġre nal
Sub stituting
Ġp ill
c ategory
ill ary
Ġlabel ed
J an
Ġult imate
.l ist
å®ĺ åĳĺ
åŃ¦æł¡ çļĦ
äºı æįŁ
åĽŀ é¡¾
Ġsurpr ise
l ay
æħ Į
ĠÐ Ľ
ä¾§ éĿ¢
è°¨ æħİ
en um
å°ĳ éĩı
Ġrepresent ations
Ġfactor ization
Ġim pl
ä»Ĭ åĲİ
Ġpred omin
çĭ¬ç«ĭ çļĦ
æģ° å½ĵ
_ comp
IF T
c z
v g
A IL
h t
åıª éľĢè¦ģ
Ġgalax ies
çĹ ĺ
ä¼¤ åı£
Ġpro long
_ AR
å¥½ å¤Ħ
åĭ ķ
å¹´ åīį
i u
åİĭ è¿«
à¹Ģà¸ Ľ
è¯ķ åĽ¾
Ġelder ly
22 7
_ request
èĲ Į
Ġcomput ational
om ous
æľī çĽĬ
ĉ case
.h pp
+ a
åħ¨ åĬĽ
ĠB es
ç»ĵ èĬĤ
PE CT
the y
Ġ- =
.f rom
çŃĸ åĪĴ
æ¯ ħ
(n ode
ç»ĵæĿŁ åĲİ
Ġdist ant
Ġcompat ible
Ġadvert ising
ãģ ©
cond ition
å§ĵ åĲį
è´Ń æĪ¿
èĥĮ åĲİ
Ġs z
ä¸į åĩº
è° Ĭ
å¼Ģ è®¾
Ġdevelop s
Ġestim ation
)/ (
Ġan ten
åĵº ä¹³
ol ute
Ġâī ¥
: D
åĿĲæłĩ æĺ¯
( re
ig ration
Ġw age
Ġer u
Ġpul monary
åı¯ä»¥ æł¹æį®
_se p
Ð¸ Ð´
typ edef
- Z
ä¸ĭ ä¸Ģä¸ª
25 3
ĠS oc
b n
Ġinterpret ed
åį Ĵ
å¼¹ ç°§
( std
Ġpot ato
å¯¹ æİ¥
Â° ï¼Į
ĠĠĠĠĠĠĠĠĠĠĠĠĠĠĠĠĠĠĠĠĠĠĠĠĠĠĠĠĠĠĠĠ Ġ
Ġcor tex
Ġb ags
Ġcon vention
rac ellular
è¿Ľ é£Ł
P rim
ard ing
Ġatt ributed
åĴĮ æľįåĬ¡
Ġsuggest ions
Ġenter prise
æĪĳåĽ½ çļĦ
_n ames
Ġiter ates
å®ļ ä»·
_ is
im s
èĹ ¤
Ġconve x
-t op
ari ance
sem ble
Ġappreci ate
Ġqu est
Ġcre w
è¯± åıĳ
Ġrep ly
. web
è¯» åıĸ
IN S
ediat ric
åģ¥ èº«
; \
ĠL ater
Ġexist ed
ä¿ Ĭ
æİ§åĪ¶ åĻ¨
th rough
Ġf mt
Ġlight ing
^ (
éĺĲ è¿°
et erm
Ġcorre ction
By te
æĴŃ æĶ¾
at re
ä¼ĺ éĢī
Ġopp on
ĠJack son
r itional
23 7
Ġun necess
Ġg ains
æĪĳä»¬ è®¡ç®Ĺ
æŁĵèī² ä½ĵ
çļĦ åĪĨ
Ġt el
Ġle tt
Ġprotect ing
27 3
ç§ĳåŃ¦ æĬĢæľ¯
Ġfarm ing
Det ail
ĠCon text
Ġelement ary
Ġin clusion
Ġflu ctu
* y
ĠGree ce
ĠS ud
Ġthem es
32 1
art icles
ĠAdd ress
Ġcontinu ing
ach uset
3 25
_ par
ï¼ī =
é¢Ĩ åıĸ
22 9
} b
ä¸ĵ æ³¨
åħ» çĶŁ
Ġdigest ive
ĠChrist ians
åĪ¶ å¤ĩ
Ġb id
é£İ æ¹¿
Char acter
ĠR ub
Ġweek ly
g el
Ġs ells
ĠLear n
ä¸į ç¡®å®ļ
ic ode
Ġvari ed
Ġresist ant
Ġh oney
æĹ ¬
Ġdis ability
¬ ´
d el
Ġcontribut ing
è®º è¿°
Ġc ub
åŃ¦çĶŁ åľ¨
achuset ts
Ġpro c
å¹¶ å¯¹
Ġorgan iz
Ġampl itude
ä¸į æķ¢
Ġfriend ly
P ower
ĠM ulti
Ġliter ally
U X
Ġprov in
equ al
Ġillust rate
Ġfl av
Ġc ure
äºº äºĭ
ç»ıæµİ å¢ŀéķ¿
Trans form
omorph ic
lect ed
æĸ°çĶŁ åĦ¿
Ġde leted
Ġmamm als
íĦ °
ĠAp plications
æµ· åħ³
ä¼ļ å½±åĵį
Ġrul ed
oc ard
ĠÄĳ Æ°á»£c
.b ind
éĢŁ çİĩ
åħī ä¼ı
è ł
Ġse ar
ĠS everal
Ġsaf ely
Ġdepend encies
$ -\
st at
ĠP i
æĹ¶ åºĶ
åľ¨ æĪĳ
iz abeth
Ġdepos its
\ vert
æĹł åĬĽ
åĲĮ ä¸Ģä¸ª
-w orld
Ġan terior
ä¸Ģ è¾Ĩ
ä¸Ń å±±
Ġroad s
Ġg ray
åı¯ä»¥ å¸®åĬ©
ä¹Ĳ è§Ĥ
Ġmin ister
ens itive
38 4
æ´¾ åĩº
Ġd alam
æĬĹ æĹ¥
Ġin e
Ġsh adow
or o
æŁ Ħ
è¶³ ä»¥
ç¯® çĲĥ
Ġd oses
ĠSt atus
æĺ¯ è¦ģ
Ġexc ited
Ġmount ains
ä¾µ å®³
æ¶ Ľ
fo ot
çĥ ¹
Ġpil ot
J S
l as
Ġre write
lo v
g re
åĪ° æľŁ
ĠPer haps
ĠH aving
St age
å½¢å¼ı çļĦ
$ :ĊĊ
ä¸į ä¸º
ÃŃ t
Ġinnov ative
ĠD ouble
Ġh urt
Ġnut rient
æĬ¥ éħ¬
ĉ private
åŃ ¢
, (
é¢ ¤
RE E
St and
èı ĩ
ä¸º ä½ķ
pr imary
Ġb ands
Ġc erv
æ°ĳ èĲ¥
ish op
ç´¢ å¼ķ
ĠLabor atory
Exp ression
t ies
-g roup
è¿Ļ é¡¹
ä¹Ł å¾Ī
è®² åº§
? .
Ġmy st
ver ter
ĠMc C
Ġtrig gered
F ailed
å· ·
ä¸ĭåĪĹ åĵª
åıĬ åħ¶ä»ĸ
è®© ä»ĸä»¬
èĤĿ çĤİ
éĿŀ æ´²
Ð¸ Ñħ
cre ated
ĠPak istan
Ġform ulas
çļĦ ä¸ŃåĽ½
ĠN ormal
Ġel abor
to String
æĪĸèĢħ åħ¶ä»ĸ
Ġvis itors
åºĶçĶ¨ ç¨ĭåºı
-st ate
Ġin coming
( __
ĠE mer
Ġattempt ed
d rop
Ġtut orial
Ġit eration
ĠViet nam
Ġpres cribed
æ±ĩ çİĩ
Ġdro ps
Ġliber al
Ġinteg rate
k wargs
Ã¤ t
pt ic
Ġbar riers
é¢ĺçĽ® ä¸Ń
}\ ):Ċ
ä¼ģä¸ļ åľ¨
Ġtempor al
æ£ ļ
æĶ¹ æŃ£
Ġm ile
Ġtend ency
æ½ ĺ
æĹł ç©·
çĭŃ çªĦ
à¸ ¶
cript or
åŃĶ åŃĲ
æĢ» ç»ıçĲĨ
çļĦ è´£ä»»
å´ ©
çľĭ èµ·æĿ¥
24 8
L ock
ä¸Ĭ éĿ¢çļĦ
ag a
Th anks
ä½ Ĳ
Ġj et
ĠDown load
ĠMark et
Ġinsert ed
æľī æĹ¶åĢĻ
ç§ĳæĬĢ åĪĽæĸ°
çª ¦
Ed itor
ĠHol y
éĢ Ŀ
Ġen erg
ov es
S ocket
Ġj oy
s end
em perature
Ġmem ories
Ġking dom
Ġempir ical
åİŁ å¼ı
è·¯ ç¨ĭ
ä¸Ń æĸŃ
$ ï¼ļĊ
à¦¿ à¦
/ F
çļĦ éĢļ
ĠEconom ics
DE BUG
Ġsubsequ ently
, a
Ġresid ual
àµį à´
Ġt ort
Ġsu icide
Ġbatter ies
Ġt ack
Ġas ide
çļĦ å¤ĦçĲĨ
ot yp
æĮĩ åĲĳ
æ³¨æĦı åĬĽ
ç» ŀ
æĬķ ç¥¨
y ll
Ġh ip
H ave
ĠG UI
åį° åĪ·
rou ter
æ² ª
Ġapp ar
é£İ æĻ¯
çĽ¸äºĴ ä½ľçĶ¨
ir s
Ġpro xy
Ġim plicit
çĽ®æłĩ æĺ¯
Ġfav our
l ia
å® ł
ç¢° æĴŀ
ĠSp ir
æľªæĪĲå¹´ äºº
Ġ` @
ÑĨ Ñĸ
ent i
ace ut
ĠØ ®
Ġn m
Ġexc iting
æķ´ éĻ¤
Ġz ones
ceed ings
Ġconst raint
Ġ$ -\
ĠAd am
à¯ģ à®
åĴĮ å¯¹
æģĲ æĥ§
ab c
ĠIt em
çĶ· åŃĲ
ĠRe cent
": "
åħ¬å¼ı ä¸º
] =
-s m
aw are
ä¼ļè®¡ å¸Ī
}$ ãĢĤ
çĹħ åİŁ
Ġnerv es
Ġr ide
åħļ å»º
Im port
ĠS C
23 9
/ lib
Ġpro be
ĠT ODO
è¾¹éķ¿ ä¸º
Ġbott le
Ġvit amins
Ġt ent
Ġv ibr
éĩĩ è®¿
Ġí ĺ
Ġspeed s
Ġconsist ently
åĲĪ è§Ħ
å®Į ç¾İ
cl osure
åī¯ ä½ľçĶ¨
é¦ ¨
Ġ à²
Ġpot assium
ëĲ ĺ
ç¡®ä¿Ŀ äºĨ
Ad min
.r andom
Ġassist ant
ä»¥ä¸ĭ çļĦ
Ð ļ
Ġmat ure
- I
è®º è¯ģ
rior ity
Ġn ach
Ġcon clusions
Ġprof its
åįĹ åĮĹ
Ġall ocation
Ġox ide
Ġacqu isition
* t
rolog ical
çļĦ èį¯çī©
ç²¾ åĬĽ
Ġcomm od
çĽ¸åıį æķ°
æľĢ éĩįè¦ģçļĦ
serv ice
ĠR isk
Ġsup plied
p ers
è¦ģ ä¹Ī
èº«ä½ĵ åģ¥åº·
è¿ĩ é«ĺ
ä½į çļĦ
åī© ä¸ĭ
çĶ¨ äºĨ
æĺİç¡® çļĦ
ä»ĭç»į äºĨ
èĴ¸ æ±½
Div ide
æľī ä¸ª
çĽĳ ä¼ļ
åħ ¹
}\ ).ĊĊ
Ġre cess
RE F
H ost
æľī ä¸Ģå®ļçļĦ
éĵ Ń
è¾ĥ å¥½
ĠZh ang
ĠP D
Ġgu y
Ġmeet ings
{ M
ĠB ox
èĩª å®ļä¹ī
ä¹ĭ ä¸º
èĬ ¦
Ġsh oes
Ġth rown
ĠC at
ĠChar acter
ä¸į ä½ı
De bug
ìĽ Ĳ
éĻ Į
Ġnot ification
24 7
Ġst uck
åĽ½ éĺ²
åĬł åī§
ĠH yp
Ġab dominal
Ġhuman ity
- inter
Ġc ul
+ Ċ
Ġquant itative
Ġsk ip
× ¤
- he
Ġwild life
Ġm á»Ļt
è ²
èĦ± ç¦»
ochem ical
åıĤ è§Ĥ
ä¸Ń çŃī
åħ¬å¼ı æĺ¯
n m
ĠI C
ĠS ize
è®¾è®¡ çļĦ
åºĶçĶ¨ ä¸Ń
äºĭåĬ¡ æīĢ
ĠD ictionary
ak t
. se
ĠC e
Ġsc iences
äººä»¬ çļĦ
éĸ ĵ
Ġconj ug
Ġdi am
çĮ ´
ç»Ħ çļĦ
T X
å®¶ å±ŀ
Do es
Ġconf used
åĤ ²
Ġestablish ing
< >();Ċ
26 2
reg ion
' ),
åı¯ åĪĨä¸º
å¤©çĦ¶ æ°Ķ
å¯ ¨
åĲİ èĢħ
30 5
IT H
å·¥ä½ľ èĢħ
ĠìĿ ¸
Ġinhab it
Ġper pendicular
Ġbus y
ç©¶ ç«Ł
Ġcirc uits
* p
èĲ §
åĲį åŃ¦çĶŁ
è´Ł è½½
ord an
Ġvis its
Ġconserv ative
åĨ ¶
ĠS H
Ġf ats
Ġnav igate
con tainer
çļĦ æĦŁè§ī
en ced
Pro ps
re ements
èĩ³åħ³ éĩįè¦ģ
unt ary
W M
m ond
Ġdu ct
Ġengine ers
å¦Ĥæŀľ æľī
æıŃ ç¤º
ç«ł ç¨ĭ
æĸ ¼
è´Ł éĿ¢
ogn ition
Ġtrans parent
æĹ¥å¸¸ çĶŁæ´»ä¸Ń
ĠC hen
Ġsupp ress
çĽ¸ è¿ŀ
çļĦä¸Ģ åįĬ
h l
Ġco at
m atic
Ġhe pat
å±± åĮº
Ġele ctions
in ters
Ġb undle
Ġde als
å¥ł å®ļ
Ġles ions
Ref erences
çķĻ åľ¨
ï¼Ľ ĊĊ
Ġdi arr
Ġcar rier
å¦Ĥæŀľ ä¸į
çº ±
ues e
Ġhol der
Reg ister
let al
Ġtrans plant
an th
_ KEY
ot on
Ġany way
åıĳå±ķ åĴĮ
A K
Ġ[ -
Ġprob abilities
ĠWil son
S G
Ġtong ue
ĠS olar
Ġwhe at
åĩĨç¡® çļĦ
æĺ Ń
ç¿ °
cre ase
70 2
ĠAng eles
ä¸º æŃ¢
/ (-
ĠA void
åĪ« äººçļĦ
Load ing
ug g
Ġcomp ress
Ġch i
åİŁåĽł æĺ¯
. content
ë© °
é¢ĺ å¹²
Ġcolle ctions
å¿ĥ è¡Ģç®¡
gh an
åįİ ä¸º
Ñĥ Ñĩ
Ġcl ouds
æį ī
Ġbro ke
ĠM anager
Ġal umin
çĶµ åĬ¨æľº
LO CK
ĠLar ge
S F
ä½Ľ æķĻ
ylvan ia
ĠT yp
Ġ' ./
- control
èı ©
ç´Ĭ ä¹±
Ġc ig
Ġv ascular
Ġemp ire
éĿ ¶
Ġreview ed
Ġso vere
4 40
Ġinvest ments
ĠValue Error
l ass
çļĦ é¦ĸ
Ġgeneral ized
( object
å¸Į èħĬ
è¡Į æĺŁ
}} =
à¹ĥ à¸Ļ
Ġgradu ate
ä¸ĭ æ»ĳ
% ),
Âł M
Ġmist akes
ĠG i
_C OM
æł· åĵģ
Ġresearc her
çļĦ é«ĺåº¦
cent age
/ D
Ġg ear
og y
ĠChristian ity
l av
w indow
at on
Ġbu ilder
ĠÐ¿ Ð¾Ð´
Ġ{ #
IG N
Ġ$ $ĊĊ
ĠAs sembly
åħ¨ ç¨ĭ
v c
çļĦ å¤ļ
èĮĥ çķ´
Ġins pection
( `
âħ ¡
ent ence
ĠTh ird
Ġhistor ic
ĠM es
çŁ¥è¯Ĩ åĴĮ
èĥĨ åĽºéĨĩ
åľ¨ å¤§
Ġachie ving
ĠÑĩ ÑĤÐ¾
3 70
Ġres olved
æŃ ĩ
Ġ__ _
èĥ¶ åĽĬ
Ġcommun ic
V ideo
ac les
Ġcomp iler
Ġhot el
é¡¾ éĹ®
. Write
à ¬
è§Ĩ è§Ĵ
_M ODE
ìĹ ¬
le e
am l
Ġy a
é¥± åĴĮ
èĻ ¹
p H
ter y
Ġrat ios
Ġw ake
Ġtang ent
Ġmother s
Ġgl ac
çĶµåŃĲ åķĨåĬ¡
Pl an
Ġattract ive
Ke ep
init ely
é¼ İ
åıĳ èµ·
ä¿Ŀ ç®¡
S end
st ru
te enth
vers ely
è½» å¾®
ìļ °
ä¸Ģ ç¯ĩ
Ġben e
Ġf riction
Ġex ert
lish ing
34 3
ç«¯ çļĦ
æĺ¯ æĪĳ
Ð¼ Ð°
æ³ ¼
å¾Ĺ åĪĨ
ane an
ç ¶
ast ing
éĵ ĥ
Ġs ul
28 6
è´¯å½» èĲ½å®ŀ
çĶµ ç«Ļ
áº ¯
& #
Ġstream s
F E
ä¿¡æģ¯ æĬĢæľ¯
é¢Ħ æ¡Ī
Ġhapp iness
L Y
ç¥ Ľ
Ġflu ores
ç®¡çĲĨ åĪ¶åº¦
.w idth
ĠDis play
ä¸į ç¬¦
ãĤ «
Ġqual ified
ä¸įèī¯ åıįåºĶ
it zer
å®Į æ¯ķ
ç»ĺ åĪ¶
26 5
ĠBe ing
è¯·ä½ł å°Ĩ
ä¿Ŀ åħ»
ĠB an
å¢ĥ çķĮ
ĠUnder standing
è¦ģ æĬĬ
æİĪ äºĪ
cl ipse
ook ie
Ġf atal
èĵĿ èī²
Ġadv ances
Ð¸ÑĤ ÑĮ
]\ ].
Ġalign ment
= a
4 10
ĠWe ek
ĠRepublic an
Ġn ick
Ġearn ings
æŃ£ æķ´æķ°
ĠM achine
å»ºçŃĳ çī©
vis or
ĠBet ween
ont o
s ystem
ļ Į
( item
in ery
æľī åĪ©
Ġpain ful
Ġhome work
Ð½Ñĭ Ðµ
èĩª æĦ¿
æ¸ħ çĥŃ
Ġaccompl ish
Ġd jango
æł¸ éħ¸
ĠPer iod
own er
Ġto b
çĦ¶åĲİ åĨį
Ġreput ation
æľį ä»İ
Ġcontrad ict
t ip
è¿Ļ ä¸İ
Ġsoph istic
è¦ģ æĥ³
ä¹¦ ä¸Ń
24 9
èħĲ è´¥
ç½ĳ åıĭ
Ġsw elling
ç£ģ åľº
Ġal tered
å¯¼ å¸Ī
M IC
} <
Ġ$ (-
åİļ çļĦ
il de
åĪ° åĮ»éĻ¢
iod iversity
Ġhypert ension
çº¿ ä¸ĭ
ener ate
ä»£åħ¥ åħ¬å¼ı
Ġencoun tered
ĠM ol
Ġact or
Ġaccept ance
åĪĽå»º ä¸Ģä¸ª
Ġpolynomial s
çł´ è£Ĥ
ĠProte ction
end ers
. api
Ġgra des
ï Ĥ
Ġan ger
ĠP arent
æĪĳä»¬ åºĶè¯¥
è¡¨çİ° åĩº
çĻľ é£İ
æīĢ å±ŀ
Ġprogress ive
Ġl on
ag ine
åĻ¨ æ¢°
è¡Ķ æİ¥
Ġth roat
æĻºèĥ½ åĮĸ
Ġprof ound
Ġsed iment
ĠL incoln
ash board
âĢ Ĳ
il st
æİ¨ çĲĨ
Ġpre t
ÑģÑĤ ÑĮ
Ġcou pled
ĠWill iams
connect ed
E Y
In v
Ġdevelop ments
Ġprepar ing
æł· åŃĲ
æĲŃ å»º
Ġhand led
Ġadapt ation
Ġliter ary
V S
ph y
Ġir re
Ġche ese
lu x
éĢ Ĭ
av id
ĠDe cl
ĠV e
Ġhosp itals
FF FF
è¡Į è½¦
çłĶç©¶ çļĦ
f ront
.c all
æĢ» æķ°
åŁºæľ¬ ä¸Ĭ
ç«ĭ è¶³
æĤ Ħ
ä»Ĭ æĹ¥
Ġcr imes
èĨľ çĤİ
æ²» å®ī
ä¸Ńå°ı ä¼ģä¸ļ
å¤´ åıĳ
ĠCont act
Ġtru ck
_ level
ĠS el
åºĶ åĬĽ
Ġext raction
æĿ ı
Ġen forcement
Ġvacc ines
ä¹¡æĿĳ æĮ¯åħ´
ä¸Ģæ®µ æĹ¶éĹ´
_ err
åĴĮ ä¸ªäºº
è ¤Ĳ
Ġret ain
å¦Ĥæŀľ æĪĳä»¬
ÙĪ Ø¯
ĠN ob
çĻ½ çĻľé£İ
Ph oto
Ä±n Ä±
Ġunivers ities
ĠAs h
Ġnur se
b at
âĢĿ ï¼Ľ
Ġassoci ate
AN G
åĿĲ åľ¨
opath y
çĽĳ çĲĨ
ä¿Ŀ å¯Ĩ
radi us
ow ers
Ġve c
æĬķ è¯ī
èĪ ±
æĪ· ç±į
Ġfil tered
ĠT al
)/ (-
á» ĵ
ĠColumb ia
_ rate
ĠĠĠĠĠĠĠĠĠĠĠĠĠĠĠĠĠĠĠĠĠĠĠĠĠĠĠĠĠĠĠĠ ĠĠĠĠĠĠĠĠĠĠĠĠĠĠĠ
Ġsl ide
lim its
_d f
ç¡®ä¿Ŀ åľ¨
" ))Ċ
Pro f
el ve
å®¶ ä¸Ń
è§£ æĸ¹ç¨ĭ
View ById
ĠScot land
ĠÐ¿ Ð¾Ð»
åĿ ł
or row
Ġd ar
åĮ» åĺ±
å¤´ æĻķ
al ah
ãĥ Ĩ
ìł Ħ
ĠI g
Ġrenew able
am er
Ġref used
ä½ł ä¼ļ
æĿ¥ ç¡®å®ļ
ä¸ĭåĪĹ åħ³äºİ
RE D
Ġdram atic
40 9
5 20
äºĮ ç»´
app y
çģ« è½¦
Ġl y
ĠSecret ary
Ġt act
å®¶ åħ·
og rams
à «
Ġpan els
ç©º ä¸Ń
as ync
f x
. object
n orm
è±Ĩ èħĲ
w art
ĠÂł Ġ
ĠWork ing
og s
Ġrece iver
Ä± m
Ġachieve ment
çľĭ ä½ľ
ä¸º æł¸å¿ĥ
ĠInd ians
w ill
ĠDem ocratic
åľ° åŁŁ
äº§ä¸ļ åıĳå±ķ
ĠN otes
Õ¸ÖĤ Õ
è¯į æ±ĩ
ä»¬ çļĦ
Ġcar ries
æ´Ĺ åĩĢ
å±±ä¸ľ çľģ
Ġaccum ulation
Ġnurs ing
ed e
" (
ĠCorpor ation
Ġ| =
Ġx ml
L AG
\ rightarrow
èĥ½ åľ¨
è¯¾ æĸĩ
è¡ ¬
éĻ¤ å¤ĸ
X iv
ï¼Ł âĢĿĊ
Ġbe es
Ġbl adder
Ġdat abases
Ġdr inks
[ (
ä¼ł åĬ¨
Âł B
Col l
çī¹æ®Ĭ çļĦ
_ var
{ Total
å¸¸ æĢģ
Per form
æĸ¹æ³ķ çļĦ
åŃĺåľ¨ çĿĢ
Ġsqu ared
Ġin ch
Ġequ ipped
ĠH D
ay load
çłĶ è®¨
ç¬¬ä¸Ģ çĻ¾
} )\
Ġexpand ing
} );ĊĊ
Ġex clus
åĪĳ æľŁ
ç¢³ éħ¸
à¹ĩ à¸Ļ
Ġv apor
é¾ Ł
æ¡¥ æ¢ģ
bl ack
Ġillust rated
Ġl ag
ĠH al
Ġconsist ency
M em
Ġexp ense
- one
å°Ĩ åĨĽ
( ch
ĠR ate
J ob
>> >
Ġshould er
- al
Ġent hus
éŃħ åĬĽ
}$ .ĊĊ
è± «
Ġsim ulations
Ġw ing
Ġdis miss
ĠU t
äººæ°ĳ çļĦ
B T
æĻ ´
- ad
m ove
ab e
Ġf ought
ĠE valuate
Ġremark able
æĦı æĦ¿
å¿ħ éľĢ
| improve
Ġmind s
Ġtime out
à¥ĩ à¤
åŀĦ æĸŃ
m ay
25 9
Ġrespons ibilities
è£ ¹
Ġpun ishment
ä¸Ĭ åİ»
ä¼° åĢ¼
ut her
ĠN Y
Ã¤ r
çļĦæľĢ é«ĺ
W A
èĩ´åĬĽ äºİ
Ġhighlight s
äºº å¿ĥ
Ġpers u
Ġtop ology
ĠSur vey
Ġhier archy
ce ans
pro tect
çļĦä¸Ģ åĪĩ
ĠØ§ÙĦØ Ń
ĠÃ¼ ber
Ġpol ym
åĢ¡ å¯¼
Gener ator
6 40
b age
ĠSub tract
ÙĬ ÙĦ
å·² æĪĲä¸º
Ġacqu ire
è°¢ è°¢
ater n
è¿ĺ æ¬¾
Ġint ens
åħ± è®¡
Ġcap ability
Ġli b
. height
is ations
Ġis instance
æľī è¶£
æĿ¥ è®²
éĢļå¸¸ æĺ¯
_V AL
J ECT
Ġ _____
Ġsimpl er
æİĴ æŁ¥
å±ķ è§Ī
return s
ĠF actor
Ġreject ed
aceut ical
åĨĻ ä¸º
Ġback up
.equ als
br as
ä¸Ģå®ļ æĺ¯
ra red
å¤§ å¸Ī
æĻļ æľŁ
Ġw elfare
################ ################
HT TP
om ical
åħ¬ ç«ĭ
Ġrel iability
ĠJ ah
é£Ł æ¬²
Ġenjoy ed
3 90
s ys
æĪĳä»¬ å°±
Ø ¸
ç®¡ æİ§
Ġinter ference
ĠFin ancial
æĦ ¤
Ġ âĢĿ
ac cept
Ðº Ð¾Ð²
G M
è¿ Ń
æĽ´ é«ĺçļĦ
Ġdiscipl ine
Ġphys iological
ĠProblem s
" );
åĽĽ å¤§
Ġk nee
æľŁ æľ«
èĿ ¶
26 6
åĪĩ çº¿
Ġp t
Ġw isdom
ip ation
åħ¨ å±Ģ
" ],
Ġw ars
ĠC ub
Ġv oting
èĳĹåĲį çļĦ
ĠIN T
Ġrepl acing
ĠA TP
Ġdesc ending
ï¼Į -
çŃī å¤ļç§į
ard o
çī¹ ç§į
Ġt s
Ġatt itudes
Ġshop ping
è¯ģ äºº
éĴĪå¯¹ æĢ§
Ġaccommod ate
å¼Ģ æĭĵ
æ» ©
Ġsm ell
ĠCl oud
Ã© d
Ġsu g
åħĥç´ł çļĦ
Ø§Ø Ń
Ã³ w
åĮħåĲ« äºĨ
ĠD ynam
sh ould
mod els
L D
ra ctions
Ġst ones
êµ ¬
èŀº æĹĭ
Ġh ij
( ex
s ession
Ġen umer
èı ±
V ariable
ĠG aussian
å¸Ĥåľº ç»ıæµİ
çĶ· å¥³
Ġco ins
éĢł åŀĭ
[ A
Ġf its
Ġg on
Ġtun nel
Ġvoc abulary
Ġdin ner
rou d
ach ment
å±± è¥¿
Ġspect ral
Sc roll
4 32
ur red
çĶ¨ éĩı
á ¹
Ġag g
Ð¸ Ð·
Ġlect ure
éļ¾ çĤ¹
v s
Ġsynt hes
m ers
ä¸¥ ç¦ģ
Ġpharm ac
Ġexpl oring
any a
Ġdecl are
Ġd ump
ut f
Ġexp orts
S chema
æ±ĩ æĬ¥
F loat
++ )Ċ
ĠF ourier
å¹´ åĪĿ
_m sg
Ġlim iting
éĻ· åħ¥
um atic
ind a
Ġir regular
åħ¬ ç¤º
çļĦ ç¾İ
" ãĢĤ
row se
C reat
ĠA bs
å½Ĵ çº³
T race
ä¼ĺ èī¯
* s
è¾ ±
æĪ· å¤ĸ
Ġconver ting
.ex ample
ĠB ody
Ġrep roduction
_g roup
æĪĳ è§īå¾Ĺ
åĪ° ä½į
O U
w t
ï¼ ½
ĠPat ients
Ġincomp lete
çļĦ éľĢè¦ģ
æĶ¶çĽĬ çİĩ
_add ress
n ut
Ġconstit u
[ t
é© ³
st ep
ac on
= self
oc ent
ç£¨ æįŁ
ä¸ĭåĪĹ è¯´æ³ķ
çŃĽ éĢī
W ORD
Ġindic ators
æķĮ äºº
ro d
èĨ³ é£Ł
ä¸Ĭ åįĬå¹´
(' /
Ġaf raid
a ft
åĩĢ åĮĸ
m ma
-m ail
Ġtravel ing
Ġb rack
ĠM ult
Ġavoid ing
ĠS in
ĠSt ore
à¸ ĸ
> The
v ia
_ or
åĪĨ æĶ¯
Ġbe ans
erm at
æĸ¯ çī¹
Ġstre ets
Ġg it
---- --
åİŁ æĿĲæĸĻ
ĠComm ons
Ð Ŀ
.p df
ä¸» äºº
Ġh ack
riv en
Ġadminist ered
, [
Ġar med
ĠT uesday
çĶµ æ¢¯
, j
ä¸Ģåħĥ äºĮæ¬¡æĸ¹ç¨ĭ
Ġlogar ithm
B ased
æķĻèĤ² æķĻåŃ¦
ä¹ ¾
è¡Į èµ°
çĿ£ ä¿ĥ
Ġon t
27 2
çļĦäºĭ å®ŀ
en z
Ġsub stitution
Ġtem ple
Ġprotocol s
æľĪ çļĦ
è¿ĳ è§Ĩ
Ġbroad er
s cribe
æ°Ķ è¡Ģ
_e vent
Ġy uan
.t arget
_t oken
æľĢé«ĺ äººæ°ĳæ³ķéĻ¢
éª¨ éª
AR S
Ġpers istent
Ġdesign ated
è®° ä½ı
åĪ¤ å¤Ħ
ä¹ĥ èĩ³
Ġin ev
gh t
åĿ Ŀ
vert ed
Ġcan vas
ä»ĺ åĩº
ĠÎ Ķ
* r
S ave
ä¸Ĭ åŃ¦æľŁ
åĽ½å®¶ çº§
st op
æĺ¯ å°Ĩ
ç¼º å¤±
åıĳ éħµ
st en
ç®¡çĲĨ å·¥ä½ľ
Âł I
80 8
åİŁ ä»·
æĺ¯ æĪĳåĽ½
åĿĲæłĩ ç³»
åĶ ĳ
Ġrem ind
è¯īè®¼ æ³ķ
Ġweap on
Ġexp end
åŀĭ åı·
èĤ¡ ä»·
åĻª å£°
it err
Ġspec ifies
Ġtri angles
åľ¨ è¿Ľè¡Į
D ouble
å® ´
Ġr ic
ä¸ĭ æ¸¸
Ġaut ism
è¿ģ ç§»
æĪĳ æł¡
èĬ± è´¹
Ġrele ases
Ġcol ony
é ¥¿
Ġcreat ures
Ġvirt ually
è¯Ń éŁ³
ä¸įæĸŃ åľ°
Ġentre prene
ial s
] +
50 1
ĠC it
_m in
ĠC orn
éĿĻ æĢģ
Ġf iction
ug ar
Ġattempt ing
éĿĴ å²Ľ
çĶŁäº§ åĬĽ
çļĦ å½¢æĪĲ
26 1
åĨħéĥ¨ çļĦ
Ġpro pri
ort ic
Ġstructure d
Ġmut ual
ound ing
H g
ĠF uture
ful ness
hent ication
ĠV itamin
æĹ© ä¸Ĭ
æµ Ĭ
çĽ´ è§Ĥ
ĠFore st
int on
ä¹Ł å°Ĩ
ĠL ittle
Ġla ugh
Ġsett led
Ġdetect or
ï¼ »
çĥŃ æ°´
çº³ ç±³
ĠID s
å¤± çľł
Ġant igen
Ġsp oke
åĲ¸ éĻĦ
S ort
æĪĳ ä¸į
æ± ª
á» Ł
Ġ` __
Array List
if act
å¯¼ èĪª
åŃ¦ä¹ł åĴĮ
Ġenc ryption
Cross Ref
ĠC ould
ens ing
å¹´è½» äºº
ig a
Ġap pl
if eration
ut a
ow a
. \]ĊĊ
ĠH andle
Ġf illing
av ailable
éļ §
_b ase
äº ¢
30 8
é¥® éħĴ
( url
i ang
vious ly
Ġprim itive
å¼ ĵ
å½ĵåīį çļĦ
Ġ** ('
ĠSh are
Ġfu els
Ġcon n
z ero
åħ³éĶ® è¯į
å¿ħè¦ģ æĹ¶
Ġi Ã§
Ġì £¼
è®¤ä¸º æĺ¯
ä¹Ļ æĸ¹
ĠO cc
éĹ´ éļĻ
Ġpre ference
Ġl oyal
Ch ildren
Ġsp ray
28 1
ê ¸
st ation
_ client
åĬł å¯Ĩ
å®ī ç½®
æĬĬ å®ĥ
ĠC C
Ġenorm ous
Ġcan al
Ġtob acco
Ġl oud
_CON T
çķ¸ å½¢
Ġpart ly
U ST
Ġminor ity
or ie
Ġcr ust
ä¿ĥè¿Ľ äºĨ
roph ic
State ment
Ġdem ocratic
Ġhun ting
ĠMat rix
30 6
b rief
å¿ĥçĲĨ åŃ¦
å®ŀçİ° ä¸Ģä¸ª
ĠM rs
å®¡ ç¾İ
Ġut er
åĮĸ è§£
éº» éĨī
3 14
ä¸į åĮħæĭ¬
ãĤ ³
As ync
at z
ä¸Ģ å¥Ĺ
Ġst ood
ç¤¾ ä¿Ŀ
Ġorig ins
( ()
im ental
ä»¿ ä½Ľ
Ġmanufacture r
ino is
5 10
ĠG CD
è´Ł çļĦ
ĠC M
ĠB uilding
é¦ĸåħĪ è¦ģ
ĠO ffic
Ġg auge
iter ator
× ĺ
ĠM un
on i
ĠHaw ai
ĠMass achusetts
ĠGeorg ia
im o
ç¿ ħ
è§Ĥ çľĭ
Ġleg end
Ġcompar able
St op
çİ¯ æ¯Ķ
Ġpros pect
- item
ar ning
T ry
åĵ ®
æ¸ Ĭ
ĠScient ific
Ð Ĳ
h ash
éĺ» æŃ¢
* k
$ {\
ĠAr th
çļĦ æĸ¹ç¨ĭ
qu ito
åĩº äºİ
Ġb ull
Ġtype of
in ar
æľŁ åĨħ
ut t
Ġimmun ity
Ġp ose
åĳ¨ å¹´
Ġed iting
ä¸Ń æŀ¢
% ;Ċ
Ġsp ons
Ġn el
V ENT
av irus
ĠGener ate
ĠIs lands
å¤± è°ĥ
the w
h ave
ĠO ptions
ĠAr ctic
back s
åı¦ ä¸Ģç§į
ä¸į æ¸ħ
è§Ĵ æĺ¯
èģĶ åĬ¨
à¹ī à¸Ļ
æĮĩ å¼ķ
Ġsl ot
æ³ķå¾ĭ è§Ħå®ļ
* c
ë £
_ view
ĠR od
) (-
Ġoccasion ally
Ġder ive
_IN T
Ġbl ess
is ch
ow ered
ç¥ ¸
ĠMultip le
æ²¿ çĿĢ
ĠChem ical
Ġsp ark
. ext
Ġdep osit
Ġemploy er
Ġflu ids
as ures
ift y
Ġchromos omes
ĠP T
Ġdis placement
èĮ¶ åı¶
pro p
.c sv
çĨ Ļ
el come
ĠCo ast
è¯¾åłĤ æķĻåŃ¦
Ġlearn ers
_ q
_ item
$ h
/ Second
Ġw er
Ġstret ch
Ġà¤ ķ
Ġprof iles
åįł æį®
Ġg amma
éĿł è¿ĳ
ä¸Ń çº§
éĴ¢ éĵģ
. client
æµ ĳ
åĵ Ģ
æĶ¿ åįı
Ġaltern atives
à¹Ī à¸ĩ
ĠR os
/ .
n x
åĴ ±
èĢĲ å¿ĥ
t ra
ĠAr m
bre w
ï¼Ī ï¼īĊ
ç¨ĭåº¦ çļĦ
å¡ĳ éĢł
stand ard
æĵ İ
$ d
Ġv ig
ç¼ Ķ
ä¼¦ çĲĨ
Ġbu f
åĽĬ èĤ¿
M emory
æ©¡ èĥ¶
ĠKore an
Ġst iff
em b
', ))Ċ
è¡¨ éĿ¢ç§¯
ä¹ĺ å®¢
éī´ åĪ«
çº ¬
up y
å¤® è¡Į
x de
Ġm Ã¡s
çĶµ èĥ½
ĠP ain
Ġon Click
Ġcy ber
un ks
Ġfish ing
Ġsurround ed
ur d
L anguage
Ġt orn
Ġle an
att ribute
Ġground s
Ġst oring
Ġp ou
Ch rist
c opy
çŃĶ é¢ĺ
ĠE ns
Ġsp r
í Ķ
ä»£æķ° å¼ı
Ġentit led
S olve
åı¯ä»¥ è¯´
t l
---- ---
c ano
ol utions
)) );Ċ
Ġvol umes
ĠÐ¿ÑĢ Ð¾
æ°ĳæ³ķ åħ¸
Î Ķ
è¦ģ è®¡ç®Ĺ
ang el
åıª éľĢ
å¼Ĥ æĢ§
ĠBook s
ĠSpec ifically
æī® æ¼Ķ
åº¦ æķ°
éĶĢ éĩı
ust ain
_ param
âĢĿ )
è¾ °
Ġcl imb
ìķ ¼
æŃ£ å¦Ĥ
Ð» Ðµ
åıĸ ä»£
Ġpers pectives
åºĶå½ĵ åľ¨
Ġs ig
çĶ· åŃ©
Ġp ushed
ç²¾ å¿ĥ
ĠâĪ ļ
Ġp ole
åĨ³ å®ļçļĦ
Ġutil ize
Ġfl avor
çľŁ çĲĨ
im ated
ur an
Ġar row
ä»ĸ äººçļĦ
åĥ §
çŁ© å½¢çļĦ
S ervlet
Ġclick ed
G G
30 7
æķ Ľ
Ñ Ķ
çİ° æľīçļĦ
her lands
ns ylvania
çĻ¾ ä¸ĩ
MA X
éĻ¤ æ³ķ
ĠM AX
! [
at omic
g ood
ans as
è¾¾ åĪ°äºĨ
æĪĳä»¬åı¯ä»¥ å¾ĹåĪ°
. ãĢĬ
pl atform
ffic iency
è¡ĮæĶ¿ éĥ¨éĹ¨
Ø§ ÙĤ
ç§ĳåŃ¦ çļĦ
Ġstimul us
Ġra ises
Ġle uk
æ¯ı äºº
å¯Ĩ éĽĨ
] )ĊĊ
åħ¥ åŃ¦
åİŁ åĪĽ
t oken
è ¥
Ġa o
ĠM emory
, p
J ournal
Ġplace holder
èĤº çĻĮ
æĮ Ľ
Sub ject
qu ant
Ġid x
èĩ´ ä½¿
ĠT rade
ud o
(s ize
_l abel
è´µ çļĦ
D oc
Ġto mat
éĿ¢ éĥ¨
ĠImm un
Ġwire less
Ġmix ing
èİ· å¥ĸ
B oth
åħ¬ çº¦
ĠTr ust
åĢºæĿĥ äºº
), (
Ġu i
Ġwor ship
åķĨ åºĹ
st able
å¥½ å¥½
ĠEx cel
D raw
it ic
un ning
åħ¬åı¸ åľ¨
éģŃ åıĹ
-qu ality
æĭ ¾
éĶĻè¯¯ çļĦæĺ¯
Ġanti oxid
ä¸Ī å¤«
Ġex ponent
å¯ Ĥ
Ġtra ject
Ġvari ants
Ġunnecess ary
ĠSt ock
re place
Ð°Ð» Ð°
Ã© g
Ġsimpl est
-cent ury
å¹¶ éĢļè¿ĩ
$ l
Ġprov isions
æ±Łèĭı çľģ
Ġn ov
ï¼ī ï¼Ī
Ġrel ating
äºº ä½ĵçļĦ
ĠF low
çŃī å¤ļ
In formation
D irect
os aur
Ġarter ies
Ġstr at
ĠEncyclop edia
' );ĊĊ
å¢ŀ é«ĺ
ic he
æĮī è§Ħå®ļ
åħ¨ ä¼ļ
_p age
Ġdys function
* d
Ġproduct ive
log ger
éľ ŀ
oph ag
ĠG er
Re al
çļĦ åĢįæķ°
Ġf ans
æľīåħ³ çļĦ
è¯Ń æ³ķ
æ¯Ķ åĸ»
åĲĥ äºĨ
ä»İ æĿ¥
æĪª æŃ¢
åı¶ çīĩ
Ġwe aken
ĠB ell
çŃī äºº
çĶ¨æĪ· çļĦ
Ġri val
ĠN XG
à§ĩ à¦
quir y
åĲĳ åı³
è¿Ĳ è½¬
å®³ æĢķ
Ġspace craft
è¶Ĭ é«ĺ
Ġeffic acy
Supp ort
æİ¥ åĪ°
åĪĿ çº§
à¸· à¸Ń
æ³¡ æ²«
Ġnewsp aper
ĠIndones ia
Ġdel iber
b ag
å¦Ĥ æľī
OR Y
Ġtrib es
es ome
ĠF ollowing
å°Ĩ è¿ĻäºĽ
éĹ¨ åı£
a uc
pro blem
hel lo
ab etic
riv ing
ick ed
Ġth inks
-l ife
Ú ¯
Ġpres erved
j an
èľ ¡
Ġtok ens
éĺ» ç¢į
S V
Ġz eros
Ġph y
åıĺåĮĸ çļĦ
Ġsimilar ity
Ġmod ifications
à¸ ľ
ex cept
ï¼Ł </
åĨ³å®ļ äºĨ
Ġlo ose
çŁ¥è¯Ĩ çĤ¹
Ġto wer
åİĨ ç¨ĭ
çĶ² æĸ¹
Ġmulti plied
{ E
Ġg ross
Ġtravel ed
Vis ible
Ġman ually
27 6
Ġvalid ity
_ values
< SUB
ĠS ort
ĉ int
Ġmanufacture rs
áº¿ n
Ġcl ause
lam matory
æĺĵ äºİ
_ result
Ġpl ots
æħ ķ
C OM
Ġimport ed
ĠOh io
/ -
_ line
åįł çĶ¨
Ġal igned
* z
Ġkn ock
ĠAct iv
Ġcond itional
Ġse ctors
å¯Į æľī
æĹł æķ°
ĠComp lex
3 11
Ġk ar
ç¬¬ä¸ī èĬĤ
Ġg lands
UN D
è½´ å¯¹ç§°
æŃ¦ è£ħ
l m
* f
ĠW alk
ä¸į ä¸Ĭ
Ġâ Ĭ
çļĦ è®¤è¯Ĩ
Ġe ars
Ġdocument ed
ĠL ove
od d
æĥħ æĻ¯
åĭŁ éĽĨ
Ġc er
V ICE
æĬĵ å¥½
{ X
Ġecosystem s
åħ¶ åľ¨
Ġwork place
åĳ¨ å²ģ
ĠWith in
'] ,Ċ
Ġimpro ves
ç»Ħ å»º
Ñĥ ÑĤ
[ k
åģı å·®
Ġcontext s
We ight
on ical
Ġcal m
Ġple asure
ĠMar x
Å į
Ġf ran
ĠA li
Ġsche mes
St ruct
æĩ Ī
Ġs orts
Ġinter pre
ĠPro perty
> .
Ġkey board
Ġdevelopment al
Ġconcent rated
_ AT
Ġman ages
3 13
Ġsimilar ly
Ġ à¨
Âł in
Ġë ³
çĽĲ éħ¸
å¯¹ æĬĹ
çİ© å®¶
L ight
d oc
Ġr c
Ġenc oded
è½¦ éĹ´
Ġtyp ename
un ci
áº¿ t
28 3
å·²çŁ¥ åĩ½æķ°
4 30
æ¸ħ æ·¡
è¯Ŀ é¢ĺ
èĬ± åĽŃ
åĩĨç¡® æĢ§
ä¸Ń ä»ĭ
Ġpro state
å®Ĺ æĹ¨
/ P
ãĢ İ
equ als
Ġ à´
}^{ -
ĠComp are
il ty
æĹ¢ æľī
æĹ¶éĹ´ ä¸º
Ġinc ub
Ġun ity
é¡ ·
ĠÑĤ Ð°Ðº
Ġinher ited
Ġpro pose
ra z
Or iginal
èĲİ ç¼©
28 9
Ġw ages
anc ies
åĴĮ é«ĺ
RE SS
ĠL in
å°¿ éģĵ
Ġarth ritis
ga e
æ¢³ çĲĨ
Ġg athered
Ġsleep ing
Ġgall ons
å¦Ĥæŀľ åľ¨
Ġqual ities
(m essage
ĠÑĢÐ° Ð·
Ġform ats
CP U
èĮ Ħ
ãģ§ ãģ¯
Ġeth ics
ĠF ather
cha ft
in line
Ġpro sec
Ġd p
Ġd w
Ġdut ies
ĠR og
åıĮ æīĭ
Ġholid ay
[ index
ĠV ideo
æĪĳ è¯´
æĹ¥ æĬ¥
å¤ľ éĹ´
an an
_ args
il bert
çº¦ å®ļçļĦ
çĶ· äºº
èĮ ħ
éĢī é¢ĺ
æĺ¯åĲ¦ åŃĺåľ¨
Ġ"" ;Ċ
ill ance
éĺ» åĬĽ
å¸¸æķ° é¡¹
all ing
Ġinter sect
Ġm ant
ĠOption al
åĮºåĿĹ éĵ¾
5 60
Ġh its
Ġind ivid
ä¸į å®ī
åı¯æĮģç»Ń åıĳå±ķ
Add itionally
æīĢéľĢ çļĦ
Ġm im
Ġtal ks
en ium
ĠIm perial
ç²¾ ç»Ĩ
æŁ¥ æĺİ
Ġincorpor ated
Ġslow er
d am
ĠT raining
Ġsufficient ly
a ver
ä¸įæĸŃ æıĲé«ĺ
i op
s creen
com b
Ġcor related
Ñģ Ðµ
å£ ¶
æĬĢæľ¯ äººåĳĺ
for ced
åŃĲå®« åĨħèĨľ
éª¨éª ¼
ĠG R
ä»ĭ åħ¥
se x
ĠJ ane
Ġëª ¨
è´ ®
è§£åĨ³ äºĨ
Ġb ills
ç¿ Ķ
Ġd ementia
st ar
C alcul
ĠH R
ä½Ĩ ä¸įæĺ¯
å®īåħ¨ åĴĮ
Ġn ested
Ġretrie ves
Ġdesc end
Ġm elt
åĪĹ åĩº
åĨł åĨĽ
ç² ¤
Ġconstitution al
åıĺæĪĲ äºĨ
ĠPortug uese
on o
ä¸ī æĿ¡
çĥ «
EN G
åħ¬è¯ī æľºåħ³
Ġcont ributes
roph y
Ġg am
_ version
Ġexplain ing
è¿Ľè¡Į åĪĨæŀĲ
Ġc s
ed ed
Ġan throp
Ġappar atus
åĪĨ å¼ı
\ x
Ġen abling
äºĴ ä¸º
è¡¨ æł¼
ç© Ĩ
Ġl act
26 3
3 16
ĠS anta
Ġrem em
0 15
éĿ¢ åĮħ
æľŁ åĪĬ
çº¢ çĲĥ
Ġaff airs
Ġmob ility
æķ°åŃ¦ è¯ķé¢ĺ
æĪĳ ä¹Ł
enn is
ãĢ ı
ĠC op
Ġlog o
HE CK
åĨ³ å¿ĥ
Ð¸ Ð¹
l ocation
{ z
åİĤ åķĨ
ow ns
ç§ĳ å®¤
29 4
ĠCon stant
æĮĩ å®ļçļĦ
Ġdis appoint
çĩĥ æ°Ķ
Ġvari ability
Ġ/* Ċ
Ġex clusive
.getElement ById
rac ks
ĉ r
ç¬¬äºĮ æŃ¥
ä¸Ģ éģĵ
- int
ĠAss ert
id el
Ġ( âĢľ
ä¸º äºº
ĠD im
ì £¼
ĠS S
_s um
de velop
Ġcons ensus
Ġsp ine
ä¼ļ äº§çĶŁ
Ġl ambda
éħį æĸ¹
nt il
ari ate
ĠC redit
å¤ĸ è§Ĥ
io let
à¹ģà¸¥ à¸°
J oin
c ents
è¾£ æ¤Ĵ
ç«ĭ åľº
Ġcontin ent
ĠPh arm
29 9
ĠBo olean
åľŁ èĢ³
çļĦ å®ŀéĻħ
ĠSt ill
éĥ½ éľĢè¦ģ
åį° åıĳ
8 50
Ġsc aling
åı¯ä»¥ çľĭåĩº
à ©
g reen
F D
cho ice
4 60
åĴĮ å°ı
Ġë Ĳ
- reg
âĢ ĥ
å½ĵ å¤©
---- -
Ġsurpr ised
Ð» Ð¾
çļĦ åĩ½æķ°
() `:
ĠCl ient
Ġ$ .
åĿ ª
è¿ĲåĬ¨ çļĦ
enc ode
b id
Ġgod s
Ġc oun
ä¸Ńåħ± ä¸Ńå¤®
* h
å¿ĺ è®°
N ormal
Ñħ Ð¾Ð´
_ ENT
ĠA ud
çļ® è´¨
Ġk er
Ã¬ nh
[: ,
âĺ ĳ
. key
C N
Ġden oted
Ġinfect ious
* g
æĬ ĸ
( W
Ġmembers hip
Ġs hed
ĠObs erv
26 8
z eta
em ale
ĠChem istry
25 8
æ¶² åİĭ
Ã¶ n
åıĸå¾Ĺ çļĦ
Ġn os
Ġutil ized
ĠPhil ipp
ak h
æ±Ł è¥¿
çļĦæ¦Ĥçİĩ æĺ¯
atisf ied
ä¸Ģ æµģ
æĪ Ī
40 3
çĽĳ äºĭ
Ġabs ent
.j ava
Ġabund ance
ä»¥ä¸ĭ åĩłä¸ª
Ġattach ment
- section
(e vent
çļĦ åĽ¾è±¡
Ġh ay
} >
ll a
æ¯į ä¹³
Ġfor got
a id
åľ° éĵģ
ä½İ ç¢³
/ k
åĮ ł
æ¹¿ åº¦
irc le
ï½ľ >
R andom
Ġpract ition
åľŁèĢ³ åħ¶
m us
* u
× ŀ
ro sc
_f l
æ© Ļ
Ġupd ating
Ġcred entials
Ġmag azine
Ġnot ing
çļĦ åĬĽéĩı
èĦ¾ èĥĥ
Ġtit les
arg v
32 3
Ġconvert s
ä¹ĭ åĨħ
o en
çļĦ äººåĳĺ
Î¿ Ïħ
Ġtra it
ĠM agn
Ġmuse um
.assert Equal
Ġtr ong
çī¹åĪ« æĺ¯åľ¨
æµĻæ±Ł çľģ
åı¯ éĢļè¿ĩ
Ġpl ural
ä»¥ä¸ĭ æĺ¯
æĦŁ æģ©
Ġiniti ative
æŀĹ ä¸ļ
0 13
ir i
Ġc ited
al o
Ġdiv ides
ren al
Ġshe ets
ĠĠĠĠ ĉ
è´ ©
Ġconduct ing
S igma
å½ĵ æĪĳä»¬
æīĢè°ĵ çļĦ
è¾½ å®ģ
Form s
çľŁ ç©º
Ø ¦
40 5
( context
Ġoccup ation
éħ¸ æĢ§
Ð¸ Ð¸
åĽº å®ļçļĦ
{ T
çĤ¹ æĺ¯
æı´ åĬ©
éķ¿æĸ¹ å½¢
à³ į
æĹ¶ éĴĪ
ç»´ åº¦
æľĢå¤§ åĢ¼
ĠTrans port
Ġl um
ĠSar ah
) }{\
} ]
ĠB ad
e ven
Ġdist ribute
è¥¿ çıŃ
S imple
Ġm ad
éļĲ èĹı
Ġgram mar
9 60
çī© èģĶç½ĳ
åłµ å¡ŀ
æıı ç»ĺ
åĩıå°ĳ äºĨ
en close
her ical
Ġun iqu
Ġ\). **ĊĊ
Ġconsider ations
AN CE
ĠE M
æµ· æĭĶ
) \\Ċ
Ġk i
ĠF A
åĲĪ çº¦
Ġnut s
7 29
ä¸į åħ¨
ment ation
äººæīį åŁ¹åħ»
Ġkit chen
æ© ĺ
é¡ ½
, s
Ġsched uled
ap a
åĪ¤åĪ« å¼ı
= f
t ab
æį ŀ
ĠV AL
Ġinj ured
åĨħ èĴĻåı¤
æĹ¶ä»£ çļĦ
Ġneighb ors
Ġcomb ust
åĪĩ åī²
èĵ ¬
ÙĨ Ø¯
. View
åİŁ æľī
åħ¸åŀĭ çļĦ
åľº åĲĪ
Ø± Ø¨
Ġpoor ly
* q
çĶĺ èĤĥ
ä¼ļ è¢«
é© °
Ġgu ys
Ġalong side
Â·Â· Â·Â·
Ġrese m
æīĢåľ¨ åľ°
Ġex ponents
Ġadd iction
è¥¿çıŃ çīĻ
Ġ" );Ċ
åĪĹ åħ¥
- cont
29 3
sh ort
r ank
èĬĤ çľģ
Ġh ate
çĿ ¾
íķ ©ëĭĪëĭ¤
Ġprom ising
Ġdegrad ation
F low
Ġcot ton
iterr anean
çĥ ĺ
ĠEl izabeth
ĠAr g
éļĲ ç§ģ
ä¸Ģ åįĬ
Ġmy ster
æĹ¶ æľº
() {Ċ
ious ly
Ġfing ers
èĢĮ æĪĲ
ç§ĳ æĻ®
Ġbur ied
3 36
ä½¿çĶ¨ æĿĥ
ĠEd ition
Ġst ocks
åħ± è¯Ĩ
ĠW ales
Ġelect romagnetic
ordin ates
Ġsystem ic
C opyright
Ġpre view
ar bon
ĠAdv anced
Mon th
\ dfrac
Ġassoci ations
D river
Ġmet ast
çŀ¬ éĹ´
Ġo g
ä¸Ĭ ä¼ł
_ SET
è¿ľ è¿ľ
Ġb ip
Ġsp ont
osp here
ĠD rug
ĠÎ µ
åŀĭ çļĦ
F unc
N H
B en
éħ ļ
-c ell
Ġt ied
Me an
Ġappoint ment
g rid
Ġfem in
_ th
oci ated
Ġworks heets
ä»İ æŃ¤
Ġcollect ing
- text
è¶ħ åĩº
ĠBe havior
Ġmiss ed
ç©º çĻ½
Com ments
æĦıè¯Ĩ åĪ°
Ġs perm
ur ches
åĲĪå¹¶ åĲĮç±»é¡¹
29 5
é¢ ł
Ġswitch ing
DA O
Ġimper ial
Ġconf ident
ĠBut ton
éģ¿ åŃķ
æĬķ å½±
ëı Ļ
Th ank
Ġretrie ved
ap es
ĠY ang
. format
Ġm RNA
ĠCom ponent
æĿ¿ çļĦ
ag ers
Ġrel ies
p ot
ĠEv olution
ĠCl ub
est hetic
ĠStep hen
Ġbi ke
Pub lished
ĠSpring er
on ds
èĲ½ åĲİ
ĠS ave
ĠL td
{ i
å¤§ èĩ´
Ñĥ Ñİ
- content
W rapper
T V
op rote
ĠAr ist
-d igit
ĠA x
é»Ħ æ²³
åĴĮ ä¸Ģä¸ª
åĩł çĤ¹
Î ¬
èĸ ¯
ĠHit ler
M s
åľ¨ æŁĲäºĽ
èĢĮ å·²
Ġla pt
ĠLe ft
Ġess ence
ç»¿ åĮĸ
âĳ¢ âĳ£
åľº åľ°
-------------------------------- ----------------
ĠN am
Ġinter faces
. left
å¼¯ æĽ²
èĥĥ èĤł
Ġtub es
Ġo vers
O wn
æł ĭ
Ġ$ [
od s
Ar ch
Ġpert urb
)\ ),
Ġbe aring
é¡¹ çļĦ
Ġex cluded
Ġland ing
Ġvit ro
Ġsuscept ible
æĥ Ł
æī¶ æĮģ
Ġextract s
Ġd ur
è´¢ çī©
. Is
ä¸º ä¸Ģ
è¶ħ çº§
ĠT rad
æľīéĻĲ è´£ä»»
Add ing
çļĦ çĲĨè®º
b ind
b ecause
Ġswim ming
é¹ ı
ac a
ï¼Į ï¼Ī
p any
Ġmin i
çļĦ æľįåĬ¡
ä¸Ģ åħ±
Ġcomp ass
\) ï¼Į
åľ¨ æĪĳåĽ½
ĠÐ £
çīµ å¼ķ
ä¹Ł ä¸º
åĬł æĭ¿
Ġtyp ing
Ġc attle
åĲĪ è®¡
Ġthreat ened
éĤ£ä¹Ī è¿Ļä¸ª
ĠDO I
æĶ¯ éħį
27 4
m enu
åĴĮ æĬĢæľ¯
åı¯ è¡Į
Ġbreak down
× ŀ×
u ct
C ur
Ġsh ifts
çĹ ī
. begin
: @
è¿Ļæł· åı¯ä»¥
Ġsympt om
ĠS ite
O ct
æĹ¶ åħī
ĠU lt
ĠInt ellig
Ġì °
æİ ·
En um
å¸Ĥ å§Ķ
å¤ªéĺ³ èĥ½
- ind
% -
% ĊĊ
ĠÎ ¸
æ¤Ń åľĨ
Ãł i
* o
od ules
vent ory
ä¿ĿéĻ© åħ¬åı¸
Ġp ale
am el
as ters
æĪĳ ä¼ļ
27 7
çĸĳ éĹ®
ĠDef inition
uls ion
Ï Į
Ġad option
æµģ äº§
ment al
Ġattack ed
d on
å¤§ èµĽ
èĬ Ĵ
Ġref lex
åı¯éĿł æĢ§
Ġdiv or
å¼Ģ äºĨ
ä½İ æ¸©
Ġad mit
æĹ¶éĹ´ åĴĮ
44 4
Ġout line
ĠLe ad
Ġpres um
29 7
à® ¾
R F
in ator
mar ks
Ġth umb
Ġch unk
åĪ¶ æĪĲ
ĠAct ivity
h idden
Ļ çĹĴ
28 2
è¥¿ èĹı
ERS ION
æ¸ħ æ°´
Ġcr ash
Ġpenal ty
Ġpass ive
ç¬¬äºĮ å¤©
èĳ£äºĭ éķ¿
ĠT IM
Ġabund ant
* v
åľ¨ ä¸į
èİ ī
å®¢æĪ· ç«¯
-st yle
Ġec ological
* j
ÙĬ Ø§
_w idth
n als
Ġd airy
ç£· éħ¸
ĠCap ital
ĠB ow
Ġres il
C ould
t ry
â ľ
ëĭ Ī
.pro ps
typ ename
Ġarg ues
//////////////// ////////////////
_w rite
( cl
å¥¶ ç²ī
å¤į æŁ¥
Ġdat asets
\[ -
Ġport folio
under line
un ar
è¯Ħ çº§
am ous
che dule
ĠCult ure
Å «
éģŃ éģĩ
ì¹ ĺ
* i
æĮī æĹ¶
ĠH im
åģĩ å¦Ĥ
æĿ¥ è¡¨ç¤º
L ess
ä¸Ģ ä¸Ģ
ĠCon vention
ĠC ro
æĹ¶ å°ļ
ç§ĳåŃ¦ éĻ¢
Ġpl acing
or ic
Pol icy
åĽŀ åºĶ
ĠAn imal
æĸ¹æ³ķ æĺ¯
ã Ĥ£
æī¹ åĪ¤
Ġ" [
æŀģ ä¸º
åŃĺ æĶ¾
é¾Ļ æ±Ł
al ance
Ġso bre
æĺ¥ å¤©
Ġsome how
Ġwas h
ä»ª è¡¨
0 16
0 80
å¤§ éĺŁ
.W indows
æĥ ¨
ik es
Ġprior it
ìĭ ł
j or
Ġapp le
è ĺ
Ġi h
æ°¨åŁº éħ¸
(m ax
éº» çĥ¦
as hed
ann y
Text ure
an as
7 41
Con vert
æ¼Ķ åĩº
ĠN A
ç¥ŀç»ı ç³»ç»Ł
Ġnorm s
å§¿ åĬ¿
B E
Ġ ÑĪ
ÙĦ Ùĥ
ĠNav y
Ġcon e
Ġc i
åĴĮ å®īåħ¨
ãĤ °
ĠPh D
ç¼ĵ åĨ²
åĪ¤ å®ļ
Ä±nd a
H Y
Ġgen u
ĠDem ocr
å¤į èĭı
cler osis
Ġact ors
Ġre ven
è¡ ·
ĠMich igan
on ing
ä»¥ åĨħ
Ġoverl ap
n one
et ically
oper ation
Ġrel ates
çļĦ åĽłç´ł
am ents
éķ ģ
ĠUn like
çļĦ åĪĨæŀĲ
nab la
åĳ¨éķ¿ æĺ¯
çī© ä½ĵçļĦ
ĠInd ividual
d iff
å¹´ éĻĲ
è®¢ ç«ĭ
è¾ĥ å¥½çļĦ
æĪĳä»¬åı¯ä»¥ éĢļè¿ĩ
ĠF a
æŀģ ç«¯
Ġpsych iat
Ġsustain ability
åĲī æŀĹ
( response
çļĦ å¤©
åıĹ ä½ĵ
ä¸» æµģ
ç¨İ çİĩ
ĠTur k
åħ¨ æ°ĳ
Ġx y
åĨĻ æĪĲ
Ġport s
ĠT y
ah a
ç§į ç§į
p ol
em ed
50 9
ĠPh ilosoph
%% %%
ãģ§ ãģĤãĤĭ
Ġcont rary
Des pite
Ġexp ed
Ġbene ath
è½» è½»
isp here
Õ¥ Õ
Ġgast ro
çĺ ĻçĹĴ
usal em
Ġb orders
W he
åį ĳ
Ġremov es
Ġn n
ĠTO BN
å¸Ĥåľº ä¸Ĭ
ai res
u ction
Ġreal istic
é¢Ĩå¯¼ å¹²éĥ¨
om on
Ġbank ing
æĦī å¿«
â ģ
Ġob l
éĥ¨éĹ¨ çļĦ
Ġh ang
ĠRel ations
æĢ ĸ
Ġpoet ry
% .Ċ
ĠS ong
M ember
pro v
ment ed
Ġp ays
Ġfore ver
em at
Ãł y
Sc ient
ĠØ¨ Ø§ÙĦ
åĩı å¼±
Ġcounter part
Ġfac ial
éĻķ è¥¿
phant om
Ġadjust ment
Ġunem ployment
out heast
to pl
br is
åĩ ¶
ĠMe asure
. options
ĠÙħ Ø¹
ov en
ÂłÂłÂłÂł Âł
Ġallerg ic
å¿« éĢĴ
× ¢
om ent
ĠV ery
æĹ¢ æĺ¯
Ġprodu cers
æľįåĬ¡ ä¸ļ
Ġt rivial
×ķ× ¨
è° ¦
è¡Ģ æłĵ
åºŁ çī©
ģ ¬
( list
27 1
Ġwh ites
äº² èĩª
çŃī æĥħåĨµ
åıĺ å¼Ĥ
å±ķç¤º äºĨ
] `
Ġa uch
Ġl ying
Ġt urt
el ing
ä¸į åĲ«
ell es
çŃī çĽ¸åħ³
ĠT our
Ġepis odes
ä»ĸä»¬ åľ¨
Ġre ign
* w
ard ed
x c
27 9
ĠJ r
ĠH arr
æĬĹ åİŁ
Fl ag
ĠT s
Ġmet eor
ÑĢÐ° Ð½
h ire
ĠM and
pec ies
ect ure
çĽ´ èĩ³
æİ¥ åħ¥
umer ic
En vironment
Ġ$ ("#
å®ŀ åľ°
çŃī åľ°
Ġpar liament
Par ameters
åĪ© äºļ
zon a
ver b
æĸ¹ç¨ĭ ä¸Ń
Ġ} _{
Ġdefe at
ĠArt s
Ġprodu cer
for all
0 21
æł¹ åı·
Ġc Ã¡c
. insert
ä¸ ĳ
Ġfra ud
Ġw ed
Ġnot able
Ġì ¤ĳ
æĦŁ åħ´è¶£
ç§» æ°ĳ
æīĢæľī æĿĥ
Ġwhere in
Ġrul ing
ï £
éģĵ çļĦ
ĠIss ue
local host
Ġsim plicity
Ġcivil ization
Comm un
ÖĢ Õ
ãĥ ŀ
ä¹Ļ èĤĿ
Qu ant
ĠEqu ations
b urn
p he
P ref
Ġdis put
ĠÂ µ
åŁİå¸Ĥ çļĦ
ĠM ach
ĠS ET
åĴĮ ä½¿çĶ¨
ĉĉĉĉ ĉĉĉ
Ġspeak ers
ä¸ĭ èĤ¢
Ġsophistic ated
ĠG ulf
ia o
ä¸ĭ ä¸Ģ
å½ĵ æĹ¶çļĦ
éĢ¾ æľŁ
Ġw ings
åĩı èĤ¥
ĠTh ink
Ġh ung
Ġperm issions
ĠL OG
æĺ¯æĮĩ åľ¨
æľĢå°ı åĢ¼
Ġnut ritional
çļĦè§£ éĽĨ
æĢ» çļĦ
ĠS end
ist ration
ĠAm endment
ĠLew is
å¤į è®®
éĺ² å¾¡
èµĦ åĬ©
.d b
çĶµ æŀģ
æİ¨ æĸŃ
Ġcalcul us
Ġpull ed
Ġscre ens
å½ĵ ä»Ĭ
äºĮ èĢħ
_c all
- le
x p
fig ure
ä¹ĭä¸Ģ çļĦ
k ind
ap on
Ùĩ Ùħ
enn y
åĨħ ç§ĳ
èĮ «
igh th
Ð ŀ
éĩį åĬĽ
è¯Ħ åĪĨ
ade qu
Ġâī Ī
ĠW ednesday
Ġexclus ively
æ³ķ åºŃ
ĠB O
() ).
ĠAp plied
åĪĨ åĮĸ
ĠAct ive
ul i
ap at
28 7
å® °
çļĦ éĤ£
O h
_ K
33 8
Ad v
å« ģ
Âł Z
å¹¿ éĺĶ
Ï Ĩ
26 7
ĠD iet
ult ure
D TO
æĺİ å¤©
Ġmedic ines
ä¸ŃåĽ½ äºº
Un iversity
ig ious
åŃĲ åħ¬åı¸
èĭ ·
.s ervice
Ġfract ure
ient ed
Ġsus pected
bal ance
ff ff
Ġconc ert
Ġde leg
ĠCh ief
ill es
Ġofficial ly
å³ »
æį® æŃ¤
ãĥ Ĺ
Ġmembr anes
f ire
p atch
)$ ãĢĤĊĊ
-ne gative
own ed
Ġcontain ers
ore n
Ġspecial ist
. Col
Ġbe gun
åĩı éĢĢ
åĪ° æĿ¥
è·Ł çĿĢ
Ġdelay ed
Ġab ol
Ġveget ation
Pl ace
no on
Ġind igenous
ĠB ush
Ġ" ../
çļĦ é¡¹çĽ®
ĠÐ¾ Ð´
Ġper pet
éĺ´ éĺ³
Ġher b
Ġbra ins
á»ĩ n
Ĩ µ
æı ī
Ð¾Ð¼ Ñĥ
T ube
#if def
Ġm ethyl
èĤ¡ å¸Ĥ
åľ¨ æĸ°
_ obj
32 2
Ġse al
o ices
u pload
ĠMuslim s
Ġhost s
æ¯Ĵ æĢ§
ĠPr ince
- for
âĳ ¥
ç»ıèĲ¥ èĢħ
vo ice
Ð³ Ð°
å¯¹è±¡ çļĦ
B uild
ib ot
ĠPro tocol
ĠJ oe
. en
æł· å¼ı
ê° Ħ
/ min
ä¼ ½
_ co
æ¯Ĵ ç´ł
Ġmethod ology
ĠB iol
ĠY e
em an
è¿Ļä¸ª éĢīé¡¹
çľĭ åĪ°äºĨ
Ġbe ach
.re place
æĻ¶ ä½ĵ
az ione
Ġgent le
Ġmat ched
- em
æŃ£ç¡® åľ°
AT ED
ĠRad io
éĢļ æĬ¥
" },Ċ
Æ°á» Ľ
ĠH ong
æķ°æį® æĺ¾ç¤º
åĪ ¹
ĠS cript
ĠH ay
ç½ ķ
ĠPen nsylvania
re a
Ġfre ely
s uccess
âĢĿ .Ċ
Ġkin etic
. check
w orld
Ġl unch
æ°¨ éħ¸
ĠS av
åıĳ åĬ¨
Ġindu ce
çļĦ å¯¹
åįĬ å¯¼ä½ĵ
è¾ĸ åĮº
Ġdiv id
Ġrepresent atives
Ġclos ure
å¤į åį°
çĲĥ èıĮ
é¹ ħ
é¡¶ éĥ¨
ä¿® åħ»
ä¸į åĲĪæł¼
_ entry
åĽ¾ æ¡Ī
à ¾
ĠT en
ipt ic
ä¸Ń æľĢ
Ġdepend ency
ĠI EEE
çĶŁåĳ½ çļĦ
éĴ Ŀ
gener ate
s ort
åĲĦ æĸ¹
ĠExt ract
èĮ ¨
35 2
0 14
Ġg li
ed a
Ġad apter
è¿ĺ åĮħæĭ¬
AR AM
ĠM RI
åĩºçīĪ çļĦ
ĠNet herlands
32 7
æŃ£ç¡® çŃĶæ¡Ī
here nce
ĠH on
åıĬ ä»¥ä¸Ĭ
Ù ¾
æłĳ èĦĤ
å°¼ äºļ
Ġcritic ism
ig s
åºĶ æĶ¶
, k
ar o
ĠC ou
ĠURL s
Ġfro zen
éļı ä¹ĭ
29 8
aw ay
Ġdialog ue
éĢī æīĭ
Ġqu iz
.w idget
V I
åł ´
åľ¨ åħ¨åĽ½
é¥² æĸĻ
Point s
6 64
Rem ember
m eta
ĠâĪ §
Ġwind s
Ġdecl aration
Ġprem ium
> ::
ĠG a
ject ive
ÃŃ n
Ġcur v
åľ°æĸ¹ æĶ¿åºľ
he x
æ°ĳ åĽ½
Sc ale
ç¡Ŀ éħ¸
ĠPl ayer
åħ³èĬĤ çĤİ
ĠEx change
ĠLe on
Ġaff ili
^ -
ä¸Ģ éĥ¨
ri ends
0 30
ĠP S
çĹħæ¯Ĵ æĦŁæŁĵ
å±Ģ éĻĲ
åĮĸ å¦Ĩ
çļĦ æııè¿°
åı¯ä»¥ éĢīæĭ©
åħ·ä½ĵ æĿ¥è¯´
p ool
Ġad mitted
ãĢĤĊĊ Ċ
å¸ ħ
F ore
Ġcop ied
Ġcarbohyd rates
åıĳå¸ĥ çļĦ
pro of
Ġg aps
Ġs b
Ãª s
èģª æĺİ
çŃī æĸ¹éĿ¢çļĦ
3 17
tr ation
è´¯ ç©¿
èķ ī
M us
åħ¨ æĸ¹ä½į
Ġlet s
ä½ľä¸º ä¸Ģä¸ª
éª¨ å¹²
éķ¿ å¤§
åı¯ä»¥ ä»İ
å¸¸ å§Ķä¼ļ
Ġ( _
) ?
ut ing
ĠS N
ĠCour se
Ġ ÑĨ
é«ĺ å³°
Ġimmig rants
çļĦ ä¸ĸçķĮ
î Ģ
ta it
çŃ¾ åŃĹ
èĤ ĭ
æµ· åįĹ
Ġpat ent
Ġmem or
f ly
çľĭ äºĨ
sequ ence
é«ĺéĢŁ åħ¬è·¯
Ġsubstantial ly
Ġcurrent s
æ²³ åįĹçľģ
g ency
Ġdescript ions
re nder
åĸĿ æ°´
è´ ¬
ĠCol lection
æ°¯ åĮĸ
çĶŁ æ¶¯
erv es
b ury
ä¸Ń åĲ«æľī
çī© æĸĻ
.f ilter
èģĮ ä½į
æ³Ħ æ¼ı
Ġbre ed
upp orted
Ġu pt
Ġcl in
Ġass ay
ĠØ§ÙĦ Ø¯
ç«ĭ æ¡Ī
ĠC u
äº¤ çĤ¹
ç§» åĪ°
ç»Ī èº«
Ġn ah
ok er
æıĲ åĢ¡
ĠSt ation
be ging
ĠG rid
çļĦ åħĥç´ł
ëħ Ħ
ĉ ĠĠĠ
ç±³ çļĦ
è£ģ å®ļ
é¹ ¤
Ġelim ination
è¡Ģæ¶² å¾ªçİ¯
Ġearthqu ake
Ġrecipro cal
e lect
× ¡
ĠC lean
in teger
åįķ é¡¹å¼ı
Ġì Ĭ
çĪ µ
Ġp iv
ç«ĭ ä½ĵ
33 4
_b lock
ì ĨĮ
T M
å¸¦ çĶµ
èĪĴ æľį
ĠDe ath
55 5
Ġimp ly
æ±¡æŁĵ çī©
t emp
Ġphilosoph ical
Ġdepart ments
åĭ¾ èĤ¡
ĠF unctions
Th ree
çŁŃ è·¯
beging roup
Ġres erve
ĠS quare
3 19
å¼ķ æĵİ
Ġsim ulate
å¸¸ è¯Ĩ
Ġdomin ated
è£ģ åĪ¤
ĠEp ub
ĠÑģ Ð¿
Ġcook ie
s f
40 8
ĠM arsh
Ġoptim ize
ä½© æĪ´
Ġvis iting
ç®¡çĲĨ èĢħ
.ex ecute
or ption
Ġroll ing
for Each
ĠSt yle
æ¸Ĳ æ¸Ĳ
Ġpopular ity
ne gative
åįł æĢ»
b uffer
Ġas pir
c lear
.p arent
Or gan
Ġrestrict ion
Ġdo ors
ä¾Ľ è¿°
ç¤¾ä¼ļ ä¿ĿéĻ©
é¤Ĳ åİħ
Ġsh ield
å®ĥ åľ¨
Ġconsum ing
ĠÄ Ĳ
Ġrub ber
26 9
Ġspread s
ĠAB CD
å¹´ éĹ´
ç¼ ł
å®ļä¹ī åŁŁ
Ġm arch
cre ased
Ġrain fall
ĠH indu
å¥¥ è¿Ĳ
Ġm align
çŁ« æŃ£
éĹ® åį·
_r ange
Ġfrag ments
D irectory
æľī ä¸ĢäºĽ
ç¦» å¿ĥ
åıĳçİ° äºĨ
Ġ à°
-w idth
ur ated
ä¸į åĪ©äºİ
ul pt
Ġes p
est inal
æĿ¥ è¿Ľè¡Į
IL L
æĪı åī§
subset eq
B ER
ĠT arget
Ġ} )
n atural
Ġher itage
Ġdec imals
éĺ¿ æĭī
Ġtrig gers
C rit
è¿Ļæł· åģļ
äº² åŃĲ
-d own
id os
ĠM ot
æ¸ ²
col umn
Ġhard ly
ĠìĿ ¼
end group
Ġsol o
å¤ĦçĲĨ åĻ¨
o ys
Ġch ips
Ġhy g
åľ¨ ç¾İåĽ½
åĳ µ
() :
ĠCh oose
å¤ĦçĲĨ çļĦ
éĤ£ å°±æĺ¯
Ġgo ver
ÂłÂłÂłÂł ÂłÂł
ç¤¼ ä»ª
ĠØ§ÙĦ ÙĤ
V O
æĦŁ åºĶ
ç« £
ĠMar ia
å¥¶ å¥¶
ĉ p
Ġblock ed
è´¨ çļĦ
Al tern
Ġco ordination
æ±ī åŃĹ
Ġê² ½
f i
ä¿Ŀ å®Ī
bo olean
L R
bra ce
S un
f ull
.. ...
Ġr um
op ter
Ġdiv ine
Ġoper ated
Ø¨ Ø±
ari b
æĸ½ è¡Į
iment o
ĠPol and
åģ¿ è¿ĺ
b ps
.c ount
ä¸ĭ ä¸ĢæŃ¥
ÑĢ Ð¾
èŀº çº¹
( !
d ays
å°± æ²¡æľī
un i
ç¾İ å¥½çļĦ
ĠÃ ī
å®Ŀå®Ŀ çļĦ
ĠØ¥ ÙĦÙī
Ġhel per
_ not
at tered
ĠM B
ĠN an
Ġrend ered
AR N
Ġte ch
ä¸¢ å¤±
d im
ĠMed iterranean
Ġdivis ors
ĠD R
éĨ Ľ
row ing
ä¿Ŀ æ¸©
æĹ¥å¸¸ çĶŁæ´»
ag an
Ġest e
Ġhouse holds
Ġinstitution al
ä¼ĺç§Ģ çļĦ
Ġbelong ing
ä¸İæŃ¤ åĲĮæĹ¶
åĬĽ åŃ¦
âĢ¦ ĊĊ
Ġs ont
ĠC E
_d et
L ower
ĠColor ado
3 18
Ġa pt
ĠPre vention
å»ºè®¾ é¡¹çĽ®
ĠOr th
Ġre ar
Ġl attice
and ed
ä¸įä»ħ æĺ¯
ä¸į æĥ³
ĠQ uality
in als
åįģ æĿ¡
Ġoff spring
L at
pe ople
ĠE N
å¤ĩ çĶ¨
B el
Ġ" @
36 4
å¤ļ ä¹Ī
oglob in
ä»ĸ æĺ¯
ç§° åı·
èĸª éħ¬
ol ph
Ġpoint ing
Ġdist ress
Ġinv asive
æĺŁ ç³»
t ed
un es
Ġp estic
Ġcomp ile
Sub mit
Ġperson ally
ĠAf ghan
sk y
ĠPol y
go ogle
Ġrep ublic
. Y
L ambda
ag g
èĴ¸ åıĳ
ä¸Ń å°ıåŃ¦
éĹ®é¢ĺ ä¸Ń
Ġshall ow
um at
Ġqu art
_ ref
amm ad
Ġcos m
Ġatt ended
Ġv as
åĿı æŃ»
ĠÎ ´
Ġelev ation
W T
Ġpe ers
åİ» åģļ
æ³¨ éĩĬ
Ġexpl ored
Ġdev ast
åĲ¸ åħ¥
æĹ¶æľŁ çļĦ
ick et
ĠE c
å®ļ æĹ¶
Ġam er
Ġ` <
ä¹ĭ ä¸Ĭ
ä¸º åħ¶
Ġavoid ed
_ID X
Ġintellig ent
èī¾ æ»ĭ
ĠG ames
æĺ¯ çļĦ
ĠB ru
å¹³ åĪĨ
ul ing
op ed
Ġb old
om ed
åº ¸
Ġ á
ĠM i
ä¹Ł éľĢè¦ģ
çľŁ èıĮ
à¸µ à¸¢
æŁ ¯
Ġfac ulty
(t ype
{d y
æĺ¥ ç§ĭ
Ġcrit er
ä¸¤ å¤§
ä¾¿ æį·
Ġorgan isation
s uper
Ġp end
Ġimp ression
Ð¶ Ðµ
ac hers
_n o
æĪ· åı£
Ġvom iting
_ AL
å¤ļ å¹´çļĦ
ä¸į æ»¡
éĩį å»º
AN S
he it
åıĳçĶŁ åıĺåĮĸ
Ġpy ram
D to
Ġreg ulated
æĤ£èĢħ åľ¨
å¤ļæł· æĢ§
æ¸² æŁĵ
ĠBel g
Ġ< ?
Trans late
à®¾ à®
} "
Ġent ropy
ç²Ĵ åŃĲ
Ġ" _
éĻ¤ æŃ¤
Add itional
ä¹³ æĪ¿
Ġann ounce
ĠH i
Ġ ic
å°Ĩ æĺ¯
head ers
ĠSol utions
åĨĻ çļĦ
Ġden otes
, the
ĠR A
Ä± k
Ġc ave
new s
Ġprom otes
Ġpurs ue
pat hetic
Ġo un
Ġ" "Ċ
å¿ĥèĦı çĹħ
om ing
é¢ Į
++ Ċ
æ¬§ çĽŁ
or rh
Ġan a
Ġli ability
Ġc ouncil
' $
Ġd rought
ter day
èĤ¡ä¸ľ å¤§ä¼ļ
ä¸į åģľ
å¼Ģ åŃ¦
åħ»èĢģ ä¿ĿéĻ©
ĠW as
Ġplace ment
çĶŁæ´» æĸ¹å¼ı
/ R
_ En
ari um
èĭı å·ŀ
åľĨçļĦ åįĬå¾Ħ
) d
* l
_ def
Ġo ceans
å¿ĥçĲĨ åģ¥åº·
50 4
Ġhum idity
çĶ¨ æīĭ
èĬ± çĶŁ
r up
ä½Ĩ åħ¶
Ġext ens
åĵ® åĸĺ
_D IR
Re view
çĽ¸ éģĩ
er on
30 9
_f ield
çĽ² çĽ®
ĠK il
èµ Ĳ
æģĲ æĢĸ
Ġph ones
åħħåĪĨ åĪ©çĶ¨
ĠNot ice
ĠH ydro
4 28
-l ink
Ġstri p
ä»¶ çļĦ
. Name
ro v
ak o
åį´ æĺ¯
ĠO p
Ġas h
åĿĩ åı¯
Ġincorpor ate
A pr
ç§ģ äºº
0 40
éħ ¿
Ġcent ered
ut ex
å¹¶ è´Ń
OT G
v ation
Ġad hes
åĳ½ åĲį
ĠC ubic
å½±åĵį çļĦ
Ġsc ulpt
B G
ck er
ç»Ĩ èĩ´
* .
çĸ ¯
éª Ĥ
å¡« åħħ
Ġexplan ations
Ġexpl os
ĠAss essment
ĠL ib
åĲĪåĲĮ çļĦ
us hes
çĪ· çĪ·
Ġext ending
çļĦåīįæıĲ ä¸ĭ
akes pe
Ġprol iferation
åı Ľ
RE AD
un n
lev ance
Ġenem ies
com a
çļĦç»ĵæŀľ æĺ¯
Ġaward ed
èį Ĩ
I EL
ĠP erm
Ġmod er
å®īåħ¨ ç®¡çĲĨ
ug a
QU EST
_m ask
ĠëĤ ĺ
ĠS her
Ġcon ce
Met adata
Ġc ake
æŀģ åħ¶
plot lib
à¹Ģà¸Ľ à¹ĩà¸Ļ
M r
Ġdiscuss ing
ĠCS V
è¿Ľ åĪ¶
ĠArt icles
f iles
Ġcont raction
ĠAnt i
ĠM ike
ĠD raw
ä»Ģä¹Ī ç½ª
i Ã³
Com par
Ġcitiz en
ĠF L
ph an
ç§Ł éĩĳ
ĠF air
L en
ä¸Ģ å¤§
te ch
}} }
æĹ¶ è®¸
ur day
B r
æĤ£ çĹħ
Ġunder ground
æ¾³ å¤§åĪ©
-t ion
H ar
_ offset
Ġalph abet
ĠPar ameters
ili ary
ĠTur key
ä¼ł è¯´
à¹ĥ à¸«
ris k
l ice
æĺ Ķ
ĠC ook
è®¡ç®Ĺ åĩº
ĠÃ¤ r
ä¸Ģ åı¥
ĠG reg
Ġmil it
åħ¨ åİ¿
Ġheav en
Ġmed ieval
Ġeat en
-s ide
èĶ ĵ
Y P
ĠF IG
å®ļ åĲĳ
$ )
B re
Ġexam ining
åħ¬åħ± æľįåĬ¡
å¼Ģ å·¥
åĨħå®¹ ç®Ģä»ĭ
éĻįä½İ äºĨ
ir l
ä¸ļåĬ¡ çļĦ
ĠNever theless
IN K
Ġspecific ation
Ġt ired
ĠH op
çĦ °
æĪ¿ ä»·
Des c
/ r
k h
å¼Ģ æ°´
à¸± à¸ĩ
Ø§Ø ²
ĠF inal
å¿ħé¡» åľ¨
ĠIncre ased
ĠM P
ĠJ upiter
å¤Ħ æĸ¹
Ġh opes
Ġdecom position
Ġab d
è¯´ è¿ĩ
.p op
-r ich
.b ody
Ð° Ð·
æ¾³å¤§åĪ© äºļ
ĠD aily
ä¸ĩ çī©
.set Text
Ġadapt ive
Ġdistingu ished
ìŀħ ëĭĪëĭ¤
an cer
ä¹ı åĬĽ
ĠB ureau
}} ^{
ĠÐ´ Ð¾
D istance
èĹ »
Ġunc lear
Ġbe ars
li er
äº¤éĢļ è¿Ĳè¾ĵ
r ison
æ¸¯ åı£
Ġext inction
å¹´ åĨħ
åĬł æ²¹
Ġsum s
ĠR ab
ĠF ib
sh ared
Ġimmig ration
es ch
ON G
åħļ æĶ¯éĥ¨
as se
Ġgen re
ĠDe ep
Ġinterview s
ĠN C
Ġport ions
Ù Ĳ
Ġimport s
adel ph
$ ï¼Ľ
ĠPr imary
b one
Ġpr one
ä»¥ ä¿Ŀè¯ģ
ĠÂł ĊĊ
å° ¸
Ġlaw yer
Ġscen es
C u
Ġw ie
æĸ¹æ³ķ æĿ¥
ĠCol on
Ġspread ing
c pu
Ġst ochastic
Ġapp et
èµĦäº§ éĺ¶çº§
äºº ä¹ĭ
æ·± æ·±
å¤ı å¤©
åºĶ æ³¨æĦı
Ġconnect s
è¦ģ ä½¿
ä¸Ĭ å¼ı
29 1
æī§ æĶ¿
ä¾¦ æŁ¥
Ġ[ ];Ċ
ĠAp pl
Ġfund ed
ç¦» ä¸įå¼Ģ
å½ĵ ä¸ĭ
ä¸Ģä¸ª æķ°
çĽ´ èĤł
ä¸ĢèĪ¬ æĥħåĨµä¸ĭ
è¯· å°Ĩ
Gener ic
Ġpal ibot
M ulti
Ġtr im
Ġcorrect ed
Ġ íķľ
æľĪ åºķ
ï¼İ $\
De velop
Ġsoc io
Ġalt itude
Ġmel an
Ġiniti atives
åħĪ è¡Į
ĠHar ry
ä»¥ åħ¶
Ġm old
å¼Ģå±ķ äºĨ
> "
K ind
ä¸» æ²»
Ġc rown
éķ¿ æĺ¯
à¹Ħ à¸Ķà¹ī
çľŁ æĺ¯
36 1
æĩ Ĵ
ĠÐ´ Ð»Ñı
ä¸´åºĬ ä¸Ĭ
ĠMon itor
Ġad en
cm d
è¿Ļ ä¸īä¸ª
Ġnum s
' ].
Ġfore ach
Ġret ention
ĠAut o
ĠSt ruct
èº º
29 2
ĠB rad
ĠT ool
ĠA ward
æĸ¹ åı¯
-------- -
åı¯èĥ½ æĢ§
" I
ĠH ung
Ġshe ep
AR CH
Âł s
an ium
çıį æĥľ
( ctx
Ġv ivo
æ¶ī å«Į
Ġper mitted
ĠG M
}}\ ).Ċ
Ġf ires
R end
çĨŁ ç»ĥ
éª¨ è´¨
æĺł å°Ħ
ge bras
Ġ× ¢
Ġcou pling
ĠCar bon
" ].
Ġchem otherapy
æŀĦæĪĲäºĨ ä»Ģä¹Īç½ª
Fe ature
ĠT ok
Ġdram atically
Ġst raw
è¶ĬæĿ¥è¶Ĭ å¤ļ
è§£ é¢ĺ
ä¸Ĭ å¹´
ĠG it
å®Įåħ¨ å¹³æĸ¹
ĠP ear
ĠH E
ip h
Ġgu itar
éĺ» å¡ŀ
åºĶ åıĬæĹ¶
åĪ¶ åīĤ
Ġt we
Ġamong st
ĠCh annel
( text
Ġrout ing
oc yte
Ġrot ate
çħ¤ çŁ¿
Ġìķ Ĭ
ĠV i
( Y
33 1
_con text
åĬ¿ åĬĽ
ra ham
Ġdec ides
_B U
_arg ument
te in
.l abel
Ev ents
éĻ Ģ
Ġprom otion
å¯¹ è¯¥
ĠEin stein
ass ets
åĩŃ åĢŁ
con nection
æľī ä¸Ģå®ļ
ä¸º éĽ¶
com ponents
O k
Ġp aste
ĠSwed en
èıľ åįķ
ĠDav is
c ss
Ġantib iotic
f ound
Ġp ada
Ġí Ķ
0 25
ä½ł è¦ģ
æĭĽ åķĨ
ip eline
36 3
äºº éĥ½
ĠJer usalem
éĩı åŃĲ
æ°¸ ä¹ħ
ĠK ong
Ġve in
Ġsub mission
çļĦ æİ§åĪ¶
ĠCh amp
Ġobser ver
ĠP L
ĠDi abetes
ĠW ars
å¹¶ ä¸įèĥ½
New s
Ġsurv iv
Ġf oi
è¯´æĺİ ä¹¦
ĠExpl ain
iss on
çĥŃ çĤ¹
{ eq
st ers
åĢ¼ çıŃ
ĠApp ly
P lugin
Âł is
Ġtreat y
Ġparticip ating
IN FO
Ġemploy ers
çĽ ¼
ĠK EY
ch ildren
ĠA F
ä¸Ń æľŁ
ĠM oh
æľ¯ è¯Ń
Ġref resh
éķ¿åº¦ ä¸º
ĠInc orrect
Ġclar ity
M aterial
Ġconcept ual
b g
Ġ\( (-
ĠIll inois
ol as
Ġsk ull
4 14
> Title
Ġ" __
Ġ ____
Ġre w
ry ing
******************************** ********************************
ķ Į
F ollow
ĠPr incip
ç«£ å·¥
ropri ate
Ġgen etics
Ġin cons
Ġprevent ed
Ġfarm s
æĪĸ ä¸į
ĠSim on
ĠO P
âĪ ´
åĽŃ æŀĹ
N ational
ä¸ĭ è¡Į
æĽ Ŀ
å°Ħ çº¿
4 70
X Y
éļ§ éģĵ
Ġex ch
é«ĺ åİŁ
Ġabandon ed
æ²¡æľī ä»»ä½ķ
æĶ¹éĿ© çļĦ
Inter val
++++++++ ++++++++
Ġme g
ogen ous
M edia
ä¸Ĭ æĸ¹
å¼Ģ å¿ĥ
rid ges
ous es
Ġbrief ly
y led
Ġacc used
Ġpack ets
Ġsh ipping
C enter
Ġath letes
ĠRe ference
Ġins piration
4 15
Bl ack
Ġelig ible
Ġtherap ies
Ġdis abilities
Ġbuck et
åľ¨ å®¶
ĠF arm
Ġd ont
ĠM C
ĠW i
xx xx
éĺ¿ éĩĮ
æ¿Ģ åĬ¨
IO Exception
åĽ½æ°ĳ åħļ
Ġlik es
Ġmos quito
Ġport ray
Ġz ur
é£Ł ç®¡
. ref
in h
Ġo pi
l oss
ĠZ bl
æĵħ èĩª
ou p
ĠØ§ÙĦØ ¨
çĤ º
ij ing
Ġd ying
éĽ Ģ
Û Ĵ
27 8
oph il
Ġpneum onia
& &
om p
Ġv ow
[...]
