!
"
#
$
%
&
'
(
)
*
+
,
-
.
/
0
1
2
3
4
5
6
7
8
9
:
;
<
=
>
?
@
A
B
C
D
E
F
G
H
I
J
K
L
M
N
O
P
Q
R
S
T
U
V
W
X
Y
Z
[
\
]
^
_
`
a
b
c
d
e
f
g
h
i
j
k
l
m
n
o
p
q
r
s
t
u
v
w
x
y
z
{
|
}
~
¡
¢
£
¤
¥
¦
§
¨
©
ª
«
¬
®
¯
°
±
²
³
´
µ
¶
·
¸
¹
º
»
¼
½
¾
¿
Â
Ã
Ä
Å
Æ
Ç
È
É
Ê
Ë
Ì
Í
Î
Ï
Ð
Ñ
Ò
Ó
Ô
Õ
Ö
×
Ø
Ù
Ú
Û
Ü
Ý
Þ
ß
à
á
â
ã
ä
å
æ
ç
è
é
ê
ë
ì
í
î
ï
ð
ñ
ò
ó
ô
Ā
ā
Ă
ă
Ą
ą
Ć
ć
Ĉ
ĉ
Ċ
ċ
Č
Ď
ď
Đ
đ
Ē
ē
Ĕ
ĕ
Ė
ė
Ę
ę
Ě
ě
Ĝ
ĝ
Ğ
ğ
Ġ
ġ
Ģ
ģ
Ĥ
ĥ
Ħ
ħ
Ĩ
ĩ
Ī
ī
Ĭ
ĭ
Į
į
İ
ı
Ĳ
ĳ
Ĵ
ĵ
Ķ
ķ
ĸ
Ĺ
ĺ
Ļ
ļ
Ľ
ľ
Ŀ
ŀ
Ł
ł
Ń
ĠĠ
Ġt
Ġa
in
he
re
on
ĠĠĠĠ
er
ä¸
Ġthe
at
Ġs
en
ï¼
Ġo
Ġc
es
is
or
it
an
ãĢ
çļ
al
çļĦ
Ġp
Ġw
ï¼Į
Ġf
ion
Ġb
ed
Ġan
ar
ing
Ġd
Ġof
Ġin
Ġm
le
ou
ic
äº
ĊĊ
Ġto
ro
Ġand
as
åı
ãĢĤ
ct
ä»
æľ
åħ
ent
et
ĠĠĠĠĠĠĠĠ
ĠĠĠ
Ġth
Ġn
st
Ġre
Ġe
åĪ
Ġh
âĢ
å®
om
el
è¿
å¤
Ġl
ä½
Ġis
il
çĶ
æĺ
ra
im
åĲ
ol
Ġ=
ut
id
ĠT
åľ
ve
ç»
ation
ãĢģ
us
ot
åĬ
Ġg
æĪ
ig
ur
ce
Ġ(
æĺ¯
Ġ\
æĸ
am
è¯
ow
åĽ
ch
ä¹
un
ul
ĠS
ä¸Ģ
ĠA
Ġfor
Ġst
ly
.Ċ
ĠI
if
Ġbe
åŃ
å°
æķ
è®
æĹ
ĠC
Ġthat
ver
od
å¹
ãĢĤĊ
ad
se
Ġy
Ġon
ä¼
um
Ġcon
éĢ
åº
ir
åį
è¡
ith
ate
æľī
åľ¨
æĿ
Ġpro
qu
æī
ag
ay
Ġv
Ġ-
éĩ
å¼
ä¸į
;Ċ
Ġas
ä¸º
em
ter
å¯
åĴ
ĠĠĠĠĠĠĠ
ä¸Ń
è§
åĩ
.ĊĊ
Ġwith
äºº
åĨ
ri
åĮ
est
åĴĮ
èĢ
ab
çĽ
Ġit
ĠThe
--
Ġde
ist
å¸
å·
æĢ
Ġare
ĠP
ä»¥
ĠM
res
pe
os
Ġal
00
å¾
her
èĥ
æł
Ġyou
Ġor
Ġex
iv
Ġwh
ä¸ª
ess
è´
ction
th
ç§
ĠB
ers
ment
Ġcom
Ġwe
ac
æ³
æŃ
çŃ
pt
æĬ
ĠD
çİ
pl
te
äºĨ
¦ģ
æ°
å½
çĶ¨
Ġ$
and
è¦ģ
Ġ"
æĶ
oc
ore
ity
igh
nt
æŀ
çĶŁ
çī
Ġus
op
éĻ
rom
ĠĠĠĠĠĠĠĠĠĠĠĠĠĠĠĠ
Ġby
Ġr
Ġne
Ġ+
ort
ain
ld
æĹ¶
å±
Ġsu
**
ï¼ļ
åı¯
ĠR
âĢľ
Ġ{
éĹ
Ġse
ĠW
Âł
åİ
å¤§
âĢĿ
ke
ill
ĠH
20
çº
ĠE
æİ
ĠF
åŃ¦
èĥ½
ä¿
è¿Ļ
ive
èµ
ant
Ġhe
éĿ
end
nd
çĲ
äºİ
è¡Į
ä¸Ĭ
Ġcan
pp
é¢
å¿
ies
åĳ
å¯¹
art
æķ°
èĩ
Ġthis
og
æĸ¹
Ġat
éĥ
ĠL
ine
ight
Ġha
åıĳ
ect
åĪĨ
ial
Ġfrom
ud
æĪĳ
ĠN
Ġch
ure
åĽ½
rac
ä¼ļ
ä½ľ
ue
è¾
Ġsh
Ġnot
æµ
é¡
age
æ¯
ass
Ġun
æĪĲ
iz
)Ċ
å¹´
çĲĨ
æ²
ĠG
å¥
æĮ
Ġle
:Ċ
æ³ķ
åĪ°
èĤ
å®ļ
åĩº
per
ä¸ļ
all
ge
ould
ç®
);Ċ
10
ult
Ġ`
}{
ame
ie
ical
ä»¬
ich
Ġ{Ċ
imp
æĢ§
Ġwas
è½
Ġhave
å¦
frac
,Ċ
ä½ĵ
ç¨
âĢĻ
ans
our
The
åĬ¨
ub
red
int
Ġk
æĦ
ä¾
cl
Ġ}
ä¸ĭ
xt
Ġcl
åŁ
ell
à¸
æĥ
ble
å·¥
ff
19
orm
æĿ¥
çŃī
è¿ĩ
act
out
ost
æĭ
åĵ
ind
æ±
æīĢ
ated
----
åľ°
rou
's
ap
__
å®ŀ
ust
è¿Ľ
éĺ
çĤ
çİ°
ide
Ġres
ak
åĲİ
ĠO
ase
Ġcomp
åĮĸ
Ġif
ber
ä¸İ
æį
//
ç«
åĲĪ
ç¬
å¤ļ
up
åĢ
urn
Ġint
åĲĮ
ard
Ġen
åĽł
åī
able
ip
ome
du
åºĶ
ĠÐ
é«
Ġ<
Ġad
cc
Ġwhe
é¡¹
Ġ*
Ġpl
æı
å¦Ĥ
con
çľ
é«ĺ
éĿ¢
éķ
åħ¶
åħ¬
ĠĠĠĠĠĠĠĠĠĠĠ
ther
åº¦
der
ions
æŁ
Ġab
åħ³
æ¬
æľ¬
ç¡
çĹ
Ġwhich
èĩª
ç»ı
Ġcont
Ġdo
ĠJ
åģ
éģ
ĠU
äº§
Ġwor
Ġj
ãģ
ç½
æ¡
ile
ere
ations
ä¸»
ack
ress
Ġall
éĢļ
ï¼ī
ast
åĬĽ
are
åħ¨
æ´
ï¼Ī
ime
ĠIn
de
ang
av
ign
gh
åŃĲ
..
ru
ach
çŁ
ary
éĥ¨
Ġ\(
()
éĢī
å¾Ĺ
èĢĮ
å®¶
å°ı
èĢħ
éĩı
æ¸
ç¤
ice
ia
ong
ance
Ġtr
ç¨ĭ
ata
Ġret
Ġqu
ous
ä¹ĭ
çī©
ĠĠĠĠĠ
å°±
ç³
Ġhas
éĩį
Ġdis
åĨħ
åĪ¶
å¼ı
Ġme
è§£
ä¹Ł
12
éķ¿
ents
ä»ĸ
çĤ¹
æĪĳä»¬
Ġar
ok
åı¯ä»¥
Ġwill
åĬł
Ġper
),
è°
è®¾
æľº
å»
ence
è·
æĪĸ
ace
ä¿Ŀ
ph
çĸ
ath
ä¸Ģä¸ª
Ġyour
Ð¾
å¢
ç¬¬
Ġfun
201
ring
form
ĠTh
so
æĽ
éĹ´
çĽ¸
ire
ep
ĠâĢ
åĿ
Ġimp
ition
Ġtheir
æĸĩ
one
æŃ£
ç±
æĸ°
éľ
ç§į
Ġ|
å¼Ģ
ens
vel
é¢ĺ
ject
é£
get
``
æıĲ
ual
æ¶
å¿ĥ
Ð°
Ġnum
ory
Ġbut
ft
è¡¨
ount
äºĭ
çĶµ
æŀľ
Ġthey
ite
ç®¡
ne
åıĬ
Ġval
æ¡Ī
å½ĵ
eth
}$
>Ċ
Ġreturn
ä½į
wer
Ġout
æľĢ
lo
æľŁ
low
ç¡®
ear
Ġsy
Ġmore
ä½¿
).
ord
æ°´
åħ¥
ç³»
è¶
è®¡
å¹³
æį®
Ġman
éļ
ry
Ġone
å»º
^{
ä¸ī
æĦı
åĬ¡
éĽ
ption
å°Ĩ
ose
Ġother
In
èµĦ
éĶ
ake
erm
å¸¸
æĥħ
iff
Ġ'
ors
ution
ail
æķĻ
Ġso
å¹¶
15
elf
å±ķ
lic
çĿ
cre
Ġfunction
åīį
ç´
æ°ĳ
å½¢
ĠSt
Ġgo
èĬ
ely
å¸Ĥ
æŃ¤
ates
ç©
ater
èī
ĠV
å¥½
ĉĉ
çĦ
ãĢĤĊĊ
ĠK
200
Ðµ
aus
èģ
;ĊĊ
ks
ound
çł
æĹ¥
Ġli
Ġev
Ġnew
éľĢ
Ġte
Ġpart
ç»ĵ
Ġsp
ns
Ġspe
Ġ[
_{
æĺİ
éħ
ces
éĥ½
com
ä»£
æİ¥
row
åĵģ
stem
ode
ys
æģ
11
ype
:ĊĊ
æĻ
Ġup
ä»İ
Ĥ£
çĽ®
Ġalso
\[
æľĪ
Ġwere
Ġx
irst
Ġob
è§Ħ
Ġshould
Ġsc
ree
we
çĻ
åŁº
Ġpre
æ¬¡
put
18
äºĮ
erv
å¤ĸ
ï¼Ľ
ä»¶
Ġdiff
åİŁ
Ð¸
æ¯Ķ
ari
å®ī
Ġpr
ram
Ø§
æ±Ĥ
Ġclass
ll
åĮº
ç¼
ific
çĶ±
ä¿¡
è¯´
Ġcomm
own
St
very
ç¾
åĪ©
è´¨
ä¸¤
æĶ¿
iew
ib
ild
ook
èį
cess
çĦ¶
æłĩ
Ġinto
Ġits
clud
16
å§
çķ
Ġuse
]ĊĊ
lect
å¤©
Ġneed
wo
çĹħ
çŃĶ
åıĺ
åĳĺ
?Ċ
reat
èĦ
åĢ¼
$$
imes
æ´»
Ġ.
è¢
Ġ//
vers
text
åħĥ
æĹł
amp
èĭ
ä½Ĩ
Ġform
ãĢĭ
å¯¼
éĹ®
ient
ãĢĬ
ç»Ħ
Ġwhen
Ġdef
Ġabout
éĢīé¡¹
rib
éģĵ
ize
Ġthere
Ġtime
èĲ
Ġdes
æĽ´
ĠY
ove
Ġbet
Ġthan
ĠIt
Ġget
lement
ç²
pon
--------
çº¿
Ġcol
ublic
ener
èµ·
çĥ
ric
Ð½
}\
çī¹
äºĽ
Ġsol
ĠThis
çŁ¥
æ²»
å¤Ħ
éª
oint
Ġacc
Ġinter
éĩĳ
åĲĳ
Ġro
("
Ġsome
Ġnumber
è¿ĺ
ÂłÂł
ÑĤ
è¿Ľè¡Į
ally
hat
==
13
åįķ
åŀ
Ġfe
Ġset
éĴ
14
Ġsub
ng
ays
rit
ish
ĠĠĠĠĠĠĠĠĠĠĠĠĠĠĠĠĠĠĠĠĠĠĠĠĠĠĠĠĠĠĠĠ
ert
Ġem
Ġadd
æľ¯
ethod
Ġmay
ĠĊ
ĠĠĠĠĠĠĠĠĠĠĠĠĠĠĠ
å·¥ä½ľ
Ġmod
Ġover
}Ċ
Ġrep
æł¹
Ġass
Ġ&
olog
25
åľº
Ġpos
Ġhis
ative
çĿĢ
ex
æĮĩ
Ġwho
Ġfol
Ġthem
ÑĢ
ç»Ł
æ·
ov
##
è¢«
",
Ġpe
Ġi
ç¥
æĿ¡
blem
ax
Ġthese
]Ċ
Ġtwo
ont
Ġany
Ġstud
Ġag
les
Ġno
å¢ŀ
Ġcons
ä¹Ī
rt
ĠCh
ings
Ġexp
Ġhow
ä»»
Ġdiffere
ç±»
Ġfirst
="
ause
å°ĳ
Ġ}Ċ
ck
Ġwork
Ġwould
è°ĥ
è¯ģ
é¦
30
Ġequ
çĽ´
Ġim
ç«ĭ
ä½ł
åħ·
fore
æĮģ
ular
ange
æķĪ
ãĤ
äº¤
Ġam
Ġrel
çģ
æ°Ķ
Ñģ
èĪ
å¼º
Ġprodu
Ġapp
åı¸
æº
åĪĻ
Ġsystem
Ġdata
Ġspec
æ£
ating
ç§ĳ
</
ian
çĬ
æµģ
Ġkn
éľĢè¦ģ
Ġsa
Ġact
çŃĶæ¡Ī
ied
æĶ¶
ç¤¾
ruct
èĢĥ
Ġfollow
ough
âĢĶ
æł·
Ġtra
éĵ
Ġbec
Ġap
åıĸ
è¿Ĳ
ĠâĢľ
ob
Ġused
Ã©
Ġreg
Ġ/
ility
æ®
ible
ool
ock
ink
æĬĢ
Ġbeen
Ġprov
ics
right
iss
oth
ds
ç¤º
->
éĩĮ
Ġmethod
åıĳå±ķ
ps
æ¯ı
Ġì
Ġph
æŀĦ
æĦŁ
Ġeach
Ð¾Ð
ffect
åĲį
ark
Ġconst
åħĪ
Ġind
Ġra
ä»·
ract
Ġsuch
Ġunder
ise
è½¦
æŁ¥
)ĊĊ
Ġyear
Ġvalue
ÙĦ
che
æ»
åĲĦ
ull
Ġonly
ween
åķ
100
17
ä¹ī
ople
èº
ĠRe
æīĭ
its
å®ĥ
åĮ»
estion
Ġtrans
Ġwhat
ues
åŀĭ
val
rough
ased
ick
è·¯
æīĢä»¥
fter
çľĭ
pect
æľį
Ġresult
æ²¡
éĢļè¿ĩ
éĹ®é¢ĺ
Ġthen
å·²
Ġrec
ç®Ĺ
oid
iel
ss
å£
åħ±
åģļ
æĢ»
ced
ä¸ŃåĽ½
è£
_t
æĿĥ
Ġbetween
Ġfind
ç®¡çĲĨ
::
Ġdi
çİĩ
åĸ
éĻ¢
èĻ
Ġhad
åıĹ
èĤ²
als
Ġusing
.s
èĮ
Pro
Ġinclud
åħ¬åı¸
ä½¿çĶ¨
```
è¯¥
åĪ«
ç´ł
Ġrem
ï¼Ł
yp
èº«
Ġrequ
Ġlike
Ġwhere
é£İ
å¦Ĥæŀľ
åĻ
ä¼ł
åİ»
å¸Ī
ç¦
50
è¿Ļä¸ª
ä¼ģ
ities
åįģ
ample
____
åĮħ
å¾Ī
Ġco
Ġpar
plic
åı¯èĥ½
åı£
inal
çĪ
æķ´
è®¤
Ġdet
ons
èħ
åĩĨ
ute
æĶ¹
resent
éĤ£
Ġinv
ict
ç§¯
çº§
ä¹¦
Ġatt
Ġcor
Qu
æĸ½
åıį
çłĶ
ç»Ļ
å®¹
èĬĤ
Ġpeople
Ġour
ï¼ļĊ
24
cri
err
Ġmost
Th
ator
ef
ĠâĢ¢
urre
æł¼
æģ¯
ning
åĨ³
cul
ãĥ
æ³¨
Ġpublic
ctions
Ġoff
ç¾İ
cy
velop
Ġinst
ox
è½¬
Ġla
åŃĺ
è¾ĥ
ĠIf
ures
åĻ¨
eng
è¡Ģ
Ġ:
ä¹ł
sq
åĨµ
èī²
åıª
ments
tt
ood
Ġ\)
tern
ec
nswer
000
æĶ¾
ower
Ġvari
ray
Ġke
æ¨
ä¼ģä¸ļ
éĢł
éĽĨ
å½±
è±
è§Ĵ
Ġinf
è¿°
Ġel
round
hen
ew
å®Į
Ġpol
pr
æĥ³
çĸĹ
åį³
çİ¯
é©
Ġinte
ç½®
ä¸ĵ
Ġz
ger
ational
éĹ¨
åĽĽ
èĩ³
åĪĹ
Ġsm
Ġ$\
)$
çĬ¶
å¤ĩ
Ġgiv
sqrt
å¤į
Ġhel
è¾¾
io
Ġac
Ġthrough
ism
ix
riv
ify
Ġgener
åķĨ
æ£Ģ
Ġdifferent
Ġbu
Ġmany
æŃ¥
ä¾Ľ
gin
æł¹æį®
Ġcall
"Ċ
Ġ#
ful
par
åĪĽ
ĠUn
uring
è¯Ĩ
ä¾ĭ
ç½ĳ
è®º
æĬ¥
Ġself
å·±
times
Answer
name
æŀĲ
ident
Ġbl
read
Ġdist
åĽłæŃ¤
\)
vent
éĺ²
æºĲ
nce
't
left
é£Ł
arch
æ²¡æľī
åĽŀ
Ġsign
ten
Ġsur
Ġtest
Ġfact
ç¤¾ä¼ļ
åĽłä¸º
Ġcre
Ġ}ĊĊ
èį¯
Ġche
import
mer
the
ork
ious
ĠWe
Ġimport
æĶ¯
æĬ¤
Ġdoes
é»
Ġprocess
è´¹
èĩªå·±
pro
å¼ķ
Ġdevelop
Ġmat
Ġext
åĬŁ
atic
(x
Ġchar
çħ
let
Ġterm
æĸĻ
ages
Ð»
Ġend
Ġmy
éĻ¤
be
Ġpoint
è®°
ç±³
åĳĬ
alth
éĿŀ
oy
ines
ĠPro
è¯ķ
åĽ¾
def
æĥħåĨµ
urrent
uch
Ġlist
è¯Ń
ER
40
æ¸ħ
åŃĹ
æŁĲ
è§Ĥ
uc
æĹ¶éĹ´
å®īåħ¨
æĢģ
ä¸Ķ
Ġent
202
60
$\
Ġproblem
åŃ¦çĶŁ
formation
æ¶Ī
cept
****
pert
hed
ĠĠĠĠĠĠĠĠĠ
ä¸»è¦ģ
ä½İ
Ġref
èĩ´
Ġobject
éªĮ
¥¿
åİĭ
è¾¹
ature
èĢģ
ĠØ
ç©¶
è®®
ever
æ¨¡
ression
Ġmin
æķħ
li
Ġafter
Ġmake
ç²¾
ade
ren
ting
æµĭ
à¹
åıĤ
Ġjust
Ġsupp
Ġpat
erg
æµİ
è¥¿
to
å¿ħ
æĺĵ
))
ases
è®©
æİ¨
Ġknow
32
ins
Ġcould
Ġbecause
æĸŃ
ars
åĵį
æİ§
ically
Ġsim
èģĶ
Ġfl
Ġincre
$ï¼Į
ä¸ĩ
Ġpers
**ĊĊ
Ġboth
Ġcell
_s
gan
å²
roup
é¦ĸ
ined
æĢĿ
éĻĲ
alcul
æĪ·
Ġher
Ġlong
èĲ¥
èİ
Ġsame
å¤´
è§ģ
åħ»
ask
ä¸ľ
olution
æĬĢæľ¯
Ġhigh
è´£
cond
{\
ç»Ĩ
æµ·
ield
ince
åı·
ody
Ġ@
æĬĬ
ĠCom
æł¡
å¢ĥ
ized
ĠHe
éĻħ
å¸¦
app
åĶ
ç©º
Ġprog
æ®µ
ices
irect
æĬķ
IN
Ġaut
åĦ
ä¸ŃçļĦ
éĢŁ
ily
Ġdec
ext
dot
Ġwell
æŃ£ç¡®
Ġeffect
Ġdep
éĻ©
Ġhelp
Ġstate
?ĊĊ
ï¼İ
æĸ¹æ³ķ
22
ci
éĢĤ
ants
ä½ķ
è¿ĳ
old
Ġu
ç»ıæµİ
è¯·
ÙĬ
è±¡
.,
wn
Ġfollowing
çĻ½
oci
Ġlar
ON
ann
ï¼ļĊĊ
åĳ¨
èĮĥ
ale
Ġins
ited
-s
Ġback
ç³»ç»Ł
Ġmain
ma
view
åĩı
br
é¢Ĩ
els
',
raph
æľįåĬ¡
Ex
co
ç¦»
Ġsee
ĠÃ
();Ċ
å¾ĭ
æķĻèĤ²
other
ç¥ŀ
åĽ½å®¶
æľª
akes
Ġconf
Ġstart
Ġyears
Re
ife
åĦ¿
Ġname
ç»´
çĥŃ
çłĶç©¶
è£ħ
199
cent
Ġcar
ology
åĨį
âĳ
Ġ)
Ġpass
Ġloc
Ġser
Ġtype
à¤
ually
Ġmem
æĤ£
Ġchild
Ġgiven
æķ°æį®
ä¿¡æģ¯
Ġdiv
Ùħ
ç§°
è§Ĩ
åħī
Ġway
ä¸ĸ
ides
á»
é¢Ħ
ug
Ġmed
rol
Ġcount
Ġ>
éħį
Ġfound
æīį
tr
Ñĥ
self
ah
å±ŀ
ä¼ĺ
Ġright
å½±åĵį
å°±æĺ¯
åħļ
Ġë
Ġ**
èı
td
Ġbel
å±±
ìĿ
Ġappro
äººæ°ĳ
any
bers
ists
ç»Ń
.get
Ġrespon
ural
_d
çľŁ
Ġread
æ·±
aking
èģĮ
dd
ĠHow
æĮī
This
Ġet
chn
ST
Ġhand
hes
ĠFor
Ġmon
Ġstr
ave
28
AT
Ġ\]ĊĊ
Ġshow
23
Ġans
Ġeven
äºĶ
cdot
Ðº
Ġcent
To
åĬ©
è¶³
Ġpartic
ier
line
ĠAn
ĠWhat
åŁİ
åįĹ
}}
é¥
Ġvery
ness
Ġest
è´Ł
èĤ¡
åĬŀ
ward
æĺ¾
éĩĩ
è®¡ç®Ĺ
Ġed
æĪĺ
âĪ
æ¢
æİĴ
ets
Ġinformation
led
Ġcase
çº¦
Ġshe
Ġmult
åįĩ
æŀģ
çĲĥ
Ø§ÙĦ
åĳ½
ole
æĤ
Ġlevel
Ġevery
Ġ,
Ġsmall
çķĮ
ĠAl
27
æīĵ
Ġexample
åĨľ
çª
Ġbeing
ĠTo
ential
cer
åŃ©
è¦ģæ±Ĥ
port
Ġmet
sible
å¹²
ource
å§ĭ
åĩ½
å¸ĥ
Ġwater
Con
}ĊĊ
-b
Ġav
éĩįè¦ģ
ä»Ģ
ĠâĢĵ
Ġwhile
ton
æĪ¿
gs
ÙĪ
ization
çĽĳ
çľģ
åĲĮæĹ¶
ified
æ²»çĸĹ
pos
Question
ron
yn
air
å¯¹äºİ
åĪĨæŀĲ
que
vert
rest
åı°
æĭ¬
ï¼ŁĊ
itive
å¸Ĥåľº
Ġproduct
Ġmuch
ta
æ¼
\[Ċ
acter
å¹¿
Ġart
ash
å±Ģ
Ġear
ä»Ģä¹Ī
cial
ote
çħ§
----------------
ider
ved
éŁ
ä¸įåĲĮ
Ġstruct
21
ym
ä¾Ŀ
åĩ½æķ°
çĹĩ
pi
ç¢
_m
éĶĻ
Ġerr
",Ċ
å±Ĥ
æ´»åĬ¨
âĢ¦
çļĦæĺ¯
åıĪ
åĿĩ
å¤±
ç»ĩ
Ġcontain
):Ċ
Ġcurrent
æ¬¾
ret
hip
è§Ħå®ļ
ID
80
math
è¿ĩç¨ĭ
åŁŁ
åĮĹ
ument
ality
ision
It
ÙĨ
çĭ
å¿«
ĠSe
add
Ġhum
Ġline
ä¸įæĺ¯
ç¬¬ä¸Ģ
cription
lex
è¿ŀ
Ġ==
çĽĬ
itt
of
ength
åŃ¦ä¹ł
(-
land
Ġsolution
è¯¾
Ġperson
/Ċ
Ġlead
RE
ĠĠĠĠĠĠĠĠĠĠĠĠĠĠĠĠĠĠĠ
Ġprogram
);ĊĊ
Ġthose
div
Ġcommon
Ġprote
çĶŁæ´»
Ġtem
ĠEx
åħ¶ä»ĸ
ĠCon
arm
å¥³
ser
éļ¾
rite
Ġoper
Ġlook
Ġfile
éĥ¨åĪĨ
ability
irc
è¿ĻäºĽ
Ġduring
çŃĸ
min
å»ºè®¾
æĪĸèĢħ
å¾ĹåĪ°
æł¸
ĠYou
åĽ´
Ġfil
éĻį
====
Ġexper
æĸ¹å¼ı
ement
è¨
26
Ch
ĠAs
Ġcond
è¯Ŀ
ĊĊĊ
ank
stand
è¯Ħ
åĪĴ
here
èŀ
ency
ral
æĿĳ
åİĨ
essage
ĠThere
Ġhealth
æıĲä¾Ľ
æĳ
ä¸Ģç§į
åħĭ
åĪĩ
Ġsecond
è¯¯
Ġlet
çīĩ
èĳ
åŃ©åŃĲ
pen
åĲ«
æĿĲ
çı
çĶŁäº§
æ»¡
('
ä»ĸä»¬
å¼ł
set
æ¸©
ffic
ired
Ġbre
èĬ±
++
äººåĳĺ
\]ĊĊ
Ġbefore
Ġve
Ġgood
Ġtake
å¤Ł
_f
Ġserv
âĢĵ
ather
åĩºçİ°
åģ¥
ç»Ħç»ĩ
ik
iron
åĨĻ
ä¾¿
ters
Ġwant
å¤ĦçĲĨ
Ġdown
Ġcalcul
ç®Ģ
Ġanswer
å§Ķ
Ġthree
éļı
åĮħæĭ¬
(\
æħ
."
Ġagain
ivers
æĵ
æĴ
).Ċ
Ġanal
çĶ±äºİ
åıĳçĶŁ
Ġtot
ner
Ġstep
èİ·
gg
èĥ½åĬĽ
å¡
aw
Ġrese
Ġstring
ule
Ġtyp
ĠWh
29
str
ves
è¶ħ
ety
rivate
å·®
ateg
Ð²
Ġnon
åĩł
$Ċ
ä¸¥
Ġallow
Ġocc
åħ³ç³»
You
å®¢
åħį
Ġdid
36
æĸ¹ç¨ĭ
Name
Ø±
ĠX
itions
ä¸¤ä¸ª
Ġown
åºı
ä¸įèĥ½
py
Ġnow
Ġsaid
35
è¶Ĭ
æī¿
ving
rain
åįİ
è¯»
ared
ä½ľçĶ¨
Ġmust
Ġinput
ivity
çİ¯å¢ĥ
Â·
Ġsk
Ġworld
_c
amet
Ġuser
me
ä»¥åıĬ
Ġdirect
tain
atch
Ġlear
log
Ġpower
å®ŀçİ°
å®¡
String
ulation
ided
Ġstudy
æĸ¹éĿ¢
ä¿®
rect
Ġelse
è¨Ģ
åįķä½į
ven
lear
_p
Ġgen
Ġlo
meric
Ġperform
Ġless
64
Id
Ġorder
Ġpop
ĠZ
arent
face
uss
aj
æĭ©
ts
90
Ġident
ively
åĲ¦
æŃ¢
Ġmade
Ġtechn
çĽ¸åħ³
Ġexpl
au
Ġmodel
çº¢
æĤ£èĢħ
ç¨İ
Ġplay
ystem
Com
45
ĠØ§ÙĦ
ames
äº§åĵģ
day
ctor
Ã¡
We
ane
ĠThey
æ¹
ccess
Ġelement
äººçļĦ
Ġ!
é¡¹çĽ®
åı²
Ġdisc
Ġelect
Ġ*/Ċ
ross
åħħ
ç¬¬äºĮ
åĥ
...
Ġimportant
Ġexpression
ĠDe
-t
EN
Ġdon
Ġrepresent
Ġlife
Ġcalled
Ġtotal
],
Ġlog
ava
Ġsupport
åº·
alse
åįı
Ġvalues
ience
icle
åĽ¢
è¾ĵ
éĢīæĭ©
Ġmeas
æ²¹
æ¶²
ä»ħ
Ġdeterm
Ġhim
Ġimplement
Ġfam
ital
åºľ
ior
æĸĩåĮĸ
ery
ergy
agn
33
vern
ples
Ġgu
Ġvoid
Ä±
.S
ÂłÂłÂłÂł
plication
chool
play
æ¸¸
åĭ
mat
ĠAr
éĺŁ
Ġder
åĨħå®¹
.c
å®Ŀ
ives
ault
æļ
æıĲé«ĺ
ä¸Ģå®ļ
éĶĢ
_st
åľŁ
omet
Ñı
requ
sp
ients
è®¸
crib
é¡»
oss
æĿ¡ä»¶
åĨĽ
è´¢
urs
å¾·
List
Ġbody
Ġcontin
Ġwithout
Ġcommun
Ġgrow
Ġorgan
åħ·æľī
Ġchang
not
ç§»
èĪ¬
ivid
Ġthink
Ġdem
ä»½
AR
ä»Ĭ
ĠAmeric
stit
åŁ¹
itle
æ¿
å®³
Ġredu
ium
æŁĵ
Ġgroup
lood
.h
NA
What
ense
åºķ
Ġ\]Ċ
viron
Ġequation
Ġtreat
èŀį
ond
äºĴ
Ð¼
çģ«
Ġrun
ception
way
Ġkey
Ġremain
è¡¨ç¤º
Ġday
ä½ľä¸º
Ġplace
Ġtext
Ġris
Ġfin
çĪ±
å¾Ģ
Ġdev
und
Problem
SE
ination
å¤ª
ration
_n
lete
æį¢
ional
Ġes
åĬ¿
ately
=\
é¢Ŀ
æİ§åĪ¶
Ġdel
70
èĨ
åħ¶ä¸Ń
Ġinde
æ¦
ĠĠĠĠĠĠ
èµ°
.m
æįŁ
Ġmark
LE
åĢĻ
iod
ç«ł
Ġgra
ends
Ð´
çļĦäºº
Ġbeh
There
æī¾
Ġbased
ason
.p
imal
Ġwithin
atus
åĲ¸
Ġtrue
ä¸ºäºĨ
lu
ç¾¤
Ġchange
æ¿Ģ
å¯¼èĩ´
_C
è¿Ļæł·
çĽ´æİ¥
å¼Ĥ
OR
åŃĺåľ¨
åĬŁèĥ½
Ġcreate
Ġprivate
nal
ä¼¤
è¡¥
åĲĥ
æīĢæľī
hor
ocial
for
æĿ¿
æ¯į
Ġcap
Ġstand
åĥı
Ġpresent
è¡Įä¸º
æ¤
çļĦä¸Ģ
Ġbo
roll
angu
Ġoften
Ġpossible
Ġspecific
æłĩåĩĨ
.g
æī§
az
$$Ċ
Ġ_
åįĬ
åĪ¤
itial
Ġreal
åĪĿ
ä¼Ĺ
Ġorig
ouse
Ġunderstand
Ġsize
Ġquestion
Ġpropert
ms
åĸĦ
oh
work
ustom
çĻ¾
è®¾è®¡
å¯Ĩ
éĤ£ä¹Ī
Ġdesign
Ġcost
íķ
äºī
ished
æĶ¿åºľ
Ġmight
èĲ½
ĠAnd
this
ĠDes
date
ç¬¦
class
é¦ĸåħĪ
Ġsum
Ġhist
Solution
é¾
Ġvol
çĤİ
è¿Ļç§į
éĺ³
Ġprint
)^
æ¯Ĵ
Ġtask
Ġcontrol
Ġsym
Cl
çĮ
ä¹Ĳ
ploy
Ġtop
....
é©¬
fo
ĠInd
çĶ²
Ġwrit
Ġsimp
Ø§Ø
Ġincluding
ÃĹ
}^{
ä¸ĬçļĦ
çİĭ
ertain
ç»Ī
ording
éħ¸
ç»¼
Ġhere
Ġview
éĿ©
ä½ı
uro
-m
æĬķèµĦ
ividual
ĠBut
Ġinterest
Ġcells
iness
ĠLe
åŁºæľ¬
å¾ģ
comm
Ġopt
.d
ran
Ġtri
yle
å¢ŀåĬł
ãĢĤâĢĿ
é»Ħ
Ġmean
Ġthough
Type
duct
Ġaround
ä¸ĢèĪ¬
èĭ¥
lish
æ³¨æĦı
gen
æĸ¯
ç«¯
198
ĠNew
ysis
Ġlast
Ġgre
Ġbook
son
Res
conom
Ġcode
answer
èĥ½å¤Ł
éŁ³
Ġpot
ems
ç»ĵæŀľ
Ġvis
æ£ĢæŁ¥
åıĮ
Ġant
att
Ġprof
reg
omen
åİ¿
Ġterms
AL
Ġdise
ek
Ġlim
Ġnull
aterial
çĹĽ
å½ķ
-c
âĢĿï¼Į
Ġ</
åŁºç¡
Ġeas
].
çļ®
rr
Ġcour
_l
ĠSh
åŁºç¡Ģ
ï¼ģ
ç»ĵæŀĦ
çŁ³
Ġstill
),Ċ
ä¹ĭéĹ´
):
Ġfood
éĶĻè¯¯
Ġtry
ĠRes
åĳ³
arget
_b
å®ŀéĻħ
ĠĠĠĠĠĠĠĠĠĠĠĠĠĠĠĠĠĠĠĠĠĠĠĠĠĠĠĠĠĠĠĠĠĠĠĠĠĠĠĠĠĠĠĠĠĠĠĠĠĠĠĠĠĠĠĠĠĠĠĠĠĠĠĠ
Ġpres
Ġsl
åĬ³
å¾®
Ġhuman
()Ċ
ç¿
ream
vironment
éļľ
ĠQ
è´¨éĩı
å¿µ
75
ĠCl
Ġenergy
åľĨ
ĠIs
cript
è§ī
```Ċ
oun
(Ċ
Ġpo
åł
Ġinc
Ġgreat
å·²ç»ı
Ġ\[
Ġpost
Ġinvol
è§£åĨ³
Ã³
åºĶçĶ¨
-f
If
æĬĹ
bs
ats
Ġmus
ume
åĽº
Ġadv
Ġiss
èī¯
ern
Ġbas
å¿ħé¡»
Ġanother
-d
æĻ¯
Ġ=>
Ġlarge
Ġarea
ĠSo
Ġrest
AC
$x
ware
Ġide
ç«Ļ
Ġresults
Ġnumbers
å¯Ł
çŁ¥è¯Ĩ
éĵ¶
èĭ±
å·ŀ
æĭħ
æĵį
è¯ī
Ġmultip
Ġcaus
til
ä¸ĢäºĽ
Ġlab
Ġ×
Ġstudents
è¿Ļæĺ¯
ä»¥ä¸ĭ
Ġsay
Ġindividual
ribut
View
Cont
è´Ń
ĠHowever
Ġknown
ries
lection
fig
48
man
less
Ñĭ
æĲ
Ġchildren
(t
action
å£°
://
æ³ķå¾ĭ
ml
Ġleft
å®¤
å·¥ç¨ĭ
nect
Ġcare
æ±Ł
ots
æľĽ
Ġsing
iversity
ining
éĤ
Ġdig
Ġarg
ilar
Ġreport
è¯į
For
AN
ëĭ
è®¾å¤ĩ
new
ien
éĿĴ
ä¿ĿæĬ¤
ĠString
Ġhead
Ġbest
Ġmeans
lease
":
lob
éĥ¨éĹ¨
word
$$ĊĊ
Ġlight
åĿļ
ources
rix
ique
alk
Ġcharacter
ways
åĵª
ables
Ġproject
áº
Data
Ġbuild
æĹ©
å½¢æĪĲ
æľºæŀĦ
clude
Ġimm
Ġsignific
ÃŃ
itional
ref
çİ°åľ¨
è¿ľ
ĠPh
ÑĮ
rop
");Ċ
over
define
Ġopen
è½»
Ġcomb
IT
ä¸ĸçķĮ
Ġpath
Ġamount
sh
Se
Ã¼
.com
raw
(f
ury
Ġphys
ler
.t
ãĢĢ
So
ead
Ġhig
_P
çıŃ
Ġsit
rid
34
å£«
Ġfield
Ġgovern
Ġlow
Ġê
31
di
å¥¹
Ġ%
å¿Ĺ
ormal
å¨
Ġnext
éĥ½æĺ¯
ç¼ĸ
etic
åħ³äºİ
çĶ¨äºİ
user
ina
Ġblood
ĠÐ¿
sc
çľ¼
Ġprob
Ġmar
ention
çłģ
osed
Ġmove
ä½Ĩæĺ¯
å¼Ģå§ĭ
åı¦
åħ·ä½ĵ
çķ¥
Ġprovide
37
åĤ
å¤§çļĦ
ĠTr
Ġindic
print
Ġsince
Ġdat
ä¸´
********
38
Ġplan
Ġperiod
ç§ĳåŃ¦
Ġmanag
oms
Ġneg
.f
ĠĠĠĠĠĠĠĠĠĠĠĠĠ
ä¸ĵä¸ļ
åģĩ
åĶ®
å°Ķ
éĢļå¸¸
ĠEng
å¥½çļĦ
æľīæķĪ
Ġpur
åħŃ
æ¦Ĥ
ape
åįĥ
è´§
åıĳçİ°
Ġinclude
ission
Ġcorrect
èĥŀ
æĻ®
Ġnet
äº§çĶŁ
39
è´£ä»»
erence
æŀĹ
æĹı
ĠWhen
Ġmen
Ġresearch
Val
æķĻåŃ¦
05
åģ¥åº·
apt
Ġbus
æĪĳä»¬åı¯ä»¥
åı¥
ending
Ġabove
ived
ç¡®ä¿Ŀ
indow
Ġerror
è®²
åİŁåĽł
åºĶè¯¥
yd
ä»ĺ
ç¨³
Ġbi
Ġlaw
ĉĉĉĉ
yl
æĻº
è®Ń
`,
å®ŀæĸ½
çĭ¬
SS
ailable
vious
anguage
{Ċ
éĿ¢ç§¯
åĽŃ
èĩªå·±çļĦ
ä¸»ä¹ī
ological
Ġcheck
èīº
èĽ
à¦
ding
DE
Ġimpro
Option
cing
Ġappe
ification
$ĊĊ
version
åı¤
æ¥
Ġcho
Ġaccess
ÑģÑĤ
ä¹Łæĺ¯
ances
çĸ¾
box
æĺ¯åĲ¦
æĭī
unction
idth
odel
å°½
Ġpract
Ġassoci
Ġque
é£İéĻ©
å±ħ
ĠThese
æī¹
aut
ä¸Ńå¿ĥ
ott
çĨ
99
åĿĹ
#define
Ġschool
å¯Į
cos
âĢĶâĢĶ
rm
ental
**Ċ
####
Ġmil
dfrac
aces
},
ither
Ġrate
Ġ<<
ĠSp
ours
ĠÎ
Ġden
Ġold
æĺŁ
ories
ä»ĭ
åħ´
Ġ|Ċ
ered
icro
æ¯Ķè¾ĥ
orn
Ġtakes
ä¿ĥ
ches
Ġrequire
mp
-\
Ġrange
cont
Ġable
Ġdevelopment
Ġhapp
Ġtimes
é¸
æĹ¶åĢĻ
(s
ä¸ªäºº
.ĊĊĊ
ering
Ġinvest
åĿĲ
æĿĲæĸĻ
çªģ
ç¼º
Ġben
Ġrece
ç»ľ
Ġsuccess
ç»Ĩèĥŀ
inter
Ġsocial
è®¤ä¸º
ttp
éģ¿
èĮĥåĽ´
èµĦæºĲ
é¼
Ġbetter
Ġparticular
Ġmeasure
Ġdescrib
Now
load
lam
Ġsom
Ġ\[Ċ
Ġconsider
const
åĪ¶åº¦
Ġinteg
ĠĊĊ
ĠPl
AB
éĺ¶
Ã¤
\\
Â°
Ġmov
(n
ww
Ġmaterial
ï¼ĽĊ
èĻĳ
è·Ŀ
Ġfinal
Ġcomput
åŃ¦æł¡
ãģ®
><
çķĻ
Ġspace
Ġtoo
å¤ļå°ĳ
ush
IC
.âĢĿ
ä½Ļ
ä¸¾
Ġside
Ġdue
Ġparamet
af
Ġmax
Ġsever
ãĢĲ
ird
ãĢĳ
Ġsequ
,"
Ġrisk
æĢ¥
Ġexist
Ġq
ä¹°
Ġfour
ey
çĸ«
Ġpress
åĪ©çĶ¨
ga
urther
iter
);
Øª
åºĶå½ĵ
ĠLet
å®ļçļĦ
ĠĠĠĠĠĠĠĠĠĠĠĠĠĠĠĠĠĠĠĠĠĠĠ
Ġ(-
çĶ³
ently
Ġabs
ids
bl
Ġsignificant
Ġwar
How
respon
imate
ç»§
Ġver
æĵįä½ľ
Ġcompon
Ġexpect
ĠÐ²
)(
æľīåħ³
Ġfew
por
500
Ġenvironment
å¾Ħ
æĪĲä¸º
Ġbelie
å°Ħ
æ²³
rem
æ¼Ķ
ä»¥ä¸Ĭ
Ġkeep
çŁŃ
Ġmonth
_S
-p
ajor
å¸®
çº³
çĶ»
Ġeng
Ġagainst
back
éĴĪ
åıĺåĮĸ
PI
begin
Ġsw
äº²
Ġevent
inc
As
ocument
Ġcreat
Ġopp
åīĤ
æĶ¿çŃĸ
Ġ""
Ġrespect
æŃ»
ething
thon
å¦Ĥä½ķ
å·¦
Ġgl
ĠEn
Ġexam
sin
å®ĮæĪĲ
An
äº¬
å¤§åŃ¦
}}{
åį«
44
è¿Ļä¸Ģ
idence
çĦ¶åĲİ
è¿ĲåĬ¨
yt
][
ç¬¬ä¸ī
ĠOn
çł´
ocus
ai
æĪĳåĽ½
Ġcr
CT
Ñĸ
çĽ®æłĩ
ait
Ġvar
umber
Ġstore
Ġcertain
åįł
ç¥¨
à®
order
itor
ç£
rag
angle
Ùĩ
value
sub
ung
ç½ª
Ġeconom
197
.l
_M
è½½
55
serv
åı³
Ġgeneral
éĢģ
Ġpred
Ġland
çĺ
include
Ġlocal
outh
ç³ĸ
çĵ
Ġaccount
Ġenc
Ġlik
æ°´å¹³
Ġresponse
Ġcult
ï¼īï¼Į
ene
Al
aps
Ġdisease
ogn
à¸²
Ġinitial
ä¾§
ection
ĠSystem
Ġbreak
Ġavailable
Ġsimpl
Ñĩ
bject
Ġsugg
Ġâ
Ġthings
Ġprim
Ġpa
ĠÂł
rodu
ended
RO
fer
ĠCol
Ġimage
Ġhome
).ĊĊ
äº§ä¸ļ
imum
èĦĳ
idd
Ġmill
Ġpotential
Ġcustom
pha
Ġturn
ç»Ŀ
data
cle
Ar
ograph
\]Ċ
Tr
Ġnat
Ġmessage
Ġbehav
Ġsingle
ĠâĪ
éª¨
ä¸ĢæŃ¥
åıĭ
Ø©
Ġseveral
ised
ably
$,
ä»¤
ators
Ġarray
Ġcirc
Ġwhether
Col
ayer
åĪĽæĸ°
åĲ¬
01
Ġcause
rel
Ġprom
ready
Ġchanges
ç²¾ç¥ŀ
Ġpain
ĠÂ
Ġparent
ards
çļĦåĢ¼
æĸ¹æ¡Ī
place
Ġlength
éĵģ
$ãĢĤĊ
ä»·åĢ¼
çºª
Ġmethods
éħĴ
ero
return
hers
Ġpositive
verage
çĩ
omin
by
Ġfree
áĥ
è¡Įä¸ļ
oph
Ġaffect
Ġsimilar
Ġoutput
ĠUniversity
ĠBe
Ġair
Ġleast
åİĨåı²
opy
äº¿
Ġtemper
ç´§
ç½ĳç»ľ
oot
Ġput
ÑĢÐ°
verse
osp
**:
ember
å½¢å¼ı
å©
èıĮ
go
Ġsomething
string
ĠDescription
use
public
Ġcomplex
æıı
ails
Ġsuggest
rror
UL
Ġmajor
Ġid
une
65
Ġreturns
éĨ
ouble
Ġalways
èĩªçĦ¶
Ø¯
By
")Ċ
åį±
param
andom
bol
AS
Ġstructure
[i
Ġleg
Ġnecess
Ġvir
Ġgr
è¯Ĭ
rad
ä¹ĺ
åĩ»
ä¹¡
åħ«
Ġfore
Ġstates
çīĪ
align
ittle
å®ĺ
(self
.set
å»ºç«ĭ
Ġtypes
ä¿ĿæĮģ
ĠAd
Ġapplication
è¡ĮæĶ¿
ula
æİª
erc
Ġincrease
Ġsent
ĠAll
Ġens
Ġposition
Ġshort
èĻ½
uff
Ġsal
Ġmot
aster
_id
ï¼Į$
åĪĨåĪ«
Ġaddress
fficient
Ġpay
Ġrelations
åĽ½éĻħ
å±ŀäºİ
Ġ/*
nces
èĴ
é¢ĳ
å¾Īå¤ļ
åģľ
æ½
Ġ\\
é²
49
upp
Ġpoints
æĿ¥çļĦ
åĲĪåĲĮ
åĢº
ervice
```ĊĊ
Ġrequest
cal
Ġflow
lev
Ġstd
ift
rack
æĤ¨
Ġtreatment
Ġclear
ĠâĢĺ
Ġbase
çĸ¾çĹħ
éĶ®
çŁ¥éģĵ
anag
Ġpatients
åºŃ
oney
Ġdays
ç»ĵåĲĪ
lished
ÐµÐ½
.j
Ġgovernment
util
ä»£è¡¨
åŁİå¸Ĥ
igure
Ġfeel
é¥®
Ġbecome
ĠComm
AD
åį´
orth
roups
istic
Ġemploy
å²ģ
æĿİ
Wh
uration
Ġhard
.e
æ³¢
æī§è¡Į
Ġ&&
ister
å¾ħ
atures
iction
">
è½´
æķĻå¸Ī
ibility
Ġsqu
æīĢè¿°
ET
èĢĥèĻĳ
è¿ĩç¨ĭä¸Ń
Ġreview
ling
Ġlevels
éĢłæĪĲ
åĮ»éĻ¢
èŃ
Ġconditions
asing
åĩıå°ĳ
Ġfalse
ze
rie
Ġlanguage
#include
äºļ
ä¹Ļ
èĤī
éķĩ
ones
æłĳ
å¼ķèµ·
Ġrequired
ĠÑģ
æĮīçħ§
uf
Im
Ġactiv
66
Ġ\(\
éľĢæ±Ĥ
________
Ġalready
Ġ--
æ°§
stitute
Ġage
à¸²à¸
åį¡
Ġbegin
lobal
ä»·æł¼
ä¸ļåĬ¡
gether
Ġworking
Ġdeg
Ġtogether
key
rist
pecial
raction
éĩĬ
Ġtre
IS
Ġfamily
æĽ²
Ġstatic
Ġbro
rict
Ġge
Ġcur
array
Ġport
Ġselect
å®ĥä»¬
300
äºĪ
Ġmaking
ï¼ļâĢľ
Ġbusiness
çŃĶæ¡Īæĺ¯
Ġcrit
Ġ!=
arrow
_T
åĬ³åĬ¨
ĠCan
(m
`:
estions
Ġhigher
)\
Ġvarious
çĹĩçĬ¶
Ġproblems
bo
De
Ġuses
AM
arc
edi
æıĲåĩº
Ġgoing
eta
åľ°åĮº
Ġdetermine
ION
å°¿
ribution
ç»¼åĲĪ
ules
))Ċ
78
Ġtarget
åĬłå¼º
èĽĭ
Ġeduc
ĠUS
è¡¨çİ°
Ġamong
Ġanalysis
è¿ĺæĺ¯
çĶ¨æĪ·
));Ċ
Ġwhy
wh
Ġcontent
".
ĠOr
é¦Ļ
ä¸įæĸŃ
Ġcome
æĶ¯æĮģ
Ġsuper
Ġuntil
ç¾İåĽ½
Ġgive
_F
Ġmass
Ġlearn
å¢ŀéķ¿
åºĬ
Ùģ
ĠAt
ty
ç»ĥ
Ġoriginal
ĠĠĠĠĊ
å¼Ģå±ķ
æĺ¥
ä¸Ģæ¬¡
è¿Ŀ
Ġsystems
Ġreason
ands
though
ession
ĠAmerican
ĠâĢĶ
ç¯
Ġrecord
æħ¢
åĪ°äºĨ
Ġur
æĢ§çļĦ
åºĵ
Ġprovided
å°ıæĹ¶
Ġlater
ians
å¹³æĸ¹
ç§¯æŀģ
ï¼īĊ
éĵ¶è¡Į
{-
ç¡®å®ļ
ç´¢
abase
Here
Ġcontext
Ġwomen
ä¸ĭåĪĹ
æĢİ
(c
Ġwrite
itud
196
ication
osis
èĥĮ
Ġask
ences
éĿŀå¸¸
åĽłç´ł
ä¼¼
çĿ£
comes
Text
Ġess
Ġang
éĩĩçĶ¨
thing
ä½ĵçļĦ
Ġfocus
è®¡åĪĴ
Ġobserv
Ġfunctions
Ġfactor
Ġeither
chan
iving
xy
ĠCont
Ġearly
èµĽ
Ġfactors
Ġpercent
Ġweight
Ġsens
Ġ?
Ġdifference
========
Ġer
uation
pend
Ð·
Ġcases
Ġothers
Ġbenef
èĨľ
Ġneeds
Ġlittle
ç¬¦åĲĪ
Ġreally
æ¤į
çŃĳ
Ġlower
ä¸ĥ
èŃ¦
å»ºè®®
Ġsource
Ð¾Ð²
åĪĳ
Ġsec
çĶ·
're
ĠÐ½
ension
En
äºĨè§£
æİ¢
åį°
çīĮ
çĬ¶æĢģ
å¼Ģåıĳ
ges
But
çĽ®åīį
éĢĲ
ç¦ı
alf
urope
ills
æŃ£å¸¸
Ġmultiple
è´Łè´£
è¿Ľä¸ĢæŃ¥
æĢĿæĥ³
Ġauthor
ĠNo
Ã§
èıľ
ä¸įä¼ļ
];Ċ
å®ļä¹ī
Ġhistory
47
äºĳ
Ġsolve
Ġcolor
æīĺ
utes
_in
ĠTe
ĠUnited
(p
abel
Ġfull
Ġteam
umn
ribute
ison
Ġnear
mm
usion
orld
Ã¶
42
æī©
aim
æķ°çļĦ
Ġrole
}(
Ġnegative
Ñħ
!Ċ
éº
uk
Ġprevent
icult
Ġtable
Ġcompany
äº«
Ġcy
,âĢĿ
-l
uture
æķ£
aken
åıĬæĹ¶
è¡¨è¾¾
èį¯çī©
Ġspecial
æķ°åŃĹ
æĿĤ
Ġassociated
çĲĨè®º
æıĲåįĩ
da
æİªæĸ½
éĽ¶
åŃ£
46
ĀĀ
120
è§¦
Ġfrequ
èĹ
Ġpage
95
empt
.A
ä¸īè§Ĵ
atter
éĢĢ
Ġmarket
Ġcalculate
å½¢çļĦ
Ãł
enc
é»ĳ
Ġred
åĲĪä½ľ
bb
Ġcountry
Ġspecies
Ġtool
åĢį
cm
ç»ıèĲ¥
åī¯
çī¹åĪ«
åıįåºĶ
èĤ¿
Ġsimple
Ġdiscuss
è§£æŀĲ
ìĹ
Ð¹
ln
çĬ¯
iven
from
Ġpolit
Error
ruction
Ġalong
è®¾ç½®
Ġhaving
ED
ux
var
Ġsurface
å®£
06
ledge
éĴŁ
æĺ¯ä¸Ģä¸ª
alpha
ä¸¥éĩį
earch
sy
urity
çīĻ
Ġsepar
**[
Ġconnect
ires
èĳĹ
Un
rame
Sh
éģĩ
.b
my
Ġgame
èįī
ope
æ¶Īè´¹
)=
Ġworks
ĉĉĉ
åħ¨åĽ½
Ġapproach
ES
Ġstrong
Ġsaf
Ġfail
Ġcourse
ival
Ġ},Ċ
Ġaction
\u
85
Ġimpact
Ġfac
Ġlikely
èİ·å¾Ĺ
æĴŃ
æ±½
éĴ±
å¸ģ
è½¯
]**ĊĊ
çĪ¶
inary
ee
é¡º
ĠPr
Ġfurther
èĤĿ
å¦Ī
ipp
Ġlearning
è¯Ĺ
ache
head
uments
æ¯ıä¸ª
OT
atory
Ġnatural
_D
æľ¨
åħ¨éĿ¢
Ġloss
ĠSc
éģ¿åħį
ump
ä¿ĥè¿Ľ
åħ¸
ç¿»
Ġsubject
Ġcannot
æķĪæŀľ
æĸ°çļĦ
Therefore
Ġwords
Ġbig
é£ŀ
å¸®åĬ©
ĠNe
ä»İèĢĮ
åĨ²
åĨ·
().
AP
CD
_start
ä»į
æ¶ī
Ġdone
èĦī
åľ°æĸ¹
IM
æ»¡è¶³
Ġequal
åĲĦç§į
part
æĪĲæľ¬
Ġelements
Ġarticle
æĦ¿
aring
ores
tep
Ġrelationship
Ġeffects
åĽ°
éĿĻ
Ġfar
Ġusually
ç»¿
utions
ogle
ä»»ä½ķ
Ġgroups
Ġprotect
ĠChe
Ġ__
éĢŁåº¦
æľĢåĲİ
Exception
icy
åı¶
é¢ĨåŁŁ
Ġaccording
ä½ĵç³»
";Ċ
æĸĩä»¶
åĤ¨
çĲĨè§£
Ġenough
å½Ĵ
Ġoccur
Value
Ġsat
ä¿Ŀè¯ģ
ground
Ġnever
na
Ġinstance
Ġpack
Ð¿
æĶ¹éĿ©
ounds
Ġindex
ĠMed
à¸Ļ
åıªæľī
èĢģå¸Ī
ĠGo
æ¨¡å¼ı
ä¼°
èĻ½çĦ¶
è¾¾åĪ°
æĸ¹åĲĳ
å®½
çĻ»
è·µ
Ġnormal
âĢ¦âĢ¦
æĹħ
ields
odes
ada
ç»©
Ġsequence
ĠStates
iment
ç§ĳæĬĢ
impl
col
chie
ä¹Ŀ
ĠAdd
lying
Ġmakes
plications
åĸľ
ithm
['
})
ä¸įä»ħ
Ġpopulation
Ġdisplay
iding
(d
åĢŁ
éĺ´
Ġheart
ĠEurope
...Ċ
oad
ged
Ġsays
éĻĦ
Ġcorrespon
é¾Ļ
Ġbelow
Ġhours
where
Ġstandard
150
ĠØ§ÙĦØ
æĶ¶åħ¥
Ġvalid
æľºåħ³
Ġdefined
æĭĽ
ĠTherefore
}{\
opt
æŀ¶
Ġkind
Ġcomplet
ĠSch
Ġpressure
aves
éĩĳèŀį
irm
çļĦæĥħåĨµ
Ġareas
å¥Ĺ
Ġproduction
ĠBy
gor
Ġexperience
Ġways
åĪ»
.C
Ġdefault
nection
ront
Ġdifficult
loat
On
é¢Ĩå¯¼
ĠRet
æĬ¥åĳĬ
////
mit
Ġund
Ġprevious
çĽĺ
apter
+\
{align
sequ
Ġinflu
æĮģç»Ń
void
ç¨ĭåºı
å»¶
äº¤æĺĵ
ëĭ¤
è°ĥæķ´
Ġcondition
æĺİç¡®
ĠBrit
quad
åĨ³å®ļ
âĢĿãĢĤ
gest
ä¼łç»Ł
Ġword
itch
èĻļ
ä¸įè¦ģ
Ġindust
Ġprovides
ĠQu
æĶ¿æ²»
ĠRep
çŃ¾
çĶ³è¯·
--------------------------------
Ġchem
è½®
è¿½
Ġlink
è¶ħè¿ĩ
çĶļ
Ġbrain
Ġcontinu
èģļ
Ġservice
Ġsure
ains
Ġactivity
Ġsteps
ĠÄ
Ġvariable
è·Ŀç¦»
side
å¤§å®¶
èµĦäº§
UT
Ġscient
Ġtell
ç¬Ķ
å®¹æĺĵ
Ġbir
Ġproperty
Ġrelated
Ġproperties
ortun
comp
ender
åħ±åĲĮ
ĠĠĊ
æ±ī
ç¼ĵ
è¿Ľåħ¥
å·´
è¿ŀæİ¥
Ġmoney
ĠThat
è¿ĻéĩĮ
ä½įç½®
é½
Ġexpress
è¢«åĳĬ
ç¼©
å¸Į
Ġload
ilities
å¥ĸ
Ġimprove
Ġestab
ä¸ĩåħĥ
ä¿ĿéĻ©
Ġfri
_name
æĿ¾
âĢ¢
Ind
Object
å»ºçŃĳ
56
Ġgraph
ĠAss
é¡¶
org
RL
æĮĩå¯¼
çļĦæĹ¶åĢĻ
Get
å®Įåħ¨
ãģ«
å¤«
',Ċ
åĲİçļĦ
\sqrt
ä¸°
ixed
Ġaway
ĠÙħ
pec
Ġassum
ëĬ
Ġgrowth
Ġquant
æķ°éĩı
çī©è´¨
èĭı
Ġpub
Time
å®Ī
æııè¿°
Ġdefin
roid
ç«ŀ
Ġsoft
Ġnetwork
æ¶¦
most
Ġtheory
Ġeval
194
equ
è¯´æĺİ
è¯ĳ
off
ç½Ĺ
}$Ċ
Ġcal
æ´Ĺ
åİŁåĪĻ
æİĪ
195
ä¿Ŀéļľ
">Ċ
Ġcreating
Ġey
å®«
æľĿ
State
arth
II
Ġconstant
ohn
Ġill
Ġdu
æĽ¾
._
æĮ¥
Ġquestions
æĹ¢
×Ļ
Ð³
éĺ¶æ®µ
èĤº
æľīçļĦ
ÙĤ
éĺ»
åĳ¢
^{\
Ġcancer
éĻĪ
Ġnecessary
Ġlot
ched
Ġdam
å·²çŁ¥
ĠCent
Ġacross
èĤł
åħ³éĶ®
Ġrather
åĩĢ
nder
Ġdr
istance
ging
41
08
ç²ī
Ġtemperature
wards
acc
ising
Ġcontains
|Ċ
.P
issue
Ġdest
åħ¬å¼ı
boxed
å¹³åı°
éĶĢåĶ®
Ġ-\
User
èĢĮä¸Ķ
Ġneeded
Ð°Ð½
180
å®ŀè·µ
When
ica
bon
hib
Ġradi
æĦŁæŁĵ
å¤®
iqu
ä¸Ĭè¿°
Ġhowever
æľīéĻĲ
åıĤä¸İ
æĺ¯æĮĩ
^{-
éĩįçĤ¹
èĤĮ
oll
Ġdecre
à¥
éģĹ
now
Ġobtain
çģµ
.add
æ¯Ľ
ÂłĊĊ
Ġblock
èµĦéĩĳ
æķĳ
idered
Ġachie
leg
åĳ¼
çļĦæľĢ
ĠDis
çİ°ä»£
çĻĮ
æĹłæ³ķ
(b
oman
Ġí
Ġfuture
åįļ
åĺ
Ġmicro
eb
Ġjob
Ġexec
åģ¿
æĬĺ
Ġ\(-
izing
ales
ä»»åĬ¡
Ġstre
rc
plied
72
istics
sum
è´·
ored
èĦ±
.st
Ùĥ
æı¡
Ġphot
éĻįä½İ
Ġtrad
çĽĸ
Ġmechan
olar
æĺ¾ç¤º
å¹¼
å°ģ
åŁ¹åħ»
Ġbit
dev
mod
Ġderiv
åĲ¯
ournal
èĥĥ
åĿĲæłĩ
68
pecially
Ġconsidered
ç«¥
æīįèĥ½
iol
ptoms
åºĹ
ä¹ĭä¸Ģ
lim
ĠOne
Le
02
å¹¶ä¸Ķ
OP
Ġactually
Ġwhole
ĠEnglish
ij
æ¬¢
Ġaddition
æŃ£ç¡®çļĦ
Ġaverage
åº§
ç¨³å®ļ
file
hol
ĠDo
index
.M
è¾ĳ
arr
Ġstudies
creen
Ġconsum
åī§
Add
è¿ĺæľī
US
æĽ´å¤ļ
Pl
ĠÐ¸
Set
è¿Ĳè¡Į
otal
Ġconcept
äººä»¬
Ġconstruct
éĵ¾
reate
rows
äº¤éĢļ
æĻļ
Ã£
ags
Ġdeath
ðĿ
net
ĠMe
pose
_B
tml
Ġoption
Ġdie
èĪª
à¹Ī
43
åĲĹ
ĠMar
Ġshown
Ġphysical
(a
Ø¨
Ġprice
wise
Ġsearch
ĠShe
ae
åĮºåŁŁ
èĸ
Ġpassage
æ±¡
Ð±
File
Ġdocument
è¯¢
Ġseen
ises
Ġcreated
å¹³åĿĩ
OM
Ġspeed
ĠBl
èµ·æĿ¥
Ġdistance
Ġpast
ley
Ġinteger
Ġmanagement
å¥ĩ
Ġstop
light
()`
Ġplant
eter
ĠÐº
ĠPer
stance
çŃīäºİ
Ġweek
rior
Ġbar
Ġpaper
77
Ġnode
Ġyoung
Ġonce
Ġconfig
çĽ´çº¿
Ġmor
Ġversion
ites
ëĬĶ
Ġtax
×ķ
ocal
ĠIm
ĠÐ¾
Or
ï¼İĊ
error
æŃ¦
-g
éĿł
æĶ¹åıĺ
Ġinside
Ġstrateg
å·¥ä¸ļ
Ġflu
Ġ)Ċ
IP
sel
igned
Ġproducts
Ġanim
å¹´çļĦ
çĨŁ
ament
Ġwon
orts
ä¹³
ĠAf
åĿļæĮģ
struct
Ġclos
Ġdru
æĪĲåĬŁ
èº«ä½ĵ
ÐµÑĢ
iting
leep
Ġknowledge
Ġunique
èĤ¾
mon
quest
ç¨ĭåº¦
88
ĠGe
è·Ł
Ġparts
Ġcomplete
Ġposs
Ġdire
\(
rap
æ··
åĮ»çĸĹ
Ġincreased
inally
ä¸įåĲĮçļĦ
ìĿ´
ĠWith
ĠGod
ç±»åŀĭ
Ġdoesn
-in
ç©ºéĹ´
itude
è¡¡
éļıçĿĢ
Ġitself
è§ĦèĮĥ
åĪº
Sub
ĠChrist
èħ¹
Ġrandom
ç¡¬
çļĦéĩįè¦ģ
\left
Ġthird
mb
sych
ĠÙĪ
çĶŁçī©
type
æĺİæĺ¾
ttps
Ġensure
Ġann
hemat
Ġbehavior
Ġsides
iles
ociety
ĠPar
èĵ
_h
iver
Ġfall
-h
å¿ĥçĲĨ
ĠSci
ilt
Ġgreater
Ġmillion
æĿ¥è¯´
First
oper
ĠComp
âĢĿ,
Ġmind
He
Ġdeb
ĠSome
éĩıçļĦ
Ġdouble
Ġcle
.D
ML
æ¹¿
åłĤ
400
}$ï¼Į
Ġorg
ä¹ĭåĲİ
åĬ±
éĺħ
æ³ķéĻ¢
09
æľºåĪ¶
èħº
test
Ġseries
ideo
_end
å¾ª
Ġstatus
ä¹ĭéĹ´çļĦ
éĺ¿
Key
':
{{
Ġcommand
éĢı
æĬ½
Ġobjects
Ġroot
æĹ¶ä»£
($
ĠID
resh
']
è®¢
Ġmagn
Ġrecomm
Ġconvert
Ġdom
IG
ä¾ĭå¦Ĥ
pace
ä¹ħ
pper
à¸Ń
Ġdivis
ĠAb
amed
Ġep
Ġconcer
Ġdri
Ġmatrix
Ġcoll
Ġop
}=
Ġregion
ç»ıè¿ĩ
unc
Ġcou
ĠGerm
Ġdatabase
-w
åĮĹäº¬
Ġ$(
ynam
Ġentire
Ġdate
eral
Ġtitle
éķ¿æľŁ
Ø¹
çĽ®çļĦ
Ġmaintain
ä¸Ńåįİ
åŁ¹è®Ń
$.
_{\
æ¸Ĳ
bar
æĦıä¹ī
å®¶åºŃ
çĶļèĩ³
åıĤåĬł
px
ãĤĭ
é£Łçī©
Ġrat
ceed
æķ°æĺ¯
")
å®ľ
äºĨä¸Ģ
Ġmeet
Ġmemory
Ġcountries
ordin
å§Ķåĳĺ
ç»§ç»Ń
Ġperformance
åİĤ
Ġforce
æ¯Ķä¾ĭ
Ġparticip
Ġgot
åĿı
Ġminutes
Ġexact
æ»ĳ
Item
Ġcomponent
Ġdirectly
åĪ¸
ao
icles
acy
æ£Ģæµĭ
å®¢æĪ·
And
Ġmap
æĪı
erson
ï½
Ġintrodu
/s
åįĸ
ĊĊĊĊ
Ġchall
Ġaccept
Ġmembers
Ġcity
æ°ĳæĹı
åį«çĶŁ
char
((
åħħåĪĨ
åİĭåĬĽ
âĳł
ç¯ĩ
çĶµåŃĲ
Ġformula
Ġunderstanding
Ġunit
éĴ¢
Ġidea
Ġshows
é±
Ġnumer
Ġax
SU
ĠCar
ternal
æ±ĩ
æİ¨åĬ¨
åĩºçļĦ
ips
æ¹ĸ
ä¸įå¾Ĺ
åİĺ
è°Ī
58
EM
mber
æľŁéĹ´
ç»ĦæĪĲ
Ġtaken
[]
Ġespecially
iet
Ġquality
anced
Your
Ġhalf
LO
aced
ros
çŃīå¼ı
Ø³
æī¾åĪ°
ride
ä¼ļè®®
Ġsymptoms
With
xim
Ġdevice
çĽĳçĿ£
åĮ»çĶŁ
Ġ||
çļĦå¤§
Is
Ġrecogn
no
Ġ->
Ġheight
æĦıè¯Ĩ
CC
bre
Ġevidence
selves
é±¼
Ġtw
icial
Ġclaim
fully
çĩĥ
æĺ¯åľ¨
Ġattack
itation
iddle
59
193
sup
Ġsquare
Ġhol
Ġbound
ê³
ĠĠĠĠĠĠĠĠĠĠĠĠ
å³
èīºæľ¯
Ġallows
éĿ¢çļĦ
ĠArt
å®ŀéªĮ
âĳ¡
Ġdim
Ġissues
ometimes
Ġsense
ç½ļ
valid
ĠSub
sk
.w
pre
ney
ĠMay
aff
Ġthought
PE
çī¹çĤ¹
anager
çĽ¸åĲĮ
Ġsite
èģĮä¸ļ
å¯¹è±¡
Ġthing
ÑĨ
ĠÃĹ
åŃķ
ured
èĦĤ
è´¦
Ġengine
itted
æİĮ
Ġhandle
onstr
äºĭä»¶
actions
Ġoptions
Ġetc
åı¯èĥ½ä¼ļ
Over
overed
åıĸå¾Ĺ
¤Ĳ
Ġhouse
åģı
à¸£
Ġbal
03
76
like
minist
æŃĮ
uth
\end
è§ĦåĪĴ
izes
='
Ġmonths
Ġavoid
Ġmach
Ġhy
Ġglobal
åİĺç±³
èĮ¶
uit
æ±½è½¦
çĥŁ
Ġter
plate
Be
åĲĪçĲĨ
cret
çļĦéĹ®é¢ĺ
Ġcommunity
éķ¿åº¦
ino
ydro
astic
Let
Ġmole
ÅŁ
Ġstat
Ġalgor
ä»ĸçļĦ
åŁºéĩĳ
Ġtoday
ä»£åħ¥
Ġequations
Ġresources
ĠSince
met
$a
ĠĠĠĠĠĠĠĠĠĠĠĠĠĠĠĠĠĠĠĠĠĠĠĠĠĠĠ
åĪĨéĴŁ
Ġground
Ġtechnology
ado
Ġgas
ili
ä¸Ńå¤®
æİ¨è¿Ľ
ams
è´¹çĶ¨
Ġparameters
Ġcateg
è¾Ĩ
ĉif
Service
resents
æº¶
hel
é©¶
Ġprec
Info
Ġblack
\frac
Ġimplementation
è®¨
Ġregard
çĺ¤
Ġessential
Ġbr
âĢĺ
æĪĲç«ĭ
$(
Ġclose
åıĹåĪ°
ä½łçļĦ
elta
AG
èĹı
cular
æĢİä¹Ī
æ¯Ķå¦Ĥ
pm
ä»£çłģ
roller
ĠPol
æ¥¼
çĽ¸å¯¹
{x
Ġnames
Ġservices
raft
illed
æĸĹ
Ġfive
Ġmodels
çĮ®
Ġdecl
å¥¶
<answer
è¯ģæĺİ
çīĽ
192
Ġcollect
ç©¿
ä¸Ģæł·
alculate
Par
Ġissue
Ġevents
Ã£o
artment
||
é¡¾
tings
èĭ¦
Ġcut
04
è°ĥæŁ¥
Ġability
ounter
Ġhappen
Ġitem
osition
å¼±
Ġ:=
ĠAfter
Ġinj
ython
());Ċ
éī
Ġsection
CH
Ġsimply
èĦı
ç®Ģåįķ
äºĭæķħ
çī¹å¾ģ
æĿŁ
otes
Ġstyle
é¢ĺçĽ®
hern
point
è°¢
ĠMy
ç»į
unt
Ph
Ġremov
å¦ĩ
Next
lor
åħĥç´ł
Ġformat
sing
Ġexc
æł¸å¿ĥ
olve
à¹Ģ
No
79
bda
ming
æĸ½å·¥
çĶŁæĢģ
ä¸įåı¯
ĠAct
æīĭæľ¯
åĪ¤æĸŃ
Ġadded
ĠStud
ken
Ġtasked
Ġvector
ple
###
åĨħéĥ¨
ayout
ĠWar
Ġconsist
ç´¯
ĠThen
Ġinstead
circ
æĺł
={
ĠWorld
Ġdemonstr
stract
theta
éĩĩåıĸ
ĠWhich
rate
%ï¼Į
Ġadj
Ġpatient
ä¸Ģèµ·
'(
Ġwritten
åħ°
-based
FF
aling
èĤ¤
Ġderivative
"ĊĊ
åĽºå®ļ
_data
pir
-st
åĢĴ
isf
åŃĶ
init
åħ¨çĲĥ
ç¦ģ
éī´
Ġrepresents
ãģŁ
Ġhom
$y
çĶŁåĳ½
ui
Ġcard
ults
rs
book
ensity
Ġprimary
ä¼ĳ
enn
ä¼´
elling
Ġgives
ç»ıéªĮ
Form
Ġquick
ĠĠĠĠĠĠĠĠĠĠĠĠĠĠĠĠĠ
ĠNational
Ġ"""Ċ
do
æľ«
Ġeff
çİ°è±¡
,\
Ġidentify
ober
æ´¾
ä¸Ģå¹´
Ġmatter
ĠList
Ġreduce
ls
æ¸©åº¦
pty
Ġexplain
All
æķ°åŃ¦
ĠÄĳ
Ġtaking
ĠApp
æĢĢ
Ġcentury
bra
å°¤
Ġhyp
éŃ
rapy
è®¿
æĽ´åĬł
incip
æĪĳä»¬éľĢè¦ģ
ana
Ġeducation
éľ²
ĠYour
ĠÐ´
ĠAfric
IV
ils
Ġ*Ċ
OS
éĽ¨
Ġpie
code
Ġdistribution
Ġassess
æľĭ
amin
oin
ä¸ĭæĿ¥
pri
å¹ħ
Ġdeveloped
ancial
Ġrad
Ġmom
Ġproduce
æ¸¯
å¤ľ
Ġmulti
ĠGu
Ð°Ð»
Ġcomputer
Int
ĠEarth
input
Ġupon
èĽĭçĻ½
çĸĳ
bit
list
çĥ§
æ¬§
å¢ŀå¼º
ocation
æĦıåĳ³
ULL
à¸ģ
Ġserver
ãģĦ
Ð¾ÑĢ
éļĲ
UN
urch
Ġexpected
rightarrow
Ġregular
tool
've
æģ¶
ä¸ªæľĪ
Ġproper
uel
ç¥ŀç»ı
Ġnature
ĠPM
Ġfiles
æ±ł
Ġwhite
Ġindividuals
Ġpersonal
æĪĳçļĦ
'm
96
ï¼īãĢĤĊ
ÑĪ
98
Ġindepend
è´«
çļĦåıĳå±ķ
ramew
æķı
],Ċ
Ð¾Ð»
ried
Ġeffective
fect
arily
ãģ¨
Ġdepend
æ´²
Ġtraining
åķĨåĵģ
ih
æĶ¯ä»ĺ
Ġcross
Ġusers
ä½ľä¸ļ
æŀĦæĪĲ
æĥ¯
å½©
ìĹĲ
å®ģ
ĠIntern
Ãª
åį·
span
Ġstress
Ġpredict
ï¼ģĊ
Ġdiagn
åı«
'll
Ġyet
èĢĥè¯ķ
ĠĠĠĠĠĠĠĠĠĠ
lock
Ġlimit
Ð¾Ð´
åĪĺ
Ad
Ġmedical
Ġestim
aging
aching
éļĶ
è§Ĥå¯Ł
mission
åĨħçļĦ
Ġfeatures
sec
èĶ
å®ĥçļĦ
çĿ¡
Ġvariables
ï¼ĮâĢľ
æİ¥åıĹ
}_{
CR
change
ottom
aches
Ġlines
Ġlive
Ġcomes
ãĤĴ
augh
à¹ī
å°±ä¼ļ
éĴĪå¯¹
Ġsam
Ġhost
Ġsem
éĢĴ
leq
åĪļ
vere
Ġappear
åħ¬åħ±
æĻºèĥ½
aries
'Ċ
æĢ§åĴĮ
Ġpolitical
Ġstory
éĹŃ
ĠInt
Test
å¸ĮæľĽ
ç¢³
_w
Ġunits
Ġincludes
Ġcompet
é²ľ
Node
CE
`.
×ķ×
ĉreturn
Ġdetect
è®¸å¤ļ
Class
Ġconcent
Ġpair
ster
ä¹İ
çº¸
ulate
ĠÏ
Ġincreasing
uild
Ġrev
åĨľä¸ļ
çĽĲ
ulations
Ġadditional
é¦Ĩ
æĪĳä»¬çļĦ
ìĿĦ
Ġfeed
olean
è§Ħæ¨¡
config
****************
Ġdoing
Ġbecomes
bf
å®Ŀå®Ŀ
Ref
-y
Ġeconomic
annel
Ġda
Ġsubt
Log
Ġfollows
å¦Ĥä¸ĭ
Ġcontact
èĦļ
é¤Ĳ
\),
å©ļ
orks
ops
æ²Ļ
Ġheat
æĺ¯ä¸Ģ
Î±
æĭŁ
Ã¨
plit
Ġtalk
Ġhold
çĶ°
åĬª
Ġà¤
åĲĮåŃ¦
Ġir
æ¯ķ
Ġzero
ĠVal
>ĊĊ
å¿ħè¦ģ
ĠReg
Ġbasic
Ġprotein
uck
Ġupdate
_g
Ġbecame
Ġwidth
Ġjava
Ġexerc
ç§Ģ
ses
........
æľĭåıĭ
Ġrefer
è´µ
Ġprime
ached
lation
å®Ĺ
æĦıåĳ³çĿĢ
07
ĠHere
CO
Ð¾Ð¼
è®¤è¯Ĩ
ĠAm
Ġbuy
å¼¹
æĺ¯ä¸Ģç§į
ĠTrans
èĥľ
Ġaud
ĠMat
æĢ§è´¨
Ġweb
Ġsort
å¨ģ
sole
Ġpractice
è¶£
ãģĹ
ĠDef
Ġnuc
èľ
Ġactivities
ä»ĭç»į
Ġsn
Note
é¾Ħ
éĺ²æŃ¢
æĭ¥
igation
ĠAcc
ĠÃ©
Ġacid
ï¼ļ$
Ġnational
è¯Ńè¨Ģ
åĨĮ
åºĶçļĦ
ç§Ł
></
éķľ
æĿĨ
ĠEd
Ġsoftware
Ġsample
Ġbuilding
Ġstudent
Ġlonger
ÂłÂłÂłÂłÂłÂłÂłÂł
dis
Ġskin
Ġ+=
icon
Ġcompared
Ġ(!
orage
è¯¾ç¨ĭ
BC
ponent
ä¾µ
åĩĨç¡®
era
57
ĠPart
.[
ç«ŀäºī
Ġmeaning
atal
oken
item
och
Ġlibr
ÂłĊ
íķĺ
ãģ¯
isms
ä¸´åºĬ
åħ³æ³¨
["
ç¿»è¯ĳ
ĠAp
arg
ĠDep
åĽ½åĨħ
Ġhab
æĭ¿
ste
ĠJohn
Ġbring
Ġconduct
åĦ¿ç«¥
æĦıè§ģ
$$\
ä¸ĭéĻį
è¿Ķ
Ġattempt
Ġprobability
come
Ġfem
ä½ľåĵģ
At
www
Ġalmost
df
Ġdigit
oring
Event
ivil
Ġdescribed
gn
\pi
Ġplants
Ġevalu
ç¾¤ä¼Ĺ
Ġbox
Ġsun
ç»Łä¸Ģ
Ġri
ä¸Ŀ
æ°¸
52
å¸¸è§ģ
æ®Ĭ
.x
Sc
Read
èµĦæľ¬
ãĢĤâĢĿĊ
Ġexperien
Ġmatch
è¡£
åª
æĪĺçķ¥
rown
ensive
Request
å¡«
ç§ģ
å®ĮåĸĦ
è¯Ħä»·
atively
éĢĶ
Ġtravel
ENT
Ġaff
fty
inks
å°ļ
ä»ª
Ġscience
ÛĮ
Ġrule
lick
æķĪçİĩ
ramework
ike
Ġcorresponding
ç®±
Ġinstall
ĠMon
oon
Ġmaximum
æ¶īåıĬ
âĳ¢
Ġslow
uly
×Ļ×
ä½¿å¾Ĺ
Ġsex
Ñİ
Ġeasy
Ġliter
Ġpick
åĬªåĬĽ
ãģ¦
54
èħĶ
Ġlooking
åĮĸçļĦ
mar
ifier
ä¸Ĭæµ·
$ï¼Į$
abor
è®°å½ķ
åľŁåľ°
Ġdraw
oud
het
åĩĨå¤ĩ
Ġcame
191
IL
rim
å¹¶ä¸į
Ġpropos
éĩįå¤§
From
Ġmut
Ġcauses
ĠNone
Ġemb
Ġthemselves
å®īè£ħ
ronic
Des
aving
Ġrelig
å¹¼åĦ¿
Ġ^
æľªæĿ¥
Ġmodern
za
Ġsomeone
rial
è®¾æĸ½
Ġil
åĨľæĿĳ
erve
æĬĵ
ĠGener
Ġnut
Ġles
800
çĦ¦
Ġarch
çģ¯
äº¡
{d
Ġseem
Ġchemical
ese
cks
gar
anks
New
ä¸°å¯Į
Ġpan
èĩªåĬ¨
äº¤æµģ
101
ha
QL
ä¾Ŀæ³ķ
Ġabsol
æµĭè¯ķ
åĪ¶éĢł
Ġprior
ING
Ġste
Ġ\):Ċ
infty
rast
ĠState
åĮħåĲ«
HE
ç¼ĺ
æ´ģ
kn
èĩªèº«
Ġparameter
çĥĪ
å¸Ŀ
Ġ\\Ċ
Ġitems
å¯Ĵ
ĠGet
Ġanimals
åĪĨåŃĲ
èĤ¥
èµĦæĸĻ
çŁ¿
ä¿¡åı·
PS
Ġsus
active
ĠCal
Ġcaused
ĠPe
$f
acity
é¼ĵ
Ġliving
Ġupd
ç»´æĬ¤
åıĳå±ķçļĦ
å¡ŀ
avor
dom
é£Łåĵģ
ĠNot
äº¿åħĥ
åģļå¥½
Ġcred
Ġever
}+
çľĭåĪ°
alt
æĳĦ
term
ĠSet
èĲ¥åħ»
ĠÐ½Ð°
éĢ»
](
edia
Ġhor
å±ĭ
.n
Ġface
æ·»
âĢĿĊ
åŁºäºİ
Ġwindow
Ġrequires
çĹħæ¯Ĵ
(i
ĠFr
åĪĨä¸º
çģ¾
Ġsix
Trans
Ġinterface
Ġinvolved
create
Ġdifferences
Ġwriting
Ġcontinue
Ġvolume
reed
èĢ³
æ¯ıå¤©
Not
Īëĭ¤
\n
600
æĹ¶æľŁ
å¤ı
Ġthus
Ġlarger
cles
äººç±»
Ġmention
å±Ĭ
ãģ§
åĪ©çĽĬ
ä¸īä¸ª
è¦
Index
Ġautom
ä¸ĭçļĦ
{array
ãĥ¼
atives
Ġstatement
Ġrights
å·¦åı³
çİ©
çŁ©
Map
æľĢå¤§
Ġprobably
hesis
Date
ìĿĺ
Ġonline
äº®
atform
åİļ
çļĦäºĭ
Ġshare
ê°
Ġmiss
Ġproced
åħµ
æ²ī
Array
ĠAng
ocks
ĠCo
$ãĢĤĊĊ
Ġcomponents
../
Ġforms
ĠCor
Ġtook
\right
Ġìŀ
çļĦä¸»è¦ģ
Ġreading
åĮĸåŃ¦
Ġprofess
à¸±
ç¤¼
')
ĠAg
ìł
();ĊĊ
Ġson
hing
ìĦ
cho
à¸ĩ
Ġoutside
Ġassert
ued
Ġ\),
ura
Ġsche
Ġlayer
Manager
é¢Ħéĺ²
ĠÃł
ĠNow
åĪ¶å®ļ
äººæīį
éĺħè¯»
Ġconnection
Ġteac
Ġcenter
ĠHealth
Ġintern
Ġdirection
åĳĺå·¥
Ġfraction
Ġresearc
51
æĶ»
aily
Ġsimplify
è´´
ponse
Ġsleep
Path
53
ĠĠĠĠĠĠĠĠĠĠĠĠĠĠĠĠĠĠĠĠĠĠĠĠĠĠĠĠĠĠĠĠĠĠĠĠĠĠĠĠĠĠĠĠĠĠĠĠĠĠĠĠĠĠĠĠĠĠĠĠĠĠĠĠĠĠĠĠĠĠĠĠĠĠĠĠĠĠĠĠĠĠĠĠĠĠĠĠĠĠĠĠĠĠĠĠĠĠĠĠĠĠĠĠĠĠĠĠĠĠĠĠĠĠĠĠĠĠĠĠĠĠĠĠĠĠĠĠ
ube
åĳĪ
!ĊĊ
Ġtests
iation
æĬµ
69
Ġargument
(l
Ġgetting
ĠØ¨
trans
Ġactive
Ġ...
Ġlocation
ocol
mary
ç¤¾ä¼ļä¸»ä¹ī
Ġpolicy
67
itary
Ġtrack
ĠÑĤ
çĭ¬ç«ĭ
gram
Ġbelieve
æĸľ
Ġclient
url
è¸
ç»¼ä¸Ĭ
åŃ¦éĻ¢
åĨł
(e
Ġfields
Ġmusic
ypes
éĢ»è¾ĳ
Ġbill
Out
ĠAust
èģĶç³»
Ġtree
æī¿æĭħ
è´¸
plies
Ġopportun
çļĦå½±åĵį
$-
ä¹łæĥ¯
é«ĺåº¦
Ġcamp
ackage
å®¶éķ¿
OL
ĠYork
iber
.org
.app
ç§ĭ
igen
apan
ä½ĵçİ°
ogen
å²Ĺ
å·¥åħ·
Ġleading
æķ´ä¸ª
ailed
Ġdefine
èª
Ġapproxim
ares
wers
èħ°
Of
æµĵ
Ġgenerally
ights
ĠData
çĳ
Ġoil
ç¬¬åĽĽ
190
è¾ħ
éº»
çī¹èī²
Ġoperation
ç²Ĵ
Ġvia
ĠSouth
çī¹æ®Ĭ
rench
implify
abet
æĩ
éĹ»
åıĳæĮ¥
rong
Element
ilter
(int
ĠChina
ĠNorth
æ¨¡åŀĭ
ÑĢÐµ
Ġprincip
(),
igma
å·¨
ä½³
Ġcarbon
æ³Ľ
anc
Ġmaterials
Ġstreng
Context
istry
æ¦Ĥçİĩ
ĠMin
çĬ¯ç½ª
Ġcontaining
çĸ¼
Ġrow
ĠTest
Ð¾Ð³
éģµ
ĠMore
Ġseems
rated
é¡µ
å§Ķåĳĺä¼ļ
à¯
Ġfund
Ġclean
è±Ĩ
ä¸įè¶³
Ġsurv
%,
Ġround
çļ®èĤ¤
ĠJan
Write
Em
')Ċ
ĨĴ
Ab
Ġsets
orem
ĠÂłĠÂł
Ġbacter
Ġactual
ç¹
Ġfire
æ²Ł
Ġanaly
iency
}}\
Ġlove
æĽ¿
åģĩè®¾
åĩĿ
Ġpopular
ç§°ä¸º
Ġtherefore
Ġfinancial
æŁ±
Ġskills
ä½Ľ
Ġsuff
Ġlack
ecause
Ġmember
çĦ¶èĢĮ
ography
Ġsecurity
Ġappropri
fl
ä¹±
Ġuns
inical
Ġrecent
Ġce
åĪĨå¸ĥ
Ġincluded
perty
Ġful
äºĮæ¬¡
racy
çļĦæĸ¹æ³ķ
Ġ;
æģ¢
IF
Ġspecified
vey
Ġdiet
é¸¡
ç§»åĬ¨
Ġprocesses
æľīéĻĲåħ¬åı¸
èĥİ
Ġdesigned
Ġsmaller
ä¾Ŀæį®
using
è¯¦
Number
Ent
åķĨä¸ļ
la
Ġaltern
Rep
Ġsources
Ġhistor
63
æ´ĭ
ĠFirst
Ġdeep
æĶ¹åĸĦ
ÑģÐº
TP
ho
partial
åĪĽéĢł
but
ä¸ĵå®¶
umb
Config
å°¼
Ġsound
é©¾
è¶ĭ
vec
110
ðĿĳ
map
è´¥
çİ°åľº
ĠAmerica
Ġapply
iques
image
è¯Ħä¼°
æ°§åĮĸ
éĥ½æľī
Ġproduced
Ġpattern
ĠâĪĴ
æĹ¥æľ¬
è£Ĥ
Go
One
Ġ((
ĠIN
ĠReview
Ġlargest
Ġled
ĠPre
èĪ¹
Ġsignal
æ¢¦
éģį
Ġremainder
ya
Ġseg
âĢĿãĢĤĊ
Message
Ġbad
ulated
oles
æľĢç»Ī
Ġcompan
è£ģ
åĬŀæ³ķ
Field
Ġ()
è§£éĩĬ
à½
Ġlinear
æĿĥåĪ©
Ġmedia
èĥ½æºĲ
lin
Def
Ġmovement
ãĢĭï¼Į
âĸ
Ð½Ð¸
ato
é«ĺçļĦ
CM
http
-S
ä¹ĭåīį
å±¥
.print
Ġpsych
è¡Ĺ
ä¹Łæľī
à¹Ģà¸
(A
è¿Ļæł·çļĦ
ä¸»ä»»
Ġtim
CP
erver
éĩįè¦ģçļĦ
å°¤åħ¶
æģ¢å¤į
ĠÐ¼
with
Ġscreen
æ¡¥
osit
åªĴ
Ġtypically
(String
enu
Ð°ÑĤ
èĢħçļĦ
Image
username
åħ¨éĥ¨
oo
Ġmedic
)^{
python
_H
Ġtransform
çĤ¹çļĦ
Ġlabel
Ġmoment
ãģĮ
Ġpict
Ġrequirements
Ġwall
Ġfront
pid
ĠWhile
Ġhelps
Ġhydro
otic
ë¡
function
ades
Ġcentral
erences
Ġsometimes
å¤§äºİ
++++
vis
åĵģçīĮ
ned
Ġexcept
é¥®é£Ł
_V
ä¸ĢçĽ´
åıĳå¸ĥ
>>
static
inct
ä½įäºİ
Ġheav
Ġcolle
æĪĲç»©
)/
åĩºäºĨ
Ġculture
Ġcolumn
Ġrot
èĲ½å®ŀ
Ġinit
Ġ});Ċ
æĿĢ
Ġpurpose
å½ĵåīį
Ġuseful
çļĦæĹ¶éĹ´
èį£
Ġcosts
ÐµÐ»
Ġscale
Ġgreen
Ġsatisf
Size
åħ¶å®ŀ
Ġindustry
Ġshape
Ġimmedi
ancy
}$ãĢĤĊ
alle
è¡ĮåĬ¨
Ġadminist
æī£
Ġwebs
Ġalgorithm
ç¹ģ
ä¸Ģä¸ĭ
Ġgain
########
Ġoperations
ĠEm
æĪª
/m
acters
lambda
Ġinterp
Step
path
éĿ©åĳ½
elt
Ġbooks
Ġdenomin
èĥ¶
ĠDr
Ġcm
Ġmodule
å¤įæĿĤ
å¿«éĢŁ
check
è£ħç½®
å¯»
éĽĨä¸Ń
ìŀ
ä¸½
onal
åįıè®®
_R
éĻĲåĪ¶
_r
Ġanc
Ġroom
ama
èĩªçĶ±
.B
ì§
Ġpublished
Ġdivided
Ġimages
åįĪ
_i
æĮ¯
æ¡£
-M
å´
ico
æ¢°
çİī
Ġdivision
},Ċ
Ed
Ġstarted
Ġsociety
^\
ä¸ºä¸»
Ġcompar
Ġball
.T
Ġ);Ċ
ĠMan
åĸĿ
Up
Ġfit
Ġgoal
ening
ä¹Łä¸į
Ġrules
Model
ä¹ı
asks
OD
sl
åĳ¼åĲ¸
ĠUse
estern
UR
Ġdetails
ÐµÑĤ
áĢ
Ġdamage
Ġviol
åıĬåħ¶
omial
Ġsituation
Ð¶
å°Ĭ
Dis
æĻ®éĢļ
Ġtesting
ĠNULL
eration
mathbb
Ġvirt
Ġquite
Ġvers
ĠEl
hest
åĲ§
Ġretrie
ync
Ġfeature
ãĢģâĢľ
ĠCalculate
Ġarr
Ġachieve
adem
urb
ä¼ļè®¡
Ġtrying
ios
Ġago
ä¼ĺåĬ¿
Ġsolutions
ictionary
æĹ§
ĠBritish
éĻ¤äºĨ
.ex
ĠReturn
ees
ä¸¥æł¼
è§Ĵåº¦
Ġbackground
ç³»åĪĹ
è¢«åĳĬäºº
EX
ii
EL
abled
Ġreported
æĹħæ¸¸
Ġdynam
ç»Łè®¡
Ġdescription
Ġparticularly
ĠII
Ġos
Ġnamed
ĠCons
Ġreceived
eks
Ġbuilt
_type
ename
å¼ĢæĶ¾
ka
isions
Ġcover
Ġcapt
ously
èģĶåĲĪ
Ġrepe
______
çĪ¶æ¯į
Ġvideo
ibr
Ġum
æ½ľ
ctors
Ġnight
å·Ŀ
.The
ä¸īè§Ĵå½¢
rees
æ²¿
è´Ńä¹°
Ġ(Ċ
å²Ľ
tex
see
è§ĦåĪĻ
åĵªäºĽ
åħļçļĦ
æĹĭ
ĀĀĀĀ
æİ¥è§¦
rupt
Ġspread
ç£ģ
åŃ¦çĶŁçļĦ
Ġcomment
gy
æİĮæı¡
Ġprogress
board
ĠDNA
Ġeasily
/*
Ġchoose
è¡Ģç®¡
Ġprot
Ġaccom
Ġratio
éĽĨåĽ¢
çº¯
ĠAc
\\Ċ
fs
à¸µ
amma
è°ĵ
Ġtransport
}-
Ġ=Ċ
Ġdecimal
éĩİ
SON
Ġoccurs
ç§ĺ
Ġremove
åĪ©æ¶¦
Ġcapital
éĽĨåĲĪ
-Ċ
åħ¬éĩĮ
é½Ĳ
object
æŃ¤å¤ĸ
Ġsil
ĠìĿ
æľĢè¿ĳ
asons
phi
Ġreference
åĨ¬
Ġreflect
ä¸ľè¥¿
Ġnp
std
Ġsymbol
æĬĳ
ĠÐ±
ç»ıå¸¸
å®£ä¼ł
IR
Ġdegree
æļ´
Hand
å¸Ń
æĥħåĨµä¸ĭ
ç¢į
çī©çļĦ
æĢ§èĥ½
time
ĠAug
ributes
å¼ºè°ĥ
Ġspect
ë¥
Ġemail
åĽ°éļ¾
åı¦ä¸Ģ
ĠResearch
ĠOther
-to
Ġaspect
ç»ª
ç¬ĳ
omy
Ġdog
known
æ¸¸æĪı
åĬĽéĩı
æ¥ļ
mathcal
Ġcopy
æĸĩç«ł
æķ´ä½ĵ
ilder
pat
_L
ius
SC
position
èļ
æ¶¨
eds
Ġfilm
èģĶç½ĳ
à¸¡
-n
Ġemot
ĠOut
è®¼
Ġ/**Ċ
æ¨ª
åºŁ
Ġelectric
èĥ¸
æ±¡æŁĵ
Ġtransfer
ĠScience
ev
Æ°
Â»
åıªæĺ¯
.out
èĥĨ
())
æĸĩæĺİ
Ġapplications
é¹
ç¼´
èĢĹ
çļĦå·¥ä½ľ
rome
clus
è´·æ¬¾
Ġresponsible
Ġemerg
tered
åĨ°
æ®ĭ
Ġdecision
çĻ»è®°
èĭĹ
Ġfrequency
Ġanti
Ġthroughout
âĦ
Ġfast
æ³¡
æ±¤
ĠSupp
inding
anger
çº·
ĠÐ·
down
ributed
Ġchalleng
mathrm
Ġresearchers
èĢĮæĺ¯
Ġlibrary
Ġrepresenting
Ġanything
Ġcontract
è¾ĵåħ¥
Table
rec
Ġbenefits
ï½ŀ
mu
ĠAPI
ĠRuss
osing
Ġelectr
éĺµ
¡èĲ
Ġfeet
çĶ¨çļĦ
Ġeth
Ġclimate
java
ä¹Łåı¯ä»¥
ufact
à´
Ġbasis
ript
Ġcharacters
èĩ³å°ĳ
Ġwhose
istory
xi
äºĭä¸ļ
Ġbegan
Ġhealthy
å¼Ĥå¸¸
ĠHis
çģŃ
æ·±åħ¥
Ġrunning
apping
è¯īè®¼
250
89
éĽ·
Ġ===
ãģª
Ġrates
æķħäºĭ
encies
æķ°ä¸º
pan
åıįæĺł
ĠCO
å¾ªçİ¯
æľīä¸Ģ
ara
ialog
result
çĽ¸äºĴ
ĠĠĠĠĠĠĠĠĠĠĠĠĠĠ
teger
Ġhttp
Ġinvolves
çľŁæŃ£
Ġmode
Ġclasses
Since
xx
ellow
é¢Ī
Ġdidn
ference
lands
oke
Ġcoordin
ante
ç¤¾åĮº
ership
Ġincreases
used
æĺ¯å¤ļå°ĳ
Ġnote
Count
åĶĲ
appro
Ġearth
uz
Code
éĻĨ
Ġreplace
Ġprop
Ġapplied
Ġten
Ġobserved
Ġexamples
æİī
çĽĳç®¡
izer
Ġenter
undred
ĠAnt
èĩªæĪĳ
ĠST
é¢ľ
Act
"]
éĢļçŁ¥
âĳ£
iam
ĠJapan
Ġincor
ifies
åĩºæĿ¥
ä½ľèĢħ
è¿Ĳè¾ĵ
ĠEach
ony
Ġtend
Ġlimited
å¹¸
extra
anation
Ġmother
æĹ¶çļĦ
olic
æ®ĸ
Ġdoi
å£ģ
Ġinstit
à²
des
Ġbul
Acc
Ġcritical
Ġresulting
ĠPa
Ġones
bor
çĽ¸çŃī
Ġinternal
.L
çĽĽ
èµĶ
{a
Ġharm
.is
Ġempty
itis
å®īæİĴ
coming
å¼ķå¯¼
Ġvirus
Ġscript
åŀĤ
Ġstra
åĬĽçļĦ
conds
åĹ
https
è·ĳ
aged
Ġlat
Ġattention
Ġutil
Ã¢
èĢĮä¸įæĺ¯
.)
ĠSm
Ġstage
æĮĳ
èĻ«
Ġthous
æ·»åĬł
è¿ĲçĶ¨
ĠMath
ATE
_RE
Ġbirth
åĸľæ¬¢
çĶŁç´ł
ptions
Ġdefinition
Ġtools
ederal
den
.log
åºĨ
Ð¸ÑĤ
Ġparents
Ġprep
è¡¨è¾¾å¼ı
beta
Ġcatch
Reg
Ġappropriate
ano
ĠChar
èĢĲ
api
Ġnothing
çħ¤
Ġabsolute
state
."ĊĊ
Ġequival
Ġmess
Ġgene
ç©ºæ°Ķ
Ġmi
Ġsup
Ġ.Ċ
æ¦Ĥå¿µ
éħįç½®
ìĬ
_IN
Ġcompanies
ä¸»ä½ĵ
vention
}}$
ilos
æĳ©
ĠWill
Ġisn
å¹²éĥ¨
clusion
ias
åĩºçīĪ
Ġma
ä¸įè¿ĩ
Ġlate
Ġhot
æĪĲéķ¿
Ġvo
ĠFrench
ocr
Ġdemand
Override
Ġfarm
Ġquery
åĴĮåĽ½
ĠPython
levant
Ġpoor
rade
åĪĽå»º
åį±éĻ©
åı¦å¤ĸ
åħįçĸ«
unk
åıªè¦ģ
Button
æĮĩæłĩ
ĠÙģ
è´¯
åĪºæ¿Ģ
ini
å°º
çĪĨ
Ġtowards
æľīä¸Ģä¸ª
åľĪ
äºĭå®ŀ
ä»¥åĲİ
Ġreve
rypt
è½¬æį¢
Ġgenerate
è¯ķéªĮ
{b
ä¹īåĬ¡
raint
.sh
ĠOct
è¯´æ³ķ
Ġmachine
App
Ġstarting
Ġoffer
åĬŀçĲĨ
max
è¯ĬæĸŃ
indows
ameter
which
Ġfoot
Ġextract
éª¤
*}Ċ
ç»ķ
Ġmis
Ġjud
args
è¿ŀç»Ń
è½¨
hem
Ġinfluence
åģ¶
æĹ¥å¸¸
ìļ
å¯¹ç§°
Ġfish
æ¡Īä»¶
èİ·åıĸ
ä¸įçŃīå¼ı
ç»ĦåĲĪ
86
lt
çĤ¼
Ġchoice
è®Ńç»ĥ
æ¯«
MS
Ġcoe
matrix
Ã³n
Ġrele
Ġinvestig
attle
.F
åĳ¨æľŁ
Ġthrow
(this
é¥Ń
å¥ĭ
81
(r
ĠIS
Ġanimal
Ġ\Ċ
å¥¥
åĪ©äºİ
æ§
102
é¼»
Ġfat
amb
prime
çļĦè¯Ŀ
ä¹Łä¼ļ
160
Ġviews
ĠKing
ME
Ġdeveloping
Ġinn
True
ĠBo
oma
Ġgoes
éĽª
Ġsubs
ĠPres
ä»¥æĿ¥
_N
æ¾
++)
æľīäºĽ
ãĢĤâĢľ
ä¼łæĴŃ
ĠDet
Ġmit
æľºä¼ļ
ĠSw
Ġfloat
å½»
Ġpen
åĪĨéħį
Ġinternational
.util
itable
roy
Ġsynt
Ġplayer
Ġrespectively
Mod
Ġalthough
Ġsafety
èĪŀ
ĠLa
Ġbroad
Ġvit
Ġsupply
Ġphase
])
true
Ð¾Ð½
umer
Ġcollection
æ²»çĲĨ
çĸ«æĥħ
Ġbool
Ġnorm
åıĮæĸ¹
odies
idget
ä¸»åĬ¨
å±ħæ°ĳ
."Ċ
Ġexisting
æī¬
å«
Ġearli
Ġweeks
Color
è¡¨éĿ¢
æįŁå¤±
mathbf
ä»Ĭå¤©
âĪĴ
ĠApr
Ġmiles
Ġadapt
ä¸ĸçºª
Ġplot
Ø§ÙĨ
Ġfriends
Ġhighly
tes
ĠAut
ä¸¤ç§į
.in
è´¢äº§
_size
Ġsend
Ġsubstitute
ĠInter
Ġult
amm
Ġeat
urg
ĠSte
ario
level
å¥³æĢ§
aker
Ġofficial
ĠRed
åĽŀçŃĶ
ief
è½¯ä»¶
äººåı£
Ġast
select
éĢĲæ¸Ĳ
Ġcommunication
Ġstri
Ġinfection
Ġaim
unch
ĠLog
ä¼ĺåĮĸ
Ġmathemat
ëĭĪëĭ¤
æĦŁè§ī
MA
,-
Ĥ¬
Ġvert
Ġdriv
Ġfilter
geq
ĠĠĠĠĠĠĠĠĠĠĠĠĠĠĠĠĠĠĠĠĠĠĠĠĠĠĠĠĠĠĠ
ĠCreate
(new
è°ģ
abetes
Ġsyn
æ³ķè§Ħ
åĲ¨
Ġefficient
Ġdaily
Ġwalk
è¿İ
éĨĴ
Ġlocated
Ġaw
ë¡ľ
Ġsave
Ġvariety
Ġexperim
å¾Ģå¾Ģ
-e
çļĦä½ľçĶ¨
äº¦
çļĦæĸ¹å¼ı
ĠIndia
åĽ¢éĺŁ
åĲĮæł·
èĳ£
Ġfixed
izations
001
Ġpoly
ech
orph
åįµ
Õ¡
Ġsmallest
åĽĬ
Ġ$$
åıĤèĢĥ
haps
Ùī
Ġplaces
ä¸ºä»Ģä¹Ī
)}
Ġallowed
stant
Ġwent
è¯ļ
content
Ġcook
Ġbehind
Ġexercise
Ġwrong
kt
åĶ¯
Ġserious
Ġadvant
åıªèĥ½
ĠJava
request
è§£åĨ³æĸ¹æ¡Ī
åĪ¶ä½ľ
Ġquickly
Ġangle
äºĨä¸Ģä¸ª
çĹħäºº
uge
Ġoverall
æľĢé«ĺ
DF
Ġinform
Ġorigin
æĸ°åŀĭ
çļĦå°ı
Ġstay
åıĤæķ°
åī©
Ġdenominator
ensions
Ġcand
','
å¤ļç§į
Ġswitch
Ġbalance
mitted
Ġstream
gebra
uary
å³°
Ġmid
rab
Ġeverything
Ġdrug
Ġrelative
Ġthread
æĿ¨
Ġut
å·¥ä½ľçļĦ
çŃĶæ¡Īä¸º
Input
Inter
å¤ļä¸ª
ytes
enge
sg
èĤ¡ä»½
Ġmiddle
Ġsch
Ġhundred
ĠEuropean
ĠFrom
Ġstar
uman
Ġselected
çĬ¶åĨµ
è¦Ĩ
ãĢģãĢĬ
Ġactions
è´¢åĬ¡
.R
Ġprograms
\begin
HT
è·¨
Ġtrig
æķ´æķ°
Ġstored
Ġexactly
Ġreaction
ï¼īãĢĤ
inese
Ġdisco
Ġthreat
Ġhighest
mt
æĺ¯ä»Ģä¹Ī
ä¸Ģå®ļçļĦ
åĬłå·¥
ÄŁ
osure
ouch
Ġconfiguration
Equ
_list
Ġcurrently
ä¸įèī¯
next
è¯ģåĪ¸
Ġperformed
Ġvan
åĬłåħ¥
ingu
Ġshall
Ġusage
cast
éĢĤå½ĵ
æĭį
EST
Ġnil
omic
Ġstim
Ġlabor
Ġdevices
Ġfru
à¸§
Ġreach
cope
Ġadjust
å¹³è¡¡
Ġpresence
reen
fe
ĠHT
åľ¨äºİ
body
ĠÐ³
æĬĢèĥ½
ÑĢÐ¸
////////
è½¦è¾Ĩ
Ġfollowed
issions
Ġprocessing
62
Ġfigure
Ġblue
Ġeye
ocket
uffer
Ġtransl
84
Ġextra
ĠGr
.pro
Ð½Ð¾
Att
Ġcop
Ġbutton
Ġuint
ç¥ĸ
ban
Ġ///
oding
Ġobtained
æģĴ
Ġfa
<|
Ġboolean
aset
125
å¸¦æĿ¥
Ġrelease
ä»Ĭå¹´
Ġheld
ä¼ĺç§Ģ
-C
Ġpurch
more
èĤ¡ä¸ľ
Ġhumans
èī¯å¥½çļĦ
Ġpow
Ġlay
';Ċ
Ġlives
ï¼ĮĊ
æŃ£åľ¨
è¯º
éģĵè·¯
Ġlen
ĠJew
97
éĢĤåºĶ
æĭ¥æľī
-B
ä¹¦è®°
Ġideas
Ġperfect
Ġreduced
å°¾
çªĹ
å¦Īå¦Ī
Ġqual
èħĲ
Ġmeasures
pite
Ġminimum
íķľ
åĪĨç±»
å¹¿æ³Ľ
Ġasked
ÅĤ
Ġsoil
Ġsuccessful
ØŃ
(&
Ġsentence
section
DA
å®ĭ
Ġbottom
eline
Ġseparate
åħ±åĴĮåĽ½
Ġconnected
Ġcru
èĵĿ
...ĊĊ
åı¯ä»¥éĢļè¿ĩ
Ġdeal
format
ensor
PT
room
xygen
çĸ¼çĹĽ
/d
================
rief
èį·
Ġremains
Ġna
.length
èĳ¡èĲ
èĳ¡èĲĦ
orders
Ġinterpret
ĠURL
Ġsetting
Ġwin
(S
oute
ç¾İåħĥ
Ġarguments
ptr
åŃĲçļĦ
åİħ
bin
å±¥è¡Į
å¤§éĩı
Ġexists
Ġsafe
Ġvisual
-term
PA
æŃ¥éª¤
Ġbank
ris
related
Ġisol
Ġcit
çļĦåŁºç¡Ģ
Ġlost
Ġcarry
Ġmanufact
æĥħç»ª
assword
output
çļĦåŁºæľ¬
Comp
%Ċ
Per
};ĊĊ
ç¬¬åįģ
ĠThus
|>Ċ
61
rought
ĠPhys
rote
Response
87
bt
Box
è¯¸
_pro
Ġenvironmental
ìĿĢ
Ġrepresented
æĮĤ
åĿĢ
(g
Ġexpert
ä½ĵç§¯
Ġtissue
Ġexpand
PC
Ġestablished
æ³Į
stances
.println
¸°
Ġenh
}\)
Ð½Ñĭ
ê³ł
}\).Ċ
Ġdivide
Ġord
NS
Ġconsole
è¿ħ
Ġinterval
å¤Ħäºİ
ĠClass
æĹłè®º
My
æıĴ
],[
æļĸ
:âĢľ
çĶŁéķ¿
Ġtrade
æµĭéĩı
æĪĲæŀľ
Ġformed
Ġveh
Ġreceive
æİ¥ä¸ĭæĿ¥
²Į
Ġmuscle
åħģ
ĠJournal
Ġrob
äººä½ĵ
ĠMc
emplate
Ã©s
å¼ĥ
vest
å®Įæķ´
Ġindependent
åĢ¾
Ġcup
itors
actory
è¿ĩåİ»
æīĭæ®µ
Ġrecommend
Ġparty
äººæ°ĳæ³ķéĻ¢
mosp
æ¼ı
Ġcapacity
.r
ĠCheck
ãĥ³
Ġflo
ĠRead
Ġiter
æ¬²
ç»ĻäºĪ
æĮĩåĩº
eq
Ġcam
è´¢æĶ¿
Ġcivil
æĪĳä»¬æľī
Ġworth
ä¼Ł
çļĦä¸Ģä¸ª
ĠStep
Ġcat
Ġlegal
åħ¬å¼Ģ
Ġconstit
æľ¬èº«
èĭ±è¯Ń
Ġbab
Ġclick
Ġhour
éĢĤåĲĪ
Ġwait
Ġsevere
cel
Ġtechniques
len
ND
ç»¿èī²
ĠÑĥ
éŁ³ä¹Ĳ
123
ä¾ĽåºĶ
å°ıäºİ
Ġtherapy
.;
å¹´é¾Ħ
{(
cean
img
è¯ģæį®
ospital
Ġsignificantly
Ġforces
Ġplatform
æĶ¶çĽĬ
/c
åĬ¨çī©
è§īå¾Ĺ
Rec
æľºæ¢°
aste
Ġlif
Ġcustomer
IO
Ġbehavi
ida
è°ĥèĬĤ
Ġtum
However
ĠPat
ĠHar
é©±
duc
çĶŁæĪĲ
Ġoptim
Pr
aled
ä¸ģ
Ġlaws
è§Ħå¾ĭ
.append
Ø¬
Ġphen
Ġwebsite
Ġnav
ï¼īãĢģ
PL
zy
ĠAD
dered
çŀ
ĠId
Ġrout
eria
""
æĿ¥è¶Ĭ
Ġmilitary
ĠAustral
éĩĳå±ŀ
Ġfriend
å¡ĳ
Ġmath
Ġstrength
ĠÙĦ
Ġcompletely
å·§
Ġmentioned
ipment
éĶģ
ĠBar
èĤ¿çĺ¤
Ġconsequ
Ġsoon
-pro
TR
æħ§
lar
Ġmm
åı¯èĥ½æĺ¯
åį³åı¯
ç£¨
omb
-up
Ġhope
CL
æ¢ģ
æĢķ
å°±ä¸ļ
Ġcombination
åħ¬å®ī
ä½ĵèĤ²
men
Ġmental
è¶ĬæĿ¥è¶Ĭ
åĲ¸æĶ¶
-A
obile
Ġthinking
Ġjoint
Ġadding
æĮĩæķ°
è·³
ĠSim
)ï¼Į
çº¤
Ġestablish
_A
à°
æī¶
Ġaccur
çĶµåİĭ
à¸¥
Ġpara
ella
çĶµæµģ
Gener
ä»ĸä»¬çļĦ
Ġbeginning
Ġign
âĦĥ
Ġrapid
Ġtraditional
å¹³éĿ¢
é»ĺ
Ġhypot
Ġgenetic
å¤§ä¼ļ
è¡Ģåİĭ
Ġ]
Ġpor
Ġsin
çŃĸçķ¥
Ġencou
æ¯ķä¸ļ
ä¸»è¦ģæĺ¯
Ġwarm
æł¹æľ¬
Ġmer
roph
itionally
å¤§å°ı
æĴĳ
Ġcontroll
Ġshowed
Ġforward
Ġliqu
aur
(h
hent
ĠMod
å¹´æĿ¥
oe
æĬĽ
Ġdetermined
Ġbran
å¤§å¤ļ
joy
Ġreasons
idden
open
è¡¨æĺİ
èĴĻ
Ġexecut
ifically
ĠMark
Ġ{ĊĊ
rier
å·®å¼Ĥ
ãĤĮ
è¯·æ±Ĥ
éľĩ
Ġgir
éĥ½ä¼ļ
æĥł
ĠÑ
crete
ball
Ġmoving
æĪĲåĳĺ
å¢Ļ
Ġcommit
éĿ¢å¯¹
Ġcycle
urt
anged
çļĦé«ĺ
Ġimag
ĠSchool
æ³¨åĨĮ
va
çĽ¾
gress
åĨ³çŃĸ
çĶĺ
ä¸Ģå®ļè¦ģ
CS
ĠCount
Ġnews
=-
æ¤įçī©
ĠMost
ä¼¸
Ð½Ð°
æ·¡
Ġconstruction
ç»Ŀå¯¹
åĴ¨
çļĦè§Ħå®ļ
åı¬
æ¡Ĩ
ĠAnal
hood
Che
.id
flow
Ġmonitor
Ġleave
uper
Ġantib
Ġerrors
ought
âĢĿãĢģâĢľ
ultip
à§
Ġpassword
Ġfavor
Ġbuff
æĿ¥çľĭ
Ġmultiply
å¡Ķ
åħ³èĬĤ
Ġsugar
Aut
_re
Ġdark
.con
ĠDi
Ġwind
äºĭé¡¹
pped
éĻ·
éĤ£äºĽ
Ġwide
æ½®
gl
ynomial
è¿ģ
}=\
Ġstructures
php
à¤¾
Ġaware
Ġspir
}$$ĊĊ
hi
ector
ë¦
éĽĦ
Status
Ġresistance
ĠMus
med
Ġevolution
Ġincome
terns
Ġscore
Ġrelevant
mark
çºł
illing
ä¸ŃåĮ»
111
Title
abilities
åĨľæ°ĳ
çĶŁçļĦ
update
éĩįè§Ĩ
ria
èįĲ
åģļåĪ°
æĢĿç»´
äºĴèģĶç½ĳ
Ġotherwise
æīĭæľº
æ°ı
bi
åĵĪ
erent
Ġgenerated
Ġkm
Ġcos
çľł
Ġpages
Ġacqu
rient
Ġdiseases
Ġgets
Ġscientific
approx
cher
æĢ»ç»ĵ
ĠInternational
AA
è¡°
Ġchanged
åĲī
anges
Ġpal
Ġcool
ĠDav
ä¸Ģèĩ´
');Ċ
query
å®ŀéĻħä¸Ĭ
SUP
à¸Ķ
ĠFind
Ġneigh
rl
Ġfamil
140
Med
Ġfully
Ġsea
ĠNet
Ġclinical
Total
ql
Ġextends
åĲĽ
---
Ġcounter
éĩįæĸ°
åĴ¨è¯¢
åĬ¨åĬĽ
ptember
Given
cohol
Ġbur
Ġemployees
èĥĢ
ĠMet
é©¾é©¶
Ġdirectory
ĠSun
Ġpp
Ġinteresting
ĠBi
éĹ®é¢ĺçļĦ
Ġscientists
ĠØ£
_G
è°·
DP
Ġabsor
ÂłÂłÂł
æĺ¯ä¸į
ĠUp
urance
ä¿Ĺ
è®¤çľŁ
osite
_path
Ġice
umns
Ġimportance
ìĭ
Ġorganization
ricult
Ġoxygen
å°Ŀ
ä¿®æĶ¹
è¾Ľ
Ġfra
ä¸ĢæĿ¡
ĠTrue
Det
Ġappears
ç»ĺ
éģĵå¾·
ĠFeb
åħ¼
}{-
ĠGerman
Ġpatterns
ĠTechn
ipe
æ©
Ġseason
çī©çĲĨ
num
çļĩ
_v
åĩłä¸ª
ä¸»é¢ĺ
arian
æī©å¤§
å½ĵäºĭ
Ġweak
Do
ells
èĥĮæĻ¯
,ĊĊ
Ġloop
Ð¾ÑĤ
${
Ġtold
ĠRem
itect
plicit
Ġelim
ĠPress
é¥°
èģĺ
æµģç¨ĭ
ellig
pective
Ġdomain
çĪ¸
works
ä¸įåĪ°
Ġrect
æļĤ
ĠChinese
Ġeffic
uster
Delta
é½¿
Ġmount
æĸĩåŃ¦
ĠBr
Ġidentified
Ġcompare
force
gu
Ø§Øª
Ġstorage
()ĊĊ
TH
Ġindu
ĠMany
UI
Ġcolon
æľ¬é¢ĺ
ç½²
åŃĻ
Ġfather
Ġcharge
à¸¢
æŀĦå»º
ĠFl
åĪĨè§£
Ġscen
eloc
Result
Ġ${
äººæ°ĳåħ±åĴĮåĽ½
åįıè°ĥ
iform
è¾ĵåĩº
Ġwave
ç»ĵæĿŁ
Ġresource
Äĥ
Ġ~
åľ¨è¿Ļä¸ª
icate
Ġregions
.âĢĿĊ
Ð»Ð°
æĿ¥èĩª
æĬķåħ¥
ĠGoogle
_com
Ð¾Ð¹
Ġcalculated
è¿¹
Ġboard
ä¼ģä¸ļçļĦ
Ġapproximately
æİ¢ç´¢
Ġdensity
oses
Ġsitu
}^
(y
Ġtrain
Ġupper
æ³¥
(C
ÙĬØ©
vector
Ġmanage
åĬłå¿«
ĠCour
Ġplease
ë¥¼
Ġroad
ãĢĮ
æĽ´æĸ°
å½ĵçĦ¶
_ST
å¤ļçļĦ
ĠLaw
å½ĵæĹ¶
Ġing
Ġfinding
irt
Ġeasier
å¦ĤæŃ¤
Ġfailure
Ġâī
aint
").
çŃ¹
msg
Ġcharacteristics
Ġhref
Ġdoctor
Ã´
ä¸Ńåįİäººæ°ĳåħ±åĴĮåĽ½
fort
ĠØª
hold
189
åĮ»åŃ¦
Ġsust
åĭ¤
sect
Client
çº¿çļĦ
å¤Ħç½ļ
186
ä¸Ĭå¸Ĥ
ooth
Ġrock
Ġconflic
åįĬå¾Ħ
tage
Ġ<=
ç³»ç»ŁçļĦ
-year
æĹ¦
stitution
è¡¥åħħ
130
Ġìł
adr
çİ°å®ŀ
Ġgenes
Ð»Ð¸
Ġcompound
Ġdan
åĲ«æľī
Ġproviding
-de
/**Ċ
çī¹åĪ«æĺ¯
è¿«
Ġcommonly
Ġdead
ĠAlso
Ġframe
rum
inate
æŃ»äº¡
åº¦çļĦ
åħ·å¤ĩ
Ġconfirm
ondon
çľŁå®ŀ
ĠAccording
é¢Ĺ
Ġfight
Ġatmosp
ãĢį
Ġmig
ç¡®è®¤
ĠScholar
ĠĠĠĠĠĠĠĠĠĠĠĠĠĠĠĠĠĠĠĠĠ
å±ķå¼Ģ
ĠAre
ì§Ģ
è´¸æĺĵ
ç±į
Ġhar
çļĦç»ĵæŀľ
åĪĢ
ĠMarch
package
chen
ometry
Ġfair
ille
_to
}x
Ġbacteria
ĠOf
Ġsolid
pa
360
''
æĢĿèĢĥ
73
Ġhimself
æĸĩæľ¬
ham
ĠSer
_file
âĹ
èŀº
ashing
%ãĢĤ
dx
ened
Ġbone
ĠGree
yond
æļĹ
close
ĠAlthough
æ£®
åĬŀåħ¬
XX
\times
ĠØ¹
Ġauth
Select
Controller
ĠWest
éħįåĲĪ
gery
Ġequivalent
ĠØ§ÙĦÙħ
Ġintegers
ĠWhy
reme
çŁĽ
å®ļæľŁ
ervation
äºĮåįģ
Ġconv
ĠObject
ç¼ºä¹ı
çºµ
è¿Ŀæ³ķ
å·¥èµĦ
108
Ġauto
æģ©
ologies
ections
Ġsi
Ġexception
Ġpassed
éļľç¢į
)-
UM
ca
èģĮå·¥
Ġletters
([
åĩºåı£
uns
ĠInst
hens
Ġraise
Ġconc
äºķ
-re
onic
çĲĨå¿µ
ĠVol
Ġmag
Ġsett
Ġgrowing
å®ŀè¡Į
ository
æķħçŃĶæ¡Īä¸º
è´§å¸ģ
Ġrespons
Ġwoman
è®¨è®º
ĠForm
ä¼Ļ
è¿ĶåĽŀ
åĲĪå¹¶
æīĢå¾Ĺ
Ġexperiment
Ġhappens
Google
åŁºåĽł
ä»İäºĭ
isation
æŃ£æĸ¹
func
Ġsubtract
Click
Ãº
ĠÂ«
Ġinsert
æµª
èĸĦ
é¼ĵåĬ±
æ£ĢéªĮ
Ġprotection
åľ°ä½į
èµĸ
èº«ä»½
ä¸ĢçĤ¹
Ġdescribe
è¶ĭåĬ¿
å¿Ĩ
Ġaffected
Ġyourself
Ġband
Ġconver
allel
tan
Ġsav
ÏĢ
Query
æĸ¹éĿ¢çļĦ
Ġextrem
Ġsecret
æ°ĳä¸»
.html
à¸´
å±ķç¤º
71
gr
Ġvacc
èĢĥæŁ¥
105
Ġflex
lib
Ġdiss
Ġeconomy
Ġdivisible
assert
size
è¡Ģæ¶²
è¿Ľè¡ĮäºĨ
128
SA
Ġsurround
Ġeyes
count
Ġsolar
éĢĨ
/j
è¿ĲèĲ¥
Ġassign
å°±åı¯ä»¥
åħļåĳĺ
Ġfoods
èĤ¯
Ġ\).ĊĊ
ĠWeb
ĠType
iers
Ġcore
ĠCommun
à¸Ĺ
pected
Content
åŃĺåĤ¨
Ġbeyond
92
Ġsuggests
OC
Ġentry
å°ıåŃ¦
BN
Ġdistinct
åįģåĪĨ
cycl
brid
Ġsaw
Ġrestrict
cember
æķĻæİĪ
ç»´çĶŁç´ł
ĠCD
uilder
ilit
Ġrare
atin
ibly
Ġenjoy
æ¢¯
Ġplus
cules
asc
ĠAugust
ĠHigh
æľīæīĢ
Ġneut
icip
sigma
Ġmotion
Ġstrategy
çļĦæĸ°
Point
Ġassume
Ġexternal
Ġpresented
Ġsustain
åľ£
æ³½
Ġdry
Ġchain
Line
èµĦæł¼
å¿½
âī
ersion
ĠHer
Ġpicture
è´¡
actor
exp
ä½ĵéªĮ
çĴ
inci
çŁĽçĽ¾
Ġeveryone
è®¡ç®Ĺæľº
Ġinstr
æĦĪ
æ´ŀ
Ġprofessional
Õ¡Õ
db
Ġworkers
åħ±äº§
ky
Ġalone
(B
stream
Ġearlier
ĠFe
Ġdigital
74
Ġindicating
Ġmeasured
åºĦ
default
å§ĵ
èĥ¡
Ġ...Ċ
ëĵ
Ġprefer
rage
å·¥èīº
åĭĩ
zer
olved
etch
åĲįç§°
ĠJune
èĤ¡ç¥¨
Ġdictionary
èµĶåģ¿
abs
æĭĵ
æĬ¼
ĠActions
ressed
table
ç»ıåİĨ
\).ĊĊ
å¾Ĵ
×¨
Ġremaining
oto
åıĳè¡Į
link
.re
Ġdiag
çĶµè§Ĩ
atically
Ġhands
ords
Ġpolynomial
Ġmo
Ġtasks
Ġburn
Ġrepl
ĠRel
ä»įçĦ¶
Ġgradu
åĬ¨ä½ľ
ìľ
ĠPost
ildren
osph
zym
oted
imer
çİ¯èĬĤ
ilon
Ġrelatively
Ġinhib
çĹħæĥħ
ners
can
æĶ¯æĴĳ
åĳĬè¯ī
ua
ford
æĲŃ
Ġpul
Ġpackage
ĠJust
åıĳæĺİ
Ġformer
åĻ¨çļĦ
Ġê°
Ġ$-
Ġillust
Ġoperator
&=
åĩŃ
iable
SP
Ġgrid
æ¶Ĥ
EE
Ġvary
æīĢåľ¨
Ġvict
æ¹¾
/h
cap
åĮºéĹ´
bal
semb
kg
åªĴä½ĵ
åı¸æ³ķ
Ġlas
çĸı
éĢĤçĶ¨
Group
(R
82
Post
CA
Ġ[Ċ
Ġsamples
Ġcold
ç²®
Ġimmediately
big
å®ŀæķ°
phas
ira
ê°Ģ
çĽ´è§Ĵ
Ġclosed
ping
Ġrise
Ġschools
æĪĳä»¬è¦ģ
Ġimplemented
çļĦæĢ»
ny
ĠDepartment
éĽħ
æľīäºº
field
otype
Ġunc
ĠComput
Ġï¼ī
ovember
ĠEqu
(v
Ġseek
};Ċ
Ġmovie
Ġstru
Ġein
æİ¨èįĲ
ĠAfrica
Ġproport
ĠInstitute
!!
Ġoccup
Ġequipment
Ġdrink
Ġslight
-D
opic
Ġcalls
è½¬ç§»
åŃ¦ç§ĳ
çĮª
91
ĠSimplify
æĥĬ
Ġdegrees
æĪ¿å±ĭ
Ġrecently
Ġcourt
å¤ªéĺ³
Ġconstructor
Ġplanet
ÐºÐ°
èĴ¸
æıĲä¾ĽäºĨ
ä¸Ļ
emp
çĽĳæµĭ
ĠHol
çĶµå½±
Ġcultural
Ġalt
æĺ¾èĳĹ
ĠApril
çļĦæĥħåĨµä¸ĭ
ìķ
Ġdiabetes
Ġproof
Ġcircle
èĪĴ
é¢ľèī²
åħģè®¸
è¯¦ç»Ĩ
åıĺéĩı
åĨĴ
client
æµģåĬ¨
(X
æ²ŁéĢļ
what
-r
åĪĽä¸ļ
Ġdrugs
(M
Ġremember
åĲ´
Ġformation
é²ģ
Ġproteins
Ġcir
Ġcategory
æĽ´å¥½
ilosoph
ifying
Ġmac
Ġshift
å¼ºåĮĸ
ä¸ĭéĿ¢
Ġcommer
(P
æ´¥
Ġparticles
åĢºåĬ¡
Ġcreates
ying
Ġ\<
ded
iate
Ġolder
After
è¯¾åłĤ
å¹³è¡Į
æ»¤
Ġpiece
ĠCenter
åħ´è¶£
Ġoffice
ç´łè´¨
ÐµÐ½Ð¸
æ¶Īéĺ²
ç¬¬ä¸Ģä¸ª
Ġsites
Ġforeign
æı´
å½ĵåľ°
ĠInc
Ġje
èĦ¸
Ġdoc
ä¸²
Ġdepending
yles
çĽŁ
âĢĿâĢľ
Ġdomin
Ġfuel
{c
å®ĩ
Ġrepresentation
åŃ¦ä¼ļ
åħĪçĶŁ
Ġguid
Ġnga
åħ¬åı¸çļĦ
Ġsold
Ġoutcomes
ando
Ġspeak
éĶħ
cil
imens
çĶµè¯Ŀ
å¹´åº¦
RI
MP
Ġnation
Ø§Ø±
Ġcontrast
ä¼¦
èĳ£äºĭ
Ġwatch
ĠJuly
ä»ĸäºº
è§ĤçĤ¹
Ġresid
Comm
)$ï¼Į
å¯¸
åħĪè¿Ľ
ymbol
è½¬åĮĸ
83
çº¹
è§Ħå®ļçļĦ
ä¿¡çĶ¨
\in
åĸ·
Ġimmune
Ġpregn
ĠOur
Ġbelong
TER
Ġ\).Ċ
æµ®
Page
Ġveget
UE
åĪĨæ³Į
Ġprotected
eding
ä¸ĢåĪĩ
åĳ¨éķ¿
è¿Ļä¸¤ä¸ª
ä»ģ
Ġ\,
è·Į
å²Ĺä½į
ä¸īè§Ĵå½¢çļĦ
Ġdefines
RA
plot
group
itter
])Ċ
start
iforn
TO
Ġbenefit
andle
Ġtrees
çļĦå®īåħ¨
ategory
Ġcorrectly
Ġwild
These
'd
$ãĢĤ
_e
éŀ
æŁĲäºĽ
å¤¹
ĠBecause
Ġwood
Ġwid
Ġsong
heses
ĠUser
Ġdecrease
Ġwaste
éº¦
erved
Ass
åĪ°çļĦ
åĲĮæ¯Ķ
ç¡®å®ŀ
åķĬ
æĿ¥æºĲ
Ne
éĢļä¿¡
å¼Ł
åĩ½æķ°çļĦ
tty
Ġox
188
Ġplaced
Ġforest
Ġprojects
éĿĴå¹´
Ġfemale
outhern
éī´å®ļ
hy
acing
style
/p
Ġtreated
ĠReturns
Me
Ġedge
ãģĻ
amental
$.Ċ
ĠUsing
main
ĠJanuary
çĶµåĬĽ
long
æĩĤ
iling
ĠNOT
é¡¿
å±ı
Ġdepends
åĶ±
ĠGeneral
Ġindicate
ĠPresident
}$,
æĻºæħ§
SD
è¿ħéĢŁ
ä¼į
èĢģå¹´
åĪ·
èĪį
iny
æ¶Īè´¹èĢħ
ç¬¬äºĶ
åĩ¡
Ġleaves
ĠOver
å¼ķèµ·çļĦ
Ġveloc
Ġ>=
èķ
Ġuna
_O
Ġleads
soft
ä¹Łå°±æĺ¯
uries
Äģ
pu
ĠĠĠĠĠĠĠĠĊ
èį¯åĵģ
å½ĵäºĭäºº
æľĢå°ı
Ġvirtual
/or
æĶ¾åľ¨
ras
äººæ°ĳå¸ģ
æĪĲåĪĨ
Ġattribute
éĥ¨ä½į
Īĺ
Ġnovel
çĵ¶
ãĢĤãĢĬ
Ġlogic
æ´Ľ
Ġwanted
Ġsession
iring
å¿ĺ
ç®ĢåĮĸ
ĠDevelop
ĠGen
Ġfluid
Ġ&=
åİŁçĲĨ
èĦ¾
äººå·¥
Check
çļĦåİŁåĽł
åĩī
ĠSeptember
mes
ãĢĭãĢģãĢĬ
_set
åį³ä½¿
kan
æĪĺäºī
Ġdrop
çıł
ĠIndian
label
:"
Ġremoved
æĺ¯çĶ±
option
Ġborder
æįŁä¼¤
æħ¢æĢ§
Ġstock
æĪĳä»¬å¾ĹåĪ°
ĠCong
187
orthern
Ġsupported
ç¿»è¯ĳæĪĲ
Ġdrive
Ġhyper
Ġandroid
Ġbud
icks
Ġidentity
éĻ¤ä»¥
éħ¶
Ġexposure
Ġletter
à¸ļ
aly
ä»ĵ
çĶµæ±ł
./
æ¶ĪåĮĸ
Ġreleased
DB
Ġbrought
Æ°á»
æŃ¤æĹ¶
nes
æķ¢
æįŁå®³
å¦»
Ġ*/
åľ°äº§
Ġnorth
Stream
åĪĨæķ°
Ġdro
Some
Ġfear
Ġliquid
Ġtopic
åĲ¯åĬ¨
ÐµÐ¼
ĠLondon
uan
None
Ġfib
PU
Ġdou
å¯¿
è´Ŀ
æī°
ä¸»ç®¡
è®¤å®ļ
Ġcircum
ç»Ļå®ļçļĦ
ĠÂłÂł
ĠDem
Ġprocedure
åĩºè¡Ģ
ç§Ĵ
kin
éĺĢ
Ġpercentage
Listener
éĴĻ
æ¨¡åĿĹ
Ġstraight
åĵ²
Create
ĠArticle
æķ¬
Ġking
ĠFin
();
Ġpartial
ãĢĭĊ
æĢİæł·
GB
under
Ġpull
èŀįèµĦ
åıĳèĤ²
ĠYes
æī«
åĲĦé¡¹
Ġworked
omas
èĢĮè¨Ģ
å£®
æĻ¶
.H
rics
Expl
berg
ĠIP
èªī
256
root
ncy
æĬ¤çĲĨ
Ġgave
çłĶåıĳ
æ¯ıä¸Ģ
éĽĨä½ĵ
æĹĹ
Ġproperly
Ġproposed
çģ°
ĠEngland
Ġvisit
ba
éĢĲæŃ¥
åĲĪæ³ķ
çļĦåīį
export
Ð°ÑĢ
Source
ifornia
Â²
Ġcoming
Ġchannel
Ġswe
Ã·
ç¾Ĭ
çĽ¸åºĶçļĦ
Ġancient
ãģĭ
æ°¢
è¿ĽæŃ¥
Ġnearly
aign
-th
æĦıæĢĿ
ĠMicro
æĿĥçĽĬ
Ð¾Ð³Ð¾
Start
iance
æŃ£å¼ı
ĠGreat
èµµ
***
Ġgiving
Ġnodes
Ġmetab
Ġarticles
EC
×Ķ
240
å°¤åħ¶æĺ¯
Ġhit
ĠCity
Ġargs
çĲĨæĥ³
éĤ»
Ġfont
-con
æ¯ĶèµĽ
Ġhon
Ġmel
åĽ¾åĥı
Ġconcentration
ç´«
Ġgreatest
ĠKe
æķħéļľ
æº¶æ¶²
Thus
Ġselection
uccess
ĠRoman
Ġalcohol
height
ç²ĺ
ĠFinally
ä¼Ĭ
ulf
éĵģè·¯
Ġmajority
ä¼¯
Ġtechnique
Ġrac
éªĮè¯ģ
Component
(const
ĠRev
èĭ±åĽ½
Ġmale
Ġnucle
Ġsettings
anguages
Pre
rehens
93
âĢī
Ã§Ã£o
nh
Ġcompl
æ··åĲĪ
ä¸Ĭåįĩ
Ġpolic
éļıæľº
ĠSy
Ġrelationships
ĠView
ç»´æĮģ
åĪ©çİĩ
æ¸ł
å®ŀçĶ¨
è¦ĨçĽĸ
ç«ĭåį³
Ġwrote
)+
Ġreligious
ĠJSON
é¢ĦæľŁ
ĠEven
åŃ©åŃĲçļĦ
èµı
ĠJe
Te
ructure
ëı
è§Ĩé¢ĳ
åĬłä¸Ĭ
Why
103
ĠSur
Ġ×Ķ
ä¸įå°ĳ
ĠÐ°
ndrome
éªĹ
ĠÂ·
åĬ©äºİ
Ġanswers
-x
**ï¼ļ
edu
ollow
æĭĶ
That
)}{
å°ĸ
å¹ķ
}.
éĩĳé¢Ŀ
pling
æĹ©æľŁ
éĨĩ
ĠFrance
Ġtherm
åĳ½é¢ĺ
Ġmeters
çļĦæ¦Ĥçİĩ
åĴ³
Ġrecept
èĩªä¸»
Î¿
Ġpet
nam
Ġmembr
å±Ģéĥ¨
è§£è¿Ļä¸ª
è¿·
èģĮè´£
Ġprem
-time
Ġtrust
Ġmessages
Ġdanger
NO
à¯į
Ġreturned
(w
hetic
Ġeffort
Ġyang
æŁĲæŁĲ
bug
ìĸ
à¸ª
Ġvon
æ¢ħ
åī²
Ġexcess
ped
Ġgames
Ġ($
base
æķ°åĪĹ
æĮĳæĪĺ
ç»ĵè®º
values
Ġsigns
aught
Ġsimplified
Ġborn
ita
Ġcontinuous
nel
Ġë°
Ġadults
ç¼ĵè§£
ĠFran
æĹ¨
>(
Ġpref
æ¿Ģç´ł
ĠHel
185
Ġìķ
Ġphone
-P
ĠProgram
Ġcredit
Ġfamilies
}$ĊĊ
Ġcitiz
æľīåĪ©äºİ
Ġgrav
Ġcry
ĠChristian
æĿ¯
åĨįæ¬¡
olor
æ¸ħæ¥ļ
Ġeating
à¸ķ
Ġcausing
à¸°
estic
Ġindicates
æłĩå¿Ĺ
Ġstrategies
(k
ä¼ı
Ġmetal
çļĦåħ³ç³»
æĪ´
Ġalternative
çªģåĩº
IB
Ġhair
å¯¹åºĶ
æģĲ
æ°¨
Ġpowerful
ĠWork
ĠOctober
çī¹å®ļ
åĮĢ
etime
porary
ruary
Ġpractices
åıĺæĪĲ
abil
While
è¢ĭ
Ġiron
ĠAssoci
Ġmal
Ġnuclear
.to
ĠSee
è¿ĺè¦ģ
Ġlooks
ãĢĢãĢĢ
Ġinvestment
bed
Ġmotor
-H
çĻ¾åĪĨ
é¢Ħæµĭ
}$$Ċ
-v
Ġpoll
æľºåĻ¨
Ġpreviously
94
asure
Ġroll
Ġradiation
Ġbra
ä»£çĲĨ
å®ĥä»¬çļĦ
osen
æĸ¹ä¾¿
+b
ĠFalse
inciples
çĽ¸å½ĵ
anagement
åĬ¨æľº
æľĢå¥½
Ä±n
.data
ographic
Ġsouth
ums
ìĦľ
System
ĠGermany
Ġradio
enses
å®ļä½į
ĠMor
Ġkid
Ġsales
(u
çĶµè·¯
Handler
Sp
Ġtor
æ»´
Ġstatements
rael
Ġmolecules
Ġmechanism
Ġarm
Ġcomments
Ġ(\
Ġseconds
weight
istor
ki
%)
Ġhorm
å½¢è±¡
æĸĳ
SET
åĬ¨æĢģ
arest
__(
Ġrefers
Ġlic
ĠIdent
Ġframework
Ġkids
èĥ½éĩı
åºĶæĢ¥
Ġbeaut
Ġinflam
aud
åįķåħĥ
äººçī©
900
EF
_W
uy
rams
ĠDiv
Ġhttps
éļ¾ä»¥
)=\
Ġbuffer
lem
Ġchance
Ġfig
Ġinvolve
Ġment
Ġexchange
OST
Ġstack
ĠVer
æī¹åĩĨ
112
ĠPeople
-F
Ġopin
Ġdisorder
lis
Load
_con
words
Ġsufficient
reement
çº¤ç»´
LA
çŃīçŃī
-se
Ġtour
Ġgold
ĠEv
ä¸¤è¾¹
åĪĳäºĭ
ulin
Ġstaff
obj
çķħ
åĲĮä¸Ģ
Call
script
ĠTime
éŁ©
æ·ĭ
æ°Ķä½ĵ
iÃ³n
inder
Ġpun
åĵ¥
iveness
Figure
å¢¨
Ġclearly
Ġvoltage
Ġanyone
åºĶå¯¹
çĽ¸åıį
ĠRec
Can
.<
åĽĽä¸ª
Ġchecks
Ã¼r
çĵ¦
ĠDuring
Ġgeneration
ĠPub
Ġcombined
ragment
çļĦè§£
Ġ};Ċ
}\\
Ġfindings
faces
èİ«
.W
reedom
Ġevaluate
Ġallowing
Ġple
Ġeg
Please
atabase
æķħéĢī
åĲĦä¸ª
çĽ¸æ¯Ķ
è§Ī
ĠDecember
ĠEduc
Part
æ³°
Ġshared
Ġgard
Ġchanging
Ġplane
Ġmargin
zen
é¢ĺæĦı
ĠRepublic
è¾©
æľīäºĨ
ĠOb
åĵªä¸ª
255
ĠBlack
çļĦä¸Ģç§į
vas
{p
å²¸
èħ¿
-a
è´¡çĮ®
å©´
Ġ\).
cs
Ġthick
Net
æıĲç¤º
æĢ»æĺ¯
Ġfine
Ġconsists
roduction
Ð¾Ñģ
ART
Ġbillion
Ġassist
ĠOpen
Ġunivers
Ġchrom
eler
æ¡Īä¾ĭ
å°ĺ
104
Ġadopt
rays
_se
ributions
æĢģåº¦
à¤¾à¤
md
ãģ£
åħ±æľī
ĠÑĩ
adata
æĸĩåŃĹ
rew
Ġhabit
ĠRetrie
Ġcandid
å¼ķåıĳ
ĠJes
ĠBoth
ĠProf
that
[@
Ġ+Ċ
Ġtoward
æĭĴ
({
Ġintroduced
anging
ĠÕ
çĽĪ
æ£Ģå¯Ł
Ġcurve
Ap
.(
èĢĥæł¸
Ġalign
\):Ċ
ĠUK
ael
iverse
water
Ġà¦
Ġrelation
Ġarchitect
Ġdiscovered
Ġcircuit
×ľ
ĠAfrican
Back
Ġoffers
ĠFile
pload
Ġrecords
Ġmort
airs
Ġfinally
æĬĳåĪ¶
ä½ľåĩº
-like
åįģäºĮ
Ġobvious
Ġnor
åŁºåľ°
è®¯
Ġprove
åĲĲ
zing
iders
æĭĨ
å°Ĩåħ¶
è¾ĥå¤§
èŀįåĲĪ
.js
æ±Ĺ
èµŀ
åĽ¾ä¹¦
Ġhous
ĠAB
ç«Ł
lig
çĩ¥
çļĦè¡Įä¸º
Ġopportunity
è°±
å®¡è®¡
çļĦä¸Ń
Ġcommercial
Ġtag
ows
æ¯ıæ¬¡
UP
æĳĨ
éĵľ
Ġpresident
Ġwants
åľĨçļĦ
umin
Ġgoals
display
Ġauthors
ãĤī
ĠGovern
Ġinner
standing
ä¿Ħ
Ġregist
Ġinfect
Ġdra
avas
Ġadvantage
oration
ĠCalifornia
ĠMich
Ġlinked
Ġemphas
po
ä½İäºİ
Ġaspects
Ġeventually
Mat
poses
Ġupdated
ĠAny
ä¸Ĭä¸ĭ
-type
Ġperhaps
æīİ
ĠAnswer
.name
antic
parse
Ġstation
ë¦¬
éĶ»
Ġpriv
(T
çĵľ
Ġdestroy
Ġkil
Ġvent
Ġgi
pg
ĠPort
_DE
_x
Ġtox
ĠNovember
700
Ġinteract
adding
Ġexistence
orge
Util
Ġcommunities
uracy
åŁºå±Ĥ
ç«ĭæĸ¹
Ġmes
normal
æ¶µ
<tool
ĠâĢ¦
Instance
Ġregarding
åĲĪæł¼
Ġattributes
ĠCanada
Ġdecisions
ione
Ġbed
Ġwat
Char
Ġdepth
æľĢå¤§çļĦ
Ġsurpr
/b
åŃĲå®«
å¹³æĸ¹ç±³
uh
ague
ĠPal
è¿ĻæĦıåĳ³çĿĢ
åĲĦç±»
lements
è°Ĳ
ja
Ġï¼Ī
_info
éĤ®
Ġfix
_k
bert
Ġsaying
Us
)*
Ø´
ĠDec
Ġbatter
ometric
Ġbreath
Ġvelocity
Ġteaching
Ġexpressed
ä½łä»¬
.âĢĿĊĊ
ito
Ġthousands
oul
åĲ«éĩı
èĤª
è¿½æ±Ĥ
å®ı
Ġefforts
cribe
Ġjournal
Ġroots
ä¸įåıĺ
ĠUnion
care
Ġcrucial
èµĭ
Ġnotice
Ġvill
ĠMal
json
ĠBer
è¡Įé©¶
èĦĤèĤª
ĠColle
ĠBen
enty
ĠText
DR
eps
`.ĊĊ
amples
äº§çĶŁçļĦ
æĢ¥æĢ§
Ġdoll
ouncil
Ġrich
Ġquadr
Ġweather
Ġtruth
Ġreduction
ç½ĳç«Ļ
ä¹ĺä»¥
}^{\
rav
othe
è¯ĨåĪ«
çļĦåĨħå®¹
ÃŃa
æ¼«
Ġspirit
ugin
Ġteacher
è¾¨
è®¸åı¯
ĠHistory
road
å°ıç»Ħ
ĠBook
å§Ķæīĺ
_comment
Ġchallenges
!<
è¾¹éķ¿
IZ
tee
Ġstarts
æľŁéĻĲ
Ġfailed
[\
AX
EG
èĤ¢
Ġspaces
Ġfederal
Ġvs
æī¾åĩº
æĥħæĦŁ
åıĸåĢ¼
ĠPark
Ġblog
}+\
pecific
Ġsurgery
ĠExample
.E
ago
åĪĨæ¯į
å¹´ä»£
oking
åĿ¡
Ġrecommended
oting
Ġwire
ĠEast
Ġperm
ç²Ĺ
Ġconsumption
.y
åĪĨåĪ«ä¸º
ifferent
Ġserve
ä¼¤å®³
Ġstandards
Action
omega
Ġurl
åħ¸åŀĭ
arter
Ġflag
|\
éĿ¢ä¸´
æĳ¸
ĠLear
Ġminor
æĵ¦
ĠSol
ãĤ¹
\text
åĬ¡éĻ¢
Ġimmun
ä¸ĢæĹ¦
ĠSan
title
à¸Ħ
ÑģÑı
Ġaxis
Ġprinciple
Ġpretty
184
]\
æ§½
109
Ġdiscussion
ĠÙħÙĨ
æĬ¢
orted
æģ°
å¼ºåº¦
çĤ¸
Ġexperiences
çĤī
PR
RNA
ãĢĳĊ
æĤī
Ġprices
ä¹Į
å¸¸è§ģçļĦ
bles
Ġhistorical
overrightarrow
Ø·
<issue
ĠMethod
ĠÙģÙĬ
.de
iler
Ġdescribes
Script
è´Łè´£äºº
Ġsrc
.J
ognitive
Ġteachers
å°Ŀè¯ķ
å°½éĩı
Rel
Ġstars
ĠOff
ĠArch
apers
æ¯ıå¹´
ashington
ĠDavid
Ġpush
Ġsell
æľ±
èĢĥçĶŁ
Ġdefic
Ġattract
çł´åĿı
-L
è¹
)ĊĊĊ
æĻ®éģį
æ³Ħ
ota
ructions
amily
åı¥è¯Ŀ
IONS
çļĦæ°´
Ġoperating
Ġradius
ç§¦
à¸«
ä¸ŃåŃ¦
ander
process
èĢĮä¸į
åıĳçĹħ
$A
Ġplanning
æľĢè¿ĳä¸Ģå¹´
:**Ċ
.size
response
åĪĬ
Ġcontinued
Ġfill
race
æīĢè°ĵ
erial
Ñī
æ¡ĥ
Ġmagnetic
oi
Ġefficiency
æ°ĳäºĭ
Ġcast
çĶŁæ´»ä¸Ń
Ġcarried
æľ¬ä¹¦
Fe
Ġfundamental
Ġinterested
Entity
è®¾ç«ĭ
Ġcustomers
Ġconvers
Ġmedium
Frame
Ġdataset
inger
çļĦåľ°æĸ¹
çº³ç¨İ
Ġalgebra
æµĻ
Ġelectron
Ġestimated
ello
}}{\
Ġmix
Ġrain
æĦŁåıĹ
osa
åį±å®³
Ġsubsequ
Ġ/>Ċ
ĠDon
äººæ°ĳæĶ¿åºľ
asion
ç§ĳçłĶ
_reg
Ġtrou
Ġbinary
åİŁåĳĬ
rations
ç¢±
åĪ«äºº
å°½ç®¡
è¾ĸ
alled
æľīæľº
Ġbaby
éģŃ
åĮ¹
ĠBas
æĤ¨æľĢè¿ĳä¸Ģå¹´
æĤ¨æľĢè¿ĳä¸Ģå¹´ä½¿çĶ¨
ĠTwo
width
ÃĹÃĹ
avascript
121
how
raints
MI
æĬķèµĦèĢħ
åŀĤçĽ´
éĥģ
venue
æķĮ
é¡¹å¼ı
MC
çº¢èī²
Ġfaster
æľĹ
_\
Ġretrieve
Property
_ID
aks
Ġcorrel
Ġagricult
More
usiness
Ġrespond
Ġcreation
Ġobj
æĺ¯å¯¹
Ġreferred
ASE
è¯±
LL
Ġrend
EP
Ġparticipants
ĠMathemat
ä¹¡æĿĳ
æĽ´å¤ļçļĦ
Ġdelete
ifications
orial
çĦĬ
Ġdied
ĠPublic
Ġê²
çº¿è·¯
ĠAtt
ç»ĨèıĮ
çİ°éĩĳ
Ġminim
ä»»æĦı
Ġregul
åģļæ³ķ
¹æŀľ
ansion
Ġextremely
Ġcovered
Ġregister
rd
é¡ºåºı
å¾Ĳ
Ġtoken
Head
âĨĴ
Ġmist
Î²
arn
æ³ī
ê¸°
Ġyes
èī¯å¥½
Ġdownload
áº¡
åĽ½åĬ¡éĻ¢
Rem
äººæķ°
izont
Ġreports
Ġcompleted
Ġlanguages
Art
Ġhighlight
Ġspecifically
åĪĨäº«
Ġtriangle
ĠFree
then
çıį
Ġintellig
`Ċ
åħ¬æ°ĳ
Ġfunctional
é¢ĳçİĩ
çī©åĵģ
Ġmotiv
Ġstrugg
Ġsplit
èĬ¯
ĠDist
éĢĥ
æ¤İ
ĠNote
æŁ¥è¯¢
Ġcities
àª
çī©æµģ
ĠElect
Ġreality
ĠMac
é«ĺæł¡
Ġvess
Ġinjury
Ġneuro
åŃ¦æľ¯
remove
(data
Ġsuccessfully
Ġbodies
åĪĿå§ĭ
åľºæīĢ
Ġheavy
neq
Ġmilk
imple
ĠNumber
äºİæĺ¯
ithub
Ġenzym
Ġhospital
ĠAmericans
ĠUs
ä¸įåĨį
.In
ora
Ġelectro
Ġgoods
å¤ĸçļĦ
è¿Ļä¹Ī
Ġlos
éĩĮçļĦ
éģĩåĪ°
äººåľ¨
rig
å²©
oz
144
Base
Ġcomparison
çĶµæºĲ
è¿ĳå¹³
Ġprotocol
inity
æľ¬æ¬¡
ä¸¹
èĶ¬
$ï¼Ī
ĠDate
Ġderived
é¸Ł
å¹¿åĳĬ
Ġbreast
Ġguide
Ġprimarily
Ġtrend
åı¯ä»¥åľ¨
Ð°Ðº
ĠMain
æľīåĬ©äºİ
ridge
ye
Ġcoast
åĳ¨åĽ´
Ġphenomen
post
oday
ermine
ĠCam
ponents
Ġcert
Ð¸Ð½
Ġpurposes
çĽ¸åħ³çļĦ
Ġexhib
Ġlearned
ĠMr
ĠUnder
ĠPaul
Ġera
ĠHouse
æ¸ħæĻ
ä¹łè¿ĳå¹³
Ġbon
ç³ĸå°¿
ä»¿
åıĺå¾Ĺ
ĠExt
ç¢İ
èĲ¥éĶĢ
å¹¸ç¦ı
èĩªè¡Į
Ġtried
Ġdelay
gt
Ġmissing
Î¹
YPE
Ġjo
à¹ģ
Ġatmosphere
Ġexplore
Ġinteraction
ç±»ä¼¼
roke
chron
ATA
à¨
æĹģ
Ġyield
Ġvision
Ġtrial
IA
çº¦å®ļ
Ġinnov
heet
ĠSocial
å¿ĥèĦı
$=
åĮ»å¸Ī
æĹ¥èµ·
current
Ġshowing
Ġdigits
Ġdiagnosis
():Ċ
Ġwonder
çī¢
Ġspeech
åįıä¼ļ
ĠIsrael
æīĵéĢł
rip
170
å®¡æŁ¥
End
Ġobser
Ġpool
Ġheader
Ġdisorders
ernel
tn
è¿Ł
Ġreducing
TC
uple
ĠGroup
Ġmeeting
çĳŀ
æ³¨éĩį
<sub
Ġeffectively
/t
Ġaccurate
ĠInitial
èĭ¹æŀľ
.G
Ġplayed
ibrary
ĠBra
Ġready
iful
æĭ¼
reci
åħ»èĢģ
è¿Ĳç®Ĺ
ĠEnd
edit
%ãĢĤĊ
Layout
(G
Ġcolumns
å¯¹æĸ¹
ĠFurther
ala
web
Ġtemplate
çļĦè¦ģæ±Ĥ
Ġentity
ĠBel
\%
ears
æĴ¤
èĮĥåĽ´åĨħ
ossible
æĲľ
Ġshap
æĿ¡ä¾ĭ
áº¿
_add
Ġcoordinates
Method
Ġnotes
<sup
arp
elines
Ġintegral
ãģĵ
Ġprepar
éķ¿æĸ¹
Ġadvanced
_____
å¾ĭå¸Ī
è§Ĥå¿µ
èĩªæ²»
åĶ¯ä¸Ģ
äºĪä»¥
sm
ademic
rogen
æľīæķĪçļĦ
implies
ä¸ŃéĹ´
Ġtown
åĪ¤åĨ³
Ġtouch
Ġglass
Ġliterature
ĠDay
Ġfresh
Ġsmooth
Ġslightly
çĽ¸ä¿¡
sv
Ġmoved
è¡ĮçļĦ
Ġunf
Ġprogramming
ĠEst
Ġ("
rive
æŃ£ç¡®çļĦæĺ¯
íķ´
Ġtransition
xff
]{
å¹¶ä¸įæĺ¯
å°ĳå¹´
(z
Ġ/*!<
hr
ette
æ¸łéģĵ
é©±åĬ¨
èĽĭçĻ½è´¨
Abstract
Ġplans
å±ŀæĢ§
ĠImp
åŀĥ
Ġcardi
Ġpolicies
Ġonto
Ġnearest
Are
æĸ°éĹ»
\)Ċ
ements
Ġoffic
Ġfractions
åľ¾
CK
åĬłå¤§
rowser
gal
Ġparentheses
çĽĹ
gypt
zon
106
greg
Ġbelieved
IST
çī¹æĢ§
Ġsexual
çİ¯ä¿Ŀ
Ġgrand
ç³»æķ°
åŀĥåľ¾
Change
)ãĢģ
è¿Ŀåıį
:**ĊĊ
Ġfirm
)$Ċ
Ġperiods
å½¢æĢģ
Ġpolice
ubic
sembly
Ġneur
Ġtro
annels
Ġpaid
Ġsac
Ġsummer
äººçĶŁ
æľįçĶ¨
URL
Ġunsigned
Ġparallel
ymph
cpp
Ġpieces
å±Ĥæ¬¡
ç¬¬ä¸Ģæ¬¡
sem
è¾¹çļĦ
dule
Ġspent
Ġcere
æİ¥è¿ĳ
Pub
Ġchronic
æĶ¹è¿Ľ
xiety
/>
ĠRiver
Ob
.create
Ġhuge
icated
SQL
ĠCourt
éĶ»çĤ¼
Ġliver
æķ°æį®åºĵ
çļĦä¸į
lets
urrency
ĠclassName
æĪ¿åľ°äº§
Ġcomprehens
anish
=(
Ġassessment
DS
Ġconsistent
KE
ĠPlan
ĠEconom
Ġtheorem
ĠTable
}_
Ġannual
åŃĹç¬¦
ç¡«
çľ¼çĿ
attr
æİ¨å¹¿
ç¨Ģ
ç³ĸå°¿çĹħ
NAME
Ġestimate
é«ĺçº§
Ġconcepts
Ġinvent
ĠFebruary
,y
å£³
Ġchallenge
è¶³å¤Ł
âħ
ä¸ªä½ĵ
å¹³æĹ¶
/L
æĿĥçļĦ
Ġsuggested
Ġdesired
Ġmanif
Ġlock
Ġ"\
Ġtrac
Ġmanner
å¤ĸéĥ¨
Ġlinks
Ġrank
ĠExp
æŀĿ
ĠMedic
_de
Ġmainly
Ġinfluen
ĠâĨĴ
Ġideal
host
Output
å§ĭç»Ī
ĠArray
æ¸Ĺ
Ġrul
INT
Ġrepeated
æ»ĭ
Ġpy
Ġune
Exp
æĬ±
Ġmodified
False
Ġseven
ĠInf
house
æīĢæľīçļĦ
åľ°çĲĥ
Ġele
æľĪä»½
åı¯è§ģ
BU
ä»²
Ġplayers
asm
æ¸ħæ´ģ
Ġplate
çĸ¹
220
å¹´è½»
ä¸Ńæľī
æ³µ
anted
Ġturned
vo
æĢ»ä½ĵ
Ġcampaign
Ġnerv
ÙĬÙĨ
ä¸Ģæĺ¯
Ġsalt
Ġteeth
è°ĭ
imensional
Ġagree
è®ºæĸĩ
Ġwidely
åĲĪéĢĤ
-sh
Ġeight
Ġsurvey
èĲ¨
Factory
Ġprinciples
Î½
lebr
åĲİæĿ¥
Ġsen
istical
axis
ĠJesus
Ġcontainer
oret
arts
Ġintegr
Ġ["
Ã±
Ġgal
email
'.
Ġfrequently
Ġstrings
arsh
Ġdivers
Ġbond
æĤ£èĢħçļĦ
ursor
ĠGl
ais
................
ØĮ
CF
ĠìĿ´
ãĤĤ
ROM
ABLE
è¾£
iated
å®īåħ¨çĶŁäº§
åħ¬åĳĬ
ests
Ġflat
Ġring
ucose
æĪĲçĨŁ
Example
uous
åģľæŃ¢
oxide
ĠAM
cd
ä¼ļæľī
ï¿
Stud
]:
ĠWashington
æĶ¶éĽĨ
çĽĨ
âĶ
(L
ĠĠĠĠĠĠĠĠĠĠĠĠĠĠĠĠĠĠĠĠĠĠĠĠĠĠĠĠĠĠĠĠĠĠĠ
Ġfinite
å¥ı
ä»£è°¢
Ġmostly
Fl
ĠPhil
Vis
çĶ¨æĿ¥
ERT
ĠDirect
æĺ¯æŃ£ç¡®çļĦ
ãĤĬ
å¼¦
è¾ħåĬ©
icht
Mon
gative
Î¼
Ġkill
Ġconducted
æĶ¹éĢł
æµĵåº¦
Ġsignals
----------------------------------------------------------------
åĲ¸å¼ķ
002
-T
Ret
Ġvehicle
å¤§éĥ¨åĪĨ
Ġpeace
stitut
organ
Ġapproaches
ĠLi
Ġenable
Ġnetworks
æīĵå¼Ģ
Ġheard
late
é¦Ļæ¸¯
Ġarter
=True
page
ÑĢÑĥ
names
Ġdesc
phone
onym
ĠService
æĽ°
ĠðĿĳ
éĹ²
å·ŀå¸Ĥ
They
Ġphilosoph
rian
Ġmouth
ĠTheir
æİ¥æĶ¶
ortunately
PP
æ±ģ
ĠFound
ĠOnce
Ġbrief
ĀĀĀĀĀĀĀĀ
åĬ¨èĦī
èĲ¥ä¸ļ
inite
Ġpopulations
Ġfruit
Ġcombine
Ð°Ð²
ç«¹
Ġnh
Ġmaster
Web
ĠÐ¡
mation
ĠSociety
éĵº
(struct
uses
åħ¬ä¼Ĺ
æĦŁåĪ°
Ġopportunities
km
ĠInformation
ĠRober
ãĥ¼ãĥ
ĠMex
115
Ġdecided
ĠìŀĪ
inations
$.ĊĊ
ishing
$m
Ġorganizations
æĪĳä»¬å°Ĩ
åĵ²åŃ¦
å¹¿ä¸ľ
éĥ½ä¸į
è´¦æĪ·
çĥ¦
_time
eles
Ġfr
cale
ÐµÐ´
Ġreact
Ġdetailed
Ġelectrical
Ġamounts
params
ĠIns
æ³ķçļĦ
åĲĮæĦı
çİ»
Ø§Ùħ
Ġpour
ĠWestern
éĩįå¤į
iliar
ç§įæ¤į
Eng
ç»ıçĲĨ
Ġoccurred
orter
åı¦ä¸Ģä¸ª
æĥħå½¢
éĩĩè´Ń
å®¿
éĢĤçĶ¨äºİ
ä¾Ŀèµĸ
åĩłä¹İ
ĠChurch
Ġsubjects
parent
ä¸ŃåĽ½çļĦ
Ġterrit
Ġsyndrome
åıĳè¡¨
å½¹
Ġconsidering
äº«åıĹ
·¸
åĿ¦
Ġrace
dt
udd
Ġadult
nections
Ġcollabor
|:
.find
ĠSolve
Ġpairs
ameters
Ġcontribute
é«ĺæķĪ
Ġrows
Ġquantum
Open
èī¾
Ġtal
ett
æµĨ
Ġlegis
é©¬åħĭ
ä½ĵåĪ¶
ç»§æī¿
Øµ
è·ĥ
peed
Ġmenu
-related
å¤±è´¥
210
wide
-R
åīª
ĠLong
Builder
æ¬§æ´²
Ġvisible
ERR
Ġspring
å¹¶åľ¨
ĠSec
Ġrequests
ancing
æķ´çĲĨ
while
å¸ĥå±Ģ
éļĨ
perties
ĠControl
ithms
åłĨ
well
æİĴéĻ¤
åħ±äº«
ä¸Ńæĸĩ
ĠGiven
æĿľ
ĠSecond
jection
å®ª
ido
uls
äº©
å¿Ļ
Ã©e
urally
çļĦçłĶç©¶
linear
isk
çļĦèĥ½åĬĽ
è§Ĵèī²
Ġconflict
å£°éŁ³
Ġnone
ipher
Ġabstract
private
________________
SH
Ð¾Ðº
OW
Ġinvolving
ĠMart
lik
atural
å¤§å¤ļæķ°
cipl
emory
Ġmeasurement
åºĶè¯¥æĺ¯
Ġassumes
Ġtemperatures
éĺ²æĬ¤
reshold
å¿ł
Ġhem
older
ena
ÏĦ
_count
imet
é¢Ħè®¡
ĠJames
å¹´çº§
Ġstudied
defined
Ġdas
gent
çªģçł´
ÑĨÐ¸
Ġillness
181
Ġexperiments
Ã¥
ĠNon
.v
åįĩçº§
Ġfeeling
Ġconsult
Ġhear
ç®Ģä»ĭ
åľ°çļĦ
Ġplaying
Ġrender
pping
Label
anned
Ġdetail
ĠWindows
äºĭåĬ¡
FT
ĠSuppose
éĺŁä¼į
Ġsituations
Ġthrows
Ġimproved
è·¯å¾Ħ
Ġopposite
âĢĭ
Ġelev
Ġalb
ä»¥ä¾¿
183
åı¬å¼Ģ
çħ®
Ġoffset
Ġpractical
ĠCollege
à¥į
)ãĢĤ
Ġau
opes
åĳ½ä»¤
çļĦå½¢å¼ı
ĠExpl
ĠAir
Ġjour
èĤĮèĤī
Ġcouple
ORT
Ġreached
Ġroute
Ġdiscussed
âĺ
Bar
åŃ¦æľŁ
æĽ²çº¿
Ø²
Ãªn
atever
je
Ġauthent
ĠChem
ãģĤ
oded
åľ°åĿĢ
Ġunderlying
ĠModel
ä¼ĺåħĪ
Ġdynamic
ĠAustralia
Yes
ĠOutput
107
ëł
æķĻæĿĲ
valu
å°ıçļĦ
oster
çĸ«èĭĹ
ĠìĹ
Ġë§
ĠIts
search
button
åľ¨è¿Ļ
ĉĉĉĉĉ
èµ¢
ç¼Ŀ
river
Ġrisks
ĠdÃ©
Ġnoise
eren
Îµ
æ´ª
ìĸ´
å¿«ä¹Ĳ
common
afe
Ġcitizens
Ġicon
uint
ĠSam
Ġtypical
Down
Ġhelpful
car
stein
ãĢĤï¼Ī
iat
á»Ļ
Ġcro
ç»ĥä¹ł
Ġocean
\).
å®¢è§Ĥ
elled
é£ŁçĶ¨
Valid
ç»Ħä»¶
enth
æİ¥åı£
åĮºåĪ«
nic
.class
Ġperspective
mas
fficients
çĽ¸åºĶ
Ġnit
éķ¿çļĦ
ola
omes
aph
çŃ¾è®¢
")ĊĊ
case
riage
ascular
æĥ³è¦ģ
())Ċ
Ġmeant
DL
åĪĹè½¦
ĠPo
350
Ġexceed
ä½ıæĪ¿
ä¼ĳæģ¯
Ġpros
ĮĢ
Ġfreedom
è¿Ļä¸ªéĹ®é¢ĺ
,âĢľ
]);Ċ
ĠInte
æĬĬæı¡
äºĭæĥħ
Ġsymmet
color
åįĥç±³
å°Ĭéĩį
ĠProject
ĠGreen
æĹĭè½¬
á»ĩ
Ġspend
èĢķ
Ġcontrolled
è´¯å½»
ivery
Ġpure
gamma
å¹¿å¤§
Ġspin
CI
çŃīçº§
æ·±åº¦
ä»¥åīį
åıĺä¸º
éĥĳ
Ġbranch
èĿ
ĠSal
Ext
\).Ċ
isc
Ġdepression
Ġwaves
Bl
è®°å¿Ĩ
æł·æľ¬
{n
Ġdoor
Ġwel
Ġextension
ĠUN
Ġampl
Ġincorpor
Ġtub
çĿ¡çľł
çĽ®å½ķ
æłı
Ġindustrial
~~
çĤİçĹĩ
èĶ¬èıľ
ĠValue
æµħ
otion
æŁĶ
Ġcareer
Am
çīµ
135
æ¯įäº²
å¿ĹæĦ¿
åħ±äº§åħļ
Ġpositions
æĮĸ
168
åĭĴ
æ¸ħæĻ°
ĠìĪĺ
äº§åĵģçļĦ
Ġportion
Ġinher
ä¸ĵéĹ¨
äºĮæĺ¯
ested
Ġreb
åĩºåıĳ
çļĨ
Ġagent
Ġinsurance
.push
(),Ċ
çļĦå®ļä¹ī
æĬ¥åĲį
oom
çĽĴ
Right
ç¤ºèĮĥ
Ġnoted
device
Ġextent
}\]ĊĊ
Ġnan
Ġbudget
ained
operator
æıĲåīį
å¼¯
Ġpointer
Ġcategories
å¤ļæł·
Ã²
iled
else
æ¯ıä¸Ģä¸ª
ĠProduct
Ġunless
band
Ġgender
æĳĺ
Ġhydrogen
éĢĶå¾Ħ
Ġï¼Į
ader
æĺ¯æľĢ
å¤§çº¦
ani
Ð¼Ð¸
-G
ÑģÑĤÐ²
Ġstable
åħ¬è·¯
ĠHuman
Ã¬
Ġinequ
Ġmuscles
Ġ{\
ById
uts
ĠInternet
Ġprofile
Update
eries
write
Ġkilled
ĠPlease
ĠCongress
çļĦåĲĮæĹ¶
othing
ç¦»åŃĲ
-of
-k
ĠRad
çĶµæľº
å¾Īå¤§
Ġ<-
,,
ĠTHE
oder
Ġgrade
js
(D
åĪĽä½ľ
ĠTra
Ġtwice
ĠÐ¿ÑĢ
");ĊĊ
anner
.N
Ġmembrane
mi
ç¥Ŀ
Ġresponses
Ġmedicine
erior
going
&\
Ġencourag
çľ¼çĿĽ
itivity
plicated
ĠManagement
tenance
æ·±åĪ»
ä¿ĿåŃĺ
å®¾
æįķ
ceived
Ġexplicit
Ġcalculation
ĠProv
åĽ½æ°ĳ
TL
Ġsecondary
ä¹ĥ
izontal
æĪĳä»¬åı¯ä»¥å°Ĩ
BS
ĠÐ½Ðµ
Ġrecip
Ġhappened
Ġstimul
Ġassumed
ango
æµģéĩı
çļĦåıĺåĮĸ
Ġodd
Ġcollected
Ġaccuracy
äº§æĿĥ
Ġprofit
ĠDevelopment
è¯ģä¹¦
ĠOrgan
_value
å±±ä¸ľ
rick
mg
Ġorganic
Ġhypothesis
ĠStand
é«ĺéĢŁ
ĠEX
Ġalloc
ç©´
iot
Ġcriteria
åģļåĩº
Order
ãģ¾
Ġauthority
à¥įà¤
Explanation
Options
ï¿½
ĠÐĴ
éĩĬæĶ¾
çģµæ´»
nb
æıĲäº¤
Ġstories
ĠStart
ä¼łéĢĴ
Ġcamera
ODE
å¯Ħ
è¿Ļæĺ¯ä¸Ģä¸ª
Ġbecoming
ĠAdditionally
Ġcollege
zed
Ġquantity
Â±
Ġchurch
åĽ½çļĦ
åĴĮè°Ĳ
è®°èĢħ
æī§æ³ķ
imately
127
ĠCa
Ġber
iced
Fig
ĠEvery
ŀ×
Ġsuitable
è¡¨ç¤ºä¸º
ĠCentral
ĠEngine
Ġmere
Ġnative
ÑĦ
åĩºçĶŁ
lope
åĤ¬
Ġmission
omorph
Ġesc
Width
Ġkeys
ĠSen
Ġ(*
ë©
åĵģè´¨
_ex
ĠEducation
æĤ²
ĠFunction
Ġmodify
Ġìĭ
çĴĥ
annot
/f
Å¡
ungs
æĲº
Ġtested
_get
Ġdifferential
_cl
ĠEgypt
Ġsoci
æ°¯
çĽ´å¾Ħ
.sp
åľºæĻ¯
Ġ>>
äº¤æį¢
Ġthin
Ġleaders
Ġecho
){
Ġmixed
å¼ºçļĦ
ĠName
è¿ĩæķı
Ġmobile
Ġjson
cium
Ð¾Ð±
Ġsegment
oose
According
connect
ĠAlex
182
Ġmice
eting
Using
ĠRich
åľ¨æŃ¤
ãĢĭãĢĬ
cluding
Ġtechnical
inition
Ġcelebr
Ġbirds
win
riter
ä¹Łè¦ģ
åıī
åĪĨç¦»
ç¨İåĬ¡
Ġrecorded
ĉpublic
æĺĮ
áº£
ëĤ
iginal
åĳĪçİ°
åĲ¦åĪĻ
ĠFigure
Ġemotional
\,
env
gment
Ġinfections
Ġincorrect
Ġinterview
åĬ¨è½¦
rot
enter
Ġgall
Ġul
lf
ç¨¿
Ġphysic
åħ¬å¹³
æ¾³
********************************
çĲĨçĶ±
Ġvote
Ġaren
Ġpotentially
ulti
ager
anel
cyclop
"))
åįĥåħĭ
Ġwhom
Ġkept
çļĦæķ°æį®
Ġraised
ATION
åĲĳéĩı
Ġbegins
Hz
ä¸ĵåĪ©
Ġbiological
åıĸåĢ¼èĮĥåĽ´
Ġec
ĠGreek
aughter
éĺ²æİ§
Ġunknown
.assert
Ġtick
Ġguess
Ġtransmission
Activity
é¼ł
aper
Ġeggs
å¾Ĺåĩº
Ġnerve
delta
AI
Ġstores
çļĦåħ³éĶ®
Ġfert
åĺ´
oly
ports
arante
ĠHTML
See
æµĻæ±Ł
ãģĨ
æĪĲäºĨ
Ġholds
114
iy
Ġsed
Ġchosen
oids
113
Ġrational
åĽ´ç»ķ
rho
Ġfelt
ç©·
emic
options
æľīæĹ¶
çļĦå¿ĥ
ĠCS
èĤ¯å®ļ
Ġvul
è®¿éĹ®
çļĦåħ·ä½ĵ
endif
Ġdriver
Ġproduces
Ġtab
å»ī
å¢ŀå¤§
ìľ¼
çĤĴ
ãģķ
Ġdf
.value
ÂŃ
Const
æ¡Į
ÐºÐ¸
Ġprepared
ï¼į
ä¼łæŁĵ
å¯¹å¤ĸ
pc
Ġlose
Ġcart
ima
Ġphosph
.)Ċ
çļĦçĶŁæ´»
Ġevaluation
Ġinfo
ĠWater
åĴ½
Ġmg
ÃŁ
Ġagreement
ĠSign
æ¶Īæģ¯
ä¸Ńå°ı
Ġsector
Supp
åı¯æĺ¯
Ġdans
åľ³
ĠAssociation
å°±èĥ½
<String
å¿ĥçļĦ
Ġmys
Ġfourth
`.Ċ
å·¥ä½ľäººåĳĺ
èĤ©
Ġhelped
å¯Ĩåº¦
éĢļéģĵ
ìĬµ
ĠSQL
åħ¶æ¬¡
ĠJapanese
Finally
ĠPower
Ġsand
Ġaf
æ³ķå®ļ
Ġintended
Ġproceed
è§£çŃĶ
Prov
Ġwhereas
Ġexpansion
stall
Ġdistingu
141
_Pos
å·¡
SO
_CON
Process
Ġruns
Ġconcerns
ĠCH
oyal
Ġuniform
éĸ
ë§
ĠOnly
"),Ċ
âĢĿ.
æħİ
Ġbytes
æ¸¡
ĠTitle
Ġ\)ĊĊ
entry
å®ŀæĸ½ä¾ĭ
çļĦè¿ĩç¨ĭ
Ġwife
æ·±åľ³
aa
olf
]]
è¦ģç´ł
Ġkin
Ġtun
Ġsubstant
Ġdb
éģĹä¼ł
ĠJul
è®©æĪĳä»¬
Ġkeeping
yst
isp
Ġclaims
117
Ġ$$\
Ġpromote
Ġmathematical
ĠSum
Ġexplained
utive
çªģçĦ¶
ä¸Ģå¤©
Ġarriv
Ġmorning
Ġconsequences
)$,
Ġuniverse
éĿĻèĦī
åĩıè½»
hav
ç°
Ġparticle
å£¤
ĠSpring
ëıĦ
åħ¬å¸ĥ
Ġboundary
Ġsounds
Ġod
ä¸ĵé¡¹
Â«
å¹¶æ²¡æľī
Ġou
_j
Product
yr
Ġcolors
è²Į
Ġdistributed
rep
Ġcloud
Off
Ġlayers
æīĢéľĢ
Ġfloor
reated
asi
ĠAsia
Ġduration
xture
ç¬¬åħŃ
Ġindeed
Ġtells
à¹Ħ
Ġshell
{R
ĠDefine
å°±è¦ģ
Ġchapter
æ¨¡æĭŁ
ologist
Ġ×Ķ×
_un
åĢ¼å¾Ĺ
Ġcoefficients
Ġformal
Ġjobs
:**
ervices
Ġbrother
info
outer
æĪĲå¹´
################
ĠWilliam
req
Ġoutcome
ULT
Ġapparent
ĠAv
Ġextended
éĻ¶
Ġemployee
è¾ĥä¸º
illa
Ġtit
Ġcomposition
Then
122
"></
è¾ŀ
ï¼īĊĊ
Ġexperienced
åħ¨ä½ĵ
only
Cons
âĹı
vice
æīĢç¤º
ellent
126
åıĺæĽ´
Ġdispl
æľīçĿĢ
Ġdin
ĠWhite
author
Ġawait
Ġinteractions
Ġsequences
Ġbor
just
éĴł
åħħæ»¡
è¿Ļæĺ¯åĽłä¸º
æī©å±ķ
æķĪåºĶ
å¢ŀåĢ¼
Ġfeedback
-the
asp
èĻİ
è¿ĺåı¯ä»¥
hab
_ch
draw
Ġanxiety
ĠBre
è¾¹å½¢
Ġgod
Ġleader
å®¶çļĦ
æł¡åĽŃ
æĬĽçī©
Ġimplementing
é¢Ħç®Ĺ
ĠSat
ĠRetrieved
Ïģ
Ġlatest
æĸ¤
Ġca
Ġurban
ç¦»å¼Ģ
undle
çĪ¶äº²
èĤ¡æĿĥ
Ġvitamin
Hel
wood
ĠPMID
Ġresolution
åħ³èģĶ
æĭħä¿Ŀ
éĺ²æ²»
Ġrough
Ġparties
Ġprocedures
å®ħ
é©¬åħĭæĢĿ
bine
Ġwinter
åıįå¤į
åĴĮç¤¾ä¼ļ
çŃĭ
Format
ker
Ġwealth
èĳĹåĲį
Ġcorpor
Ġnumerous
Ġorient
Ġdisp
ĠQuestion
åİŁå§ĭ
å§ľ
æľ¬æĸĩ
ariable
Ġplays
rition
å¤ļæ¬¡
ĠStat
Ġglucose
Ġdram
Ġpel
Ġdespite
ĠTO
çĶľ
à¸Ī
Ġparse
Other
Ġion
Url
)]
clusive
Repository
å¤§åŀĭ
è°ĥçĶ¨
ĠÎ±
Ġleaving
å¿Į
Ġfaith
çļĦä¿¡æģ¯
ä»¥ä¸ĬçļĦ
æł¼å¼ı
rary
ãĢĤ(
å§Ĳ
æĻĭ
emia
éĤ£ä¸ª
064
å¥ī
ĠAR
åıĻ
çĽ¸åĲĮçļĦ
118
ĠĠĠĠĠĠĠĠĠĠĠĠĠĠĠĠĠĠĠĠĠĠĠĠĠĠĠĠĠĠĠĠĠĠĠĠĠĠĠĠĠĠĠĠĠĠĠĠĠĠĠĠĠĠĠĠĠĠĠĠĠĠĠĠĠĠĠĠĠĠĠĠĠĠĠĠĠĠĠĠĠĠĠĠĠĠĠĠĠĠĠĠĠĠĠĠĠĠĠĠĠĠĠĠĠĠĠĠĠĠĠĠĠĠĠĠĠĠĠĠĠĠĠĠĠĠĠĠĠĠĠĠĠĠĠĠĠĠĠĠĠĠĠĠĠĠĠĠĠĠĠĠĠĠĠĠĠĠĠĠĠĠĠĠĠĠĠĠĠĠĠĠĠĠĠĠĠĠĠĠĠĠĠĠĠĠĠĠĠĠĠĠ
ĠProcess
åĨĻä½ľ
ĠÂłÂłĠÂłÂł
åı¤ä»£
ĠÑĢÐ°
acebook
Ġcertainly
anes
çİ»çĴĥ
ĠÐŁ
Link
Ġhash
Ġ"/
ĠHen
Ġmechanisms
stood
Ġreco
è´Łæķ°
itness
å¸¸è§Ħ
ĠVir
estamp
Ġdimensions
Ġaffects
ä¸Ģä½į
å¿§
ĠProte
éĶĻè¯¯çļĦ
Ġvoice
éĺ¶çº§
EO
ä¹ĭå¤ĸ
Ġtraffic
ali
ï¼ħ
ÖĢ
Ġraw
æķ°åĢ¼
ä¸įéľĢè¦ģ
_a
åĬłéĢŁ
å¤©çĦ¶
ä½ĵåĨħ
ĠDel
èĦĬ
æĿ°
æľĪç»ı
cious
Ġlimits
Ġsod
èµ¶
Num
çºłçº·
edy
Dep
ĠAnalysis
INE
Str
Ġmur
æ°Ľ
core
issues
Ġcomfort
Ġconversion
åı¯éĿł
Control
ĠTw
Ġadministr
æ°´æŀľ
Ġtechnologies
Ġliber
":Ċ
ĠAND
LECT
Ġprompt
TE
ĠEr
ificial
Ġexposed
Ġ::
è¡¥åģ¿
Use
æ»ŀ
Oper
Ġstrict
Last
åĨ»
æ¿ĢåĬ±
Ġhearing
itz
åĽ¾å½¢
Ġlists
Ġmas
åĽ½æľī
è½¬åŀĭ
Ġprofession
ĠNews
Ġelectricity
rog
ç¦ģæŃ¢
Ġaccounts
istent
çĽĳæİ§
åĬĽåº¦
Ġconcern
åĪĹè¡¨
Ġtalking
cluded
ologists
Ġscan
Case
Ġdecide
çĽ¸ä¼¼
éĿŀæ³ķ
Ġscope
.png
åħ¶å®ĥ
Ġsummary
Ġscene
åŃ©åŃĲä»¬
tx
ä¸Ģæ®µ
æį·
last
æ¶ĪéĻ¤
Ġteach
.$
æ³»
has
center
å¦Ļ
node
Ġopening
ç»¼ä¸ĬæīĢè¿°
ä¸°å¯ĮçļĦ
)`
local
Ġfamous
Ġdetection
Ġcoefficient
Search
Token
Ġmanager
åĿĽ
ĠDoes
ji
çĶ¨èį¯
èĸª
plant
Ġobjective
Ú©
ä½ĵçİ°äºĨ
Ġpin
Ġstated
ATH
ĠMake
Ġpowers
çī©ä½ĵ
Ġadvance
Ġphysics
_y
Ġresist
Integer
Ġmoral
175
æĻĵ
","
Ġreligion
Our
icular
Ġblocks
ä¿®å¤į
ourse
({Ċ
^n
Ġ\)Ċ
æıĲåıĸ
empty
åĲĦçº§
Ġappoint
Ġprev
ounced
Ġriver
å¤ĦçļĦ
endar
cup
éĩįéĩı
Ġeducational
:(
132
ĠJewish
Ġreactions
Ġcognitive
ainer
ĠHIV
çİ°ä»£åĮĸ
rium
Ġinterests
è´§çī©
Ġmolecular
opl
FA
é¥±
æ·Ģ
aria
çĶŁçĲĨ
à¼
Ġcontrols
çŃīæĸ¹éĿ¢
alian
ĠPy
Ġ"""
Ġremote
itative
Ġdebt
agraph
Ġchoices
Ġfocused
è¿ĩåº¦
ç§©
inux
(N
æĪĲå°±
ĠLine
Ġship
Command
çµ
ä¸įç¬¦åĲĪ
Ġmonitoring
è§£è¿Ļä¸ªæĸ¹ç¨ĭ
Ġattacks
dir
ados
null
Ġinches
amil
ĠRef
Filter
Mode
indu
header
ĠÂ»
æĪĴ
179
click
ÐµÐ¹
ä¿ĿçķĻ
æĹ¥æľŁ
ìĬ¤
cers
å½¢çĬ¶
OH
è¿Ľåı£
Ġsecure
Ġalle
Ġaccepted
-level
ĠĠĠĠĠĠĠĠĠĠĠĠĠĠĠĠĠĠ
æľ¬è´¨
rant
203
Ġupdates
è½¬è®©
Ġcontinues
Ġneighb
Ġcompr
ĠCounty
IZE
Ġdocuments
Ġinstrument
Ġaccum
ĠSing
offset
çĶ±æŃ¤
ĠAS
çļĦè·Ŀç¦»
Ġenhance
ĠÙĬ
Ġlov
.Get
ä¸įå¥½
å¿ħçĦ¶
ĠSk
æŃ£æĺ¯
Ġgrad
åŃ£åº¦
ĠIl
/g
Ġengineering
IE
Ġachieved
ĠĠĠĠĠĠĠĠĠĠĠĠĠĠĠĠĠĠĠĠĠĠĠĠĠ
erate
Ġprincipal
Default
Ġsections
Max
Ø®
anda
Which
edge
Ġbyte
ç´§å¼ł
ben
æ°´çļĦ
)ãĢĤĊ
Ġsurvival
Ġà®
Ġadvice
]ï¼ļĊ
å§Ķä¼ļ
ĠCouncil
mic
------------
legal
Edit
_E
ĠLife
åĢºåĪ¸
ĠÐ·Ð°
çĪ·
Ġdiscover
çģĮ
Ġclar
ãģĹãģ¦
Ġsubstance
rint
Ġmoves
æłĵ
Ġdimension
Ġimpossible
æĤŁ
onia
ĠãĢĬ
Ġdecades
åįļå£«
åŃ¤
çļĦæ²»çĸĹ
Ġcompute
å½¼
à¹ĥ
??
åĲĪæĪĲ
Ġpix
Menu
æĬ«
Ġimplements
ĠTur
ä¸Ĭæ¶¨
ãĥ«
ĠUSA
ìĿ¸
Äħ
ç±»çļĦ
åľ°çĲĨ
Ġtumor
Ġpark
äººç¾¤
Ġbehaviour
ĠArab
ä½Ĩåľ¨
ĠBank
Ġacids
Ġpurs
åĵģç§į
å¦Ĥæŀľä½ł
(-\
ä½¿çĶ¨çļĦ
ä¼łè¾ĵ
çļĦæľĢå¤§
è¥¿æĸ¹
Ġbow
Ġautomatically
Ġmeasurements
æĿ¡ä»¶çļĦ
æĭħä»»
(j
ĠDan
Ġtemp
åı¯çŁ¥
ĠQue
ç¬¬äºĮä¸ª
éģµå®Ī
Ġbiggest
ete
Ġrespir
ĠConf
Ġguarante
izz
ĠÐļ
Ġfacts
æµ¸
>username
ãĢĭï¼Ī
è¯´çļĦ
Level
Ġble
AGE
ĠMil
é©»
à¸²à¸£
å¿ħè¦ģçļĦ
è®¤çŁ¥
acts
ç¢°
HP
å¯¹åºĶçļĦ
Ġphr
javascript
RC
çĸ²
ìĬµëĭĪëĭ¤
Ġemp
ror
ippet
Ġyellow
Ġpip
çĶŁåŃĺ
å¹¼åĦ¿åĽŃ
\sin
éĥ½èĥ½
duction
æ¡Ĩæŀ¶
Ġunt
é»ı
Ġends
ads
Ġbright
Ġju
Ġmanip
å¼ºåĪ¶
åĺī
ĠPerform
asma
ĠìĦ
Ġbits
ĠKore
åĴĮåħ¶ä»ĸ
ä»Ļ
cdots
Ġnumerator
æĮĩå®ļ
Ġforced
Ð¸Ð»
ni
ĠHome
false
Ġbattle
eties
Ġstick
éģµå¾ª
å¯ĨåĪĩ
ä½įæķ°
Ġinstitutions
$b
MB
ĠNav
Ġobservations
ÄĻ
cha
ä¸īå¹´
èĪĮ
àµ
ĠZe
rients
Ġï¼īãĢĤĊ
Ġweap
133
è¡¨çİ°ä¸º
}/
Ġdiscount
Ġgarden
inated
Ġopinion
å®¡æł¸
Ġadds
é£İæł¼
æŃ£ç¡®çŃĶæ¡Īæĺ¯
ç®Ĺæ³ķ
ĠĠĠĠĠĠĠĠĠĠĠĠĠĠĠĠĠĠĠĠ
ldots
ä¸¥éĩįçļĦ
Ġhappy
åį§
çĶ³æĬ¥
Ġng
è¦ģæ³¨æĦı
Ø§Ø³
Ġ-->
typ
Current
æ»ļ
olving
Ġjoin
Ġinsect
æŃ£æķ°
Ġphoto
ÙĦÙī
Ġexpressions
show
Ġacts
Ġrein
ï¼Į$\
Ġplastic
éľī
ä¸Ģä½ĵ
çİ°æľī
ĠOper
¬¼
Style
è¯Ī
ç»Ļåĩº
åĢ¡
Ġconnections
062
rices
178
war
ĠFore
Ġreplaced
116
ãĤ¤
æ·±åĮĸ
Ġpolar
Ġexplanation
,b
æĳĩ
ĠLevel
mid
leted
çļĦä¸»
Ġextreme
Ġnormally
Ġol
apse
Ġadministration
é«ĺäºİ
åįĬå¹´
å¤©æ°Ķ
è±¡éĻĲ
æ³ķæ²»
FO
é«ĵ
Ġserved
çļĦçĽ¸åħ³
æİ¥çĿĢ
++++++++
Ġcharacteristic
ployment
åįĩé«ĺ
Ġ['
éĥ½åľ¨
æŀª
åĬłéĩį
Ġfacilit
æĶ¯åĩº
ĠKey
rates
){Ċ
ĠEnvironment
Window
{C
ĠGeorge
QU
ĠOF
ĠVis
åĮħè£ħ
_EN
Ġpayment
ä¹ĭåĴĮ
angular
ç¨į
Ġtables
Ġenem
Ġlatter
Ġvac
Ġmanufacture
mo
âĪł
ĠÑģÑĤ
isters
Ġperman
éĶ¥
aining
çĭ¬çī¹
Ġreform
Ġendpoint
ĠZh
è§£å¾Ĺ
Ġvertical
450
ications
Ġpassing
Ġstuff
ĠMax
Address
"><
Ġproportion
å®ŀçĶ¨æĸ°åŀĭ
å¯»æī¾
.path
Each
Task
119
$P
åģ¥åħ¨
å¤º
Ġtail
Ġhandling
istan
cience
Ġdut
ĠMary
ç¼ĸåĪ¶
ĠTV
éĶĲ
esis
åĲ¹
éĥ½è¦ģ
Find
Position
Ġcash
Ġdepartment
Ġscores
åŃĲå¥³
åľ°çĤ¹
Ġtut
åİŁæĸĻ
aneous
ERS
Ġcomplexity
æĺ¯æľī
Ġfamiliar
æĴŀ
æİĴæĶ¾
Ġzone
Ġhat
ĠØ³
Min
fil
Ġ[]
çĹ°
Ġseed
Ġconvent
Height
)$ãĢĤĊ
éĴ»
Ġidentifier
æ°ĶåĢĻ
çĶ·æĢ§
ĠMass
Ġexplains
Ġreader
ools
Ġlooked
Ġmaps
Resource
å®ļçĲĨ
Ġaudience
åķĨåĬ¡
æĽ´ä¸º
åİŁæĿ¥
çĶ²çĬ¶
ĠLike
çģ«çģ¾
Co
ĠInstead
ç£·
ĠStre
ĠJoh
ĠNa
ä¼ĺè´¨
-dimensional
";ĊĊ
Ġhun
ulum
ç¬¦åı·
annica
Ġatoms
AV
vi
Ġpump
Ġvictim
å®¡æī¹
ABC
Another
éĽ¾
éĥ¨ç½²
yroid
Ġuncertain
ĠPoint
èĩ£
æľ¬åıĳæĺİ
Simplify
chi
ç®Ģç§°
ĠBritain
ä¸Ģé¡¹
æĮĩæĮ¥
AND
é¦Ī
ĠìĤ¬
ĠRussian
Ġdependent
ĠJack
æĤ¬
_state
çļĦåıĳçĶŁ
imm
Ġpurchase
Ġdriving
Ġsensitive
_index
ç§¯ç´¯
çº²
æ¿Ģåıĳ
èĬĤçĤ¹
Ġstages
Many
Ġinstructions
Ġqueue
çļĦåı¯èĥ½
çº¿ä¸Ĭ
ĠAnn
ĠIslam
riend
Ġknew
osc
Ġmarketing
Pos
åĢŁæ¬¾
ecute
å®Ļ
Ġ*)
cin
çŃĽ
çıŃçº§
ä¹ĭä¸Ń
uid
æķ´åĲĪ
Ġapart
Ġaid
PM
Ġcache
ä¸įå¤Ł
ĠBay
è¿ª
Ġquot
å°ıæķ°
Ġturns
Ġbin
çĶµæ°Ķ
åĲĮåŃ¦ä»¬
rolog
æĭľ
+y
ĠEp
ĠGood
ĠCap
ĠTreat
ĠWrite
Ġclosely
Ġshop
è¡Ģç³ĸ
åľ¨ä¸Ģèµ·
Ġnecessarily
Ġ&&Ċ
-z
ĠDO
éĨī
ä¸¸
éĶĭ
Ġstem
Block
èĥģ
æĽ¾ç»ı
æ¶Īæ¯Ĵ
Ġkinds
agon
é¡ºåĪ©
dden
fit
ä»°
ÑĤÐ¾
Ġ)ãĢĤĊ
å°ºå¯¸
å¸¸æķ°
ĳ×
Ġtransformation
Ġpregnancy
Ġconcerned
Ġqui
Ġouter
Ġ{{
åĽ½å®¶çļĦ
è¯»ä¹¦
Ġ*/ĊĊ
åį±æľº
Ġbinding
çĤŃ
å®¡çĲĨ
ä»¥ä¸º
Ġhealthcare
oes
gi
fall
Ġtoxic
items
Ġcas
ĠWil
Ġorganisms
Ġmarked
Ver
Ġcompounds
å¤±åİ»
ocratic
Ġappearance
Server
Ġvalu
ĠÅ
çļĦåŁºç¡Ģä¸Ĭ
åĩºçİ°äºĨ
Ŀ¼
ateral
wing
Ġmeets
Ġhundreds
Dec
tau
Ġzu
cat
åİ»å¹´
Ġserial
å®³äºº
<T
.txt
Ġthoughts
Ġlarg
Ġtopics
ingly
æĬĢå·§
block
131
control
æ¬¡æķ°
æķĪçĽĬ
float
ĠTechnology
124
Ġgar
ĠGovernment
ema
ĠLou
Ġpossibility
è®¾æľī
Ġlived
ĠDetermine
åŃĺæ¬¾
Ge
è¿Ľç¨ĭ
Ġëĭ
Õ¸
Ġcars
å§¿
Ġfilled
Ġbes
product
ĠRussia
ĠEmp
Ġbag
FS
ude
Ġdogs
åĽ¾çīĩ
eless
Ġstability
Ġprintf
Ð»Ñı
van
çļĦé£İéĻ©
Ġê·¸
Ġfoss
Ġmaybe
çļĦåıĸåĢ¼èĮĥåĽ´
åĿĩåĮĢ
æĿĥåĬĽ
Ġconj
-ch
Ġinsulin
à¸Ľ
ĠProblem
Ġtrip
Ġlung
ĠWH
Î»
èĵĦ
player
å¾Īéļ¾
çİĩä¸º
Ġï¼īĊ
Ġcards
Ġpossibly
ALL
Ġgirls
ĠIII
Ġpanel
å®¹éĩı
çļĦäºĭæĥħ
Ġearn
Ġrecovery
æĢĿè·¯
ĠTheory
ä¸»å¸Ń
#endif
ĠâĪĪ
Ġlisted
èµ¤
å°ıé¢ĺ
mega
Ġspot
ĠImage
Ġconfidence
ĠReact
å¦ĩå¥³
omain
asy
åĭŁ
åĢ¼ä¸º
ĠMultip
Buffer
Ġisland
}(\
åľ¨ä¸ŃåĽ½
è¾ī
æĽ´å¥½åľ°
ĠSpanish
æĿ¡ä»¶ä¸ĭ
å¹¶éĿŀ
Ġdialog
ĠØ¯
!--
Ġcycl
Ð°Ð½Ð¸
æıŃ
Ke
çĶ¨äºº
holder
Ġsudden
Ġintegration
Ġimplies
á»ĳ
Ġdetected
Ġintent
Â·Â·
ĠEnt
Ġcontents
CB
(name
Ġdiscrim
ipped
å±ħä½ı
à¸·
éķ¿æĹ¶éĹ´
æ¬£
Ġrevolution
Ġtrib
):ĊĊ
çĹħåıĺ
Ġcrim
å¾¡
çļĦåĨħ
gener
Ġacademic
Ġresponsibility
è¿ĽèĢĮ
find
cis
Ġpri
RT
ĠThomas
Thread
Function
alloc
è®¤è¯ģ
é¸£
Ġbusinesses
Equal
èĪªç©º
Ġmetabol
è¿Ļæ¬¡
åħ·ä½ĵçļĦ
åĲĦåľ°
å¹²çĩ¥
jo
é«ĺè¡Ģåİĭ
Ġtransaction
æķıæĦŁ
ishes
Ġrevealed
åįģäºĶ
Ġcircul
Ġdividing
}-\
éĤ¦
Ġowner
server
è¿ĺä¼ļ
ĠPsych
top
åıł
.py
ĠMap
ĠGal
ithmetic
atial
Ġclock
èħ¾
åıĳéĢģ
êµ
ĠBig
ÑĤÐ¸
ethyl
Book
Ġdefect
Ġexperimental
äº§éĩı
VID
çļĦåŃ¦çĶŁ
Anal
åĲĳä¸Ĭ
å®ĥæĺ¯
Ġassociation
RS
Ġassets
}$.
æ³¨å°Ħ
åŃ¦èĢħ
Arg
\{
Ġarmy
æ¡Ĥ
æ¯ģ
è¸ª
ibilities
ĠCompany
Ġemissions
Ġok
Ġappreci
Ġchart
Ġlymph
æĲŀ
æıĲä¾ĽçļĦ
rastructure
Most
ĠChapter
Ġinstitution
adow
acent
pled
èĥ°
]$
lose
allow
136
Ã¡s
lines
Ġ(`
".Ċ
ç®¡éģĵ
alam
çľŁçļĦ
ĠMedical
Ġmouse
.on
uzz
ĠWho
ACT
))ĊĊ
Ġsupports
Ġvariation
Ġ{"
Ġvulner
ĠPen
ĠMichael
oral
æĸ°æĹ¶ä»£
Ø¶
Ġconclusion
Ġdeliver
Column
å®ĩå®Ļ
å§Ĩ
èĤºçĤİ
akers
æºĥ
åľŁå£¤
Ġhence
"}
IX
Ġslope
iki
èį¡
ĠWell
Ġsmart
Ġconscious
sw
153
MD
åı¯èĥ½çļĦ
éĹ´çļĦ
Ã¹
ç¤ºä¾ĭ
Ġcatal
Ġcloser
iology
ĠTop
Ġviolence
Second
Ġunderstood
ç®ĢåįķçļĦ
Ġscal
ç»³
åĴĮå¹³
#if
)$$Ċ
html
çĶ²çĬ¶èħº
Ġwhatever
æ´»åĬ¨çļĦ
quare
tract
æľĢä½İ
EXT
Ġentirely
_key
ĠCath
å°±åĥı
è®¾å¤ĩçļĦ
Ġsubstantial
ÙĩØ§
ä¸¾åĬŀ
ĠCode
ÑģÑĮ
Ġwish
Player
insert
ĠMag
ĠAnother
å¤©ä¸ĭ
åĬŀåħ¬å®¤
Ġpig
Ġsurrounding
imb
\theta
Ġamb
Ġlip
Ġwalls
èļĢ
æĪĳä»¬çŁ¥éģĵ
æĢª
Ġinputs
à¯įà®
æıĲéĨĴ
Ġlargely
æĺ¯åĽłä¸º
Ġpas
ĠRob
åĽĽå·Ŀ
Ġstatistics
ï¹
isis
Ġ};ĊĊ
run
ĉĊ
ĠPet
è¿ĳå¹´æĿ¥
ĠProfess
åı°æ¹¾
ista
Ġoffered
Ġdelivery
ç½ĳä¸Ĭ
eper
Ġminute
Ġmathematics
Ġmeat
Ġscre
Ġpaint
ĠSov
Ġske
unit
åĢºæĿĥ
status
Ġlie
å´ĩ
Ġbeautiful
avel
éħ¬
_node
çĶµèĦĳ
Ġwest
cosystem
Ġvectors
Ġwasn
Ġspectrum
Ġtreatments
èµł
åĬŁçİĩ
åĮºçļĦ
Ġapplic
æŁ¥çľĭ
rat
Pe
Ġvast
Ġreplacement
åĪł
Ġoptimal
ĠTH
ä¸´æĹ¶
Ġexpensive
å¼Ģåħ³
Ġmaintenance
å¸ĤåľºçļĦ
çī§
Ġtoler
çĤ¹åĩ»
orrect
inn
Row
Ġrapidly
è®©äºº
æĪĲçļĦ
ĠTom
165
è§ĴçļĦ
è¿Ļå°±æĺ¯
Ġ",
uv
åĹ½
åĪ°è¾¾
è¯ķé¢ĺ
%.
æīĭç»Ń
Top
Ġcalling
éĩĮéĿ¢
Ġeditor
åĵįåºĶ
æłª
æĦ¿æĦı
Ġbroken
åįķè°ĥ
irection
ä¼¼ä¹İ
-ex
éĺĶ
æİĺ
å¼§
Ġcontribution
èī°
ilib
é¦ĸæ¬¡
Ġlocations
å¯¹æ¯Ķ
å¯º
OK
å¤§éĩıçļĦ
çŁ©éĺµ
æĭĮ
Ġ),Ċ
Ġded
card
keys
ĠAI
å±Ī
ç¡ķ
Ġdescript
åįģåħ«
å¸¦æĿ¥çļĦ
Ġalgorithms
Ġdemonstrate
////////////////
çľĭçľĭ
ç»ıæµİåıĳå±ķ
ĠSection
ãĥ»
jango
Ġcharacterized
Ġcallback
çĶŁæ´»çļĦ
ubs
Ġdose
ãĥĪ
chema
129
à¼ĭ
adian
æ¡£æ¡Ī
unctions
bridge
177
-N
Ġell
ä¸»ç®¡éĥ¨éĹ¨
ĠBro
è¾ĥé«ĺ
åĨĽäºĭ
éĥ¨çļĦ
Ġcircumstances
çĩĥçĥ§
cknow
ILE
ä¸ļç»©
Ġbrand
âĶĢ
èĢģäºº
Ġmir
anal
raining
etal
{m
uing
èµģ
Ġinternet
ĠMedicine
è´Łæĭħ
ä¾Ľç»Ļ
Ġdangerous
ä¸ŃåĽ½çī¹èī²
Ġinstruction
ĠCall
Ġroles
Sign
Ġsusp
agen
Ġrid
ĠPrint
DC
å¾·åĽ½
ç¾İä¸½
ç»´ä¿®
Ġfort
Although
Ġtrigger
ilation
Ġassigned
Ġsignificance
Ġcapable
ĠMill
åįĹçľģ
command
ĠMa
ĠHy
å®¤åĨħ
çº¿æĢ§
ç§©åºı
{y
é¡¶çĤ¹
æł¹æį®é¢ĺçĽ®
æ±Łèĭı
ëĵ¤
.'
é«ĺçŃī
Ġdir
_dir
æ°¸è¿ľ
Ġpi
astern
Ġdecreased
ç§Łèµģ
MT
uma
appe
å¥¹çļĦ
å¹³çŃī
Ġchromos
Ġoral
overline
vironments
Ġlit
Ġtele
Ġinflammation
ĠFood
iva
.spring
æŁĲç§į
åĪĩå®ŀ
åķĨæłĩ
Ġdiameter
Ġboy
ĠTheorem
å¯¹åħ¶
Ġindicated
çļĦæķ°éĩı
Ġexcellent
Ġexecution
æĵħ
è§£æĶ¾
äºı
Ġsnippet
Ġrevenue
ctx
ĠCell
èĢĥå¯Ł
$n
ä¸įçĶ¨
æī¿åĮħ
145
176
Ġdomestic
çļĦçī¹çĤ¹
ç¾¤ä½ĵ
Ġpossess
èĥº
åĪ©æģ¯
Ġbattery
³´
Ġsouthern
ä»Ķ
ĠBC
éħĴåºĹ
auth
çļĦéķ¿åº¦
Ġkh
ĠSuch
ĠWhere
æĺİçĻ½
queue
åıĳçĥŃ
Ġstret
ĠLu
éĹ®é¢ĺæııè¿°
Ġrecognize
ç½©
Ġrecognized
\cos
åĲĬ
aya
Ġcomprehensive
{cases
áº¥
Ġquadratic
ĠÐľ
ĠNov
çłĤ
ä½ĵéĩį
.\
çĥĤ
çĻ½èī²
ĠRobert
Ġê³
æ¤Ĵ
arly
gence
ĠNor
Ġmask
åľ°éĿ¢
Ġelectrons
ĠÐ»
byte
Ġchannels
èĳ¡èĲĦçīĻ
ĠAccess
Ġanalog
cribed
Ġnamespace
elle
é«ĺè´¨éĩı
ĠLand
è§Ĩä¸º
Ġemergency
ester
Ġcontained
contin
Ġreject
Ð¾ÑģÑĤ
æıĲåĩºäºĨ
SL
ĠTex
.*
à¸µà¹Ī
DNA
è§£éĻ¤
ĠEnergy
(_
æ³ķåĽ½
Ġingred
Ġagents
æĭĴç»Ŀ
.put
142
_str
ä¿Ŀåģ¥
162
åĩºçīĪç¤¾
gers
å«Į
åĴ³åĹ½
Ġcalcium
?âĢĿ
Ġhelping
à¸¸
olars
uilding
156
Ġdemonstrated
ï½ľ
look
Ġfav
320
åľ¨ä¸Ģä¸ª
Ġstom
amine
åĽłåŃĲ
Ïĥ
åİŁåĽłåĪĨæŀĲ
ÙĬØ±
åįģåĽĽ
Ġproducing
Cell
Ġmovements
æ³¢åĬ¨
Types
framework
ostic
ìĽ
137
,B
æķ°æį®çļĦ
æ¬ł
æĶ¾åħ¥
è¡¨è¿°
Ġcompetition
Ġnom
Ġsetup
Ġdict
Ġmagnitude
varphi
ä¸»å¼ł
Ġ[]Ċ
ä¾ĿçĦ¶
Ġmatches
æĬļ
Ġremained
è½¬åıĺ
Description
èĢĥèĻĳåĪ°
idity
Ġastron
åŁĥ
Ġlies
Ġhidden
ç®¡çĲĨçļĦ
æİĴåĪĹ
ĠBet
Email
é£ŀæľº
Ġintelligence
itudes
Ġsie
_test
empl
Ġaccident
Ġtissues
å¸¦åĬ¨
Ġarbit
Ġprison
äºĮæ¬¡æĸ¹ç¨ĭ
ä¸§
ĠMiss
äºĴåĬ¨
Ġelif
Ġsuc
åħ¨èº«
iro
ĠOR
Ġreverse
%%
ëĿ¼
åĬ³åĬ¨èĢħ
Ġappeared
æľĢä½³
èİ±
Ġlayout
cons
Ġtu
æ»¡æĦı
Ġbott
imit
Ġnice
ä¸Ģå®¶
Ġdys
{aligned
åĬĽåĴĮ
±ä¹Ĳ
155
å·¥äºº
imeter
999
displaystyle
Ġsan
çļĦéĢŁåº¦
ECT
è¸ı
åĲĮå¿Ĺ
GL
Ġcluster
Ġdisplayed
)|
ĠPerson
æĭĸ
Ġcoal
Ġscheme
dy
ivo
å©´åĦ¿
Ġiniti
Version
Ġlisten
Ġexperts
æĽ´æĺ¯
152
Ġnorthern
Ġembed
cout
é¡¾å®¢
Ġpeak
è¯Ńæĸĩ
\boxed
[:
æľ¬å®ŀçĶ¨æĸ°åŀĭ
Stack
å¹¶åıĳ
è½¬æį¢ä¸º
Ġanalys
333
ths
çļĦé£Łçī©
cule
å®ŀçİ°äºĨ
Ġactivation
Ġrelax
fg
zz
Ġdiscovery
{A
Ġedges
æĥ³è±¡
Location
kl
antly
ĠSmith
Ġeast
ç´§æĢ¥
Ġlabels
Ġalter
å¤Ħç½®
å¯¼èĩ´çļĦ
El
.ĊĊĊĊ
æľŁçļĦ
Ġsaved
wa
ëŀ
lean
ä¸Ńåħ±
èĩĤ
<?
åįģä¸ī
éĤĢ
à¸Ńà¸ĩ
ãĤĪ
éĺ´éģĵ
)\)
model
Ġcapture
ĠColor
ycl
ä½¿åħ¶
ĠIncre
çĭĹ
ytic
Ġelectronic
Ġinterm
Sim
Ġsupposed
Ġintroduction
Ġaccompl
Ġwriter
fol
Ġestimates
ĠÂłĠÂłĠÂłĠÂł
ĠJer
osh
omer
},\
éĥ¨ä»¶
ensus
Length
ĠDise
Ġcrisis
ĠÂ±
Ġentre
Ġrotation
åĩıåİ»
Ġessay
æĻ¨
Ġrig
ĠCommit
æ±Ĥè§£
ĠSubstitute
_of
åŁİéķĩ
ACK
ĠAdv
å¿į
Ġimprovement
She
Red
rapper
Ġ"Ċ
æĢĢåŃķ
Ġtheoret
(*
ĠRNA
Connection
ç³Ĭ
ä¸įçŁ¥éģĵ
ĠAtl
Ġthousand
etics
OPT
Ġvaluable
Ġscenario
ÐµÐº
Ġì§
Ã¦
çļĦæĬĢæľ¯
Ġinitially
Work
ÙĪÙĦ
èģĮèĥ½
Ġfunc
å¸¸å¸¸
Ġath
Ġattached
Ġnam
çĸĨ
åıĳçĶŁçļĦ
Ġtube
Ġfle
Ġdream
æĮĩçļĦæĺ¯
ç¨İæĶ¶
ĠØ¥
cuss
è±ª
"),
åĬłçĥŃ
Ġexit
éĹª
ä¾Ŀçħ§
Ġauf
ĠÐµ
äºĴçĽ¸
ÂłÂłÂłÂłÂłÂłÂłÂłÂłÂłÂłÂłÂłÂłÂłÂł
åįģå¹´
Sum
react
Ġinvalid
å·¢
éĻĦè¿ĳ
èĤłéģĵ
Ġmanaged
ĠSuper
ois
psilon
åĪĻæĺ¯
OG
æ¶ĪèĢĹ
ĠPers
Ġnumerical
Ġgap
_res
ä¸ĢåĲį
rape
ustomer
Ġflood
Ġìĺ
uality
Ġcomo
ĠIdentify
çĽ´åĪ°
sis
æĹ¶åĪ»
Ġintake
ä¸ŃåĽ½åħ±äº§åħļ
slant
rak
ĠSup
vol
æĬĢæľ¯çļĦ
âĢ²
è°¨
Ġusername
$^{
Ġepis
-old
ĠPeter
æĸ¹çļĦ
ĠSl
Ġthor
Ġban
first
Ġcritic
Ġmapping
é³
æ¢Ĺ
æľįåĬ¡åĻ¨
ĠStudy
ĠMount
Ġclients
åĲĪçī©
Ġinstalled
ç¤¾ä¼ļçļĦ
Ident
Äį
Ġordered
ĠOld
Ġarchitecture
ä¸Ģä¸ªäºº
ç¯®
ĠCON
å¤§åĬĽ
å¦Ĥä»Ĭ
ĠLord
è½¨éģĵ
ĠGlobal
ðĿĲ
_Msk
ãĥª
Game
-be
Ġannot
ä¼ļå¯¼èĩ´
ĠError
äººåĬĽ
ä¹Łåı¯
Ġphotos
Ġconfigure
èĭ¥å¹²
../../
Ġdisplays
src
Ġsensor
').
çļĦåİŁåĪĻ
Ã¡n
Ġmarkets
_string
Ġhier
å°ĳæķ°
ĠParis
.read
never
una
ĠIV
åľ¨è¿ĻéĩĮ
å¾½
.I
æºª
Ø§Ø¯
opyright
Ġcoff
NT
çĶµéĺ»
ucl
ACE
Ġvertex
number
Run
Ġhole
åīįçļĦ
åħĪåĲİ
ä¸¤æĿ¡
Ġmillions
ether
æķ°ç»Ħ
rich
åħ³éĹŃ
Ps
åĲĮç±»
èĩªä¿¡
Ġconven
Ġfeelings
Ġorbit
èĬ½
Ġbind
Ġ++
éĤ£æł·
umes
ĠNext
ĠĠĠĠĠĠĠĠĠĠĠĠĠĠĠĠĠĠĠĠĠĠĠĠĠĠĠĠĠĠĠĠĠĠĠĠĠĠĠ
158
Ġcrime
FC
Ġworse
rey
ogene
éĥ½åı¯ä»¥
ĠLatin
Ġmedication
ĠFrank
Ġnarrow
è¾Ĳ
igate
ti
151
åĲįä¸º
-E
ä¸Ńèį¯
å¥ĭæĸĹ
çļĦå¤§å°ı
Ġbuildings
ÙĪØ±
Ġimper
eed
åĬŁæķĪ
SUB
æ°Ķç®¡
147
Ġtip
Ġanalyze
ãģĻãĤĭ
.</
.a
åĨ²çªģ
ĠØĮ
éĻª
Ġsolving
çĲ´
æŁ³
ä¸įçŁ¥
Ø£
Ġdifficulty
Entry
acific
ĠCommission
HA
ati
Ġcomposed
Ġseeing
æĦŁåĻ¨
230
åĮ¹éħį
ÂłĠ
ÉĻ
åĽłå¼ı
Null
-and
icing
pass
scape
×ª
Ġclassification
ä»¤äºº
åı£èħĶ
æłĳç«ĭ
.jpg
Ġneutral
herent
ĠSpace
Ġnutrients
169
æŁľ
ç»ıåħ¸
Ġuniversity
(function
à¦¾
èĤĥ
ĠSpec
èĩªè§ī
Ġrub
SM
ĠFig
ç»Ŀç¼ĺ
çłĸ
Ġaggreg
bling
Ġmassive
-free
ç´¯è®¡
è¡Ĺéģĵ
çļĦè¿ĩç¨ĭä¸Ń
Ġfunds
çŃĴ
åįķçĭ¬
åĩºæĿ¥çļĦ
Ġcu
å®ŀéªĮå®¤
nu
context
Ġaudio
ĠUpdate
çī©ä¸ļ
æµ·æ´ĭ
Ġchlor
éªĳ
Ġprepare
Ġconsumer
ĠISBN
ç»Ŀå¯¹åĢ¼
Ġmoon
ç¨³å®ļæĢ§
ÄĽ
Ġdiversity
Ġdirector
Ġoverride
}$ãĢĤĊĊ
Ġverify
æĮ¡
ĠNode
Ġflight
èµ·åĪ°
æľīä»Ģä¹Ī
å§»
Ġgalax
Ġdisk
ĠMexico
Ġasc
esh
Ġcomputers
ĠRE
Ġclassical
burg
ä»¥ç¡®ä¿Ŀ
æĥħèĬĤ
164
ê³¼
Ġtheories
ĠrÃ©
inction
Ġboost
é«ĺä¸Ń
Sl
Ġalbum
Ġenvironments
ĠCard
åįĹäº¬
ĠÙĨ
åŁİä¹¡
Ġexecute
BA
}}Ċ
ĠParty
Ġsale
åİŁåŃĲ
Main
ÐµÐ²
Ġlowest
å¤ļé¡¹å¼ı
ĠDesign
?"
rans
ĠOption
Ġadvert
non
ÙĪÙĨ
Ġasking
ç»ĨèĬĤ
ä¼Łå¤§
stituting
thread
æĸĩçĮ®
Ġcooper
ä¹Łèĥ½
åłµ
Ġcontroller
{pmatrix
Ġbio
(H
Ġextend
Ġmedications
åĪĨåĪ«æĺ¯
life
Ġecosystem
PD
lers
æĭĽçĶŁ
ORD
003
çļĦç¤¾ä¼ļ
Ġattempts
github
Ġdaughter
å¤§å¹ħ
Ġhus
^x
çĵ·
ovie
çĽ®çļĦæĺ¯
.springframework
ĠPage
Ġshot
Ġfre
Ġbones
Ùİ
çĮ«
æĿĳæ°ĳ
ican
riangle
Ġlogging
rine
Ġdos
opath
icago
Ġattend
Ġpod
Ġacute
204
Ġunable
ç¼ĸè¾ĳ
ĠDen
çĽ²
Ġregression
ynt
Ġinstances
è¾ĥä½İ
];
radi
ç²®é£Ł
è®©æĪĳ
å¾®ä¿¡
Ġfer
èĨı
åħļå§Ķ
nan
åı¥åŃĲ
John
ĠImm
æĭ¨
æī¿è¯º
çļĦå¤ĸ
æĻļä¸Ĭ
åĽ¢ç»ĵ
Ġneighbor
Ġcav
çļĦæĤ£èĢħ
\leq
Ġstatistical
éĵĿ
Ġsteel
ï¼ĮãĢĬ
ogg
Ġacceler
Ġseeds
PIO
Car
elih
Ġfigures
åĺ±
ading
è£ħå¤ĩ
Ġcorrelation
çº³åħ¥
Ġsched
Ġmultiplication
çļĦæľī
access
Ġvessels
Ġleadership
Ġprints
Ġpersons
(F
978
ĠLearning
Ac
ĠJews
ĠFoundation
ç¼Ĩ
Ġgravity
Ġinterpretation
ville
éļĻ
Ġhaz
otherapy
åĮĸç®Ģ
ìĥ
operatorname
Ġrail
olester
å¥ĳ
çĨŁæĤī
å·¥ä½ľä¸Ń
Vector
ador
è´«åĽ°
ä¸»æĮģ
Attribute
å¼ºçĥĪ
matory
åĲĮæŃ¥
çļĦåĢ¼ä¸º
æīĩ
è½¬åĮĸä¸º
ĠJud
Long
æĻķ
çŁŃæľŁ
à¶
åº·å¤į
ä¸¾è¡Į
èľľ
ç¼´çº³
Ġreceiving
ĠMiddle
åħįè´¹
Ġnaturally
Ġguidelines
pack
æĦŁåĨĴ
nbsp
æİ¥ç§į
Ġtooth
Ġwear
Ġvoc
å»¶éķ¿
:\
umps
ç²¾ç¡®
éĺ³åħī
ä¸įç®¡
ĠÙĥ
çļĦå¥½
æĽ¼
à¥ĩ
ëĲ
æĶ¾å¼ĥ
UD
æĮĩç¤º
TS
event
æĹłåħ³
Ġho
ä¼°è®¡
Ġfif
åı¦ä¸Ģæĸ¹éĿ¢
Ġorders
example
Ġknows
Ġimmig
++;Ċ
Ġopened
.text
Õ«
\alpha
Div
ĠChange
å¹»
Ġinequality
å°ıè¯´
inic
Ġintervention
ĠKh
å¤§åŃ¦çĶŁ
Ġoxid
Ġspecify
leton
çļĦçĽ®çļĦ
éĻµ
Ġallerg
ailability
å¤©çļĦ
å¤ļå¹´
ipping
éŀĭ
æħ¢æħ¢
Ġsubsequent
åħ¬å®īæľºåħ³
Ġsatell
Ġhet
ĠIr
ä¸įéĢĤ
Ġthreshold
ĠCare
Ġgram
Ġtheme
elihood
avax
Ġneither
Ġfinds
ediate
ä¼ª
ĠÏĢ
éŃĶ
inf
ĠTer
Ġteams
é¢Ĺç²Ĵ
Que
Ġimmediate
Ġprovider
ãģĹãģŁ
Ġsick
Ġspeaking
å¢ŀåĢ¼ç¨İ
(q
ĠMont
ĠSimilar
å½¢åĬ¿
Ġperforming
ç½Ĺæĸ¯
ĠÎ¼
achine
ko
ãģı
çļĦçĹĩçĬ¶
åľ¨çº¿
ulating
Ġcompens
lementary
ìľ¼ë¡ľ
ĠContin
å¾ĴåĪĳ
åĸĤ
Ġdioxide
seud
perm
Ġclosest
å®¹åĻ¨
-day
ĠÃ·
untime
Ġpand
rend
è¿ĺèĥ½
Ġdecline
Ġmaintaining
Ġsheet
Ġdrawn
Empty
æ°ĳéĹ´
æ¡¶
La
æ´»æĢ§
Ġist
Ġclust
chers
idents
172
Access
ä¸ĬéĿ¢
\cdot
));ĊĊ
çļĦæľĢå°ı
å¹³ç§»
ðŁ
Ð¾Ð¶
Ã©t
Ġmarriage
çļĦä½¿çĶ¨
161
å¢ŀåĬłäºĨ
å¤«å¦»
?ĊĊĊ
ipt
cp
åıįé¦Ī
ĠëĤ
.)ĊĊ
çĪ¸çĪ¸
Ġvaccine
/(
Ġkilomet
æľ¬äºº
ĠÃ¼
Ġslowly
ĠTexas
Show
Ġintensity
çķª
å½¢æĪĲçļĦ
åīĬ
çħ§çīĩ
Ġsubstances
Ġdiagram
FIG
ĠCivil
-line
åıĳæĢ§
Ġhomes
Ġwilling
ashion
Ġdx
Ġhorizontal
ĠSecurity
ä¸įè¶ħè¿ĩ
Ġapplying
æĺ¯ä»¥
dr
Ġseparated
éļĲæĤ£
,'
Ġdiverse
liament
à¤¿
Ġeliminate
rangle
ìŀĲ
ç»Īç«¯
äººå¤§
fortunately
éĢłæĪĲçļĦ
çļĦä½įç½®
.:
ä¸įåľ¨
163
æ¯ıæĹ¥
ä¸Ģæĸ¹éĿ¢
Ġfiber
[j
æĹłæķĪ
dated
çļĦåŃ¦ä¹ł
GE
attering
Ã¨re
Ġparagraph
such
æľīåı¯èĥ½
å®ŀä½ĵ
ĠGold
æĺ¯ä¸ºäºĨ
_code
ircraft
ochem
Ġoriginally
Ġunion
ĠConvert
ĠMuslim
ĠWhe
010
Ġrent
æ£®æŀĹ
Ġmyself
ä¸ªæĢ§
akan
Ġmamm
Ġadequ
length
çī¹å®ļçļĦ
èĳ¡èĲĦçīĻè¯Ń
åı£æľį
ĠConstitution
154
Ġdollars
Ġwestern
ĠSea
Ġtruly
íĸ
éŃĤ
Ġgone
åıįå¯¹
Ġwet
ĠMS
åĩ¸
Ġ});ĊĊ
.io
summary
cell
ERE
Ġ..
æľŁå¾ĴåĪĳ
éĤª
API
ĠMoreover
ï»
Ġdoubt
Ġdrawing
æĭĵå±ķ
åıĳä½ľ
æ¬¢è¿İ
134
ambda
bel
Ġregulations
hips
Met
ĠTem
ĠOh
Ġobservation
Ġsnow
ĠBack
UB
Ġincreasingly
138
Ġabsence
Ġnarr
Ġsurfaces
ĠEvent
redict
Ġjustice
Module
èĬ³
ĠSystems
ĠSoviet
inating
åĻ¨å®ĺ
ĠTor
æ£ī
çļĦåİĨåı²
ĠBusiness
_sh
ĠEffect
Ġnas
æŃ¤æ¬¡
åıĳåĩº
Ġdivisor
sim
æ³³
è¿Ľå±ķ
estyle
Ġcharged
Ġabnormal
ellect
æ¶Īå¤±
ç»Ļå®ļ
ë°
archy
ĠNetwork
Ġjump
æıĲé«ĺäºĨ
Ġvital
"/
kes
xf
Ð¾Ð·
Ġstrongly
Ġdemonstrates
ê²
king
æĦŁæĥħ
ç¼ºéĻ·
äººå£«
ç¾İçļĦ
èĥİåĦ¿
225
ĠÐ¾Ð±
Na
anta
ìĭľ
images
ĠTotal
Ġarms
åĪ°åºķ
Ġessentially
Ã©n
çīĩæ®µ
æ£Ģå¯ŁéĻ¢
æĮ¤
åįıåķĨ
Ġdies
éĽķ
âĢį
Ġmsg
Ġcups
Ġinfected
å¤ļåħĥ
Ġtranslation
143
æľ¬é¢ĺèĢĥæŁ¥
Ġversions
çĶ¨äººåįķä½į
Ġni
DO
\<
æ·ĭå·´
åħĦ
ila
Ġpartner
Ġancest
205
rical
Ġstroke
ä½ĵä¼ļ
Ġlogin
ìĹĲìĦľ
ders
charge
åĲĦèĩª
ĠScient
Where
Ġencourage
166
irus
aneously
Ġstudying
ĠGra
ĠPR
åŁ¹èĤ²
Ġmanaging
Ġstomach
æŀĦéĢł
å¦¹
é«ĺåİĭ
Ġsimult
Ġmetric
istence
æ£±
è¾Ĳå°Ħ
aten
Ġangles
ä½©
ãĤ¯
ORM
éĻ¢æł¡
ĠĠĠĠĠĠĠĠĠĠĠĠĠĠĠĠĠĠĠĠĠĠĠĠ
æľ¬ç§ĳ
Ġsimplifies
çĽĳçĿ£ç®¡çĲĨ
åĦ¿åŃĲ
apped
_num
Ġgly
Container
áĥĲ
ald
æĨ
loor
irms
Ġíķ
adder
rames
itely
.php
å¤§åĪ©
eros
Ġfab
Ġultimately
Ġbrowser
åıĸåĨ³
Ġ.ĊĊ
æĳĦåħ¥
HS
ĠCharles
Ġskill
ĠNAS
å©ļå§»
Vol
Ġìĥ
Tree
çļĦç®¡çĲĨ
Ġtang
æľµ
ĠMo
Ġgeometry
æĭĽèģĺ
aration
ĠCost
åµ
æŀ¢
æīĵåį°
æĶ»åĩ»
Ġholding
æī©å¼ł
280
Ġdrinking
éļĶç¦»
æİĪæĿĥ
ĠIsland
å·¨å¤§
admin
auss
ika
Ġneural
Ġmechanical
æľĢå¤ļ
Ã½
Ġsports
verty
Ġbatch
zil
Ġdeveloper
ĠDie
èĭ¯
å¼ķåħ¥
/v
ĠCommon
URE
ä»¥åħį
Ġrepair
Ġgrass
ä¸įåŃĺåľ¨
é£ŀè¡Į
ariant
ĠTR
urrence
ĠMad
æĺİçļĦ
ĠException
ä¹Łå°±
æŁĲä¸ª
/S
âĢĻ,
ĠDu
Ġrecognition
Ġvi
ĠConsider
Chapter
çĭĤ
uted
tainer
Ġfunctionality
ê²Į
olesterol
æľīä¸¤ä¸ª
Ġconverted
romise
Ġsharing
åıĸåĨ³äºİ
äºīè®®
åİĭç¼©
çªĥ
Ġpadding
Ġchemicals
Ġinfrastructure
Ġconstitution
Ġflour
ä¸īç§į
{v
Ġbehaviors
å·¥åİĤ
Ġjourney
Ġorb
mann
à¸Ĥ
ĠpH
agnetic
ï¼Īï¼ī
Ġquarter
Ġneck
Ġru
éĿ¢åĲĳ
åĲİæŀľ
åħ³å¿ĥ
Ġpil
endl
çĬ¹
Ġ],Ċ
æ··åĩĿ
Ð´Ð°
è¿ĩæ»¤
Ġpollution
åŃ¦çļĦ
ç½Ĳ
åĬ²
$k
})$
ä¸ĬäºĨ
æĶ¶è´¹
Pat
æĿ¥äºĨ
Ġdepart
Ġoverl
Ġawareness
ç«ĭæ³ķ
omatic
ç»ŁçŃ¹
_url
åĪĿæŃ¥
Ġfault
ĠStr
MM
Ã¶r
Ġimaging
Ð½Ñı
Ġkernel
Ġaqu
Ġelection
ĠAbout
asty
Ġalert
åŁºç¡Ģè®¾æĸ½
Ġsensitivity
éŃı
Ġbelief
Ġtaught
Ġexamination
èĢģå¹´äºº
Ġnations
èĭ±æĸĩ
ç¾İæľ¯
strong
ching
ĠMem
ä¸¤æ¬¡
èģĬ
Ġsimulation
åįıåĲĮ
åľĨæŁ±
ĠStudies
Ġarithmetic
270
å®¡åĪ¤
erer
ilibrium
Ġabund
printf
èľĤ
æĸĩåĮĸçļĦ
å½»åºķ
ĠLar
(in
Ġvillage
Ġmachines
Ġobserve
Ġtempor
ãĥ©
Ġimproving
èº«ä¸Ĭ
æ½ľåľ¨
ĠlÃł
Ġcommands
ĠvÃł
scope
Project
Account
åģļäºĨ
ĠMathematics
ĠChildren
ĠHand
ä½ľæĸĩ
éŁµ
.write
Ġcenturies
Mark
ç§įç±»
Header
Ġtens
ĠReport
Ġusual
Ġabuse
Ġregulation
Ġfacilities
Ġsole
åİŁæĿ¥çļĦ
è¡¥è´´
Ġshock
ĠABC
è¿Ļç±»
&=\
è¾Ī
Ġreasonable
real
Ġconcrete
å¼Ħ
Ġven
Ġtight
kins
Ġclassroom
ĠCAN
Ġdefend
ç»©æķĪ
157
_config
Ġregional
_LO
ĠFurthermore
epend
åĬ³åĬ¨åĲĪåĲĮ
é«ĺæ¸©
çĽ¸ç»ĵåĲĪ
Ġensuring
èĤ¡ä»½æľīéĻĲåħ¬åı¸
Ġgro
message
æİ¥åľ°
åįģä¹Ŀ
ç¬¬ä¸ĥ
æĭħå¿ĥ
ĠSil
åīĳ
æĿŃ
æĽ´æį¢
ĠLabor
Ġtone
apper
ĠIll
åĪĳæ³ķ
ĠCancer
VM
=None
à³
ĠCr
çĩķ
ç¡ħ
Ġhal
olit
åŃĹç¬¦ä¸²
å®ªæ³ķ
Ġ\{
Ġorgans
ãĤ¢
ä¸Ńåįİæ°ĳæĹı
Ġphilosophy
.net
.sub
Ġprofessor
lections
ìłģ
å¨ģèĥģ
à·
è®©åŃ¦çĶŁ
psi
Ġattach
è¿Ī
åĳķ
171
Ġacknow
ä¸Ģçº§
-specific
adv
module
Ġfu
Ġmand
](#
Ġspatial
craft
ami
/l
æĸĹäºī
åı¯å¾Ĺ
åĲĪçĲĨçļĦ
æĥľ
éĩįåºĨ
___
Ġcorresponds
Ġstorm
ounce
ÑģÐºÐ¸
äºĮçº§
æ°®
fill
oice
-K
Ġsizes
Ġahead
åĽ¾è±¡
Ġgenerates
Ġreduces
Ġprocessed
Ġtransportation
çļĦåĬŁèĥ½
Ġbanks
Ġinvestigation
icious
Ġsucceed
fn
ĠPC
æĽ¹
ĠØŃ
LS
ĠÙĩ
call
Ġtrials
èī²å½©
Ġmob
VER
asis
é«ĺèĢĥ
Ġhop
åĨ²åĩ»
Ġschedule
_log
Non
Ġrenew
Ġcourses
æ¶²ä½ĵ
æĺĨ
arks
Ġmixture
äººä¸º
redit
æĸ°çĶŁ
ĠÐ¾ÑĤ
Java
æĹ¨åľ¨
tons
rb
Ġsigned
æ³ª
Dialog
æ²Ī
Ġstructural
Ġhardware
èĥĸ
ĠServer
riting
auto
Ġvegetables
ĠJun
aren
å±ķçİ°
ĠDE
æĸ°åĨł
è¯¾é¢ĺ
Ġbonds
uce
ä¸ĭåįĪ
Ġaccordingly
During
éĥŃ
åı¯æĮģç»Ń
Ġdefe
AY
Child
ĠMicrosoft
ĠSciences
Ġfract
ë¶
ä¹ĺç§¯
Ġconstructed
Ġposts
ĠLook
Ġdesire
Ġtips
å¹²æī°
åħ¬åĽŃ
åĽłèĢĮ
å·¥åķĨ
Ġexamine
Ġsizeof
Ġleaf
çīĪæľ¬
Ġbrown
Ġarrang
amente
erman
riers
Ġatom
Ġ''
ä¸ĵçĶ¨
æĺ¾çĦ¶
æµģè¡Į
Ġlots
ocracy
break
cia
ä¸¢
isa
-W
ĠMars
eh
throp
ĠØ§ÙĦØª
ä¹Łè®¸
áĥĺ
ĠCommittee
çļĦä¸¤
ĠRun
ĠOx
æĽ´å¥½çļĦ
Ġrevers
Ġinline
146
ä¸ŃåĽ½çī¹èī²ç¤¾ä¼ļä¸»ä¹ī
á»§
Ġtank
æĪªèĩ³
Ġshut
ĠÑĢ
expected
Ġescape
ä¼Ĳ
Ġstone
Ġconventional
space
Ġren
Ġadopted
ogram
terior
irectory
Ġintegrated
Ġmorph
ä¹¦éĿ¢
Tag
149
Ġobst
ç²¾åĩĨ
GF
Ġhyd
Õ¶
å¯¹æŃ¤
Ġplasma
Ø«
ritis
yte
éĹ¹
å¹¿å·ŀ
Ġdepict
ĠÐ¿ÑĢÐ¸
çºªå¾ĭ
Ġcomplicated
åıĳè¾¾
Ġpresentation
Session
çº½
".ĊĊ
Ġcultures
Ġeen
ĠTry
ĠNS
è¿ĩçļĦ
çĽĪåĪ©
äºĭçī©
Ġsending
Ġidentical
à¸¹
Ġìľ
ikip
}\\Ċ
ĠBur
Ġimpacts
Ġmentions
ä¹Łæ²¡æľī
Ġregardless
<int
139
plicate
æľįåĬ¡çļĦ
ä¸Ńæ¯Ĵ
çĥ¯
Ġfewer
á»ĥ
åıĹçĲĨ
ĠDifferent
BUG
Ġdiscipl
èģĮåĬ¡
Ġcarb
ĠJose
çľģçº§
Widget
Ġcompact
Ġlesson
Unit
Ġarrest
-qu
ĠPop
Ġdust
Ġcarefully
iant
hyth
Card
Ġverb
Ġcentre
å¤įåĲĪ
æľ¯åĲİ
igital
ĠAT
ï¼Ŀ
ä¸ĩäºº
å°Ĩä¼ļ
å®ĹæķĻ
.Add
åºıåĪĹ
ĠMer
Ġspending
å¦¥
det
_back
Ġdebate
levision
èĥľåĪ©
Ġgather
Ġreceptor
Ġfruits
Ġcoffee
ĠRichard
Ġdynamics
Bo
Ġintest
å¯¼åĲĳ
216
Ġtru
Ġreads
Ġconservation
Ġconsec
çªĦ
Ġmolecule
æ··åĩĿåľŁ
Ġartificial
Left
Ġemotions
ĠItaly
ï»¿
awa
Ġcubic
æ¦ľ
Ġaddresses
lder
æł¼å±Ģ
.ch
ifts
Ġsupporting
omal
ĠBase
ela
olds
ĠFederal
ĠOffice
Ġsorted
éĿ¢ç§¯æĺ¯
ÏĤ
é¡¹çĽ®çļĦ
)[
Ins
æĢ»ä¹¦è®°
ëŁ
æ³ķåĪĻ
ĠIT
å®ŀä¾ĭ
Ġuma
ĠÐ¿Ð¾
ĠAuthor
Õ¥
çŁ³æ²¹
æĽ¿ä»£
ãĢģ$
+x
çĹĴ
æĺ¯ä¸ŃåĽ½
iner
ãĥĥ
è·¯çº¿
æļĳ
Ġfro
éĶ¦
æĿ¡æ¬¾
éļ¾åº¦
ĠÙĪØ§ÙĦ
ç¦»å©ļ
159
ĠWould
Ġwaiting
æĶ¶åĪ°
///
Ġafford
ä½Ĩä¸į
åĸī
Ġneurons
ä»²è£ģ
/w
Ġwitness
Ð²Ð°
Ġreserv
Ġcyt
Ġfly
ĠĠĠĠĠĠĠĠĠĠĠĠĠĠĠĠĠĠĠĠĠĠ
Ġgrown
ĠDown
ova
è®°è½½
çº¦æĿŁ
Ġconsumers
Ġfunding
æĹº
æ£Ĵ
Ġkg
Imp
teen
æĬĽçī©çº¿
Ġjavax
å¤§èĦĳ
çļĦä»·æł¼
ĠHenry
pet
Ġpublication
aked
æĢĴ
Ġ_{
åīįåĪĹ
çļĦæĢ§è´¨
çļĦçĥŃ
Before
emporary
ĠLast
è¯Ńåı¥
Ġalpha
ĠInput
åįģåħŃ
got
ä¾ĭåŃĲ
å¼ķé¢Ĩ
æ¸ħæ´Ĺ
epsilon
Ġoperators
you
çŃīå¾ħ
vm
åŃ¦ä½į
ĠKar
à¹ĩ
ĠArgs
è¢Ń
åıĺå½¢
éħįå¥Ĺ
æĸ°å¢ŀ
Gen
(value
Ġconversation
Ġmoist
BD
åĵŃ
Ġbird
arser
Ġmanufacturing
Ġregularly
Ġdil
Ġwalking
Param
éĴ®
æĲ¬
èĩ³ä»Ĭ
refix
ĠÑį
à¹Į
Ġrestaur
Ġeigen
ĠHence
åĭ¾
Ġstanding
Ġinfinite
Ġsky
å¯Ĩå°ģ
arios
Ġchecking
è¿Ļä¸¤
çĽ¸åĬł
å¥Ķ
eleration
ĠFROM
åľ°ä¸ĭ
å¦Ĥæŀľä¸Ģä¸ª
ĠPDF
åŀ«
ĠInteger
Ġfinished
åįľ
æľ¬éĻ¢
Ġwouldn
Return
Ãµ
éĻķ
æİ¢è®¨
Ġvehicles
Ġasym
sey
Enter
)}Ċ
aki
Ġfails
ä¼ļåĳĺ
ori
ĉf
è°ĥè§£
ressive
Ġbuying
Ġartist
çĹħçļĦ
ikipedia
å¼¥
Ġpropag
FL
æī¹è¯Ħ
Ġbias
mn
Ġvertices
Ġgirl
ogenic
sen
>();Ċ
Ġals
Ġcomputing
ä¸Ģç³»åĪĹ
Ġboys
è¿Ļæ®µ
Ġcab
Ġwa
namespace
ç¥¥
ĠAC
è¯»èĢħ
rh
éĿĴæĺ¥
Ġconstraints
zone
ĠMuse
è¿ĻæĹ¶
Ġcorner
valuate
æŀļ
æķĻèĤ²çļĦ
agues
ĠAst
Ġdecay
Ġcandidate
Provider
Î¸
ä¼ļåĩºçİ°
Ġproved
ĠFlor
Ġsoldi
Ġlaboratory
ĠJac
ĠØ§ÙĦØ£
Ġofficials
Ġphenomenon
çĶŁèĤ²
ĠPract
æĶ¶ç¼©
_dict
ĠFacebook
Ġcham
_SIZE
åĪłéĻ¤
Ġinverse
åĴĮåıĳå±ķ
Ø°
Ġcryst
Ġnervous
Ġsurvive
Ġbigger
Ġexpanded
-on
è¢«å®³äºº
ĠFrancis
äºĮæ°§åĮĸ
åħ¬çĽĬ
Ġthr
ãģį
bool
ï¼ļãĢĬ
zo
148
£¼
Ġpreval
Ġreferences
Ġpounds
èµ°åĲĳ
ä¼łæī¿
template
ĠBill
Ġextensive
Ġ]Ċ
uler
åıĸæ¶Ī
è¡£æľį
Ġtiny
fa
Ġcodes
("/
Ġdebug
é¥¼
èĳ±
é¸¡èĽĭ
æĿ¡è§Ħå®ļ
ĠSearch
imary
ä¼łç»ŁçļĦ
Î·
ï¼ģâĢĿ
å°ļæľª
aciÃ³n
unte
Ġasync
å¹Ĥ
Ġsoldiers
Ġexplo
Ġ{}
Ġgast
ige
ady
åģļçļĦ
Ġended
claim
Ġfalls
ĠCarol
<SUP
prise
ÂłThe
-J
Ġsodium
ĠPath
æĬµæĬ¼
nson
æĥ©
åĪ¶åĵģ
çĪ±çļĦ
Ġrural
ä¸ĭåİ»
Ġ!==
åĬ£
Ġadvoc
Ġloaded
éĺĲ
Ġpicking
Ġgreatly
Adapter
tocol
Ġepid
å¦Ĭ
ç¨»
.ap
Å¾
Ġthermal
Utils
èĻļæĭŁ
æ°ĽåĽ´
åĲ«ä¹ī
åĨ·åį´
ĠOpt
ASK
andon
Ġenabled
ç»Ħç»ĩçļĦ
WS
inking
oli
esity
æīĢå¾Ĺç¨İ
vin
åŃĺåľ¨çļĦ
_user
utton
Ġcovers
åħ³ç³»çļĦ
Ð¾Ð¿
è½¬åĬ¨
atar
åĽŀåĪ°
Ġpriority
ĠCurrent
vision
_text
Ġrespiratory
ç»ĵç®Ĺ
inte
æĬ«éľ²
è¿ĺéľĢè¦ģ
257
Ġmeasuring
ç¨ĭåº¦ä¸Ĭ
.next
ĠSa
Ġhormone
ä¼ĺæĥł
Auth
Ġdealing
è¿ĩäºİ
ĠArmy
HD
iem
ĠTake
Ġsel
holders
Ġamino
double
åľ¨ä¸Ģ
ĠCur
æĺ¯ä¸įæĺ¯
Ġ{}Ċ
Application
Ġmao
è¯ķçĤ¹
×Ĳ
votes
ĠBudd
èįĴ
ĠGraph
ĠThanks
Reader
æĬ¥éģĵ
Article
ushed
ĠÐĲ
Ġlaunch
æįĲ
èĨ¨
æľŁè´§
Ġsor
åŃ¦å®¶
è¾½
Ġsomewhat
174
Ġpermanent
Ġsustainable
west
ä¸įäºĨ
Ġcommunicate
å¹½
éħ®
Ġnavigation
MO
Ġtags
Ġinject
ĉfor
Ġentered
ÑĤÐ°
Ġcriminal
Ġaircraft
ona
_,
Ġpreced
Ġpaths
çº¿æ®µ
Ġlungs
Ġsq
Ġreliable
å¯¼æķ°
Ġdefense
å¾Īå¤§çļĦ
activ
Dr
Grid
Ag
BO
Ġequally
NN
Ø§Ø¨
ĠPacific
å½¢æĪĲäºĨ
Ã¼n
Author
è®¤åı¯
äººåĳĺçļĦ
Ġâī¤
Under
Ġshr
æįŁåĿı
Ġguard
Ġinfluenced
åĸ»
Ġassistance
ãĢĭ,
åĽłä¸ºå®ĥ
åĩ¤
ĠWomen
èĩ³äºİ
Ġpasses
ĠÐĿ
ĠKnow
Ġenum
ERROR
(file
-res
Ġconcentrations
forcement
éĿĴå°ĳå¹´
_.
Ġoptional
Ġmatters
Ġtradition
oir
Ġpolitics
Ġpharm
ws
æµģéĢļ
Ġcolour
å»ºæĪĲ
Ġequals
ÐµÐ»ÑĮ
Ġcalculations
Ġisolated
ĠToday
167
lie
.-
åĲĪéĢĤçļĦ
ĠDC
ç¼ĸåĨĻ
Ġemployed
Ġensures
Ġreviews
Ġuniversal
è¿Ŀçº¦
ĠBritannica
Ġegg
éĽĨæĪĲ
æĭĺ
ç§ĳçĽ®
åı¯èĥ½å¯¼èĩ´
Ġbread
Ġengage
Any
rug
ä¿¡å¿ĥ
Ġlegs
ighter
ols
ĠLouis
ĠFire
æŁ´
Ġtrouble
ificate
Ġgovernments
çļĦè´¨éĩı
ĠRome
ctic
å¨ł
ä¸Ĭè¯ī
çĦ¦èĻĳ
æĥĳ
æľīåĵªäºĽ
åī©ä½Ļ
Ġbreathing
ritten
æĮģæľī
ademy
Ġkit
æĸ°èĥ½æºĲ
':Ċ
ĠTim
ĠIL
Ġminimal
VD
ä¹ĭæĹ¥èµ·
"));Ċ
æ¯ıä¸ªäºº
è´¢å¯Į
Ġcov
[-
Ġcyl
åŃĿ
ï¬
çļĦå¹³æĸ¹
Ġbought
commit
GR
å¾Īå¿«
Ġ|-
Range
æłĩçŃ¾
apor
ç«Ń
Ġflows
å¹²åĩĢ
Ġfoundation
íĻ
ç¿¼
itory
range
å¦Ĭå¨ł
Ġcorrespond
åį°åº¦
ĠAma
Ġrectangle
_TYPE
çļĦæĿ¡ä»¶
ĠOnline
Ġran
Ġye
ĠLo
Ġchief
SELECT
Ġbeliefs
æĺ¯ä¸ª
Ġapproved
Ġtargets
æĮĩå¯¼ä¸ĭ
ä¸ŃåĽ½äººæ°ĳ
Ġparams
ä¼ļåľ¨
Ġexport
mal
Ġblow
KEY
004
çļĦæķĪæŀľ
åı¯ä»¥çĶ¨
Also
Ġloan
ponential
é¢ģ
Ġchallenging
PRO
Ġrequirement
Sm
Ġorganized
hn
ĠEth
pare
ĠCatholic
âĤ
Ġsuffering
Ġwarning
å¤§å¤§
èĨĢ
åıĺåĬ¨
Ġaccessible
Ġtan
letion
Ġpapers
Ġchick
å·©
Items
éªĮæĶ¶
Ġkidney
forward
Ġselling
Ġhero
Ġputting
å¯¿åĳ½
cor
ä»Ģä¹Īæĺ¯
Ġnegot
Ġtaxes
çļĦä¸ľè¥¿
Ġflowers
åįıåĬ©
å¦Ĥæŀľæĺ¯
Ġincomp
ĠEU
ĠCR
LED
å¤ļåĲĥ
imals
gun
Ġê²ĥ
ĠUI
á»ģ
Ġforget
ä¸įåı¯èĥ½
åģľè½¦
ÑĹ
Ġages
èĢĮåľ¨
ĠEmpire
222
iological
ropy
åħ»æ®ĸ
é»Ħéĩĳ
ĠSelect
çļĦç²¾ç¥ŀ
Ġcapac
çĭŃ
éħ¯
èĨĿ
é¢ĨåŁŁçļĦ
ĠChall
ĠSym
Ġhorse
qquad
è¯Ħè®º
ceive
ugh
etary
Ġremark
åĲİç»Ń
atan
Ġspl
ĠON
Ġseemed
åĽŀæĶ¶
ä¸įå®ľ
Ġbeneficial
Ġdistrict
Ġresulted
åĪ¶éĢłä¸ļ
.V
Ġcompounding
ĠWal
article
å®ıè§Ĥ
Ġcompat
vare
èĦĵ
ĠCult
å®«é¢Ī
Ġfactory
ĠEncyclop
zi
Ġthanks
Ġquotient
ĠCA
173
Ġdirected
avelength
uits
Ġreset
Ġnine
å¯Ĩçłģ
Ġdetermin
åĲįåŃĹ
ç±»åŀĭçļĦ
ĠInitialize
å¾ĹåĪ°äºĨ
ä¼łæĦŁåĻ¨
Ġdestination
ayers
Ġapplies
Ġversus
Ġconfirmed
Ġsupplement
oter
Ġcontributions
/n
ĠÃ§
åºĵåŃĺ
åĢįæķ°
æĪĸæĺ¯
{}
çĹķ
æģĭ
Ġstreet
clusions
Ġdetermining
Invalid
ä¸ªåįķä½į
çĶŁæĢģçİ¯å¢ĥ
Ġpredicted
Ġfrequent
åŁĭ
Ġoptical
Ġmodules
ìļ©
Ġexecuted
Ġsich
ruit
å¸¸çĶ¨
Ġemployment
å¡ĳæĸĻ
ĠExper
Ġloading
III
æĪĳä»¬åľ¨
ku
ĠBased
ĠRevolution
Ġpron
çĸ®
ifer
ĠCamp
Ġnur
Ġhusband
ĠRights
èİ²
enger
mia
èĭ±éĽĦ
Ġvalidation
ĠNature
Ġcoverage
éģ¥
Once
account
Two
\}$
åĦĴ
ĠLic
èī²çļĦ
Ang
åŃķå¦ĩ
ĠWord
åĪĿå§ĭåĮĸ
ĠMel
èĬ¯çīĩ
æĹ¥åĨħ
260
ĠKingdom
-cent
ĠLow
æĲľç´¢
Ġê°Ģ
Ġpictures
Ġroutine
çļĦåĿĲæłĩ
ĠAdminist
Body
æİ¨åĩº
æĺİæĺ¾çļĦ
subset
å¼ĢåĲ¯
atty
Ġfarmers
å¢ŀéĢŁ
Store
Ġfrag
æĤ¦
ĠArrayList
ä¸Ĭæľī
åŃŁ
Ġoperate
Ġdecreases
ESS
=$
ç½ļæ¬¾
æ¼Ĥ
Ġstyles
ä¸Ģä»½
ä¸įåºĶ
çĥ¤
Ġlogical
Ġdocumentation
è®¾å®ļ
åıĳæĶ¾
ITY
ĠFull
ĠNASA
çĤ®
Ġdeclared
Ġsou
çĻ¾å§ĵ
Ġcontribut
health
Ġagency
åı¯ä»¥æĺ¯
miss
éĺ²èĮĥ
Ġradical
ften
æł·çļĦ
ruption
Ġreward
æķ°åŃĹåĮĸ
Ġknowing
çİ°çĬ¶
åīįåĲİ
acher
ä¹Łåľ¨
ropical
æĪĳæĥ³
_date
æ°´åĪĨ
ä¸įå¦Ĥ
è°ĥçłĶ
ä¸ľåĮĹ
Ġmaxim
Ġlig
Connect
Ġhaven
aws
:ĊĊĊ
èı²
æľīæĿĥ
ìļĶ
Ġamaz
ç¾İå¥½
ç¼¸
bes
Ġgel
ĠThrough
Ð¸Ñĩ
ĠHTTP
Ġpreferred
>-
//Ċ
Ġelsewhere
çĶµåĻ¨
Home
å¾Īå¤ļäºº
Ġdiffer
Ġpsychological
å¥ĸåĬ±
é»İ
ĠStudents
Ġacting
.__
Ġmic
éĴ¾
Ġrepeat
ĠThree
ĠVirgin
olt
Ġrh
çļĦä¸ĢäºĽ
Graph
Ġped
å¼ıçļĦ
ìĺ
pired
Ġsubmit
Impl
.json
åŃ£èĬĤ
ĠĠĠĠĠĠĠĠĠĠĠĠĠĠĠĠĠĠĠĠĠĠĠĠĠĠĠĠĠ
NG
æĹłéĻĲ
Spec
æĹłäºº
Ġcoordinate
480
ĠShow
Ġtheoretical
å¯¹è§Ĵ
ä¾Ŀæ¬¡
rained
ä¸įå±ŀäºİ
æľīæķĪåľ°
ĠQuestions
ici
Ð¾Ð»ÑĮ
Ġworry
Ġagreed
Ġtemporary
roduct
æ³ķå¾ĭæ³ķè§Ħ
Pa
ĠRom
imation
ç»Łæ²»
Ġdepos
instance
odule
Ġëª
åĿļå®ļ
âī¤
è´ŁåĢº
äº¿ç¾İåħĥ
Target
Ġ______
Ġgun
Ġidentification
cover
Ġtaste
éĩĳèŀįæľºæŀĦ
çļĦéľĢæ±Ĥ
ĠSep
Document
')ĊĊ
Ġaward
ĠServices
ĠResponse
rapeut
arse
Ġmigration
Ġintellect
æīŃ
Sw
Ġlicense
$_{
å°ıåĮº
è¢«ç§°ä¸º
Ġplugin
à¸Ĺà¸µà¹Ī
ä¸Ģæĸ¹
aux
æĲħ
ĠGame
çĶµåĬ¨
Ġorth
æŃ£æĸ¹å½¢
-ne
åĩĮ
Ġparser
Ġadvantages
çŃīèħ°
gra
Ġmales
Ġ('
åĨĽéĺŁ
/C
Ġimplications
ĠThose
005
ĠLanguage
åĲĮæ¯Ķå¢ŀéķ¿
Ġsmoking
çºªå¿µ
Ġchest
çļĦäº¤
750
Ġdigest
Ġyounger
ç¢ĳ
ä¸Ĭå¸Ĥåħ¬åı¸
ollowing
hal
Ġinvestigate
Ġprevention
Ġtrace
)!
åı¯çĶ¨
Ġcalculator
Ġfinish
åĪĩéĻ¤
æľºçļĦ
å¾ģæĶ¶
Ġprofessionals
èµ·è¯ī
áºŃ
Ã´ng
åıĳç¥¨
Ġclot
åĻª
tag
ï¼ŀ
ĠKn
Ġstronger
Ġevaluated
ç¾½
.state
ä¹³èħº
Parameter
eller
("%
Ġpit
_map
éĤĵ
Ġscholars
ĠBrown
Ġtrained
Ġcharges
èĬĤèĥ½
è¾¹ç¼ĺ
ĠBoard
\to
åĽŀå½Ĵ
å¾Īå¥½
èĳ£äºĭä¼ļ
è¡Įä½¿
çķĻä¸ĭ
_DATA
price
à¦¾à¦
å¨ĺ
éħ±
çĨĶ
çŃīçĹĩçĬ¶
About
register
Ġagricultural
Ġcrow
Ġintroduce
})^
Ġjoined
ĠMean
ï¼Ľï¼Ī
ï¼ŁâĢĿ
åĩłä½ķ
çĪĨçĤ¸
second
PO
ĠChicago
Ġstands
ĠEngineering
éĩĩéĽĨ
essions
ä¸īæĺ¯
ç§įåŃĲ
VA
ideos
ĠNO
Ġsweet
role
Ġtract
mean
VAL
Ġconserv
Ġmatrices
property
Ġbeta
ä¸įåĬ¨
çļĦä¸Ģéĥ¨åĪĨ
Ġgate
Æ¡
éĽ¶åĶ®
çľĭåĩº
yes
å±ĤéĿ¢
Ġremoving
Ġsampling
Ġfavorite
iotics
åĸĺ
Ġtow
çĪ¬
å¾Īå®¹æĺĵ
ãģ£ãģŁ
è¯´è¯Ŀ
Ġassuming
ä»ħä»ħ
Ġweights
ju
Lear
:A
ataset
project
Device
Ġplanets
Cross
çļĦæķ°
rants
Ġcholesterol
Ġ${\
Ġrecurs
Ġmountain
é©¬åħĭæĢĿä¸»ä¹ī
Ġwaters
iences
å¯¹è¯Ŀ
Ġinitialize
rolled
Ġ\[[@
ä¾ĿéĿł
Ġheter
çļĦåĴĮ
Ġregistered
èħĬ
Ġrobot
Ġ##
æµ´
cur
è¦ģæľī
Ġdirections
è½¦ç«Ļ
lat
Ġspan
èĳĹä½ľ
================================
rove
æķĳæı´
ente
è§Ĩè§ī
ä¿¡ä»»
ĠMD
à¸³
èĩªæ²»åĮº
adi
æ¢¦æĥ³
Ġdenote
çļĦæīĢæľī
Ġdriven
-size
ocker
Ġinduced
åŃ¦åİĨ
lisher
-by
äººåĴĮ
è¿ĩå¤ļ
å¢ŀå¤ļ
æľŁæľĽ
æľ¬æ¡Ī
_error
ä¿¡æģ¯çļĦ
è©
aka
ĠEs
æĻĴ
Area
SI
Ġdiagnosed
=False
Ġcouldn
Ġbear
Ġeffectiveness
ĠProfessor
æº¢
pes
ĠIndex
ãģĿ
ĠBefore
ä¹°åįĸ
ĠEss
è¾¹å½¢çļĦ
ĠPRO
Ġphrase
åħ»æĪĲ
å½ĵä¸Ń
heric
Ġstruggle
Ġethnic
acket
Ġfemales
area
åĨħè§Ĵ
Ġfever
Ġassumption
Ġpoverty
Ġsuperior
åīĸ
Ġmortality
scill
olid
çłĶç©¶çĶŁ
ĠInvest
Ġ\):ĊĊ
ĠSE
ĠMartin
æĮĩä»¤
æ²³åĮĹ
Ġatomic
ç§¯åĪĨ
æīįæĺ¯
ä¸ĺ
Ġsubset
æĿ¥è®¡ç®Ĺ
Ġug
azine
Ġdisappe
-or
ä¿¡æģ¯åĮĸ
Ġmanual
=&
Ġprecise
Ġaccommod
ICE
esc
Ġremoval
Ġtid
å¦ĤåĽ¾
Ġdisturb
âĶĢâĶĢ
ä¸ĸçķĮä¸Ĭ
å¤ĸåĽ½
åĩºåı°
alls
âĢ¦âĢ¦Ċ
åıįå°Ħ
ĠÑĦ
Ġ:Ċ
END
icide
è¿Ļç§įæĥħåĨµ
Ġforming
Ġ})Ċ
æ°§æ°Ķ
ĠRight
Ġsemi
íķĺëĬĶ
å¤§æķ°æį®
Ġshoot
ä¾¯
Ġcurrency
à¸Ĭ
çĺ¦
Ġpromin
Ġdestroyed
total
æ³¨æĦıäºĭé¡¹
(id
Ġbeam
å¤©æ´¥
cut
çļĦçİ¯å¢ĥ
å¼ĺ
æ¡ĳ
Ġtuple
Ġpray
quire
.error
Ñĳ
çļĦçİ°è±¡
ä¿Ħç½Ĺæĸ¯
ishment
aved
åıĳåĬ¨æľº
Ġreaders
TA
LC
à¸ģà¸²à¸£
_length
åĢ¾åĲĳ
Ġwarming
åĬłä»¥
Ġov
PH
_class
åħ¨å¸Ĥ
åĮºåĪĨ
-com
plus
ëĤĺ
()->
ulates
angles
æ¯ķä¸ļçĶŁ
æĦıå¤ĸ
åģ·
512
Ġchildhood
utely
ĠLibrary
Ġserves
Dir
ĠMR
æ°´ä¸Ń
æĮīéĴ®
èĲ¥éĢł
åī¯ä¸»ä»»
åĩ¯
Ġster
Ġ{}ĊĊ
Ġcellular
Ġhandler
Ġutility
Ġinvention
ĠFil
langle
Ġfairly
Ġyouth
yan
éĢĤå½ĵçļĦ
Ġhousing
igin
åħħè¶³
Ġrom
athe
è¾ĥå¤§çļĦ
éĢıæĺİ
Ġmarried
,C
æ°Ķæ¸©
Ġ×©
Ev
Ġ)ĊĊ
Ġsharp
riday
Ġoccasion
ä»£è¡¨å¤§ä¼ļ
ä»·åĢ¼è§Ĥ
Ġcreative
ĠOcean
å¤ļæķ°
ĠScott
}$.Ċ
èķ´
åĭĥ
Ġgenerator
æ¯Ľæ³½
Ġinstruments
Ġ$$Ċ
æŁĵèī²
å¤§æ°Ķ
Ġdispos
Ġpresents
åľ°åĮºçļĦ
ç¡ķå£«
Ġstrain
[edit
Ġps
äººå·¥æĻºèĥ½
ĠStandard
ä¾ĽçĶµ
np
gon
.annot
Ġissued
-scale
ĠField
Ġaccurately
ĠIndust
uto
ston
ç³»ç»Łä¸Ń
FP
onymous
outs
ĠSD
Ġdoctors
Collection
Ġbridge
Ġnu
æµ·å¤ĸ
Ġconstants
Ġcomplications
å®ŀè´¨
Take
ĠÐ³Ð¾Ð´
Ġfighting
éĢīçĶ¨
Ġsulf
è®©åŃ©åŃĲ
stone
Password
æľºåĬ¨è½¦
Ġsuffer
Ġtorch
æľīæľŁå¾ĴåĪĳ
.model
Ġrely
Public
ĠNations
ĠHave
Ġtranslate
ç¡Ŀ
GA
åĪ¶åĬ¨
ĠSpain
Ġinstant
Ġflags
Ġworldwide
ĠSar
Ġreprodu
Ġterminal
"]Ċ
å¾Īå¥½çļĦ
ìĤ¬
izza
Ġlifestyle
ĠAge
æķ·
Ġapples
eder
æĹłè®ºæĺ¯
irth
çļĦä¸ī
Ð¸Ñģ
Ġstead
å²Ń
Ġauthorities
Ġenzyme
æĪ¿äº§
Ġconsecutive
since
ĠLab
construct
åĩłå¹´
Ġguidance
æ¯Ľæ³½ä¸ľ
(void
totype
build
ĠPhysics
ä¸ĩåĲ¨
Ġedit
ĠPan
_model
åıĳçļĦ
home
osion
è½»æĿ¾
Ġrocks
ĠDB
Ġanalyzed
method
è¡¨æ¼Ķ
ohyd
ĠDev
Ð°Ð¼
ĠImplement
Ġlect
aven
ç²¥
ĠÏĦ
æ¸ħçĲĨ
ynamic
à¤¿à¤
éĿ¢è¯ķ
èĥ½åĬĽçļĦ
Ġions
æĿ¥åĪ°
Ġresolve
Ġdeviation
åĩŃè¯ģ
ãģķãĤĮ
Ġresidents
Ġmais
Ġexamined
MR
utch
éĥİ
çĶµç½ĳ
å½¢å®¹
ĠReal
!(
Ġsymbols
Ġ[[
åĪĨæķ£
ä»ĸåľ¨
aman
Ġunus
çĸ¡
rous
Ġfashion
ĠØ¬
ç¬¬äºĮæ¬¡
lag
ĠHaw
(input
çĲĨæĢ§
ï¼ľ
å¤ĦåĪĨ
MENT
*Ċ
ĠBible
å¤įåĪ¶
èĴĻåı¤
ä¸Ģè·¯
Ġturb
Ġtroops
ĠCPU
Ġfertil
Ġti
ovascular
åĵªéĩĮ
çļĦæłĩåĩĨ
neum
ĠAL
EB
Ġpermission
ivered
Full
Ġpreparation
åįļçī©
ĠBrazil
Ġupload
ogether
Ġsynthesis
íĬ
agement
çĶ¨æ°´
åĩºåİ»
Ġindependence
åĳķåĲĲ
Ġcord
Ġê¸°
asic
Ġappend
Ġtensor
Ġsummar
å·¨å¤§çļĦ
ĠIran
å°±æľī
Ġlens
çĦĬæİ¥
éĢĤéĩı
hma
isely
Ð»ÑĮ
èĩŃ
Ġfolder
ìĻ
ä¼ĺçĤ¹
source
Ġcv
Ġterritory
Ġharvest
å»¶ä¼¸
everal
users
ĠHall
ervlet
Don
ordinate
Ġsynchron
Ġdeaths
Ġbutter
211
Ġassembly
ĠÐĳ
Ġpublish
(st
*)
rating
çļĦæ¯Ķä¾ĭ
Phone
ĠVari
ç»Īäºİ
Ġequilibrium
ĠDisease
æ¸´
inson
ĠConfig
é¥²
Man
åŃĹæ¯į
ĠSpecial
Ġ},
Ġvalidate
Ġcutting
Ġparas
ĠSource
Ġmatching
ĠCOVID
after
à¸ŀ
Ġopposed
piration
dc
ĠMuseum
å®£å¸ĥ
Names
Ġclassified
æĶ¶èİ·
Found
èĩªèº«çļĦ
erals
ç¿»è¯ĳæĪĲèĳ¡èĲĦçīĻè¯Ń
æħĪ
ĠÙĤ
Ġcorre
password
æĭĽæłĩ
Ġdefinitions
VC
wargs
Math
UID
ĠCross
Ġrealize
æ¬º
çĹħåĽł
placement
Inst
ç©ºè°ĥ
æĸľçİĩ
oria
Ġdates
Ġlimitations
Îº
Ġsquares
irtual
_AD
ĠÃ¶
%ãĢģ
åİĮ
æ¯ıæľĪ
Ġfossil
requency
Ġparticipate
Ġaus
å¼¹æĢ§
Ġinjuries
è´¤
Ġintr
å¯¹å¾ħ
iments
Ġ×ĳ×
Ġfasc
ä¼Ļä¼´
merican
çİĽ
ocytes
Ġfaces
ĊĠĠĠĠĊ
asket
orous
Ġfragment
çīĽå¥¶
å°ıæĺİ
è®²è§£
Ġcommitted
ediat
Ġinformed
æĤ¨çļĦ
Ġlaser
make
ĠYear
)x
Ġimagine
pute
Ġprefix
Ġgradient
aba
weet
ques
ĠLake
yer
Ġmanifest
bur
å¸¦çĿĢ
ĠBit
åį«æĺŁ
éĵ¸
Ġ×ľ
Ġcrops
Ġconsideration
Obj
Ð¸Ð¼
ployee
Ġrobust
å¤įä¹ł
Ġturning
%ï¼Ľ
rovers
éª¨æĬĺ
åĴĮç®¡çĲĨ
åĩıå°ı
/A
à¹Īà¸²à¸
ĠItalian
Ġpoet
Ġasset
ayment
éħĴç²¾
hand
åįĥä¸ĩ
ç´§å¯Ĩ
åĿĩè¡¡
å¸ĪçĶŁ
æĬ½åıĸ
Ġhouses
igit
á»ĭ
Panel
Hello
riction
Ġspiritual
Ġnurs
ĠER
born
Ġmomentum
ĠVict
Ġmun
éļıåĲİ
æĸ°é²ľ
okes
.res
Ð¡
ĠSaf
æ¤Ń
ä½¿åĳ½
JSON
ä¸¤èĢħ
Ġtelevision
è¡Įä¸ºçļĦ
ĠStreet
Ġbil
Ġnewly
âĳ¤
åĽĽè¾¹å½¢
World
éĻĪè¿°
Ġcontrad
á»į
ĉĉĉĉĉĉ
Ġbacterial
åĽ½å¤ĸ
èĢĮéĿŀ
éĹ´æİ¥
Ġshapes
Ã¡c
åħ¬åĬ¡
wan
ĠJavaScript
è¯ĪéªĹ
target
æĢ»é¢Ŀ
çĨĬ
Ġdominant
ï¼ļ$\
\)ĊĊ
é¬¼
éģĹäº§
Ġshares
Ġintervals
å®ŀéĻħæĥħåĨµ
fish
ĠØ§ÙĦØ¹
ometer
Ġcarrying
åľĨå½¢
âĢ¦âĢ¦âĢ¦âĢ¦
æ»¨
ĠLoad
Ġsys
äººæ°ĳæ£Ģå¯ŁéĻ¢
è®¡éĩı
cr
åıĺéĿ©
kit
Ġanywhere
Ġentries
Ġfell
ĠIre
ĠDer
_table
ä»Ķç»Ĩ
Ġrecipe
sts
(o
ĠLee
çªĹåı£
åıĳçĶµ
å¡ĺ
idential
Ġáĥ
Ġtherap
uri
åīĤéĩı
Ġoffering
ç§ĳåŃ¦å®¶
æĥ³æ³ķ
å©Ĩ
edef
=x
Ġdefinitely
Ġstopped
ĠSpe
çĹħä¾ĭ
æīĵåĩ»
å®¶æĹı
May
riculum
Ġmaintained
Di
ç¡¬åĮĸ
çĲĨæķ°
Ġwound
æ¼Ķåĳĺ
rent
çĹĽèĭ¦
Ġincident
aming
Ġmarks
Ġagriculture
Price
èµļ
ç¼ĸåı·
Ġinterrupt
ãĢĭãĢĤ
Ġlaun
æĢ§æł¼
Ġparam
Ġcareful
Sk
Ġchances
Ġprecision
éĻĲäºİ
Ġnotion
entials
ĠAustralian
dict
éĤ£éĩĮ
æ¹ĸåĮĹ
Ġconve
å¸Ĥæ°ĳ
Json
ĠLink
ĠPolicy
Ġmild
ä¼Ĺå¤ļ
ä¼´æľī
çļĦä¼ģä¸ļ
-(
ĠSouthern
éŁ§
Ġcin
Ġworker
Ġnumpy
`)
xe
ĠFour
åıĳçĶŁåľ¨
åħ¨çľģ
ç¥Ń
æľīåºı
ç»ĻåĩºçļĦ
Ġcrypt
ĠMA
nee
Ġviruses
æĪĺæĸĹ
ĠNum
åĲĦåĽ½
æĬ¥èŃ¦
Ġseeking
Init
Ġdistances
_ptr
Ġdeficiency
æĥ§
Exec
Ġhandles
å®¶éĩĮ
æķħæĦı
Ġlosses
Ġë¶
Î³
ipse
ä¾¿äºİ
ç³ķ
Ġëı
Ġplain
å¹¶å°Ĩ
Parent
nsel
ĠOrder
Ġmedian
)),Ċ
æ¸ĹéĢı
Ġmacro
æŃ¦æ±ī
Ġreceptors
)$.
encing
çĶµç£ģ
æľªæĪĲå¹´
æ¸ħåįķ
#:
åĴĸ
ä¸įå½ĵ
Ġhappening
pread
Ġtmp
Ġcomposite
è¿ĳæľŁ
Ġcultiv
Ġconvey
Ġboxes
iger
require
Ġwal
ifiers
Ġswim
å»·
GET
ĠëĮĢ
Ġ{@
212
æĲºå¸¦
varepsilon
åĲįè¯į
ä¹ĺæ³ķ
haust
Ġze
æĮº
Ġ``
æĺ¯éĢļè¿ĩ
ë©´
Ġmeal
Ġimg
Ġwavelength
Ġwheel
æ³ķäºº
æĪĸåħ¶ä»ĸ
Ġenables
ä¸ļä¸»
YY
isted
Ġterror
Params
åİ¿çº§
SR
Ġba
Ġdedicated
Port
binom
Ġenemy
éĢīä¸¾
Ġpd
';ĊĊ
éģĤ
Ġexercises
ä½ıå®ħ
Ġweapons
Effect
å¢ĵ
å¤´çĹĽ
åŃĲéĩĮ
éħµ
Ð°Ð»ÑĮ
ä¸Ģå¼ł
lower
Ġplt
Ġblind
ĠLocal
åĪĴåĪĨ
Pol
åĮĸåĲĪçī©
ĠLeg
çļĦæł¸å¿ĥ
åĳĢ
ĠSecret
Ġcombinations
cies
Ġton
ç»ĵæł¸
Ġdent
ï¼ļï¼Ī
Ġordinary
ĠEnter
Configuration
iture
Ġconclude
Ġsoc
ĠCT
Details
ä¸Ģæī¹
ä¹ĭè·¯
åľĨå¿ĥ
Ġram
å²ģçļĦ
Ġcout
ONE
ĠConst
iden
Ġgenerating
éļıæĹ¶
atur
à§ĩ
Ġvariations
Ġrecover
Person
åĳ½è¿Ĳ
Ð°Ñģ
Values
éĢļé£İ
ulator
rer
èĥ½åĲ¦
Ġencoding
oxic
äººä¸İ
Ġtrick
çĵ£
ä¾¿åĪ©
åł¡
Ġnitrogen
åĳĬçŁ¥
æĹ¥çĽĬ
Ġrice
_BASE
å¥³åĦ¿
plugin
Ġsurve
havior
çľŁæŃ£çļĦ
Ġcolleagues
æºĥçĸ¡
Ġagencies
including
Ġcaptured
Ġpacket
è®²è¯Ŀ
ç¢Ĺ
æĺ¯ä»İ
igan
æľŁå¾ħ
Ġconstantly
.remove
.view
çĽĳå¯Ł
$ãĢģ$
Ġft
ĠPass
èĬĤçº¦
ĠIss
Ġrising
ĠÐ±Ñĭ
-hand
Ġignore
ä¸ĵé¢ĺ
åºĻ
ĠCreat
Æ°á»£
Ġslic
ç§ĺå¯Ĩ
Download
ĠAction
ä¸Ģä»£
etra
BM
ĠXML
Ġadjacent
å·©åĽº
æĶ¶è´Ń
æĮ¯åħ´
ĠÎ²
Ġcalculates
å¿ĥéĩĮ
Ġvariance
Ġrespective
Ġannounced
Ġrib
atile
Ġcrop
330
Var
ĠContent
Ġforth
FR
yy
_for
æĿ¿åĿĹ
Ġhousehold
isting
åıĳå°Ħ
åħħçĶµ
Ġaffecting
Ġnic
æ·ĺ
Ptr
ĠBa
.load
æ´»åĬ¨ä¸Ń
ĠCanadian
rif
å°½å¿«
Ġfocuses
æĲŃéħį
Ġbat
ĠHa
Ġadm
ä¸ªæķ°
ç»ıæµİçļĦ
Ġmu
Ġauthentication
-ray
ç¼ĸçłģ
ĠYet
åįĵ
ĠBal
Ġprinted
çļĦéĥ¨åĪĨ
æĭ¬åı·
å®ŀæĹ¶
grade
ç«Ļåľ¨
ä¸įä»ħä»ħ
Ġìļ
Ġembry
ä¸İåħ¶
Ġpra
$B
Ġcube
legate
ĠĠĠĠĠĠĠĠĠĠĠĠĠĠĠĠĠĠĠĠĠĠĠĠĠĠ
çĮĽ
Ġaux
Ġofficer
è¿Ļå°±
éĴ©
è¡Ķ
à®¿
Delete
èĤļ
é»ĳèī²
otor
æŃ£å¸¸çļĦ
æľªæĿ¥çļĦ
Ġidentifying
åı¯èĥ½ä¼ļå¯¼èĩ´
Ġdraft
Ġboundaries
Interface
æ±Ĥåĩº
question
ĠNorthern
Ġtom
ĠDiff
];ĊĊ
ĠTerm
Ġbasically
Ġjur
Ġfis
åºĶåľ¨
éĹ´éļĶ
pin
Ġefficiently
Ġflexible
Because
ĠMen
Ġgenome
Ġlandscape
å¤ĸç§ĳ
Ġreasoning
æĪĸèĢħæĺ¯
HTML
è´Łèį·
è£ħé¥°
Ġ×Ĳ
|-
perature
çº¦ä¸º
Ġurine
çľĭæĿ¥
çļĦç¬¬ä¸Ģ
white
éĤĢè¯·
ãģĦãĤĭ
--Ċ
çħİ
Rad
iana
Ġsocket
ĠRest
ç²¾åº¦
gressive
Ġreaches
æľīåħ³éĥ¨éĹ¨
Ġmerely
ĠDar
æ¯«ç±³
Ġreporting
ĠfÃ¼r
idae
çĶµç¼Ĩ
was
activity
Ġanalyses
Ġhex
Ġabsorption
æ¸¸æ³³
tains
Ġbiology
!"
yal
igue
ysical
æĮĩåįĹ
'ĊĊ
Ġcycles
})^{
çŃīæĸ¹å¼ı
Ġpersonality
sql
-value
Ġequality
Ġexcessive
è¥¿çľģ
ĀĀĀĀĀĀĀĀĀĀĀĀĀĀĀĀ
-off
å¸ķ
çļĦçĽ®æłĩ
abul
Ġfan
Ġpromise
æİĴåĲį
Leave
Ġdecade
Ġbranches
ä¸Ģéĥ¨åĪĨ
Ð¸Ð²
aine
ĠConference
ĠAccount
æ®ĭçĸ¾
ãĢķ
oggle
ĠSem
ä¾µæĿĥ
éģĵçĲĨ
{k
ìłķ
ä¸ĬåįĪ
áĥĲáĥ
ä½łåı¯ä»¥
.This
æĹłçº¿
Ġsurg
åįłæ¯Ķ
Ġgrows
åºķéĿ¢
å½ĵä»£
æĳ©æĵ¦
ì¹
è¯ģå®ŀ
nab
STR
Ġowners
ĨĮ
/T
Ġgut
æ´»åĬĽ
åįģä¸Ģ
çļĦç»ĵæŀĦ
Av
åį¸
å®ŀä¹ł
Ġdetermines
igenous
Icon
ĠFlorida
æĽ´é«ĺ
éŁ¦
Ġseparately
è¾¾æĪĲ
oor
é»Ħèī²
è¿Ľè¡Įæ²»çĸĹ
uming
åķ¦
selected
ĠÑı
ä¸Ĭæĺ¯
Ġdeng
èħ»
å®½åº¦
Ġsubstr
Ġmol
ĠCOM
Ġsphere
-bit
æī¶è´«
ĠJo
Ġencoun
åĮ»èį¯
ĠCirc
åį¢
åħ¬æŃ£
âĸ³
}\),
Ġindustries
[[
ĠHor
bc
Ġpreventing
çļĦæŃ£
bolds
Ġbrings
Ġarrived
Ġnearby
Ġdecreasing
Ġroughly
æĲı
åŁºç¡Ģä¸Ĭ
Ð³Ð¾
Ġlob
çİīç±³
Parser
CON
Record
ĠKeep
_;Ċ
æĢ¨
ä½ĵè´¨
è¯Ĺäºº
Ġmetabolism
éĿ¢ç§¯ä¸º
ĠFre
æıĲèµ·
Settings
çĸ¾çĹħçļĦ
(true
Ġaccounting
ellular
ĠFund
Gamma
å®ŀåĬĽ
èĤĽ
ä»ªåĻ¨
mut
nership
çĸĹæ³ķ
çīĻé½¿
Ġseparation
Ġinstruct
èĤĿèĦı
Ġongoing
×ł
Ġip
è§Ĥæµĭ
VL
har
VE
åħĳ
Template
boldsymbol
éķ¿æ±Ł
_init
çĶ¨éĢĶ
åıįæĺłäºĨ
çģ¸
ĠTimes
206
çļĦéĢīæĭ©
è¯·ä½ł
;&
ãĢĶ
ĠReply
Ġthorough
hm
ÐµÑģ
Ġmultiplying
å¡«åĨĻ
Analysis
æ°ĳæ³ķ
Ø§Ø¹
equiv
Ġindirect
oxid
aped
Ġmutations
:C
æľīå¾Īå¤ļ
æ¶Į
×ķ×ª
ĠAcademy
ç¦ıå»º
æ£µ
Omega
åİī
Ġ\(-\
Ø±ÙĬ
ãģĤãĤĭ
']Ċ
Ïħ
OPTIONS
.end
Ġmood
Args
ä»£æķ°
ĠVector
Ġkeeps
æ¸Ķ
å¨±ä¹Ĳ
Ġlogger
å¾Īå°ĳ
Ġorientation
Ġpup
åļ
Ãµes
ĠPot
Ġtransmit
ä»ĺæ¬¾
æĥ³åĪ°
åĩºçİ°çļĦ
*(
Ġindices
ĠIntroduction
Ġargue
ĠAmazon
ç»ĦæĪĲéĥ¨åĪĨ
Ġgradually
æĺ¯éĶĻè¯¯çļĦ
ĠWood
©ëĭĪëĭ¤
Ġmeth
mem
anch
ï¼¿
âĺħ
Ġ}),Ċ
Enc
è¯ŀ
é¡µéĿ¢
eness
æĶ¾æĿ¾
Ġfetch
èµ«
.parse
è¿½ç©¶
ĠLight
å¹´åºķ
unct
çŁ¥è¯Ĩäº§æĿĥ
ĠÐ¸Ð·
Ġhabitat
åķ¡
Ġsentences
éĥ¨éĺŁ
.type
çĶŁåĬ¨
çļĦæķĻèĤ²
Ġpert
ç¨³å®ļçļĦ
Ġtraits
Ġpartition
æĬ¬
ãĤ·
ĠProb
application
monary
420
*x
Ġintersection
Ġingredients
ipheral
Mar
Ġcopper
ä»¥æŃ¤
å½ķåıĸ
ä»İä¸ļ
Ġholes
à±
åĲĪä¼Ļ
also
åįķä¸Ģ
è¯·éĹ®
ĠPortug
ignment
formed
Ġpartners
ä»½é¢Ŀ
ĠÑĢÐµ
Ġperception
åıĻè¿°
çļĦä¸¤ä¸ª
äººåĬĽèµĦæºĲ
Ġcategor
èµ´
there
icker
Cal
ãģ£ãģ¦
ä»£çłģçīĩæ®µ
Ġhur
à§į
âĨ
nn
Ġdelivered
åŃ¦ä¹łçļĦ
";
bro
Ġfeeding
èħ¹éĥ¨
å¼Ĺ
ĠNatural
ä½łå¥½
æĪĲéĥ½
çļĦå¹³åĿĩ
Ġglo
ä¸ºæŃ¤
âĢ¦Ċ
Ġsatisfied
åĲĮç±»é¡¹
æīĢèĩ´
çļĩå¸Ŀ
[Ċ
åĬ¨è¯į
å¤įæĿĤçļĦ
å®Įæķ´çļĦ
Ġdeeper
Ġassignment
éľĢè¦ģçļĦ
ĠProp
Ġavailability
æĶ¾ç½®
Ġchemistry
theless
äºĭä¸ļåįķä½į
æ¦Ĥæĭ¬
Ġtall
ĠCalcul
onald
Ġgrew
åī¥
<div
Ġtou
Ġthereby
æĬĵä½ı
Ġcenters
Ġnucleus
Ġharmful
Ġdow
Ġcommission
Ġworst
aded
Ġtwenty
åĪ¶çļĦ
Ġwrites
hell
Ġbomb
Ġgases
æĺı
åĩºåĶ®
è¿Ľè¡ĮçļĦ
-point
åİ¨
uesday
Ġfinger
Ġlegislation
èħ¹æ³»
`ï¼Į
ĠVen
æĿĨèıĮ
ä¹ĭå¤Ħ
Ġpathway
itamin
èģĶçĽŁ
Local
address
Ġsitting
æĪĳåľ¨
Âłand
Ġscreening
Matrix
Cache
Ġpicked
çĽ¸å½ĵäºİ
DM
CG
Ġmail
description
æľĢä¸º
ä¸Ģè¾¹
Ġsongs
PUT
åıĶ
ĠIreland
Ġfacing
äºĶå¹´
Ġcomparing
_NAME
ĠVan
å¾ĹåĪ°çļĦ
æĺ¯åĲ¦æľī
çĶ¨çĶµ
Ġdecor
Ġreceives
æ¿Ģåħī
Related
å¿½è§Ĩ
Helper
Ġgrant
ç¬¬åħ«
ç»ĪæŃ¢
ĠLinux
chain
Ġweakness
Ġplug
Ġ/\
á»Ľ
iest
rev
çĶµåķĨ
å¿ĥèĤĮ
ĠÃ¨
Ġtransactions
Ġscr
Ġneu
æī¿åıĹ
)),
Ġarbitrary
æ¯ıå°ıæĹ¶
ĠMaterial
Ġgraphs
font
Ġwur
æİĴåĩº
Ġprol
Ġourselves
Ġfilename
å®¶äºº
èĮİ
lan
à¯ģ
Ġadmin
Ġaccord
å¸¦é¢Ĩ
ĠPMC
ĠViet
erd
Ġcalculating
vard
_REG
å¯¹çħ§
Ġexpectations
Ġdedu
ĠWorks
peror
Callback
Just
Ġmarine
Ġinterior
ä¸¤å¹´
èĬ¬
ductor
Ġisolate
çĽĳæĬ¤
Ġsupplies
ĠCast
Ġyields
Ġdamaged
è§£åĩº
æİĴåºı
Ġinsights
conf
ç¦ıåĪ©
Ġ\((
Ġnewsp
Ġbis
çģ¾å®³
æİ¢ç©¶
lab
Ġbiom
mente
éľį
Ġabsorb
.join
Ġcaught
obs
icians
åĲİæľŁ
æ£ĭ
Ġarrays
Ġbath
çĸ«æĥħéĺ²æİ§
Ġcoron
æĪĲäºº
endo
èĭį
çļĦåı¯
Intern
.apache
à§įà¦
istant
è°ĥæİ§
íĬ¸
Ġliv
äº§ä¸ļéĵ¾
ĠãĢģ
æĸĩçī©
è°ĥåº¦
ãĤ¿
Ġsimultaneously
Ġreserved
iti
å·®è·Ŀ
likely
Ġauton
Ġtea
å¹¶åıĳçĹĩ
áº§
è¯¯å·®
åľ°éľĩ
itage
Ġacceleration
?:
ãĤģ
åīįåĪĹèħº
heast
ryption
èĪŁ
ÖĤ
ï¼ı
ceptions
æµĭå®ļ
åį³å°Ĩ
Ġfounded
Ġoscill
ä¾¦
å¼Ģåı£
ãĢĭãĢĤĊ
tect
ä¹Łå°±æĺ¯è¯´
''(
Ġextracted
Ġcandidates
Ġoste
æĶ¾å¤§
Ġrounded
Ġadequate
Ġdial
ĠCambridge
Ġaims
æŃ£æĸ¹å½¢çļĦ
×Ļ×Ŀ
åıĸå¾ĹäºĨ
ä¸ĵä¸ļçļĦ
äº¤åıī
ĠUnivers
unsigned
Ġduty
Ġgran
åıĳçĶŁäºĨ
æĴ¤éĶĢ
æĬĳéĥģ
å·¾
ĠGL
Ġproven
Ġconference
ĠAmong
Ġimprovements
Ä±nd
æĬµæĬĹ
]_
æľīå®³
ĠRoyal
è£ķ
è¶ħå£°
-ph
208
Ġinitializes
Ġrecommendations
ea
Ans
çķľ
æĪĲäº¤
.k
åĲŀ
Ġtranslated
android
ventions
roat
idade
ercise
ocs
.update
æ¸©æļĸ
666
Ä±r
æıĲåĪ°
(I
å¹¿æĴŃ
Øº
Ġserving
Ġheads
Ġclaimed
Ġnutrition
è¿Ļä¹Łæĺ¯
224
_per
Ġsight
store
hea
].Ċ
Category
ubble
ĠJoseph
åĿļåĨ³
ç¡¬ä»¶
.current
çģŃçģ«
åįģä¸ĥ
rapeutic
Cor
ä½ĵæ¸©
Ġfabric
å°±è¯Ĭ
ĠGrand
Ġtrends
æ¸ħéĻ¤
æĿĥå¨ģ
æĹ¶éĹ´çļĦ
Ġvisited
Ġtreating
ĠPut
rule
å¾ħéģĩ
NC
idad
Ġdella
ftware
ãĢĤ"
Ġheating
*/
Login
Ġviewed
çŀ¬
èĨ¨èĥĢ
èĬĤçĽ®
åħĶ
åľĨéĶ¥
Bean
Ġacquired
èĦĨ
ĠEconomic
Hash
.user
Ġgest
ski
å¤ĩæ¡Ī
Ġtension
ä¸īå¤§
idespread
ategy
Ġoptimization
High
Ġcontra
Ġwhenever
ĠGuide
ĠÐŀ
Ġharder
ĠWall
_array
});Ċ
Ġapproval
çĻĮçĹĩ
æł¹æį®é¢ĺæĦı
phant
Ġinhab
éĽ¶ä»¶
eg
Ġflash
Ġprohib
ç®Ń
Ġanalyt
Ġ).
æĦıå¿Ĺ
Ġtrading
ä¾µçĬ¯
ointer
çĶŁæ®ĸ
å±ĤçļĦ
plan
Storage
Press
Ġcircular
forms
.close
Ġabandon
Ġrarely
Ġwithdraw
ĠÐł
æľºåĻ¨äºº
Ġlegisl
(Q
_col
earing
Inte
ABCD
è¶Ĭå¤§
Ġparticipation
Ġdot
aÃ§Ã£o
ĠAz
è¾ħå¯¼
Definition
ĠSu
å¼ķè¿Ľ
Ġvalve
ìĦ±
åĬłè½½
nav
è¿Ļä¸ĢçĤ¹
lg
Ġlikelihood
è¶³å¤ŁçļĦ
Every
ĠcÃ³
Ġow
ä¹ĭä¸ĭ
Ġclub
handle
ĠOtherwise
ĠMoon
Ġreson
åĨħåŃĺ
ĠOS
ĠÐ¶
Ġmetabolic
.as
.Text
isition
uled
Ġvolunte
æīĳ
ĠBab
èĥ½åĬĽåĴĮ
Ġtexture
éķ¿ä¸º
æłĩåĩĨçļĦ
Ġconcerning
åĪĿä¸Ń
_U
Ġmetadata
essages
å¹²é¢Ħ
Ġsilver
çº¿ç¨ĭ
agger
.z
itual
,x
Python
eld
åĲİéĿ¢
hop
æĦŁè°¢
_number
AF
åĩłç§į
HR
ĠIO
Ġprediction
çī²
çĻ¾å¹´
stack
Ġprotest
æĪĳä»¬åı¯ä»¥ä½¿çĶ¨
ìŀ¥
/*Ċ
ĠSwed
Ġshel
Ġprinting
share
ĠÐĶ
Ġloved
Ġ;Ċ
uclide
Ġentities
åŃ¦å¹´
èģª
Ġsuit
ä¸Ģåħĥ
ï¼īãĢĤĊĊ
Who
Ġdrain
339
Ġrecall
Ġnose
;;
Ġdental
ĠColl
+c
æłĩè¯Ĩ
Ġspinal
ä¸Ī
åıĹçĽĬ
æľĢæĸ°
Ġmonthly
èĪ°
Ġlessons
ĠUSB
.K
.âĢĻ
çĲĨè´¢
Ġexplicitly
Ġapproximation
Ġcel
("#
Ġcoc
Ġmeta
Ġoccurring
high
ĠÂ°
æłĩè®°
cence
æĭ³
ĠPolit
å»ºè®¾çļĦ
DD
íĺ
erred
åįķçº¯
Queue
æĤł
heets
Handle
atio
ochond
008
Ġpersonnel
äººåĿĩ
çļĦä¸įåĲĮ
åı¯åľ¨
cludes
æĶ¯éĥ¨
Ġenzymes
raq
à¤¨
è§Ĥä¼Ĺ
ibl
Ġtermin
åĳ¼åĲ¸éģĵ
Ġexponential
ĠLess
asts
æ¼Ĩ
ĠSometimes
ÐµÐ½Ð¸Ñı
cycle
Ġsatellite
æľĢå¥½çļĦ
åįµå·¢
éĢļçĶ¨
ãģĳ
login
Ġsenior
pub
æĺŁæľŁ
Ġinnovation
äººæ°ĳç¾¤ä¼Ĺ
ĠSupreme
ä¸İåħ¶ä»ĸ
Ġblo
å¥½äºĨ
çļĦéĩįè¦ģæĢ§
ä»ĭè´¨
ĠColumb
æī£éĻ¤
PubMed
Ġsuspect
rance
ä¸Ĭä¸Ģ
lectric
åħħåĪĨåıĳæĮ¥
çļĦç»ıæµİ
å®īå¾½
IME
çĶ¨åľ°
Å¼
esian
izable
append
ĠAppro
çŁ¥åĲį
221
Api
¹Ħ
æĮĸæİĺ
çļĦåı¯èĥ½æĢ§
answers
oked
éĢĤå®ľ
å®īåħ¨çļĦ
Ġmoderate
(E
iene
æŁı
æıĴåħ¥
ÐŁ
è´«è¡Ģ
æł½
Ã¢n
Only
thal
Loc
Ġwindows
Ġsatisfy
è¤
ulas
×ĳ
Ð½Ð¾Ð³Ð¾
ä¼ļä¸Ĭ
Ġarc
ĠUnfortunately
ëħ
Ġobesity
NP
Ġproviders
Ġintention
ulty
è´ª
æĹħè¡Į
234
iano
åįļçī©é¦Ĩ
æľīå¤ļå°ĳ
ä¹łè¿ĳå¹³æĢ»ä¹¦è®°
!âĢĿ
åħ½
ì²
ĠJeff
âĢĿï¼ĮâĢľ
ĠðĿĲ
enda
å¤įåħ´
Ġcalories
Ġsmoke
Ġinflation
éĹ¸
Ġrecording
äººèº«
actic
Ġeveryday
regular
ĠSP
.go
Ġblank
æīįä¼ļ
ä»ĸè¯´
æĸ¹éĴĪ
cht
Display
å®ŀè·µä¸Ń
bral
itals
ç¤¾äº¤
imeters
æŃ£è§Ħ
æĶ¹éĿ©å¼ĢæĶ¾
çĶŁäº§ç»ıèĲ¥
Op
Ġcats
Even
ÅĽ
ï¼īï¼ļ
å¯ĵ
Ġgained
Ġeastern
Ġfalling
uten
Ġcontrovers
æ²«
neys
ologic
äº¤éĢļäºĭæķħ
âĪļ
Ġunw
Ġquantities
ĠSO
720
Ġbalanced
Ġnotation
éĶ¡
(get
è§Ħç«ł
ĠMedia
ĠÂ£
Ġforecast
rait
èĬĿ
Ġhabits
ĠHash
Ŀåįľ
Ġ{'
Ġcurves
éĵ¾æİ¥
åĭĺ
æĸ¹å·®
æ°´èĤ¿
otted
ä¸Ĭçº§
rivial
ship
Ø§Ø¡
çļĦè§Ĵåº¦
.status
çªĿ
ï¼¿ï¼¿
è¯´æĺ¯
åĳ¨è¾¹
Ġdeploy
æħ°
ednes
aylor
èį¯çī©æ²»çĸĹ
Ġevolved
Ġofficers
ĠKorea
endment
Ġcovering
å¥Ī
Ġexpenses
IGHT
Ġfifth
Ġscenarios
Ġhypert
Ġpregnant
)<
Ġshorter
è¶³çĲĥ
é¢ĳç¹ģ
dots
Äĩ
Ġ[@
ä¹¦æ³ķ
ĠAbstract
åīįéĿ¢
Âłthe
æ®¿
Ġrepository
alities
Ġpoison
Ġorganism
åĩ¹
ç»ĵçŁ³
Ġcancel
çļĦåĢ¼æĺ¯
Dist
èĲ½åľ°
Ġinsight
Ġinsects
ï¹£
}y
Ġadoles
æŀģå¤§
aret
Ġoblig
opher
Ġinjection
Ġnicht
Ġmine
Big
graph
>=
irds
Ġestate
Ġfrequencies
YS
ĠClick
Ġsought
GS
éĢĢä¼ĳ
induced
Ġfo
ĉĉĊ
çĥŃéĩı
Ġbreaks
ooks
ĠMinister
Ġmock
Ġlang
æľºåľº
ĠMove
Conf
æµªè´¹
Ġships
ë²
oston
ented
Ġpointed
ä¸Ģä»¶
ĠComputer
åĨĻåĩº
Ġcounts
Ġrating
åİ¦
Ġwatching
ĠChild
èº«è¾¹
çº³ç¨İäºº
çŃīå¥ĸ
ĠDivide
çļĦäº§åĵģ
Ġdisrupt
Ġdual
ç±»åĪ«
_sub
Ġposit
èº«ä»½è¯ģ
*/Ċ
Ġreveal
å°ıåĦ¿
Ġfellow
pendent
å°±åĮ»
rowth
åĽ¾ä¹¦é¦Ĩ
åĽ¢ä½ĵ
Ġdestruction
Ġedition
ĠUnit
.min
Sec
è¿ĳæĹ¥
ç«ŀäºīåĬĽ
Ġincrement
«çĹ
Ġ||Ċ
uum
æµĩ
Ġcompletion
ĠChallenge
>+
285
rin
çľĭè§ģ
bered
åĮĹäº¬å¸Ĥ
èĢĢ
_by
igo
udio
åĩºç§Ł
ilename
è¿ĩç¨ĭä¸ŃçļĦ
BI
%;
Ġjudge
è¡į
ç»¼åĲĪå¾ģ
Gu
çĪ±åĽ½
çī©èµĦ
ischen
ĠOxford
eras
å·²æľī
Ġrelief
å·¥ç¨ĭå¸Ī
Ġlengths
åĨįçĶŁ
åµĮ
ĠAsian
ĠĠĊĠĠĊ
plier
åĲĳä¸ĭ
omers
Ġhormones
.show
å¾®çĶŁçī©
ĠDocument
åĽŀå®¶
ĠDespite
_arg
åĩĨåĪĻ
Ġuncertainty
Ġelected
æĭįæĳĦ
Ġrecycl
çĸ²åĬ³
åı«åģļ
ĠSupport
ĠÐ¿ÐµÑĢ
Ġsuscept
gered
è¾ĥå¤ļ
Ġpaying
åĲ¾
itting
heimer
Ġsport
ĠGre
Ġexceptions
èµ·äºĨ
Ġgift
æīģ
Ġfilms
Ġcapabilities
_X
Ġsurprising
pection
åīįæıĲ
æ²³åįĹ
åı¹
æĬķæłĩ
æĢİä¹ĪåĬŀ
dec
å½ĵå¹´
Ġoverw
Ġminerals
æĸ¹ä½į
å¤§ä¼Ĺ
APP
>`
ĠCase
é»ĺè®¤
Ġviral
ĠCL
Ġdesigning
çļĦæľīæķĪ
æľ¬åľ°
_(
Ġincred
lich
æĺ¯éĿŀå¸¸
Ġburning
Ġcookies
ĠImport
à®¿à®
_val
ĠHill
éĿ¢åīį
æĬ¹
ĠWang
Ġantibodies
Â³
ä»İä¸Ń
æľªç»ı
Ġintellectual
Active
Ġwidget
Ġstabil
Ġtexts
æĪĸè®¸
Ġbuck
ç´łåħ»
Ġlistening
åĲĮæĹ¶ä¹Ł
ĠHistor
åĵ¦
ĠJohnson
_read
Ġlaunched
Ġranges
ç»µ
TT
Ġsuggesting
çľĭçĿĢ
çļĦåºĶçĶ¨
-order
ĠEastern
Ġparad
Ġfootball
å°±ä¸į
å¥³çĶŁ
Logger
æĻ®åıĬ
ĠVirginia
æģ¶æĢ§
ĠØ±
à¹Ĥ
Ġdrag
Ġcomfortable
Ø§Ø¦
Ġmeter
Ġwine
Ġluck
åįıä½ľ
ĠStar
split
Ġsyntax
åĿĩä¸º
èµĦæľ¬ä¸»ä¹ī
quired
Ġcontributed
sa
çķ¸
ĠSand
Decl
æ¸¸å®¢
ĠHelp
Ġdifficulties
asa
åľ°è´¨
çļĦåīįæıĲ
æĹłéľĢ
Ġexhaust
Ġundert
wered
-called
Ġending
Ġborrow
è¿ĺæ²¡æľī
Ġdress
.core
Ġcardiac
åĽłæķ°
Ġtur
amination
Ġwidespread
æĬ¥èĢĥ
Ġcraft
456
Ġhide
èŀįåħ¥
Ġepit
ìķĦ
izers
stic
racle
å¦Ĩ
Ġobjectives
ednesday
çº§åĪ«
åĮĸå·¥
è¯įè¯Ń
ç¼ºå°ĳ
quir
çļĦæĸ¹åĲĳ
Ġteen
Ġseat
207
>&
æĿĥéĻĲ
Ġfocusing
iewer
ä¸»è¦ģåĮħæĭ¬
(user
ä¸įä½Ĩ
è¿Ļåı¥è¯Ŀ
æķ¦
ĠØ´
Ġfeels
Ġrepresentative
Ġpainting
Http
.");Ċ
POST
ĠBest
Ġfatty
ä½ĵæ£Ģ
æĹ¶éĹ´åĨħ
ãģł
Ġ"%
èŃ¦å¯Ł
åĩºåħ·
æĪĳä»¬é¦ĸåħĪ
-color
<br
æľ´
frame
Ġlibraries
Ð°ÑĤÑĮ
Ġsends
Ġmuc
è¿Ĳä½ľ
Ġconsequence
æĸ°çĸĨ
ä¸ĭè½½
*}
Ġasks
ĠEnvironmental
ä¸¤äºº
about
Ġapplicable
å°±åľ¨
Ġbreaking
ä¸ľæĸ¹
ĠCommunity
çĽ¸çŃīçļĦ
æĬĹä½ĵ
ocolate
æľºéģĩ
Ġlift
å¸¸çĶ¨çļĦ
Ġassumptions
Ġminimize
Ġgeometric
Ġfacility
Ġcompetitive
åĵªç§į
Initial
Ġdemands
ãģĭãĤī
Py
nia
Substitute
ãģĵãģ¨
ĠÐĵ
èĩªåĬ¨åĮĸ
Ġdiagnostic
ĠWithout
ĠAgain
214
å¤§éĻĨ
apsh
Ġfurn
ortion
ĠMessage
Rect
çĩĥæĸĻ
cient
Ġdesert
ä¸Ģæł·çļĦ
çĽ¸éĤ»
-co
011
(err
çĥŃæĥħ
ĠYoung
help
Ġillegal
iotic
oj
Nav
é¸Ń
ĠApplication
Ġvarying
Multip
Ġmineral
addr
å°½åı¯èĥ½
"/>Ċ
è§£è¯»
è·¯çĶ±
gorithm
ç»ıè´¹
ĠGeorg
closed
äºļæ´²
iac
èĩ³åħ³
çļĦæķĻåŃ¦
irts
ç¼ĸç¨ĭ
252
åĪĿæľŁ
æĦī
ĠIF
åĨ¬åŃ£
Est
Ġveter
Ġplanned
å¾ĹäºĨ
çĮľ
security
ĠNever
ATUS
Ġmanagers
Õ¸ÖĤ
åĿĳ
Ġabilities
pler
rons
Ġeine
å¸½
âĢĤ
ä¸įåıĹ
çĦ¦çĤ¹
Ġintra
[n
å¸ĪèĮĥ
Ġprecisely
fast
Ġtill
orses
$C
à¤°
Ġchecked
auses
á»§a
ä¸įéĶĻ
Ġneighborhood
phal
æĽ´å¤§
æľīçĤ¹
ĠHospital
æĮĩæİ§
Ġtf
ingle
ÅĻ
Ġearthqu
_SE
when
232
ä½ľå®¶
Ð¸Ðº
è¾ĥé«ĺçļĦ
ĠQuant
æĸĩèīº
letes
å¿ĥæĥħ
Ġtar
uclidean
Ġplenty
Ġìĭľ
amilton
ĠCre
.It
ĠEin
Ġmusical
advant
holds
ä¸¤ä¾§
æĺ¾å¾Ĺ
ç»ĦæĪĲçļĦ
.annotation
åıįèĢĮ
æµ©
Ġthank
]:Ċ
Word
Ġsister
ĠBul
çĸĹæķĪ
ĠWay
Ġfilters
triangle
Ġreq
ç®¡çĲĨåĴĮ
ĠNaz
(string
ĠÐ²Ñĭ
Ġevil
Ġminus
ĠEarly
Ġconsiderable
æ²ĥ
Ġcable
Ġproductivity
åĶ®ä»·
Ġheavily
Ġengaged
Day
ups
Ġtumors
olves
çķı
ÑĸÐ²
Ġconsisting
åı¯ä»¥ä½¿çĶ¨
äº«æľī
æĸ°æĬĢæľ¯
å¹³æĸ¹åİĺç±³
ĠÐ¢
ä¸įä¸Ģå®ļ
æµ¦
Ġcompos
èĥļ
ĠObs
è®¢åįķ
åĤ¨å¤ĩ
äºŃ
Ġperfectly
Ġrod
bot
ãģĬ
åĴĸåķ¡
ĠÂłĊ
Ġhybrid
Ġartery
æ¢¨
elay
/M
}</
è¾ĥå°ı
Ġvulnerable
DI
Ġhall
Ġja
ĠCond
Ġaz
æĳĬ
æ³¨æĦıåĪ°
orb
ĠDivision
æ»ĳåĬ¨
Ġvideos
Ïī
ĠPak
Ġfavorable
åħĭæľį
Ġthyroid
ibration
èį£èªī
aussian
{F
å¸¦æľī
åıĺåİĭ
Ġinfant
Ġsoul
.equ
.short
entity
ĠCustom
ÙĦÙĬ
_train
âĬ
iral
çķĮéĿ¢
uj
çłĶç©¶æīĢ
å¤ªå¤ļ
åıįæĢĿ
Ġglob
æĴĴ
oa
-j
ä¸įæĺĵ
acks
Ġtelling
Year
å§ĳ
Ġêµ
hematic
æ°ĳçĶŁ
Ġcá»§a
æ©¡
itar
ä¸»è¦ģæľī
rand
odo
å®ŀåľ¨
}{(
ĠConnect
çļĦçĬ¶æĢģ
ä¸įå¼Ģ
310
comfort
Ġregistration
éľĢè¦ģåľ¨
Properties
)))
è¦ģåľ¨
é£ĺ
(pro
Ġchoosing
æĽ¿æį¢
áŀ
ulo
Offset
æĪ¿åŃĲ
Ġcontrolling
Â®
(key
è¿ĺåľ¨
çļĦä¸Ģé¡¹
íķł
Ġsla
Ġcooling
Ġirrit
Ġcollaboration
ĠLicense
Ġovercome
ä½Ļé¢Ŀ
ĠCorpor
Equals
Ste
åĶ¤
çļĦæĢĿæĥ³
Ġentering
èĪĴéĢĤ
{r
365
doi
.prototype
UC
{e
Ġsurgical
215
GO
Ġcort
Ã¨s
})Ċ
helial
Ġstake
æŀĦæĪĲäºĨ
idi
ĠFamily
Ġfaced
åħ¶ä¸ŃçļĦ
æĻĤ
çĽ´è§Ĵä¸īè§Ĵå½¢
ancel
atisf
Ġclim
uer
.split
ãĤĵ
Serial
wd
æĺ¨
Ġfirms
å¢ĥåĨħ
.Data
æ°¨åŁº
Ä«
ĠExamples
Ġvaries
æĶ¾å°Ħ
Ġgranted
äº§èĥ½
Ġslave
äºĮæ°§åĮĸç¢³
psy
çļĦæ¦Ĥå¿µ
404
âĢķ
(res
åĤ¨åŃĺ
Ġaccompan
_len
Ġadministrative
Ġschema
Ġreput
(request
ĠLos
Ġpseud
ĠAtlantic
_en
cf
=>
Ġholid
éĹ·
Ġml
çļĦä¸Ĭ
(false
ĠBY
ä¹Ķ
acion
.max
eneration
ĠThough
plicity
Ġprecip
æľīåħ³è§Ħå®ļ
è®¸åı¯è¯ģ
ä¿®è®¢
å¦¨
Ġdiver
)}^{
Ġfest
_cast
ĠBlue
åıĤçħ§
Ġcontemporary
Ġforests
Ġdescribing
ranch
åĽŃåĮº
Ġbot
å¥ł
231
å¾Ĺä»¥
æķ´æĶ¹
Ġintense
ĠBerlin
utter
ä¸įå¤§
åĨħå¿ĥ
());ĊĊ
éľīç´ł
.un
åĨľäº§åĵģ
ÐĴ
tilde
Ġprivacy
ĠSmall
LP
ä¸ªäººçļĦ
å°ģå»º
Ġtransferred
æľįè£ħ
ĠĠĠĊ
è¾¹çķĮ
Results
è½¬åĲĳ
èĦ±è´«
Ġfee
çĶŁæķĪ
è¡¨åĨ³
$c
Lo
)`:
æĸĩæ¡£
_output
èŁ
éĢ¾
èĢĥçĤ¹
è¿Ŀè§Ħ
åĪĨæĪĲ
Database
Ġsolved
Ġsegments
Calculate
ĠEll
Ġreaching
âī¥
ç»ĵæŀĦçļĦ
301
General
æ³¨åħ¥
Ġ________
ĠSi
¬¸
å¾Īæľī
ez
èĴľ
åķĨä¸ļéĵ¶è¡Į
ç¡®å®ļçļĦ
].ĊĊ
Ã¸
Ġdt
ethe
äº¤å¾Ģ
åĪĨè£Ĥ
éļıæĦı
ĠBlood
Ġgenerations
Ġdiscrete
æ¶īåıĬåĪ°
child
ongo
(str
è¿ĲåĬ¨åĳĺ
å³¡
tre
åįķè°ĥéĢĴ
æĿĤå¿Ĺ
History
apsed
äºĭå®ŀä¸Ĭ
-known
ç¡®è¯Ĭ
filter
æĬĹçĶŁç´ł
Ġadvis
æī¿è®¤
Ġ"-
console
æł¸ç®Ĺ
åĪĨåī²
èĢ¶
kal
Ġ"./
ostream
People
Ġlosing
ĠØ¹ÙĦÙī
Ġundefined
è´µå·ŀ
Ġdifferently
006
è¯ļä¿¡
åľ°è¯´
Transaction
bell
OB
ORE
Ġrestricted
apply
åĩĢåĪ©æ¶¦
Ġinvestigated
Channel
ä½¿çĶ¨äºĨ
grad
.start
ogeneous
_from
ãģ¤
ĠSche
han
åĲįåįķ
Ġbleeding
ĠSn
èĴĤ
340
Ġio
yo
Ġcorn
Ð½Ð¾Ð¹
Ġlights
ä¸Ľ
Ġfunctioning
Ġkilling
245
-induced
Ġargued
ä¸ĭè·Į
Ġclassic
_image
Ġstrategic
å·¥ä¼¤
Ġsignature
utation
å¯¹ç§°è½´
pop
ĠTree
hyd
oxy
Ġaddressed
æĿİæŁĲ
å¯¹è§Ĵçº¿
éĵħ
å½°
Ġpredictions
igger
.config
Ġëĭ¤
Ġdistributions
[x
aired
press
è®°å¾Ĺ
OF
èģļçĦ¦
Ã¤n
istically
æĢ§çĸ¾çĹħ
{{\
ä¸Ģå¸¦
ĠĠĠĠĠĠĠĠĠĠĠĠĠĠĠĠĠĠĠĠĠĠĠĠĠĠĠĠ
Ġpm
Ġcopies
)).
ĠRh
Ġpenc
Ġpuzz
ĠStudent
Rightarrow
ä»·çļĦ
çŃīéĹ®é¢ĺ
Ġib
Ġpag
Ġarise
-making
Ġregime
Ġelder
åĢ¼çļĦ
-being
Ġperceived
éĴ¥
åĲ¦å®ļ
IVE
åĴ¬
è¦ģçĤ¹
ĠArea
Ġthickness
åīįå¾Ģ
å¸ĥç½®
Ġmutation
×©
Ġsystematic
ĠFar
stra
ĠHead
Ġdistinguish
Ġsuppose
ĠScot
ĠTask
Ġinvestors
ç¡®ç«ĭ
illion
à¥ĭ
ÑĢÐµÐ´
ĠĠĠĠĠĠĠĠĠĠĠĠĠĠĠĠĠĠĠĠĠĠĠĠĠĠĠĠĠĠĠĠĠĠĠĠĠĠĠĠĠĠĠ
007
åĿĬ
Ġabsolutely
Æ°á»Ŀ
æĪ¿éĹ´
lymp
olecular
ĠCrit
ÑĢÐ¾Ð²
Ġartists
Ant
åħ¬æĸ¤
rival
äºīåıĸ
æ¦Ĥè¿°
Ġuntuk
å°Ĩåľ¨
Ġbeings
éģ®
éĽĮ
Ġpipe
Ġcontamin
éļ¶
gex
èĪªå¤©
äº§çĶŁäºĨ
abulary
Ġroutes
_CL
Ġhosp
æī®
åİŁæĸĩ
inds
delete
Ġreturning
Ġnest
æ³Ĭ
èĻ¾
ensed
Ġmetals
æ°´æ³¥
_SH
ĠÑħ
game
Ġnoticed
Ġfloating
English
Ġcorporate
isons
ĠObama
'],
Common
Ġcommitment
nex
TI
ĠAff
Ġmining
Report
Ġpizza
çĶ¨åĵģ
ĠSeries
$g
æīĭæ³ķ
rus
Ġaimed
ĠÚ©
Mapping
éĩįçļĦ
oga
Inf
obic
æłĩé¢ĺ
iability
ÑĥÐ´
Ġ---
çļĦå¸Ĥåľº
ĠSimilarly
rf
á»±
åıĪæĺ¯
ÑĤÑĮ
æŁĲä¸Ģ
ursday
Ġ),
á»¥
azz
"""Ċ
Ġexecutive
Ġcombat
å®īåħ¨æĢ§
Ġbelieves
çļĦæľºä¼ļ
ä¹¡éķĩ
Ġprovision
.trans
Ġstations
ĠÏĥ
çŃīåĽłç´ł
æķĪåĬĽ
æĤ£æľī
åīįè¿Ľ
å®¡è®®
éĨĭ
æī«æıı
380
Ġka
ä»¥å¤ĸ
aran
æķ´æ²»
Combine
ĠVolume
bial
itus
Ġsees
à¦¿
analysis
åľ°åĽ¾
ä¸»è§Ĥ
æľĢæĹ©
åİ»éĻ¤
spring
Ġballs
Ġprominent
lÄ±
209
otypes
Ġcarbohyd
çºº
Ã¡t
}|
ĠSon
.map
æĲħæĭĮ
Ġvag
å®ĺæĸ¹
Ġflux
.gov
ĠâĢŀ
æ´»è·ĥ
{B
æŃ¦åĻ¨
çĨ¬
}.Ċ
æĺ¯çĶ±äºİ
Ġbarrier
]),Ċ
Contact
Ã©m
è¥¿éĥ¨
Ġsingular
ulus
åıĸåĩº
âĢĮ
çĻ»å½ķ
è¿ĳä»£
é»ıèĨľ
Ġcong
Ġconsent
ç»ĻäºĨ
:B
Ġfibers
Ġmyth
-axis
Custom
ãĥ³ãĥ
213
ï¬ģ
frak
Ġ}{
Ġcomputed
}$$
ĠNeuro
ä¹ĭéĹ´çļĦåħ³ç³»
ìĻĢ
ĠSie
åĪĨç±³
çļĦåŃ©åŃĲ
resentation
ĠShould
ä¹¦åĨĻ
ä¸¾æİª
Ġthreads
Ġcourts
æŀ£
ĉĉĉĉĉĉĉĉ
ä¿¡å¿µ
ĠCy
Ġunusual
_status
Ġmeng
è£ħä¿®
Ġdesigns
ouds
acco
zech
è¯¢éĹ®
çĿĢåĬĽ
ä¾ĽåºĶåķĨ
Ġsubtracting
Ġgoto
Ġscales
è¿Ľåº¦
olo
é¢ĩ
æ¼ł
Ġpayments
Ð½ÑĭÑħ
éĢļè®¯
Ġhtml
)</
éĢ¸
acer
çļĦè®¾è®¡
ĠnÃ£o
èĲİ
Ġcra
è¾ĵéĢģ
å¯»æ±Ĥ
ä½Ĩè¿Ļ
235
Ġvom
åĲĪéĩĳ
Ġenv
loop
_input
Ġpromoting
ĠRequest
agram
Ġbron
assium
Section
èħĲèļĢ
aque
zt
Ġrealized
_EX
ximate
Ġcleaning
_object
dia
çĹħçĲĨ
Ġpolymer
Ġcounty
si
Ġintermediate
olver
Ġalarm
Ġdefining
çĭ¼
ĠNative
åıĺæį¢
å¥´
join
æ±¡æ°´
ĠMethods
Ġdengan
Ġwelcome
plt
å¯¼ä½ĵ
ĠApple
iece
å¿ĥçģµ
uda
è¶ħè¶Ĭ
Ġinvolvement
Ġcooking
çļĦè¡¨çİ°
Ġevident
odels
Ġtons
ä»¥ä¸ĭç®Ģç§°
ç¥ĸåĽ½
èµĦè´¨
bour
Ġdipl
Ġbelongs
ĉvar
å¥½åĥı
éĺ³æĢ§
åħĦå¼Ł
.info
engine
ĠGene
çŁ¥è¯ĨçļĦ
ĠGPIO
Ġ);ĊĊ
å°ģéĹŃ
åľ°ä¸Ĭ
å¼ķçĶ¨
åĩºèµĦ
ĠGall
before
{S
aron
çİĦ
/x
ĠIraq
ician
è¿ĩæĿ¥
¯¸
ÙĪÙħ
points
è®©ä½ł
ĠMic
ĠBob
å¿½çķ¥
åĤ¬åĮĸ
æĥħå¢ĥ
Reference
{f
Ġempir
ĠPrice
Ġbounded
ĠLes
ĠHam
ĠLiber
åĬŀäºĭ
bu
ÓĻ
Ġdance
RY
Research
ĠTwitter
ÐµÐ·
Ġdense
çľī
Ġoutputs
Ġmodes
Ð°Ð»Ð¸
Ġom
Ġinstallation
è¦ģæ±ĤçļĦ
åĬĿ
ĠLie
æıĲåĩºçļĦ
æķ°é¢Ŀ
èĥ±
earchers
æŀ¯
{"
ÐºÐ¾
Ġweigh
Ġregulate
Ġtransmitted
ĠBern
ĠForce
Ġchair
éĺ²çģ«
Ġconsciousness
Ġmuse
Ġredirect
igm
è¥¿å®ī
çªģåıĳ
Ġfacilitate
çĲĥçļĦ
Ġantibiotics
Ġislands
itational
æĹ¥çļĦ
mathfrak
-col
.toString
raine
Users
ä¸įäºĪ
{P
isplay
Ġamazing
375
oving
ĠIndeed
Ġspecialized
.cl
ogenesis
Ġ([
)))Ċ
çİ¯å¢ĥçļĦ
Ġreflection
IDS
rooms
ĠSelf
à¸£à¸°
Msg
Ġincidence
×ĵ
.test
ç»ıæµİåŃ¦
æĬ½æł·
Ġregulatory
ĠDaniel
gree
æłĩåĩĨåĮĸ
HC
views
etc
äººæĸĩ
Ġbeauty
Ġgeneric
Ġperiodic
ĠAP
äº¤ä»ĺ
changed
çļĦèĮĥåĽ´
ĠLED
æĪĳæĺ¯
Ġtotally
some
ĠSir
/B
mol
æª
ĠÅŁ
å®ĮæĪĲäºĨ
Similar
ĠSimple
ĠìķĦ
è¥¿åĮĹ
æ¤ħ
ä¾Ŀæīĺ
ĠMur
å¼łæŁĲ
Ð½Ñĸ
aland
è¡Įä¸ļçļĦ
Ġalgebraic
sed
åįĹæĸ¹
Ġreflected
_out
ĠIR
imestamp
Ġbringing
Share
550
ëį
æĶ¯æ°Ķç®¡
ĠMah
çŁ«
etric
ÑĢÐ°Ð²
æĦıåĽ¾
Ġhonest
Ġexhibit
æĻ¯åĮº
conomic
loc
Ø³Øª
eme
åį°è±¡
Changed
ĠRen
åĬ¨çĶ»
usal
ynchron
åĬłå¼ºå¯¹
ĠOk
243
ĠComment
^{(
Ġemphasis
Ġslavery
\"
oln
Ġheaders
ĠPlay
æŀ¶æŀĦ
ä¿®æŃ£
æĸ°åħ´
Ġguarantee
Ġevolutionary
msgid
Windows
arters
åĮĻ
æ¢³
ĠHard
æĽ´æľī
Ġdevelopers
æ¹ĸåįĹ
401
ktop
-right
dominal
Make
ä¾ĽåºĶéĵ¾
,t
è¯ĹæŃĮ
Ġmeaningful
æĪĲæķĪ
iations
(result
{bmatrix
{Z
ä½ıéĻ¢
ä¸ªåĪ«
èĭıèģĶ
ĠRa
urable
è¿ľç¦»
covery
åİļåº¦
Ġsaving
éĿ¢ä¸Ĭ
interface
ç«ĭæĸ¹ç±³
amins
amps
Ġclothing
æ¸£
ç»ĵå©ļ
è§Ħç¨ĭ
Ð½Ñĥ
åī©ä¸ĭçļĦ
Ġ>>>
Ġmagnet
OUT
Ġroof
è´Ńçī©
åľ¨ä¸Ģå®ļ
åĲ¬åĪ°
Ġdegrad
æģĴæĺŁ
åģ¶æķ°
_I
Ġexperiencing
Ġplatforms
æł¡éķ¿
çī©è´¨çļĦ
anto
Ġpancre
\_
Ġcrack
ĠCSS
ĠPA
Ġdecom
Ġsavings
Ġcheap
Ġ?Ċ
pad
Ġentertain
zes
Ġdiscrimination
Ġ|ĊĊ
Ġprotective
ctu
estroy
Ġseverity
æľĢåĪĿ
Ġregarded
msgstr
()ãĢĤĊ
ä¸Ģç»Ħ
ĠâĦ
<<
ODO
Ġrecon
æļĤæĹ¶
à¸²à¸¡
éĶĮ
abling
controller
ç®¡çĲĨéĥ¨éĹ¨
positive
>,
ĠFort
ĠOl
Ġfant
è¿ĺåİŁ
å¹¿åľº
æľºä½ĵ
åĵº
393
Writer
AMP
Ġpartially
Ġlands
ä¸¤çĤ¹
å¹¿ä¸ľçľģ
oured
åħĥä»¶
Ġresc
atted
è¿ĩæ¸¡
Ġderivatives
ĠRock
Ġcompression
åħ´å¥ĭ
å¿ĥä¸Ń
Ġpeer
urface
éľĢè¦ģæ³¨æĦı
ëĵľ
ìĥģ
Ġìĸ
çİĭæŁĲ
çºłæŃ£
Ġinherit
àµį
Ġcot
Ġalive
Ġrequiring
Pop
Ġcurriculum
pth
èĻļåģĩ
çº·çº·
Ġinventory
Ġtargeted
Ġslaves
è§Ħæł¼
Ġtracking
âĢĻ.
éĽĩ
elly
Ġmetrics
Ġrandomly
ÐµÑĢÐ°
è·Łè¸ª
.shape
å¹¶æľª
ç¼ĵæħ¢
echo
å¥¹ä»¬
Like
ä¸ºä¾ĭ
èĬĤå¥ı
Ġsessions
ï¼ĭ
Ġrhyth
]['
Ġease
é¢ħ
æ¯Ĵåĵģ
ograp
Ġkon
Ġmarbles
Ġconsume
Ġadvent
ĠBon
ysics
ourier
Ġtimestamp
Ġmerg
âĢĿï¼Ī
ĠPur
åĴĮä¸º
PORT
åŁİåĮº
æ¹ĺ
Will
Ġmotivation
éļ¾é¢ĺ
_max
Ġethical
ç¡«éħ¸
-out
æĸ¥
æŃ§
Ġemotion
Ġchose
äº§çī©
áĥĶ
ĠHeart
auge
ĠSM
+(
è´¾
èī³
Ġgiant
èµ°è¿Ľ
ç«ŀèµĽ
ĠÂ©
ĠAndroid
ç«ĸ
áº¡i
æµı
bean
Ġhealing
è®ºåĿĽ
Ġ>Ċ
ç§ĺä¹¦
è´º
cler
BB
æ°Ł
è¡¥åĬ©
çļĦæ³ķå¾ĭ
éĢ¼
,n
Ġpixel
Ð°Ð¹
å¢ŀçĶŁ
ÑĸÐ´
Ġanimation
Ġproposal
Ġcardiovascular
Ġrestaurant
Ġini
åħ¬è¯ī
Ġpurchased
.index
ĉt
æłĩçļĦ
foo
éĻĦå±ŀ
Ġdifferentiate
Ġtrav
_on
Ġfrust
çļĦçŁ¥è¯Ĩ
Ġgerm
ä»£æĽ¿
ITE
ÑĪÐ¸
Ġrestrictions
Ġprivile
asses
Ġacknowled
itarian
çīº
åŃ¦åĳĺ
folio
Ġtends
"],Ċ
ä¸ľåįĹ
æľīæĹł
çĲĨäºĭ
Ġgreenhouse
angan
Ġkilometers
]ĊĊĊ
.List
Ġcursor
çļĦè®¡ç®Ĺ
_trans
Ġmodeling
å½¼æŃ¤
_device
åĩºå¸Ń
Ã©es
week
å¥³äºº
Ġdating
Ġconnecting
gb
012
æĢ»éĩı
è®²è¿°
{t
âĳłâĳ¡
Åĳ
quence
ÑģÑĤÐ¸
è¿ľç¨ĭ
Iter
ashes
äº¤æĺĵæīĢ
Ġdivisibility
-step
Ġot
çļĦæķħäºĭ
Ġpermit
agent
_z
ç°§
æĿĲæĸĻçļĦ
utils
Ġpackages
é©¬ä¸Ĭ
áº¥t
eor
{H
ìĿ¼
`ĊĊ
|nan
Ġconfusion
ç»ĳ
åĤħ
ë§Į
åĢŁåĬ©
Ġownership
Ġdrivers
oples
ä¸Ģåĳ¨
æĶ¹ä¸º
-V
æĪĲè¯Ń
'),Ċ
Ġdropped
æĹłçĸĳ
WH
ä¸¾æĬ¥
anol
ä¸Ģåıª
ç»ĻæĪĳ
ç²¾å½©
Ġpsychology
reference
ä¸ŃæīĢ
åĮĸåĴĮ
âĢĶâĢĶâĢĶâĢĶ
Ġracial
éħįå¤ĩ
Ġbabies
åĨħæ¶µ
ographical
éľľ
æĦŁçŁ¥
Ġencounter
-left
Ġctx
åľ¨æľ¬
note
èĤĸ
Engine
Ġ/>
å¹¿è¥¿
angers
çĺĢ
èĴĭ
Ġham
endor
ç»ĨèĥŀçļĦ
æĸĩä¹¦
isi
æ¡©
Ġtries
ĠED
Ġenhanced
Ġkom
æĮīæĳ©
âĪŀ
åīįæľŁ
Ġindependently
imen
iar
ĠResults
åĪ¶åº¦çļĦ
ĠØ£ÙĨ
Ġpulse
_all
æĳĦå½±
Ġsad
Ġtransf
å²³
Ġsubtraction
æĴ°
æ²¸
Ġdemocracy
Ġplates
åľ¨è¿Ļç§į
íĥ
åı¯ä»¥è¡¨ç¤ºä¸º
æĿŃå·ŀ
structor
Ġmoisture
èĥ°å²Ľ
Ġlaid
Ġsunlight
çĪ±æĥħ
ç¬¬ä¹Ŀ
]).
éĶĪ
Ġtrauma
å¸ĿåĽ½
802
anti
.xml
éĢīé¡¹ä¸Ń
Selected
çģ¶
å¤´éĥ¨
åĪĨå·¥
æľīæ²¡æľī
ĠMas
é¢ĨåħĪ
åı¯èĥ½éľĢè¦ģ
Ġpept
å«©
æľªèĥ½
Argument
Ġserum
èĩªè¡Įè½¦
Ġcontinuously
dk
Ġisot
ä¸Ģåľº
èºģ
ä¸ºä¸Ńå¿ĥ
ĠFOR
éŃħ
Ġcum
ucle
erving
Score
ãģĪ
ä¹ĭæīĢä»¥
çļĦæŃ£ç¡®
ĠRoad
å¤ķ
æģ¨
Ġwra
æĽ´å¤§çļĦ
asant
ĠBu
ĠNut
ä¹Łä¸įèĥ½
!}{
]),
original
Ġvictims
Ġcoh
airy
ĠInterest
zheimer
å½±åĵįåĪ°
books
aan
Ġtimer
_at
ĠAdministration
åĶĩ
é«ĺç«¯
Ġphysician
çļĦåħī
pathy
Background
itÃ©
Ġ+\
Ġbounds
.css
Ġdietary
ä¸ĭéĿ¢çļĦ
çĶ·çĶŁ
Tab
¤ĳ
Ġdischarge
ĠØ§
*,
ä¿±
ufficient
inet
lict
åĪĽæĦı
Ġclusters
æĵħéķ¿
çīºçī²
Ġprogression
Ġavec
è·¯ä¸Ĭ
Ġhi
ç®¡çĲĨåĬŀæ³ķ
Ġobviously
æ·®
çļĦæĿĥåĪ©
upport
ĠRT
Ġnullptr
ĠTri
çĶ³è¯·äºº
Profile
æĺĤ
.array
Ġincl
ĠCentre
Ġvessel
Ġpneum
ä¸įå¤ļ
Ġfinance
çłĶç©¶éĻ¢
åĮ»çĸĹæľºæŀĦ
æº¶è§£
commun
æ¬£èµı
éľ¸
Ġbx
æıĲéĹ®
è¿ĩäºĨ
_int
åĩłå¤©
Ġindicator
utor
kk
ĠTurn
åĲĦä½į
æĬ¥è¡¨
Tra
Ġvotes
ä¿¡è´·
Ġsomewhere
ologically
ä¸»å¯¼
uclear
-per
åĽ½åĨħå¤ĸ
)->
ç¬¼
åĨħèĨľ
insic
anz
è¡ĮæĶ¿æľºåħ³
cripts
åĨ³è®®
Err
å¯¹æīĭ
gage
ëª
ĠPhot
ï¼Īï¼īãĢĤĊ
ĠPlant
Ġsentiment
Enabled
éł
Ġretail
äººæł¼
Ġty
amera
Ġdifferentiation
éĩįè¦ģçļĦæĺ¯
Ġcirculation
Ġgrain
$(-
essment
}}-
ĠLeague
atching
ĠShort
Vert
Ġsymmetry
Ġì§Ģ
223
Sn
åħĨ
Ġunlikely
å½±åĥı
Õ¡Õ¶
Ġtong
mail
hu
èģļéĽĨ
actors
çıŃä¸»ä»»
åºķéĥ¨
650
_dev
omething
ä¼łæŁĵçĹħ
ç®¡çĲĨäººåĳĺ
roductive
ĠHig
ETH
Play
å¼Ĭ
(num
keep
night
Ġopposition
posed
çĭ¬çī¹çļĦ
cn
Ġputs
è¹Ī
ìłľ
Ġfed
ĠClear
ĠMaster
Ġbug
ç»ıæµİç¤¾ä¼ļ
Ġpenet
-class
Did
CTION
Ġevening
.Print
lugin
ä¾¿ç§ĺ
åĲĪæ³ķæĿĥçĽĬ
ĠKen
Health
Ġconcluded
ĠChristmas
ulative
NF
odynam
bow
olation
Ġreveals
Ġcollapse
free
Ġcoding
ĠGard
\[\
Ġrefuge
ĉs
isdom
ĠØ§ÙĦØ³
à¸±à¸ļ
Ġphotograph
Ġadverse
ĠDefault
ÙħØ§
Ġmurder
åĸĦäºİ
ĠĠĠĠĠĠĠĠĠĠĠĠĊ
Ġgraphics
ĠRemove
.query
necess
ĠAsk
rawing
Ġwearing
romagnetic
Ġmunicip
Ġonset
æĶ»åĿļ
$r
,and
checked
;(
Ġconvergence
inner
Ġnonlinear
prene
irty
æľªçŁ¥
éĩįç»Ħ
Ġengagement
apters
Ġlegit
Ġhonor
rible
åĿĲæłĩä¸º
çŁ©å½¢
Ġquiet
ĠPlace
':'
Ġpartnership
metric
Ġherself
Ġimpair
elfare
tor
{D
æĸ¯åĿ¦
Ġpathways
Ġbehavioral
athered
Ġflexibility
occ
å»ºéĢł
Ġbtn
æ¶¯
ĠDou
Ġ-Ċ
best
Ġmos
Ġscroll
ä¹¦ç±į
ĠDam
orms
ische
Ġ"<
Ġowned
æĦģ
åĪĩæį¢
å¤§æ¦Ĥ
Ġaged
Ġlogs
aze
Ġranging
Ġsensors
Ġsensory
ãĥŃ
åĲĥé¥Ń
Â©
Ġdop
éŁ©åĽ½
ĠValley
_mat
ä¾¿æĺ¯
Ġta
ï¼Ī-
å±ıå¹ķ
"The
_lock
Ġbroadcast
emma
Ġcounsel
è¾Ł
Ġadapted
ĠDistrict
IAL
/kg
æķĻèĤ²éĥ¨
çĥ·
ĠFred
Ġconsumed
è¢ģ
åľ¨åħ¶
-align
rable
æī©æķ£
æŃ£å½ĵ
åĮ»çĶŁçļĦ
Ġpixels
éĥ¡
Implement
çĽ¸äº¤
Ġnamely
ĠHu
PV
Ġinspired
......
åĲ¸çĥŁ
chor
trl
ĠModern
Ġtranscription
è¥¿åįĹ
Ġub
ä»İå°ı
æŀģéĻĲ
ĠĠĊĊ
íķĺê³ł
hus
063
çĽ´æĴŃ
ĠMultiply
èĤ¾èĦı
$p
XML
ä¹Łä¸įæĺ¯
ginal
ĠMit
Ġcomputation
bd
ĠImpro
EEE
ĠCarolina
Ġposted
omorphism
æĪĳå°±
Ġsolely
ä¸§å¤±
Ġwww
èĳĽ
åįķä½įçļĦ
æĹħå®¢
Ġhazard
çĿ¡è§ī
CV
document
Ġengineer
pret
Ġsignaling
åĬ©åĬĽ
(V
å¸¦æĿ¥äºĨ
Ġasympt
asia
äºĳåįĹ
ĠMovie
åĲķ
å¸Ĳ
èµ·çĤ¹
CRE
ä¸¤ä½į
)}\
æĶ¶åıĸ
acle
é¾Ļå¤´
Ġproportional
ĠMathematical
åħ¨å¹´
æĮ«
ĠHot
Ġasthma
åĬŀåŃ¦
Ġwriters
ç»Ļä½ł
ĠRandom
æŃ¤ç±»
íĦ
etween
ints
itches
lined
}[
020
abb
_CH
Ġlateral
ĠDirector
Ġcaps
ç¼ºçĤ¹
Ġfi
Ġrivers
Ġtherapeutic
ĠÃ¤
è¯µ
tw
>I
åı¸æľº
Dao
Ġdrives
æľīæľĽ
Ġprogramme
Consider
Ġcopyright
302
ĠClinical
oler
Ġassessed
ummy
icture
Ġapparently
Ġsubmitted
aternal
Ġcombining
çĻľ
Ġlocally
è½½ä½ĵ
åĩºçİ°åľ¨
åİ»äºĨ
çļĦéķ¿
Ã§a
ä¿ĥä½¿
å¦Ĥæŀľæ²¡æľī
Ġcircles
valuation
tz
åĪ®
-form
ĠSolution
åħ¶ä½Ļ
288
Ġconvenient
å»ºç«ĭäºĨ
.new
Ġattitude
è¿Ļä½į
à¹ģà¸¥
æĪĲä¸ºäºĨ
çĶ»éĿ¢
æīĭæľ¯æ²»çĸĹ
æ²³æµģ
å¿ĥæĢģ
ĠBasic
Ġkeyword
ĠIndones
ĠâĨ
å¾Į
åįłæľī
Ġmicrosc
Ġdisag
ä¸Ĭæµ·å¸Ĥ
Ġsurge
æĭħå½ĵ
Ġrats
äººæ°ĳä»£è¡¨å¤§ä¼ļ
.To
{s
ĠBoston
ä¸įåĪ©
è§ĨåĽ¾
BP
iley
çİ¯å¢ĥä¿ĿæĬ¤
ĠTre
arer
Layer
Ġaer
ailure
ä»£çĲĨäºº
emo
Ñĺ
çĪ½
èģĶåĲĪåĽ½
è³
Ġinterventions
_mode
Ġposterior
ushing
Core
æĶ¿çŃĸçļĦ
Ġnin
æ°Ķè±¡
á»Ľi
233
Look
Ġlabing
ijn
æĪĳè¦ģ
uble
çħ¤çĤŃ
ĉthis
ĠResources
çļĦæĦıæĢĿ
ĠAns
æĢ»ä¹ĭ
á»¯
Ġ'<
çĽĹçªĥ
âĪĪ
ç¹ģæ®ĸ
ĠOrganization
Ġtap
_PRO
à¸²à¸ģ
æĬ½è±¡
utable
æ°´éĩı
Ġsuddenly
á»Ļt
Micro
540
ĠEuclidean
$t
-inf
Ġstere
_hw
Ġintegrity
æİ©
åĪĨä¹ĭä¸Ģ
æ¯ıåĳ¨
è§Ĩéĩİ
áĥĺáĥ
çļĦæ¯Ķ
(path
ĠCore
Î¯
æİ§èĤ¡
Ġcommittee
åľ¨å®ŀéĻħ
âĢĿãĢģ
äºĶä¸ª
219
Ġconflicts
ĠReading
$S
ä¸īçº§
Ġphysically
Space
çĭ±
appoint
Ġchat
Ġautomatic
ä¸ĸçķĮçļĦ
Ġses
åĽŀæĬ¥
Ġscalar
Ġbare
Ġ```
ç¬Ķè®°
ĠMonday
ä½ľçī©
æĬ¤å£«
æĢ»åħ±
affe
Ġaver
Ġfur
çĪĨåıĳ
Ġelevated
æķ²
Ġscar
åħ¬äº¤
Ġanticip
ä¸įåıĬ
ä¸ºåŁºç¡Ģ
æºĲäºİ
æ´Ĵ
å¥³åŃ©
çĶ¨æ³ķ
ĠHttp
æĸ¹ç¨ĭä¸º
_FB
este
adas
åıĳè¨Ģ
Ġlifetime
ieval
Âłdf
ĠÑģÐ²
ĠTreatment
(@
äº§åĲİ
åº¦åĴĮ
Ġtolerance
Ġoch
Ġinherent
åı£ç½©
Ġslice
åı³ä¾§
èŃ¦åĳĬ
åħļä¸Ńå¤®
Ġsuffered
åī§çĥĪ
)?Ċ
}_{\
åħ¬åħĥ
ä¼ļçļĦ
Ġthreats
312
-trans
å¤ıåŃ£
Ġconvin
Ġemission
æııåĨĻ
Ġ'/
åĲįçļĦ
ĠãĢĲ
ĠOlymp
yg
è¶ħå¸Ĥ
åĳ³éģĵ
Ġlabour
ĠWat
Ġphenomena
\geq
Ġmerc
ĊĊĊĊĊ
Ġpatch
construction
è¡¡éĩı
!\
Ġ-->Ċ
æµıè§Ī
Well
åĬ³åĬ¨åĬĽ
Ġreflects
idx
åłª
å¹³å®ī
é¥®æĸĻ
Ġslices
å¼ºå¤§çļĦ
ĠLinear
styles
chem
Ġprevalence
worth
ikan
Ġsymmetric
.sc
264
åģ¥åº·çļĦ
_point
217
Ġjudgment
ĠRow
Ġsteam
Holder
ãĥ¬
Ġë³´
218
çŁ£
Ġarts
ĠHamilton
èº«ä½ĵçļĦ
Ġpayload
lot
ĠIter
åĽºéĨĩ
ĠÑĸ
Ġbases
Ġfitness
ĠJim
Mapper
apshot
åħĥçļĦ
Ġendl
ä¸īåįģ
raf
Cond
ĠTax
ifting
ä¸ªçĻ¾åĪĨ
Ð°Ð´
Ġcalendar
Role
ategories
ĠEquation
Ġoct
åŃĹæ®µ
Ġtransformed
ĠWikipedia
Ġenorm
å¤§è§Ħæ¨¡
Ġscientist
eur
bul
Screen
ĠSafety
,$
Ġearliest
record
{L
æĺ¯æĪĳä»¬
å¸¸åĬ¡
ĠRam
Selector
æķĻå®¤
));
ĠĠĠĠĠĠĠĠĠĠĠĠĠĠĠĠĠĠĠĠĠĠĠĠĠĠĠĠĠĠ
æ¨¡æĿ¿
ĠÙĦÙĦ
Ġdisabled
_TR
Ġencouraged
Ġtropical
Ġbasket
Ġcream
çļĦåħ¶ä»ĸ
Ġinfluences
Ġsql
Ġvictory
ĠMusic
Ġinitialized
ĠPhysical
}`
AST
æĿ¥å®ŀçİ°
Ġlogar
ASH
æļ´éľ²
ĠExec
åºĶçĶ¨äºİ
TF
ä¸ĢçĶŁ
å¼Ĥè®®
Bit
æĸ¹ç¨ĭç»Ħ
Ġvariant
ndef
à¸±à¸Ļ
Opt
ÙĬØ¯
Ġmanus
Pool
Ġmarkers
Ġoutdo
äºĮæ¬¡åĩ½æķ°
-dependent
inst
Ġich
290
asets
Ġrestore
éĺģ
ĠHom
dp
æĶ¶èĹı
åĪĨä¹ĭ
dat
Ġbah
æĺ¯åı¯ä»¥
Ġ'\
iams
PG
Ġbeat
ĠìŀĲ
scious
é¤Ĳé¥®
Ġpython
Ġservers
ä¿¡ä»°
Ġmovies
plane
Cost
Ġfatigue
éĻĦåĬł
ĠWHERE
Ġframes
Ġunem
Ġopens
æļ´åĬĽ
inen
Ġperforms
Ġdomains
_Ċ
åĴ¸
Ġcommunications
çļĦçĲĨè§£
pectives
Ġdip
æĢ»ç»Ł
ĠLim
Ġrepet
åĨħå¤ĸ
ĠBuddh
heres
*m
ĠHum
ä¸Ģä¸ªæľĪ
Ġfing
\|
orney
æ¼Ķè®²
Ġsympt
Ġacceptable
ĠUr
ĠPubMed
Ġboot
Ġsettlement
Ġstrike
Cmd
Ġdish
èĪ¶
Ġrose
Ġëį
Ġ\$
æĢ»å±Ģ
ä¸Ģæ¬¡æĢ§
Ġtravels
Ġdoct
æĩĤå¾Ĺ
Ġcompliance
çļĦçĶŁäº§
GDP
è§¦åıĳ
xml
Ġtrem
ĠLiter
ĠCompar
.âĢľ
275
amount
æĦŁåıĹåĪ°
ç¬¬ä¸ĢèĬĤ
.save
FG
Progress
åĨ¯
254
Ġundergo
æĹ¥å¿Ĺ
æĻ¯è§Ĥ
Ġemerging
BL
ä¸Ģçīĩ
å¨ľ
quer
åĽºå®ļèµĦäº§
ĠTaylor
æĪĳä»¬éľĢè¦ģæī¾åĪ°
ç®¡è¾ĸ
Ġva
<!--
{N
Ġvice
çļĦæĸĩåĮĸ
Ġmeals
åĽºä½ĵ
Ġgland
ĠJacob
ĠStan
æĢ§åĪ«
åĮ»ä¿Ŀ
ordered
Ġconfigured
inde
æĽ´å®¹æĺĵ
éĥ¨éķ¿
éĻ¤éĿŀ
å°ıæľĭåıĭ
åĢ¼æĺ¯
Ġpenal
å°ıåŃ©
bound
Ġjoints
Ġchamber
ÑĥÑĢ
Ġëĵ
Ä±ÅŁ
Ġpossibilities
åĢ¾æĸľ
ende
ä¸ŃåĮ»èį¯
Ġmechanics
ĠCombine
æµģæĦŁ
PDF
èµ°äºĨ
uset
ĠOK
Ġoverwhel
.gif
èĨ³
Ġwebsites
Ġelastic
åĬŁèĥ½çļĦ
éģ£
Ġembedded
ë¶Ģ
ĠNat
rypted
abeth
Ġstrengthen
åĩĿèģļ
èµĦæºĲçļĦ
Ġstrange
å¹ħåº¦
Ġsqrt
ä¸İæŃ¤
ĠFlu
ä¸ĢæĹ¥
ĠHit
merce
æĺ¥èĬĤ
ç¹ģèį£
Ġ".
Ġ"$
éĹ¨è¯Ĭ
á»©
-zero
Ġsocieties
ĠProm
ĠAlexander
Ð½Ðµ
à¹Īà¸Ń
åĳĨ
berry
ä¸įèµ·
buf
Ġarth
éĢļå¸¸ä¼ļ
NE
Ġpreserve
oline
Ġapps
å¤įåıĳ
athan
èĪŀåı°
ĠVersion
éĥ½æ²¡æľī
åĩºè¡Į
Ġfees
Ġteles
åĪĨæŀĲåİŁåĽł
who
éĤ®ä»¶
/\
Ġrecipro
Ġalph
èĨĢèĥ±
Ġrelate
Ġunexpected
Ġarrive
-en
ĠHan
æ»¥
)$ĊĊ
ĠSus
Ġdollar
Ġ...ĊĊ
rio
Ġisolation
èĶ¡
:",
æİ¢æµĭ
è½´æī¿
ordination
("\
ç¬¬äºĮèĬĤ
Ġ$|
Ġdistinction
åĮĸçĸĹ
éĢĢåĩº
UNT
Ġsalary
abases
Æ°á»£c
ëĮĢ
Ð½ÑĭÐ¹
äºĨå¯¹
AME
Ġìłľ
çħĮ
242
ç´Ĭ
ĠExpress
ä¸įæŃ£ç¡®
æĹ¥åīį
Ġchocolate
åı·çłģ
.send
aire
Ġdelta
Ġarchae
åħ¬åĬ¡åĳĺ
èº«å¿ĥ
è®¤åĲĮ
æ°ĳä¼Ĺ
è£¤
238
Ġunlike
asive
Ġwurde
erge
oca
iller
é¢ĦèŃ¦
Ġengaging
Print
ãĥķ
çŃīå·®
Ð¸Ñı
_params
Ġwinning
ĠFriday
Ġaging
Student
ĠÃ¡
taining
ÑģÐ¿
Ġopinions
Ġbench
å±ĳ
Phi
OUR
Ġverte
arty
éĢīåıĸ
Ġrendering
å¼ºå¤§
çİ°åľ¨çļĦ
Ġgent
ĠCapt
é«ĺåħ´
ĠDa
background
urations
ä¸Ģäºº
ä¹Łä¸įä¼ļ
ĠBor
_u
éĻ¢éķ¿
ĠBlock
Ġjuris
Ġrelie
å¤§ä¾¿
Free
å»ºè®¾å·¥ç¨ĭ
ä¸ĭäºĨ
Ġrings
Ġbars
ĠBiology
228
è§£åĨ³éĹ®é¢ĺ
Ġmirror
ĠBio
Ġequity
.edu
Ġ).Ċ
Ġgang
ĠIM
Ġprojection
-ass
.getElement
à¸Ķà¹ī
improve
irable
ĠWhether
èº«é«ĺ
operative
Subtract
ĠãĢĤĊ
æľīåĬĽ
ä¸įä¹ħ
è¾Ľè¾£
emon
åİ»åĮ»éĻ¢
èĤ¥èĥĸ
peat
rv
Program
anna
èĢķåľ°
dm
cb
ĠNE
æ°´åĪ©
ogens
Ġbulan
ä¸ĭæĸ¹
Ġcoin
Ġgrams
è¢«åĬ¨
è®©ä»ĸ
reek
ĠMember
Ġengin
Ġhorses
ĠNorm
ĠAndrew
Stat
Ġ×ŀ×
ç¬¬ä¸īæĸ¹
çļĦåĽ½å®¶
Ġentit
Ġdy
Ġuncon
bec
Ġedited
ĠSenate
ĠEq
åŁºæľ¬çļĦ
Ġprocessor
æī§ä¸ļ
è±¡å¾ģ
Rate
Ġmasses
æ¿ĢçĥĪ
Ġembod
çŃīçļĦ
çĶµè§£
ç¦ħ
ä¸Ģä½ĵåĮĸ
ĠLy
åĲĮæľŁ
aser
.title
arct
ynthesis
åħ¥åı£
Ġ//Ċ
æ±īè¯Ń
ĠRule
åĪ¤åĪ«
Ġpace
Ġappeal
åĽłå¼ıåĪĨè§£
Ġseiz
ÐµÐ½ÑĤ
${{
ä¼łç»ŁæĸĩåĮĸ
-shaped
Ġrabb
$ï¼ļĊĊ
}}+
å¹³ç¨³
è¿ĻæĿ¡
åħ¬å®īå±Ģ
Ġarrangement
Ġexploration
RES
Ġtiming
Ġinterf
íĻĶ
ĠìłĦ
_UN
Ġkay
å·®åĪ«
Ġvor
uity
,c
ë³
.).
ĠCommand
GC
åıĹä¼¤
tm
Ġoccupied
ĠJean
é£Łåĵģå®īåħ¨
ĠIrish
Ġtowns
ĠStatistics
-min
äººå¯¹
å¯ĮåĲ«
wall
Ġ×ķ
çħ§é¡¾
å·¦ä¾§
onth
Ġsynthetic
Ġsoph
Ġanalyzing
å¤ªå¹³
Ġexpertise
ä½ľé£İ
Ġenters
Ġsevent
cu
}>Ċ
å¤±ä¸ļ
ç½Ĺé©¬
Ġcolonies
ç»ĻåŃ©åŃĲ
æľīå¤ļ
ÑĬ
Ġpad
åİŁçĤ¹
è¡ĢçĹĩ
æ²»æĦĪ
Ġaccompanied
/a
éĴī
<td
Ġshouldn
è°ĥçĲĨ
=[
ç»ĺçĶ»
Ġwider
Ġboat
Ġmerge
entral
æ³ķåĪ¶
ä½ĵçİ°åľ¨
Ġcrystal
ĠCzech
ĠAlzheimer
Ġmistake
ä¸ªçĻ¾åĪĨçĤ¹
Ca
ĠNewton
ĠDiscuss
Ġirr
Volume
æĤĶ
æģ¼
#Ċ
å¤įæķ°
Ġcarcin
çļĦæ´»åĬ¨
åĲĮäºĭ
æĸĩä¸Ń
345
æ¶µçĽĸ
Ġcooperation
Ġcavity
åľ¨è¯¥
ĠIslamic
usr
ean
Ġoverview
Ġmesh
ĠFac
Ġengines
ä¸»è¦ģçĶ¨äºİ
ĠTrump
abels
+n
ĠNic
ç¢ĺ
Ġgenus
æĳĺè¦ģ
ĠCompute
èµĮ
Tool
åĲİåĨį
Ġsteady
)]Ċ
_idx
Ġclosing
å¤©åľ°
èĪĨ
ç¦½
element
ĠGDP
315
ä»¶äºĭ
ochastic
æĬĦ
Ġdisadvant
251
.google
æĤ£åĦ¿
éĺŁåĳĺ
ĠMaybe
Ġgrains
.time
çĶŁäº§çļĦ
ĊĊĊĊĊĊĊĊ
Ġchip
elli
Ġfut
Ġestablishment
ĠUV
Ġignored
è¡ĮæĶ¿å¤Ħç½ļ
è®¾ç½®æľī
ÐµÐ½Ð¸Ðµ
Ġnarrative
escription
è½¦çļĦ
´Ģ
tmp
Ġinduction
neg
åºŀ
åİĨåı²ä¸Ĭ
ayan
idal
Ġ`/
hot
ĉm
Ġhook
Ġevaluating
ĠìŀĪìĬµëĭĪëĭ¤
Ġallocated
Ġiterate
è¡°ç«Ń
Track
bled
ĠDid
.run
Perm
æĶ¿åºľçļĦ
Ġcoastal
ä¼ļä½¿
çļĦäººçĶŁ
small
required
rosis
ä¹Łåı¯èĥ½
é«ĺè´¨éĩıåıĳå±ķ
izon
pons
Ġascending
fd
å¯¼åħ¥
æĹ±
è¿Ŀæ³ķè¡Įä¸º
ĠRo
çĽ¸å¯¹äºİ
çļĦçĤ¹
æĦıå¤§åĪ©
èĢģæĿ¿
Ġdestruct
amento
æº¯
ĠCorrect
éĤ£ç§į
.),
ĠHarvard
ilateral
Ġrelat
åıĹæįŁ
Ġmitochond
ĠDue
ĠEnc
ä»ªå¼ı
èĳ¬
éħ·
reatment
Ġlistener
rose
ĠAltern
ç§¯æŀģæĢ§
¡°
_with
Ġfn
åĨħåľ¨
çĮİ
Success
åľ¨åĮºéĹ´
oglob
Ġperf
çł´äº§
å¿ĹæĦ¿èĢħ
Ġgravitational
Ġreferring
orus
Ġperimeter
Ġprovince
æ¯«åįĩ
Ġactively
tk
æ²īæ·Ģ
ĠBuild
Ġrequested
ĠWild
_MASK
Ġbatt
éĢļè¿ĩå¯¹
æ°ĳèŃ¦
Ġtracks
ĠJustice
æīİå®ŀ
è¾ĥå°ĳ
èµĭäºĪ
Ġcylinder
Ġchains
ç²ª
ĠFed
åħļç»Ħç»ĩ
Ġburden
Ġrooms
Ġmarker
.col
Ġinteractive
Ġloans
å¤ĸäº¤
coin
Ġloads
Ġcolonial
å£°æĺİ
æīĭæĮĩ
ARD
ãģªãģĦ
energy
itan
orer
ĠPri
................................
å¤´çļĦ
IND
Rule
ĠOs
áĥĶáĥ
riendly
Rest
ĠWin
<p
incoln
ç¥¨æį®
åĴĮåĽ½å®¶
æĶ¯æŀ¶
ãĤ¸
Ġquote
Ġchromosome
ĠLat
é¸¿
ĠRegister
è°ĥåĬ¨
èĽĩ
ĠSunday
ä¸įè®º
æĹ¥èĩ³
Contin
è´£ä»¤
å¨ĥ
ĠParliament
your
Ġcounting
btn
Operation
ĠRound
è¡Ģæ¸ħ
è»
Ġabsorbed
Ġvarieties
Fragment
Ġclothes
Ġpap
åĽŀå¤į
\rangle
ç¢§
æŁ¥æī¾
pendicular
Ġdiscussions
çļĦåıĸåĢ¼èĮĥåĽ´æĺ¯
Tw
Ġcmd
Ñį
ĠLew
ĠRemember
åīįæĻ¯
Ð¾Ñĩ
letter
Ġrouter
009
ĠHo
.open
èıĬ
Ġseats
Ġchicken
è®¤è¯ĨåĪ°
Ġseriously
_and
×Ĺ
(len
Ġbaseline
åİŁæľ¬
ä¼ļå¯¹
æ³ķå®ĺ
ropri
çŃ¾ç½²
Ġdeeply
Ġincent
æİ¨è¡Į
.i
Ġclinic
icking
ĠSoftware
.string
ç·
ĠBattle
ĠPaper
èĮĤ
å½Ń
ä¸īæ¬¡
Ġpassion
ĠÐĺ
èħ¹çĹĽ
*b
Il
ç§»æ¤į
_MAX
æīĢåŃ¦
Ġpoem
blue
year
303
Ġoccurrence
ĠPalest
~~~~
çĸ±
à¸²à¸¢
è¯¸å¤ļ
Network
ĠDatabase
æķĻçłĶ
ĠResource
_ERROR
ĠEdward
(null
æ½ľåĬĽ
Ġaccordance
ANT
-comp
Ø§Ùģ
226
éĻĦä»¶
Ġ"#
å»Ĭ
Ġrepeatedly
ĠOtt
ĠGET
raid
.Set
çĽ¸ä¹ĺ
ç¬¬ä¸ĢæŃ¥
Ġeconomics
çĥŃçĪ±
ĠVisual
ìŀħ
ricts
å½ĵä½ł
å¯¼æ¼Ķ
ĠEuro
å¢ĥå¤ĸ
vy
Ġsender
Ø§Ø³Øª
ĠAN
å¹³æĸ¹æł¹
ĠFis
Ġeverywhere
æ°´å¹³çļĦ
çİ©åħ·
Ġappointed
Ġconform
åĨħåĪĨæ³Į
esium
wr
åħĪå¤©
.O
route
éģĩåĪ°äºĨ
Fin
iating
Route
ä»¥å¾Ģ
Ġcomplement
ç¬ĶèĢħ
Ġcollective
åĪļåĪļ
äº¤äºĴ
person
Ġanat
ëŁ¬
Ġcow
Global
ĠTEST
ĠRay
linux
power
>You
æĶ¿åĬ¡
æĸ°å»º
engers
_US
isen
åŃ¦å¹´é«ĺ
rence
ulse
çļĦæł¹
,D
æµģåĬ¨æĢ§
ungen
Ġepisode
æĹ¥åŃĲ
Ġfet
extern
åĬ³åĬ¡
nings
à¸²à¸Ļ
âĸ¡
Ġinflammatory
ĠHun
çļĦä»·åĢ¼
ä¸Ģçº¿
iostream
å¥īçĮ®
Term
ĠPos
Ġtraditions
çĻ«çĹ
Ġprevents
è§£åĨ³è¿Ļä¸ªéĹ®é¢ĺ
æ°ĶçļĦ
241
dl
iah
åľ¨ä½¿çĶ¨
nov
304
Ġconfront
Ġantibody
çĻ¾åĪĨæ¯Ķ
åĪĳäºĭè´£ä»»
çĻ«çĹ«
Ġprey
Ġmerch
ä¸įè§ģ
è¿ĻéĩĮçļĦ
æ£Ģä¿®
Ġstops
å¿ħé¡»æĺ¯
_check
å°ıåŀĭ
åĸĬ
oters
Amount
save
ĠZealand
\Ċ
ĠKim
-O
ĠDigital
ï¼īï¼Ľ
ĠTeam
ĠÎ»
çļĦçī¹å¾ģ
Ġperipheral
çŃīå·®æķ°åĪĹ
åĮºåĿĹ
Ġorange
çļĦä¸ĢèĪ¬
Ġcontracts
Ġcancers
irk
LOG
Ġinfants
sequently
ementia
Ġprops
aska
ĠKenn
ALSE
ĠHem
Ġtechnological
itate
è®¡æķ°
Ġinvasion
ixel
Ġatmospheric
æľ¬åĵģ
625
{g
ĠCopyright
.X
ĠCI
.",Ċ
BR
ĠBrain
<std
stud
issance
*n
Ġproj
çİ¯å¢ĥä¸Ń
ependent
Ġtape
urities
çĬ¬
Ġoccas
Ġvacuum
ä¸įå¿ħ
çļĦéĿ¢ç§¯
/O
duate
å¥ĩæķ°
ĠThank
Ġdatetime
git
Ġíķĺ
æŃ£éĿ¢
ylvan
ä¸ĢèĪ¬æĿ¥è¯´
Ġarranged
(".
åŁºåĩĨ
.Error
Ð°Ñı
VR
Ġviolent
éĩıä¸º
Good
Ġmagic
strap
æĶĢ
Ġaccessed
Ġoldest
Ġpipeline
(K
Ġcoinc
Ġphilos
="/
Âłm
ĠãĢĤ
ĠUk
Ġ_,
Ġchamp
Ġangular
Ġaug
-end
eto
Ġwonderful
åı¯ä»¥å°Ĩ
Ġsatisfies
nya
dist
chnology
ä»ĵåºĵ
Ã¦dia
æ¶¦æ»ĳ
PN
Ġretire
ĠMarc
åĪ¶çº¦
ä»·åĢ¼çļĦ
ĠValid
Ġstraightforward
Ġtok
Ġìłķ
ynasty
è¯ĬçĸĹ
Ġlingu
çģµéŃĤ
Ġmoments
é¹¿
è¿ĳä¼¼
ĠCart
ĠBang
å¤ļäºĨ
èĬĤæĹ¥
Ġspots
ailing
æĪĲåĬŁçļĦ
å·¥ä¼ļ
ç¼´è´¹
ÂłS
Ġdimin
TD
Ġselecting
æīĵçł´
ç¼©çŁŃ
=Ċ
andler
-i
æŀķ
æŃĮæĽ²
ĠQueen
Root
Ġcompensation
Ġlake
äººäºº
è¿ĩå¤§
éķ¿æĸ¹å½¢çļĦ
èĩ´åĬĽ
Ġemerged
Comment
Short
åĬ«
æľ¬æĿ¥
ãĢĭï¼ĮãĢĬ
upiter
.""
èĳ¡èĲĦç³ĸ
Font
ĠAgency
.has
attice
Ġrectangular
236
ĠAri
Ġpens
Ġdiffusion
ãĢĭ(
Ġexplan
Ġspoken
Ġelig
ĠAk
æ¯ķç«Ł
å¥³å£«
oved
èĢģå¸ĪçļĦ
}")Ċ
ulous
Ġsubstrate
Ġjuice
olis
Ġmarginal
orters
rust
ĠAlgebra
="#
Ġventric
å±ĢéĿ¢
Ġpowder
ìĪĺ
çķ´
ĠLuc
perial
}a
324
_message
å¦ĩç§ĳ
ARY
ĠInteg
æī¿è½½
WR
å¤ĸæ±ĩ
Ġdetermination
ÐµÑģÑĤ
Ġaggressive
ï¿½ï¿½
Ġdiagonal
å±Ģéķ¿
å°ĨæĿ¥
ĠDutch
ĠìľĦ
ãĤı
Ġaster
Cap
å¤¸
éĢ¢
æĿł
Ã©r
zh
_pos
Ġstrictly
×§
ĠPay
ä¸įå¤ª
ĠMid
èİ·å¾ĹäºĨ
Ġceremon
Ġdisaster
Ġfusion
ä¼ĳéĹ²
Ax
æĮ¯åĬ¨
çĶµä¿¡
quot
é½¿è½®
ĠLoc
èĥĮæĻ¯ä¸ĭ
Ġpreferences
Ġraising
åĽŀå¿Ĩ
èĥ°å²Ľç´ł
ÐºÑĥ
èĶ½
å®ļå¾ĭ
à¥Ģ
adel
otimes
Ġlui
åıĪæľī
çħ§æĺİ
åħįçĸ«åĬĽ
Bytes
ç¿ł
)"
Ġsupplements
Ġearned
bus
å¼ĺæī¬
ĠMajor
æ·Ģç²ī
Ġcough
fc
ä¸ĢåĿĹ
jud
æĸ°åĮº
åĲĳåīį
åħ¶ä»ĸéĢīé¡¹
ë³´
çļĦè¯´æ³ķ
ĠTai
*a
Ġphases
Today
Ġtough
Ġsatisfaction
Ġdefects
ibli
Ã§Ãµes
nie
sign
ç»Ļä»ĸ
Pass
ĠíĻ
Close
éħ°
Ġreadily
Ġmodification
Ġleak
Ġintu
Ġbreeding
-cl
ä¸Ĭè¯¾
ĠGar
åĽŀæĿ¥
ĠResult
Ġ"""ĊĊ
ĠÂłÂłĠÂłÂłĠÂłÂłĠÂłÂł
åºĶä¸º
è§ĨåĬĽ
æİĴæ°´
ÂłÂłÂłÂłÂłÂłÂł
)$$ĊĊ
}$ï¼Į$
atalog
AE
æķĻå¸ĪçļĦ
Ġ<!--
åĽ½å®¶åĴĮ
Ġcha
éĦ
ĠJones
ç½¢
æľºæŀĦçļĦ
aints
nea
Loader
olding
ç»ĵæŀľæĺ¯
å¤ĸåĩº
å¦»åŃĲ
æĹ¢çĦ¶
Ġcuts
ĠJon
Ġjustify
éĶĢåĶ®é¢Ŀ
Ġgalaxy
Further
éĺ³å¸Ĥ
Ġpandemic
ĠClimate
ĠThread
mos
Î´
åħ¬ç§¯
ĠAgricult
Ġpu
ç¼©å°ı
çļĦä½ĵç§¯
ĠSaint
Ġapproximate
{u
Ġrays
246
hs
ä¸ĵç§ĳ
ĠÃ®
illy
\):ĊĊ
è°ĪåĪ¤
åįķè¯į
puter
Ġdens
initial
Ġdependence
ĠÃ©t
Ġticket
ĠDEF
è¢ĸ
Ġapi
è½´ä¸Ĭ
Ġthesis
çľĭæ³ķ
å»¶ç»Ń
ãĤĦ
Ġsua
ĠMechan
Ġ/**
åĮĹæĸ¹
ä¿¡æīĺ
åĨľæĪ·
Ġannotation
UV
Ġpitch
æķĳåĬ©
åĨħå®¹çļĦ
Ġfeas
pus
ä¸įå¾Ĺä¸į
_fe
Ġescap
validate
åŀĦ
åĮĸä¸º
çĪ±å¥½
å«Įçĸĳ
Ġarrival
æģ¶å¿ĥ
å¥³åŃĲ
ĠFrancisco
fin
ÂłA
Ġflying
ĠGive
åĭ¿
±°
Ġreproductive
^*
çļĦæĢģåº¦
ä¸¤è¾¹åĲĮæĹ¶
.")Ċ
Files
_addr
/re
Ġdari
Diff
ä¸»è¦ģçļĦ
Ġadjusted
ĠPractice
éĶĤ
Ġlongest
æĻºåĬĽ
Ġritual
ä½ľæĪĺ
é«ĺè¾¾
Ġactivated
èĪŀè¹Ī
Ġaddressing
hard
èĪ¹èĪ¶
Constraints
_new
ureau
éĺ²æ°´
æĢĢçĸĳ
aden
Ġspeaker
Ġsearching
appa
Ġanswered
æ¿Ģæ´»
Ġshaped
}:
Ġcollision
Ġpeoples
Move
Ġads
XG
Ð°Ñħ
Timeout
Ġqueries
æ¨¡ç³Ĭ
èĭĶ
Ġcertificate
ä½ĨçĶ±äºİ
åĢŁéī´
æŃ£ä¹ī
Ġstrains
ĠFront
ĠIde
é¢Īæ¤İ
åıĺåİĭåĻ¨
ĠHas
Ã®
PF
learn
Ġbuttons
è¯Ħå®¡
Learn
çĽ´æµģ
Ġstimulation
åĨłçĬ¶
Ġbulk
çļĦæĦıä¹ī
Ġms
ellar
cores
osity
åĲįä¹ī
åıĪç§°
Ġoperational
ffective
iser
Ġroyal
Proof
Ġcod
å°ıå¿ĥ
ĠPrime
ĠCarl
å¤ĸçķĮ
Ġ`_
Ġflower
é¢ĸ
244
.New
Ġrenal
Substituting
Ġpill
category
illary
Ġlabeled
Jan
Ġultimate
.list
å®ĺåĳĺ
åŃ¦æł¡çļĦ
äºıæįŁ
åĽŀé¡¾
Ġsurprise
lay
æħĮ
ĠÐĽ
ä¾§éĿ¢
è°¨æħİ
enum
å°ĳéĩı
Ġrepresentations
Ġfactorization
Ġimpl
ä»ĬåĲİ
Ġpredomin
çĭ¬ç«ĭçļĦ
æģ°å½ĵ
_comp
IFT
cz
vg
AIL
ht
åıªéľĢè¦ģ
Ġgalaxies
çĹĺ
ä¼¤åı£
Ġprolong
_AR
å¥½å¤Ħ
åĭķ
å¹´åīį
iu
åİĭè¿«
à¹Ģà¸Ľ
è¯ķåĽ¾
Ġelderly
227
_request
èĲĮ
Ġcomputational
omous
æľīçĽĬ
ĉcase
.hpp
+a
åħ¨åĬĽ
ĠBes
ç»ĵèĬĤ
PECT
they
Ġ-=
.from
çŃĸåĪĴ
æ¯ħ
(node
ç»ĵæĿŁåĲİ
Ġdistant
Ġcompatible
Ġadvertising
ãģ©
condition
å§ĵåĲį
è´ŃæĪ¿
èĥĮåĲİ
Ġsz
ä¸įåĩº
è°Ĭ
å¼Ģè®¾
Ġdevelops
Ġestimation
)/(
Ġanten
åĵºä¹³
olute
Ġâī¥
:D
åĿĲæłĩæĺ¯
(re
igration
Ġwage
Ġeru
Ġpulmonary
åı¯ä»¥æł¹æį®
_sep
Ð¸Ð´
typedef
-Z
ä¸ĭä¸Ģä¸ª
253
ĠSoc
bn
Ġinterpreted
åįĴ
å¼¹ç°§
(std
Ġpotato
å¯¹æİ¥
Â°ï¼Į
ĠĠĠĠĠĠĠĠĠĠĠĠĠĠĠĠĠĠĠĠĠĠĠĠĠĠĠĠĠĠĠĠĠ
Ġcortex
Ġbags
Ġconvention
racellular
è¿Ľé£Ł
Prim
arding
Ġattributed
åĴĮæľįåĬ¡
Ġsuggestions
Ġenterprise
æĪĳåĽ½çļĦ
_names
Ġiterates
å®ļä»·
_is
ims
èĹ¤
Ġconvex
-top
ariance
semble
Ġappreciate
Ġquest
Ġcrew
è¯±åıĳ
Ġreply
.web
è¯»åıĸ
INS
ediatric
åģ¥èº«
;\
ĠLater
Ġexisted
ä¿Ĭ
æİ§åĪ¶åĻ¨
through
Ġfmt
Ġlighting
^(
éĺĲè¿°
eterm
Ġcorrection
Byte
æĴŃæĶ¾
atre
ä¼ĺéĢī
Ġoppon
ĠJackson
ritional
237
Ġunnecess
Ġgains
æĪĳä»¬è®¡ç®Ĺ
æŁĵèī²ä½ĵ
çļĦåĪĨ
Ġtel
Ġlett
Ġprotecting
273
ç§ĳåŃ¦æĬĢæľ¯
Ġfarming
Detail
ĠContext
Ġelementary
Ġinclusion
Ġfluctu
*y
ĠGreece
ĠSud
Ġthemes
321
articles
ĠAddress
Ġcontinuing
achuset
325
_par
ï¼ī=
é¢Ĩåıĸ
229
}b
ä¸ĵæ³¨
åħ»çĶŁ
Ġdigestive
ĠChristians
åĪ¶å¤ĩ
Ġbid
é£İæ¹¿
Character
ĠRub
Ġweekly
gel
Ġsells
ĠLearn
ä¸įç¡®å®ļ
icode
Ġvaried
Ġresistant
Ġhoney
æĹ¬
Ġdisability
¬´
del
Ġcontributing
è®ºè¿°
Ġcub
åŃ¦çĶŁåľ¨
achusetts
Ġproc
å¹¶å¯¹
Ġorganiz
Ġamplitude
ä¸įæķ¢
Ġfriendly
Power
ĠMulti
Ġliterally
UX
Ġprovin
equal
Ġillustrate
Ġflav
Ġcure
äººäºĭ
ç»ıæµİå¢ŀéķ¿
Transform
omorphic
lected
æĸ°çĶŁåĦ¿
Ġdeleted
Ġmammals
íĦ°
ĠApplications
æµ·åħ³
ä¼ļå½±åĵį
Ġruled
ocard
ĠÄĳÆ°á»£c
.bind
éĢŁçİĩ
åħīä¼ı
èł
Ġsear
ĠSeveral
Ġsafely
Ġdependencies
$-\
stat
ĠPi
æĹ¶åºĶ
åľ¨æĪĳ
izabeth
Ġdeposits
\vert
æĹłåĬĽ
åĲĮä¸Ģä¸ª
-world
Ġanterior
ä¸Ģè¾Ĩ
ä¸Ńå±±
Ġroads
Ġgray
åı¯ä»¥å¸®åĬ©
ä¹Ĳè§Ĥ
Ġminister
ensitive
384
æ´¾åĩº
Ġdalam
æĬĹæĹ¥
Ġine
Ġshadow
oro
æŁĦ
è¶³ä»¥
ç¯®çĲĥ
Ġdoses
ĠStatus
æĺ¯è¦ģ
Ġexcited
Ġmountains
ä¾µå®³
æ¶Ľ
foot
çĥ¹
Ġpilot
JS
las
Ġrewrite
lov
gre
åĪ°æľŁ
ĠPerhaps
ĠHaving
Stage
å½¢å¼ıçļĦ
$:ĊĊ
ä¸įä¸º
ÃŃt
Ġinnovative
ĠDouble
Ġhurt
Ġnutrient
æĬ¥éħ¬
ĉprivate
åŃ¢
,(
é¢¤
REE
Stand
èıĩ
ä¸ºä½ķ
primary
Ġbands
Ġcerv
æ°ĳèĲ¥
ishop
ç´¢å¼ķ
ĠLaboratory
Expression
ties
-group
è¿Ļé¡¹
ä¹Łå¾Ī
è®²åº§
?.
Ġmyst
verter
ĠMcC
Ġtriggered
Failed
å··
ä¸ĭåĪĹåĵª
åıĬåħ¶ä»ĸ
è®©ä»ĸä»¬
èĤĿçĤİ
éĿŀæ´²
Ð¸Ñħ
created
ĠPakistan
Ġformulas
çļĦä¸ŃåĽ½
ĠNormal
Ġelabor
toString
æĪĸèĢħåħ¶ä»ĸ
Ġvisitors
åºĶçĶ¨ç¨ĭåºı
-state
Ġincoming
(__
ĠEmer
Ġattempted
drop
Ġtutorial
Ġiteration
ĠVietnam
Ġprescribed
æ±ĩçİĩ
Ġdrops
Ġliberal
Ġintegrate
kwargs
Ã¤t
ptic
Ġbarriers
é¢ĺçĽ®ä¸Ń
}\):Ċ
ä¼ģä¸ļåľ¨
Ġtemporal
æ£ļ
æĶ¹æŃ£
Ġmile
Ġtendency
æ½ĺ
æĹłç©·
çĭŃçªĦ
à¸¶
criptor
åŃĶåŃĲ
æĢ»ç»ıçĲĨ
çļĦè´£ä»»
å´©
çľĭèµ·æĿ¥
248
Lock
ä¸ĬéĿ¢çļĦ
aga
Thanks
ä½Ĳ
Ġjet
ĠDownload
ĠMarket
Ġinserted
æľīæĹ¶åĢĻ
ç§ĳæĬĢåĪĽæĸ°
çª¦
Editor
ĠHoly
éĢĿ
Ġenerg
oves
Socket
Ġjoy
send
emperature
Ġmemories
Ġkingdom
Ġempirical
åİŁå¼ı
è·¯ç¨ĭ
ä¸ŃæĸŃ
$ï¼ļĊ
à¦¿à¦
/F
çļĦéĢļ
ĠEconomics
DEBUG
Ġsubsequently
,a
Ġresidual
àµįà´
Ġtort
Ġsuicide
Ġbatteries
Ġtack
Ġaside
çļĦå¤ĦçĲĨ
otyp
æĮĩåĲĳ
æ³¨æĦıåĬĽ
ç»ŀ
æĬķç¥¨
yll
Ġhip
Have
ĠGUI
åį°åĪ·
router
æ²ª
Ġappar
é£İæĻ¯
çĽ¸äºĴä½ľçĶ¨
irs
Ġproxy
Ġimplicit
çĽ®æłĩæĺ¯
Ġfavour
lia
å®ł
ç¢°æĴŀ
ĠSpir
æľªæĪĲå¹´äºº
Ġ`@
ÑĨÑĸ
enti
aceut
ĠØ®
Ġnm
Ġexciting
æķ´éĻ¤
Ġzones
ceedings
Ġconstraint
Ġ$-\
ĠAdam
à¯ģà®
åĴĮå¯¹
æģĲæĥ§
abc
ĠItem
çĶ·åŃĲ
ĠRecent
":"
åħ¬å¼ıä¸º
]=
-sm
aware
ä¼ļè®¡å¸Ī
}$ãĢĤ
çĹħåİŁ
Ġnerves
Ġride
åħļå»º
Import
ĠSC
239
/lib
Ġprobe
ĠTODO
è¾¹éķ¿ä¸º
Ġbottle
Ġvitamins
Ġtent
Ġvibr
éĩĩè®¿
Ġíĺ
Ġspeeds
Ġconsistently
åĲĪè§Ħ
å®Įç¾İ
closure
åī¯ä½ľçĶ¨
é¦¨
Ġà²
Ġpotassium
ëĲĺ
ç¡®ä¿ĿäºĨ
Admin
.random
Ġassistant
ä»¥ä¸ĭçļĦ
Ðļ
Ġmature
-I
è®ºè¯ģ
riority
Ġnach
Ġconclusions
Ġprofits
åįĹåĮĹ
Ġallocation
Ġoxide
Ġacquisition
*t
rological
çļĦèį¯çī©
ç²¾åĬĽ
Ġcommod
çĽ¸åıįæķ°
æľĢéĩįè¦ģçļĦ
service
ĠRisk
Ġsupplied
pers
è¦ģä¹Ī
èº«ä½ĵåģ¥åº·
è¿ĩé«ĺ
ä½įçļĦ
åī©ä¸ĭ
çĶ¨äºĨ
æĺİç¡®çļĦ
ä»ĭç»įäºĨ
èĴ¸æ±½
Divide
æľīä¸ª
çĽĳä¼ļ
åħ¹
}\).ĊĊ
Ġrecess
REF
Host
æľīä¸Ģå®ļçļĦ
éĵŃ
è¾ĥå¥½
ĠZhang
ĠPD
Ġguy
Ġmeetings
{M
ĠBox
èĩªå®ļä¹ī
ä¹ĭä¸º
èĬ¦
Ġshoes
Ġthrown
ĠCat
ĠCharacter
ä¸įä½ı
Debug
ìĽĲ
éĻĮ
Ġnotification
247
Ġstuck
åĽ½éĺ²
åĬłåī§
ĠHyp
Ġabdominal
Ġhumanity
-inter
Ġcul
+Ċ
Ġquantitative
Ġskip
×¤
-he
Ġwildlife
Ġmá»Ļt
è²
èĦ±ç¦»
ochemical
åıĤè§Ĥ
ä¸ŃçŃī
åħ¬å¼ıæĺ¯
nm
ĠIC
ĠSize
è®¾è®¡çļĦ
åºĶçĶ¨ä¸Ń
äºĭåĬ¡æīĢ
ĠDictionary
akt
.se
ĠCe
Ġsciences
äººä»¬çļĦ
éĸĵ
Ġconjug
Ġdiam
çĮ´
ç»ĦçļĦ
TX
å®¶å±ŀ
Does
Ġconfused
åĤ²
Ġestablishing
<>();Ċ
262
region
'),
åı¯åĪĨä¸º
å¤©çĦ¶æ°Ķ
å¯¨
åĲİèĢħ
305
ITH
å·¥ä½ľèĢħ
ĠìĿ¸
Ġinhabit
Ġperpendicular
Ġbusy
ç©¶ç«Ł
Ġcircuits
*p
èĲ§
åĲįåŃ¦çĶŁ
è´Łè½½
ordan
Ġvisits
Ġconservative
åĨ¶
ĠSH
Ġfats
Ġnavigate
container
çļĦæĦŁè§ī
enced
Props
reements
èĩ³åħ³éĩįè¦ģ
untary
WM
mond
Ġduct
Ġengineers
å¦Ĥæŀľæľī
æıŃç¤º
ç«łç¨ĭ
æĸ¼
è´ŁéĿ¢
ognition
Ġtransparent
æĹ¥å¸¸çĶŁæ´»ä¸Ń
ĠChen
Ġsuppress
çĽ¸è¿ŀ
çļĦä¸ĢåįĬ
hl
Ġcoat
matic
Ġhepat
å±±åĮº
Ġelections
inters
Ġbundle
Ġdeals
å¥łå®ļ
Ġlesions
References
çķĻåľ¨
ï¼ĽĊĊ
Ġdiarr
Ġcarrier
å¦Ĥæŀľä¸į
çº±
uese
Ġholder
Register
letal
Ġtransplant
anth
_KEY
oton
Ġanyway
åıĳå±ķåĴĮ
AK
Ġ[-
Ġprobabilities
ĠWilson
SG
Ġtongue
ĠSolar
Ġwheat
åĩĨç¡®çļĦ
æĺŃ
ç¿°
crease
702
ĠAngeles
ä¸ºæŃ¢
/(-
ĠAvoid
åĪ«äººçļĦ
Loading
ugg
Ġcompress
Ġchi
åİŁåĽłæĺ¯
.content
ë©°
é¢ĺå¹²
Ġcollections
å¿ĥè¡Ģç®¡
ghan
åįİä¸º
ÑĥÑĩ
Ġclouds
æįī
Ġbroke
ĠManager
Ġalumin
çĶµåĬ¨æľº
LOCK
ĠLarge
SF
ä½ĽæķĻ
ylvania
ĠTyp
Ġ'./
-control
èı©
ç´Ĭä¹±
Ġcig
Ġvascular
Ġempire
éĿ¶
Ġreviewed
Ġsovere
440
Ġinvestments
ĠValueError
lass
çļĦé¦ĸ
Ġgeneralized
(object
å¸ĮèħĬ
è¡ĮæĺŁ
}}=
à¹ĥà¸Ļ
Ġgraduate
ä¸ĭæ»ĳ
%),
ÂłM
Ġmistakes
ĠGi
_COM
æł·åĵģ
Ġresearcher
çļĦé«ĺåº¦
centage
/D
Ġgear
ogy
ĠChristianity
lav
window
aton
Ġbuilder
ĠÐ¿Ð¾Ð´
Ġ{#
IGN
Ġ$$ĊĊ
ĠAssembly
åħ¨ç¨ĭ
vc
çļĦå¤ļ
èĮĥçķ´
Ġinspection
(`
âħ¡
entence
ĠThird
Ġhistoric
ĠMes
çŁ¥è¯ĨåĴĮ
èĥĨåĽºéĨĩ
åľ¨å¤§
Ġachieving
ĠÑĩÑĤÐ¾
370
Ġresolved
æŃĩ
Ġ___
èĥ¶åĽĬ
Ġcommunic
Video
acles
Ġcompiler
Ġhotel
é¡¾éĹ®
.Write
à¬
è§Ĩè§Ĵ
_MODE
ìĹ¬
lee
aml
Ġya
é¥±åĴĮ
èĻ¹
pH
tery
Ġratios
Ġwake
Ġtangent
Ġmothers
Ġglac
çĶµåŃĲåķĨåĬ¡
Plan
Ġattractive
Keep
initely
é¼İ
åıĳèµ·
ä¿Ŀç®¡
Send
stru
teenth
versely
è½»å¾®
ìļ°
ä¸Ģç¯ĩ
Ġbene
Ġfriction
Ġexert
lishing
343
ç«¯çļĦ
æĺ¯æĪĳ
Ð¼Ð°
æ³¼
å¾ĹåĪĨ
anean
ç¶
asting
éĵĥ
Ġsul
286
è´¯å½»èĲ½å®ŀ
çĶµç«Ļ
áº¯
&#
Ġstreams
FE
ä¿¡æģ¯æĬĢæľ¯
é¢Ħæ¡Ī
Ġhappiness
LY
ç¥Ľ
Ġfluores
ç®¡çĲĨåĪ¶åº¦
.width
ĠDisplay
ä¸įç¬¦
ãĤ«
Ġqualified
ä¸įèī¯åıįåºĶ
itzer
å®Įæ¯ķ
ç»ĺåĪ¶
265
ĠBeing
è¯·ä½łå°Ĩ
ä¿Ŀåħ»
ĠBan
å¢ĥçķĮ
ĠUnderstanding
è¦ģæĬĬ
æİĪäºĪ
clipse
ookie
Ġfatal
èĵĿèī²
Ġadvances
Ð¸ÑĤÑĮ
]\].
Ġalignment
=a
410
ĠWeek
ĠRepublican
Ġnick
Ġearnings
æŃ£æķ´æķ°
ĠMachine
å»ºçŃĳçī©
visor
ĠBetween
onto
system
ļĮ
(item
inery
æľīåĪ©
Ġpainful
Ġhomework
Ð½ÑĭÐµ
èĩªæĦ¿
æ¸ħçĥŃ
Ġaccomplish
Ġdjango
æł¸éħ¸
ĠPeriod
owner
Ġtob
çĦ¶åĲİåĨį
Ġreputation
æľįä»İ
Ġcontradict
tip
è¿Ļä¸İ
Ġsophistic
è¦ģæĥ³
ä¹¦ä¸Ń
249
èħĲè´¥
ç½ĳåıĭ
Ġswelling
ç£ģåľº
Ġaltered
å¯¼å¸Ī
MIC
}<
Ġ$(-
åİļçļĦ
ilde
åĪ°åĮ»éĻ¢
iodiversity
Ġhypertension
çº¿ä¸ĭ
enerate
ä»£åħ¥åħ¬å¼ı
Ġencountered
ĠMol
Ġactor
Ġacceptance
åĪĽå»ºä¸Ģä¸ª
Ġpolynomials
çł´è£Ĥ
ĠProtection
enders
.api
Ġgrades
ïĤ
Ġanger
ĠParent
æĪĳä»¬åºĶè¯¥
è¡¨çİ°åĩº
çĻľé£İ
æīĢå±ŀ
Ġprogressive
Ġlon
agine
åĻ¨æ¢°
è¡Ķæİ¥
Ġthroat
æĻºèĥ½åĮĸ
Ġprofound
Ġsediment
ĠLincoln
ashboard
âĢĲ
ilst
æİ¨çĲĨ
Ġpret
ÑģÑĤÑĮ
Ġcoupled
ĠWilliams
connected
EY
Inv
Ġdevelopments
Ġpreparing
æł·åŃĲ
æĲŃå»º
Ġhandled
Ġadaptation
Ġliterary
VS
phy
Ġirre
Ġcheese
lux
éĢĬ
avid
ĠDecl
ĠVe
Ġhospitals
FFFF
è¡Įè½¦
çłĶç©¶çļĦ
front
.call
æĢ»æķ°
åŁºæľ¬ä¸Ĭ
ç«ĭè¶³
æĤĦ
ä»ĬæĹ¥
Ġcrimes
èĨľçĤİ
æ²»å®ī
ä¸Ńå°ıä¼ģä¸ļ
å¤´åıĳ
ĠContact
Ġtruck
_level
ĠSel
åºĶåĬĽ
Ġextraction
æĿı
Ġenforcement
Ġvaccines
ä¹¡æĿĳæĮ¯åħ´
ä¸Ģæ®µæĹ¶éĹ´
_err
åĴĮä¸ªäºº
è¤Ĳ
Ġretain
å¦ĤæŀľæĪĳä»¬
ÙĪØ¯
ĠNob
çĻ½çĻľé£İ
Photo
Ä±nÄ±
Ġuniversities
ĠAsh
Ġnurse
bat
âĢĿï¼Ľ
Ġassociate
ANG
åĿĲåľ¨
opathy
çĽĳçĲĨ
ä¿Ŀå¯Ĩ
radius
owers
Ġvec
æĬķè¯ī
èĪ±
æĪ·ç±į
Ġfiltered
ĠTal
)/(-
á»ĵ
ĠColumbia
_rate
ĠĠĠĠĠĠĠĠĠĠĠĠĠĠĠĠĠĠĠĠĠĠĠĠĠĠĠĠĠĠĠĠĠĠĠĠĠĠĠĠĠĠĠĠĠĠĠ
Ġslide
limits
_df
ç¡®ä¿Ŀåľ¨
"))Ċ
Prof
elve
å®¶ä¸Ń
è§£æĸ¹ç¨ĭ
ViewById
ĠScotland
ĠÐ¿Ð¾Ð»
åĿł
orrow
Ġdar
åĮ»åĺ±
å¤´æĻķ
alah
ãĥĨ
ìłĦ
ĠIg
Ġrenewable
amer
Ġrefused
ä½łä¼ļ
æĿ¥ç¡®å®ļ
ä¸ĭåĪĹåħ³äºİ
RED
Ġdramatic
409
520
äºĮç»´
appy
çģ«è½¦
Ġly
ĠSecretary
Ġtact
å®¶åħ·
ograms
à«
Ġpanels
ç©ºä¸Ń
async
fx
.object
norm
è±ĨèħĲ
wart
ĠÂłĠ
ĠWorking
ogs
Ġreceiver
Ä±m
Ġachievement
çľĭä½ľ
ä¸ºæł¸å¿ĥ
ĠIndians
will
ĠDemocratic
åľ°åŁŁ
äº§ä¸ļåıĳå±ķ
ĠNotes
Õ¸ÖĤÕ
è¯įæ±ĩ
ä»¬çļĦ
Ġcarries
æ´ĹåĩĢ
å±±ä¸ľçľģ
Ġaccumulation
Ġnursing
ede
"(
ĠCorporation
Ġ|=
Ġxml
LAG
\rightarrow
èĥ½åľ¨
è¯¾æĸĩ
è¡¬
éĻ¤å¤ĸ
Xiv
ï¼ŁâĢĿĊ
Ġbees
Ġbladder
Ġdatabases
Ġdrinks
[(
ä¼łåĬ¨
ÂłB
Coll
çī¹æ®ĬçļĦ
_var
{Total
å¸¸æĢģ
Perform
æĸ¹æ³ķçļĦ
åŃĺåľ¨çĿĢ
Ġsquared
Ġinch
Ġequipped
ĠHD
ayload
çłĶè®¨
ç¬¬ä¸ĢçĻ¾
})\
Ġexpanding
});ĊĊ
Ġexclus
åĪĳæľŁ
ç¢³éħ¸
à¹ĩà¸Ļ
Ġvapor
é¾Ł
æ¡¥æ¢ģ
black
Ġillustrated
Ġlag
ĠHal
Ġconsistency
Mem
Ġexpense
-one
å°ĨåĨĽ
(ch
ĠRate
Job
>>>
Ġshoulder
-al
Ġenthus
éŃħåĬĽ
}$.ĊĊ
è±«
Ġsimulations
Ġwing
Ġdismiss
ĠUt
äººæ°ĳçļĦ
BT
æĻ´
-ad
move
abe
Ġfought
ĠEvaluate
Ġremarkable
æĦıæĦ¿
å¿ħéľĢ
|improve
Ġminds
Ġtimeout
à¥ĩà¤
åŀĦæĸŃ
may
259
Ġresponsibilities
è£¹
Ġpunishment
ä¸Ĭåİ»
ä¼°åĢ¼
uther
ĠNY
Ã¤r
çļĦæľĢé«ĺ
WA
èĩ´åĬĽäºİ
Ġhighlights
äººå¿ĥ
Ġpersu
Ġtopology
ĠSurvey
Ġhierarchy
ceans
protect
çļĦä¸ĢåĪĩ
ĠØ§ÙĦØŃ
ĠÃ¼ber
Ġpolym
åĢ¡å¯¼
Generator
640
bage
ĠSubtract
ÙĬÙĦ
å·²æĪĲä¸º
Ġacquire
è°¢è°¢
atern
è¿ĺæ¬¾
Ġintens
åħ±è®¡
Ġcapability
Ġlib
.height
isations
Ġisinstance
æľīè¶£
æĿ¥è®²
éĢļå¸¸æĺ¯
_VAL
JECT
Ġ_____
Ġsimpler
æİĴæŁ¥
å±ķè§Ī
returns
ĠFactor
Ġrejected
aceutical
åĨĻä¸º
Ġbackup
.equals
bras
ä¸Ģå®ļæĺ¯
rared
å¤§å¸Ī
æĻļæľŁ
Ġwelfare
################################
HTTP
omical
åħ¬ç«ĭ
Ġreliability
ĠJah
é£Łæ¬²
Ġenjoyed
390
sys
æĪĳä»¬å°±
Ø¸
ç®¡æİ§
Ġinterference
ĠFinancial
æĦ¤
ĠâĢĿ
accept
ÐºÐ¾Ð²
GM
è¿Ń
æĽ´é«ĺçļĦ
Ġdiscipline
Ġphysiological
ĠProblems
");
åĽĽå¤§
Ġknee
æľŁæľ«
èĿ¶
266
åĪĩçº¿
Ġpt
Ġwisdom
ipation
åħ¨å±Ģ
"],
Ġwars
ĠCub
Ġvoting
èĳĹåĲįçļĦ
ĠINT
Ġreplacing
ĠATP
Ġdescending
ï¼Į-
çŃīå¤ļç§į
ardo
çī¹ç§į
Ġts
Ġattitudes
Ġshopping
è¯ģäºº
éĴĪå¯¹æĢ§
Ġaccommodate
å¼Ģæĭĵ
æ»©
Ġsmell
ĠCloud
Ã©d
Ġsug
åħĥç´łçļĦ
Ø§ØŃ
Ã³w
åĮħåĲ«äºĨ
ĠDynam
should
models
LD
ractions
Ġstones
êµ¬
èŀºæĹĭ
Ġhij
(ex
session
Ġenumer
èı±
Variable
ĠGaussian
å¸Ĥåľºç»ıæµİ
çĶ·å¥³
Ġcoins
éĢłåŀĭ
[A
Ġfits
Ġgon
Ġtunnel
Ġvocabulary
Ġdinner
roud
achment
å±±è¥¿
Ġspectral
Scroll
432
urred
çĶ¨éĩı
á¹
Ġagg
Ð¸Ð·
Ġlecture
éļ¾çĤ¹
vs
Ġsynthes
mers
ä¸¥ç¦ģ
Ġpharmac
Ġexploring
anya
Ġdeclare
Ġdump
utf
Ġexports
Schema
æ±ĩæĬ¥
Float
++)Ċ
ĠFourier
å¹´åĪĿ
_msg
Ġlimiting
éĻ·åħ¥
umatic
inda
Ġirregular
åħ¬ç¤º
çļĦç¾İ
"ãĢĤ
rowse
Creat
ĠAbs
å½Ĵçº³
Trace
ä¼ĺèī¯
*s
è¾±
æĪ·å¤ĸ
Ġconverting
.example
ĠBody
Ġreproduction
_group
æĪĳè§īå¾Ĺ
åĪ°ä½į
OU
wt
ï¼½
ĠPatients
Ġincomplete
çļĦéľĢè¦ģ
æĶ¶çĽĬçİĩ
_address
nut
Ġconstitu
[t
é©³
step
acon
=self
ocent
ç£¨æįŁ
ä¸ĭåĪĹè¯´æ³ķ
çŃĽéĢī
WORD
Ġindicators
æķĮäºº
rod
èĨ³é£Ł
ä¸ĬåįĬå¹´
('/
Ġafraid
aft
åĩĢåĮĸ
mma
-mail
Ġtraveling
Ġbrack
ĠMult
Ġavoiding
ĠSin
ĠStore
à¸ĸ
>The
via
_or
åĪĨæĶ¯
Ġbeans
ermat
æĸ¯çī¹
Ġstreets
Ġgit
------
åİŁæĿĲæĸĻ
ĠCommons
ÐĿ
.pdf
ä¸»äºº
Ġhack
riven
Ġadministered
,[
Ġarmed
ĠTuesday
çĶµæ¢¯
,j
ä¸ĢåħĥäºĮæ¬¡æĸ¹ç¨ĭ
Ġlogarithm
Based
æķĻèĤ²æķĻåŃ¦
ä¹¾
è¡Įèµ°
çĿ£ä¿ĥ
Ġont
272
çļĦäºĭå®ŀ
enz
Ġsubstitution
Ġtemple
Ġprotocols
æľĪçļĦ
è¿ĳè§Ĩ
Ġbroader
scribe
æ°Ķè¡Ģ
_event
Ġyuan
.target
_token
æľĢé«ĺäººæ°ĳæ³ķéĻ¢
éª¨éª
ARS
Ġpersistent
Ġdesignated
è®°ä½ı
åĪ¤å¤Ħ
ä¹ĥèĩ³
Ġinev
ght
åĿĿ
verted
Ġcanvas
ä»ĺåĩº
ĠÎĶ
*r
Save
ä¸ĬåŃ¦æľŁ
åĽ½å®¶çº§
stop
æĺ¯å°Ĩ
ç¼ºå¤±
åıĳéħµ
sten
ç®¡çĲĨå·¥ä½ľ
ÂłI
808
åİŁä»·
æĺ¯æĪĳåĽ½
åĿĲæłĩç³»
åĶĳ
Ġremind
è¯īè®¼æ³ķ
Ġweapon
Ġexpend
åŀĭåı·
èĤ¡ä»·
åĻªå£°
iterr
Ġspecifies
Ġtriangles
åľ¨è¿Ľè¡Į
Double
å®´
Ġric
ä¸ĭæ¸¸
Ġautism
è¿ģç§»
æĪĳæł¡
èĬ±è´¹
Ġreleases
Ġcolony
é¥¿
Ġcreatures
Ġvirtually
è¯ŃéŁ³
ä¸įæĸŃåľ°
Ġentreprene
ials
]+
501
ĠCit
_min
ĠCorn
éĿĻæĢģ
Ġfiction
ugar
Ġattempting
éĿĴå²Ľ
çĶŁäº§åĬĽ
çļĦå½¢æĪĲ
261
åĨħéĥ¨çļĦ
Ġpropri
ortic
Ġstructured
Ġmutual
ounding
Hg
ĠFuture
fulness
hentication
ĠVitamin
æĹ©ä¸Ĭ
æµĬ
çĽ´è§Ĥ
ĠForest
inton
ä¹Łå°Ĩ
ĠLittle
Ġlaugh
Ġsettled
Ġdetector
ï¼»
çĥŃæ°´
çº³ç±³
ĠIDs
å¤±çľł
Ġantigen
Ġspoke
åĲ¸éĻĦ
Sort
æĪĳä¸į
æ±ª
á»Ł
Ġ`__
ArrayList
ifact
å¯¼èĪª
åŃ¦ä¹łåĴĮ
Ġencryption
CrossRef
ĠCould
ensing
å¹´è½»äºº
iga
Ġappl
iferation
uta
owa
.\]ĊĊ
ĠHandle
Ġfilling
available
éļ§
_base
äº¢
308
é¥®éħĴ
(url
iang
viously
Ġprimitive
å¼ĵ
å½ĵåīįçļĦ
Ġ**('
ĠShare
Ġfuels
Ġconn
zero
åħ³éĶ®è¯į
å¿ħè¦ģæĹ¶
ĠiÃ§
Ġì£¼
è®¤ä¸ºæĺ¯
ä¹Ļæĸ¹
ĠOcc
éĹ´éļĻ
Ġpreference
Ġloyal
Children
Ġspray
281
ê¸
station
_client
åĬłå¯Ĩ
å®īç½®
æĬĬå®ĥ
ĠCC
Ġenormous
Ġcanal
Ġtobacco
Ġloud
_CONT
çķ¸å½¢
Ġpartly
UST
Ġminority
orie
Ġcrust
ä¿ĥè¿ĽäºĨ
rophic
Statement
Ġdemocratic
Ġhunting
ĠMatrix
306
brief
å¿ĥçĲĨåŃ¦
å®ŀçİ°ä¸Ģä¸ª
ĠMrs
å®¡ç¾İ
Ġuter
åĮĸè§£
éº»éĨī
314
ä¸įåĮħæĭ¬
ãĤ³
Async
atz
ä¸Ģå¥Ĺ
Ġstood
ç¤¾ä¿Ŀ
Ġorigins
(()
imental
ä»¿ä½Ľ
Ġmanufacturer
inois
510
ĠGCD
è´ŁçļĦ
ĠCM
ĠBuilding
é¦ĸåħĪè¦ģ
ĠOffic
Ġgauge
iterator
×ĺ
ĠMun
oni
ĠHawai
ĠMassachusetts
ĠGeorgia
imo
ç¿ħ
è§Ĥçľĭ
Ġlegend
Ġcomparable
Stop
çİ¯æ¯Ķ
Ġprospect
-item
arning
Try
åĵ®
æ¸Ĭ
ĠScientific
ÐĲ
hash
éĺ»æŃ¢
*k
${\
ĠArth
çļĦæĸ¹ç¨ĭ
quito
åĩºäºİ
Ġbull
Ġtypeof
inar
æľŁåĨħ
utt
Ġimmunity
Ġpose
åĳ¨å¹´
Ġediting
ä¸Ńæŀ¢
%;Ċ
Ġspons
Ġnel
VENT
avirus
ĠGenerate
ĠIslands
å¤±è°ĥ
thew
have
ĠOptions
ĠArctic
backs
åı¦ä¸Ģç§į
ä¸įæ¸ħ
è§Ĵæĺ¯
èģĶåĬ¨
à¹īà¸Ļ
æĮĩå¼ķ
Ġslot
æ³ķå¾ĭè§Ħå®ļ
*c
ë£
_view
ĠRod
)(-
Ġoccasionally
Ġderive
_INT
Ġbless
isch
owered
ç¥¸
ĠMultiple
æ²¿çĿĢ
ĠChemical
Ġspark
.ext
Ġdeposit
Ġemployer
Ġfluids
asures
ifty
Ġchromosomes
ĠPT
Ġdisplacement
èĮ¶åı¶
prop
.csv
çĨĻ
elcome
ĠCoast
è¯¾åłĤæķĻåŃ¦
Ġlearners
_q
_item
$h
/Second
Ġwer
Ġstretch
Ġà¤ķ
Ġprofiles
åįłæį®
Ġgamma
éĿłè¿ĳ
ä¸Ńçº§
éĴ¢éĵģ
.client
æµĳ
åĵĢ
æĶ¿åįı
Ġalternatives
à¹Īà¸ĩ
ĠRos
/.
nx
åĴ±
èĢĲå¿ĥ
tra
ĠArm
brew
ï¼Īï¼īĊ
ç¨ĭåº¦çļĦ
å¡ĳéĢł
standard
æĵİ
$d
Ġvig
ç¼Ķ
ä¼¦çĲĨ
Ġbuf
åĽĬèĤ¿
Memory
æ©¡èĥ¶
ĠKorean
Ġstiff
emb
',))Ċ
è¡¨éĿ¢ç§¯
ä¹ĺå®¢
éī´åĪ«
çº¬
upy
å¤®è¡Į
xde
ĠmÃ¡s
çĶµèĥ½
ĠPain
ĠonClick
Ġcyber
unks
Ġfishing
Ġsurrounded
urd
Language
Ġtorn
Ġlean
attribute
Ġgrounds
Ġstoring
Ġpou
Christ
copy
çŃĶé¢ĺ
ĠEns
Ġspr
íĶ
ä»£æķ°å¼ı
Ġentitled
Solve
åı¯ä»¥è¯´
tl
-------
cano
olutions
)));Ċ
Ġvolumes
ĠÐ¿ÑĢÐ¾
æ°ĳæ³ķåħ¸
ÎĶ
è¦ģè®¡ç®Ĺ
angel
åıªéľĢ
å¼ĤæĢ§
ĠBooks
ĠSpecifically
æī®æ¼Ķ
åº¦æķ°
éĶĢéĩı
ustain
_param
âĢĿ)
è¾°
Ġclimb
ìķ¼
æŃ£å¦Ĥ
Ð»Ðµ
åıĸä»£
Ġperspectives
åºĶå½ĵåľ¨
Ġsig
çĶ·åŃ©
Ġpushed
ç²¾å¿ĥ
ĠâĪļ
Ġpole
åĨ³å®ļçļĦ
Ġutilize
Ġflavor
çľŁçĲĨ
imated
uran
Ġarrow
ä»ĸäººçļĦ
åĥ§
çŁ©å½¢çļĦ
Servlet
Ġclicked
GG
307
æķĽ
ÑĶ
çİ°æľīçļĦ
herlands
nsylvania
çĻ¾ä¸ĩ
MAX
éĻ¤æ³ķ
ĠMAX
![
atomic
good
ansas
è¾¾åĪ°äºĨ
æĪĳä»¬åı¯ä»¥å¾ĹåĪ°
.ãĢĬ
platform
fficiency
è¡ĮæĶ¿éĥ¨éĹ¨
Ø§ÙĤ
ç§ĳåŃ¦çļĦ
Ġstimulus
Ġraises
Ġleuk
æ¯ıäºº
å¯ĨéĽĨ
])ĊĊ
åħ¥åŃ¦
åİŁåĪĽ
token
è¥
Ġao
ĠMemory
,p
Journal
Ġplaceholder
èĤºçĻĮ
æĮĽ
Subject
quant
Ġidx
èĩ´ä½¿
ĠTrade
udo
(size
_label
è´µçļĦ
Doc
Ġtomat
éĿ¢éĥ¨
ĠImmun
Ġwireless
Ġmixing
èİ·å¥ĸ
Both
åħ¬çº¦
ĠTrust
åĢºæĿĥäºº
),(
Ġui
Ġworship
åķĨåºĹ
stable
å¥½å¥½
ĠExcel
Draw
itic
unning
åħ¬åı¸åľ¨
éģŃåıĹ
-quality
æĭ¾
éĶĻè¯¯çļĦæĺ¯
Ġantioxid
ä¸Īå¤«
Ġexponent
å¯Ĥ
Ġtraject
Ġvariants
Ġunnecessary
ĠStock
replace
Ð°Ð»Ð°
Ã©g
Ġsimplest
-century
å¹¶éĢļè¿ĩ
$l
Ġprovisions
æ±Łèĭıçľģ
Ġnov
ï¼īï¼Ī
Ġrelating
äººä½ĵçļĦ
ĠFlow
çŃīå¤ļ
Information
Direct
osaur
Ġarteries
Ġstrat
ĠEncyclopedia
');ĊĊ
å¢ŀé«ĺ
iche
æĮīè§Ħå®ļ
åħ¨ä¼ļ
_page
Ġdysfunction
*d
Ġproductive
logger
éľŀ
ophag
ĠGer
Real
çļĦåĢįæķ°
Ġfans
æľīåħ³çļĦ
è¯Ńæ³ķ
æ¯Ķåĸ»
åĲĥäºĨ
ä»İæĿ¥
æĪªæŃ¢
åı¶çīĩ
Ġweaken
ĠBell
çŃīäºº
çĶ¨æĪ·çļĦ
Ġrival
ĠNXG
à§ĩà¦
quiry
åĲĳåı³
è¿Ĳè½¬
å®³æĢķ
Ġspacecraft
è¶Ĭé«ĺ
Ġefficacy
Support
æİ¥åĪ°
åĪĿçº§
à¸·à¸Ń
æ³¡æ²«
Ġnewspaper
ĠIndonesia
Ġdeliber
bag
å¦Ĥæľī
ORY
Ġtribes
esome
ĠFollowing
å°Ĩè¿ĻäºĽ
éĹ¨åı£
auc
problem
hello
abetic
riving
icked
Ġthinks
-life
Ú¯
Ġpreserved
jan
èľ¡
Ġtokens
éĺ»ç¢į
SV
Ġzeros
Ġphy
åıĺåĮĸçļĦ
Ġsimilarity
Ġmodifications
à¸ľ
except
ï¼Ł</
åĨ³å®ļäºĨ
Ġloose
çŁ¥è¯ĨçĤ¹
Ġtower
åİĨç¨ĭ
çĶ²æĸ¹
Ġmultiplied
{E
Ġgross
Ġtraveled
Visible
Ġmanually
276
Ġvalidity
_values
<SUB
ĠSort
ĉint
Ġmanufacturers
áº¿n
Ġclause
lammatory
æĺĵäºİ
_result
Ġplots
æħķ
COM
Ġimported
ĠOhio
/-
_line
åįłçĶ¨
Ġaligned
*z
Ġknock
ĠActiv
Ġconditional
Ġsectors
å¯Įæľī
æĹłæķ°
ĠComplex
311
Ġkar
ç¬¬ä¸īèĬĤ
Ġglands
UND
è½´å¯¹ç§°
æŃ¦è£ħ
lm
*f
ĠWalk
ä¸įä¸Ĭ
ĠâĬ
çļĦè®¤è¯Ĩ
Ġears
Ġdocumented
ĠLove
odd
æĥħæĻ¯
åĭŁéĽĨ
Ġcer
VICE
æĬĵå¥½
{X
Ġecosystems
åħ¶åľ¨
Ġworkplace
åĳ¨å²ģ
ĠWithin
'],Ċ
Ġimproves
ç»Ħå»º
ÑĥÑĤ
[k
åģıå·®
Ġcontexts
Weight
onical
Ġcalm
Ġpleasure
ĠMarx
Åį
Ġfran
ĠAli
Ġschemes
Struct
æĩĪ
Ġsorts
Ġinterpre
ĠProperty
>.
Ġkeyboard
Ġdevelopmental
Ġconcentrated
_AT
Ġmanages
313
Ġsimilarly
Ġà¨
Âłin
Ġë³
çĽĲéħ¸
å¯¹æĬĹ
çİ©å®¶
Light
doc
Ġrc
Ġencoded
è½¦éĹ´
Ġtypename
unci
áº¿t
283
å·²çŁ¥åĩ½æķ°
430
æ¸ħæ·¡
è¯Ŀé¢ĺ
èĬ±åĽŃ
åĩĨç¡®æĢ§
ä¸Ńä»ĭ
Ġprostate
å®ĹæĹ¨
/P
ãĢİ
equals
Ġà´
}^{-
ĠCompare
ilty
æĹ¢æľī
æĹ¶éĹ´ä¸º
Ġincub
Ġunity
é¡·
ĠÑĤÐ°Ðº
Ġinherited
Ġpropose
raz
Original
èĲİç¼©
289
Ġwages
ancies
åĴĮé«ĺ
RESS
ĠLin
å°¿éģĵ
Ġarthritis
gae
æ¢³çĲĨ
Ġgathered
Ġsleeping
Ġgallons
å¦Ĥæŀľåľ¨
Ġqualities
(message
ĠÑĢÐ°Ð·
Ġformats
CPU
èĮĦ
ãģ§ãģ¯
Ġethics
ĠFather
chaft
inline
Ġprosec
Ġdp
Ġdw
Ġduties
ĠRog
åıĮæīĭ
Ġholiday
[index
ĠVideo
æĪĳè¯´
æĹ¥æĬ¥
å¤ľéĹ´
anan
_args
ilbert
çº¦å®ļçļĦ
çĶ·äºº
èĮħ
éĢīé¢ĺ
æĺ¯åĲ¦åŃĺåľ¨
Ġ"";Ċ
illance
éĺ»åĬĽ
å¸¸æķ°é¡¹
alling
Ġintersect
Ġmant
ĠOptional
åĮºåĿĹéĵ¾
560
Ġhits
Ġindivid
ä¸įå®ī
åı¯æĮģç»Ńåıĳå±ķ
Additionally
æīĢéľĢçļĦ
Ġmim
Ġtalks
enium
ĠImperial
ç²¾ç»Ĩ
æŁ¥æĺİ
Ġincorporated
Ġslower
dam
ĠTraining
Ġsufficiently
aver
ä¸įæĸŃæıĲé«ĺ
iop
screen
comb
Ġcorrelated
ÑģÐµ
å£¶
æĬĢæľ¯äººåĳĺ
forced
åŃĲå®«åĨħèĨľ
éª¨éª¼
ĠGR
ä»ĭåħ¥
sex
ĠJane
Ġëª¨
è´®
è§£åĨ³äºĨ
Ġbills
ç¿Ķ
Ġdementia
star
Calcul
ĠHR
ä½Ĩä¸įæĺ¯
å®īåħ¨åĴĮ
Ġnested
Ġretrieves
Ġdescend
Ġmelt
åĪĹåĩº
åĨłåĨĽ
ç²¤
Ġconstitutional
åıĺæĪĲäºĨ
ĠPortuguese
ono
ä¸īæĿ¡
çĥ«
ENG
åħ¬è¯īæľºåħ³
Ġcontributes
rophy
Ġgam
_version
Ġexplaining
è¿Ľè¡ĮåĪĨæŀĲ
Ġcs
eded
Ġanthrop
Ġapparatus
åĪĨå¼ı
\x
Ġenabling
äºĴä¸º
è¡¨æł¼
ç©Ĩ
Ġlact
263
316
ĠSanta
Ġremem
015
éĿ¢åĮħ
æľŁåĪĬ
çº¢çĲĥ
Ġaffairs
Ġmobility
æķ°åŃ¦è¯ķé¢ĺ
æĪĳä¹Ł
ennis
ãĢı
ĠCop
Ġlogo
HECK
åĨ³å¿ĥ
Ð¸Ð¹
location
{z
åİĤåķĨ
owns
ç§ĳå®¤
294
ĠConstant
æĮĩå®ļçļĦ
Ġdisappoint
çĩĥæ°Ķ
Ġvariability
Ġ/*Ċ
Ġexclusive
.getElementById
racks
ĉr
ç¬¬äºĮæŃ¥
ä¸Ģéģĵ
-int
ĠAssert
idel
Ġ(âĢľ
ä¸ºäºº
ĠDim
ì£¼
ĠSS
_sum
develop
Ġconsensus
Ġspine
ä¼ļäº§çĶŁ
Ġlambda
éħįæĸ¹
ntil
ariate
ĠCredit
å¤ĸè§Ĥ
iolet
à¹ģà¸¥à¸°
Join
cents
è¾£æ¤Ĵ
ç«ĭåľº
Ġcontinent
ĠPharm
299
ĠBoolean
åľŁèĢ³
çļĦå®ŀéĻħ
ĠStill
éĥ½éľĢè¦ģ
åį°åıĳ
850
Ġscaling
åı¯ä»¥çľĭåĩº
à©
green
FD
choice
460
åĴĮå°ı
ĠëĲ
-reg
âĢĥ
å½ĵå¤©
-----
Ġsurprised
Ð»Ð¾
çļĦåĩ½æķ°
()`:
ĠClient
Ġ$.
åĿª
è¿ĲåĬ¨çļĦ
encode
bid
Ġgods
Ġcoun
ä¸Ńåħ±ä¸Ńå¤®
*h
å¿ĺè®°
Normal
ÑħÐ¾Ð´
_ENT
ĠAud
çļ®è´¨
Ġker
Ã¬nh
[:,
âĺĳ
.key
CN
Ġdenoted
Ġinfectious
*g
æĬĸ
(W
Ġmembership
Ġshed
ĠObserv
268
zeta
emale
ĠChemistry
258
æ¶²åİĭ
Ã¶n
åıĸå¾ĹçļĦ
Ġnos
Ġutilized
ĠPhilipp
akh
æ±Łè¥¿
çļĦæ¦Ĥçİĩæĺ¯
atisfied
ä¸Ģæµģ
æĪĪ
403
çĽĳäºĭ
Ġabsent
.java
Ġabundance
ä»¥ä¸ĭåĩłä¸ª
Ġattachment
-section
(event
çļĦåĽ¾è±¡
Ġhay
}>
lla
æ¯įä¹³
Ġforgot
aid
åľ°éĵģ
ä½İç¢³
/k
åĮł
æ¹¿åº¦
ircle
ï½ľ>
Random
Ġpractition
åľŁèĢ³åħ¶
mus
*u
×ŀ
rosc
_fl
æ©Ļ
Ġupdating
Ġcredentials
Ġmagazine
Ġnoting
çļĦåĬĽéĩı
èĦ¾èĥĥ
Ġtitles
argv
323
Ġconverts
ä¹ĭåĨħ
oen
çļĦäººåĳĺ
Î¿Ïħ
Ġtrait
ĠMagn
Ġmuseum
.assertEqual
Ġtrong
çī¹åĪ«æĺ¯åľ¨
æµĻæ±Łçľģ
åı¯éĢļè¿ĩ
Ġplural
ä»¥ä¸ĭæĺ¯
æĦŁæģ©
Ġinitiative
æŀĹä¸ļ
013
iri
Ġcited
alo
Ġdivides
renal
Ġsheets
ĠĠĠĠĉ
è´©
Ġconducting
Sigma
å½ĵæĪĳä»¬
æīĢè°ĵçļĦ
è¾½å®ģ
Forms
çľŁç©º
Ø¦
405
(context
Ġoccupation
éħ¸æĢ§
Ð¸Ð¸
åĽºå®ļçļĦ
{T
çĤ¹æĺ¯
æı´åĬ©
éķ¿æĸ¹å½¢
à³į
æĹ¶éĴĪ
ç»´åº¦
æľĢå¤§åĢ¼
ĠTransport
Ġlum
ĠSarah
)}{\
}]
ĠBad
even
Ġdistribute
è¥¿çıŃ
Simple
Ġmad
éļĲèĹı
Ġgrammar
960
çī©èģĶç½ĳ
åłµå¡ŀ
æııç»ĺ
åĩıå°ĳäºĨ
enclose
herical
Ġuniqu
Ġ\).**ĊĊ
Ġconsiderations
ANCE
ĠEM
æµ·æĭĶ
)\\Ċ
Ġki
ĠFA
åĲĪçº¦
Ġnuts
729
ä¸įåħ¨
mentation
äººæīįåŁ¹åħ»
Ġkitchen
æ©ĺ
é¡½
,s
Ġscheduled
apa
åĪ¤åĪ«å¼ı
=f
tab
æįŀ
ĠVAL
Ġinjured
åĨħèĴĻåı¤
æĹ¶ä»£çļĦ
Ġneighbors
Ġcombust
åĪĩåī²
èĵ¬
ÙĨØ¯
.View
åİŁæľī
åħ¸åŀĭçļĦ
åľºåĲĪ
Ø±Ø¨
Ġpoorly
*q
çĶĺèĤĥ
ä¼ļè¢«
é©°
Ġguys
Ġalongside
Â·Â·Â·Â·
Ġresem
æīĢåľ¨åľ°
Ġexponents
Ġaddiction
è¥¿çıŃçīĻ
Ġ");Ċ
åĪĹåħ¥
-cont
293
short
rank
èĬĤçľģ
Ġhate
çĿ¾
íķ©ëĭĪëĭ¤
Ġpromising
Ġdegradation
Flow
Ġcotton
iterranean
çĥĺ
ĠElizabeth
ĠArg
éļĲç§ģ
ä¸ĢåįĬ
Ġmyster
æĹ¶æľº
(){Ċ
iously
Ġfingers
èĢĮæĪĲ
ç§ĳæĻ®
Ġburied
336
ä½¿çĶ¨æĿĥ
ĠEdition
Ġstocks
åħ±è¯Ĩ
ĠWales
Ġelectromagnetic
ordinates
Ġsystemic
Copyright
Ġpreview
arbon
ĠAdvanced
Month
\dfrac
Ġassociations
Driver
Ġmetast
çŀ¬éĹ´
Ġog
ä¸Ĭä¼ł
_SET
è¿ľè¿ľ
Ġbip
Ġspont
osphere
ĠDrug
ĠÎµ
åŀĭçļĦ
Func
NH
Ben
éħļ
-cell
Ġtied
Mean
Ġappointment
grid
Ġfemin
_th
ociated
Ġworksheets
ä»İæŃ¤
Ġcollecting
-text
è¶ħåĩº
ĠBehavior
Ġmissed
ç©ºçĻ½
Comments
æĦıè¯ĨåĪ°
Ġsperm
urches
åĲĪå¹¶åĲĮç±»é¡¹
295
é¢ł
Ġswitching
DAO
Ġimperial
Ġconfident
ĠButton
éģ¿åŃķ
æĬķå½±
ëıĻ
Thank
Ġretrieved
apes
ĠYang
.format
ĠmRNA
ĠComponent
æĿ¿çļĦ
agers
Ġrelies
pot
ĠEvolution
ĠClub
esthetic
ĠStephen
Ġbike
Published
ĠSpringer
onds
èĲ½åĲİ
ĠSave
ĠLtd
{i
å¤§èĩ´
ÑĥÑİ
-content
Wrapper
TV
oprote
ĠArist
-digit
ĠAx
é»Ħæ²³
åĴĮä¸Ģä¸ª
åĩłçĤ¹
Î¬
èĸ¯
ĠHitler
Ms
åľ¨æŁĲäºĽ
èĢĮå·²
Ġlapt
ĠLeft
Ġessence
ç»¿åĮĸ
âĳ¢âĳ£
åľºåľ°
------------------------------------------------
ĠNam
Ġinterfaces
.left
å¼¯æĽ²
èĥĥèĤł
Ġtubes
Ġovers
Own
æłĭ
Ġ$[
ods
Arch
Ġperturb
)\),
Ġbearing
é¡¹çļĦ
Ġexcluded
Ġlanding
Ġvitro
Ġsusceptible
æĥŁ
æī¶æĮģ
Ġextracts
Ġdur
è´¢çī©
.Is
ä¸ºä¸Ģ
è¶ħçº§
ĠTrad
æľīéĻĲè´£ä»»
Adding
çļĦçĲĨè®º
bind
because
Ġswimming
é¹ı
aca
ï¼Įï¼Ī
pany
Ġmini
çļĦæľįåĬ¡
ä¸Ģåħ±
Ġcompass
\)ï¼Į
åľ¨æĪĳåĽ½
ĠÐ£
çīµå¼ķ
ä¹Łä¸º
åĬłæĭ¿
Ġtyping
Ġcattle
åĲĪè®¡
Ġthreatened
éĤ£ä¹Īè¿Ļä¸ª
ĠDOI
æĶ¯éħį
274
menu
åĴĮæĬĢæľ¯
åı¯è¡Į
Ġbreakdown
×ŀ×
uct
Cur
Ġshifts
çĹī
.begin
:@
è¿Ļæł·åı¯ä»¥
Ġsymptom
ĠSite
Oct
æĹ¶åħī
ĠUlt
ĠIntellig
Ġì°
æİ·
Enum
å¸Ĥå§Ķ
å¤ªéĺ³èĥ½
-ind
%-
%ĊĊ
ĠÎ¸
æ¤ŃåľĨ
Ãłi
*o
odules
ventory
ä¿ĿéĻ©åħ¬åı¸
Ġpale
amel
asters
æĪĳä¼ļ
277
çĸĳéĹ®
ĠDefinition
ulsion
ÏĮ
Ġadoption
æµģäº§
mental
Ġattacked
don
å¤§èµĽ
èĬĴ
Ġreflex
åı¯éĿłæĢ§
Ġdivor
å¼ĢäºĨ
ä½İæ¸©
Ġadmit
æĹ¶éĹ´åĴĮ
444
Ġoutline
ĠLead
Ġpresum
297
à®¾
RF
inator
marks
Ġthumb
Ġchunk
åĪ¶æĪĲ
ĠActivity
hidden
ĻçĹĴ
282
è¥¿èĹı
ERSION
æ¸ħæ°´
Ġcrash
Ġpenalty
Ġpassive
ç¬¬äºĮå¤©
èĳ£äºĭéķ¿
ĠTIM
Ġabundant
*v
åľ¨ä¸į
èİī
å®¢æĪ·ç«¯
-style
Ġecological
*j
ÙĬØ§
_width
nals
Ġdairy
ç£·éħ¸
ĠCapital
ĠBow
Ġresil
Could
try
âľ
ëĭĪ
.props
typename
Ġargues
////////////////////////////////
_write
(cl
å¥¶ç²ī
å¤įæŁ¥
Ġdatasets
\[-
Ġportfolio
underline
unar
è¯Ħçº§
amous
chedule
ĠCulture
Å«
éģŃéģĩ
ì¹ĺ
*i
æĮīæĹ¶
ĠHim
åģĩå¦Ĥ
æĿ¥è¡¨ç¤º
Less
ä¸Ģä¸Ģ
ĠConvention
ĠCro
æĹ¶å°ļ
ç§ĳåŃ¦éĻ¢
Ġplacing
oric
Policy
åĽŀåºĶ
ĠAnimal
æĸ¹æ³ķæĺ¯
ãĤ£
æī¹åĪ¤
Ġ"[
æŀģä¸º
åŃĺæĶ¾
é¾Ļæ±Ł
alance
Ġsobre
æĺ¥å¤©
Ġsomehow
Ġwash
ä»ªè¡¨
016
080
å¤§éĺŁ
.Windows
æĥ¨
ikes
Ġpriorit
ìĭł
jor
Ġapple
èĺ
Ġih
æ°¨åŁºéħ¸
(max
éº»çĥ¦
ashed
anny
Texture
anas
741
Convert
æ¼Ķåĩº
ĠNA
ç¥ŀç»ıç³»ç»Ł
Ġnorms
å§¿åĬ¿
BE
ĠÑĪ
ÙĦÙĥ
ĠNavy
Ġcone
Ġci
åĴĮå®īåħ¨
ãĤ°
ĠPhD
ç¼ĵåĨ²
åĪ¤å®ļ
Ä±nda
HY
Ġgenu
ĠDemocr
å¤įèĭı
clerosis
Ġactors
Ġreven
è¡·
ĠMichigan
oning
ä»¥åĨħ
Ġoverlap
none
etically
operation
Ġrelates
çļĦåĽłç´ł
aments
éķģ
ĠUnlike
çļĦåĪĨæŀĲ
nabla
åĳ¨éķ¿æĺ¯
çī©ä½ĵçļĦ
ĠIndividual
diff
å¹´éĻĲ
è®¢ç«ĭ
è¾ĥå¥½çļĦ
æĪĳä»¬åı¯ä»¥éĢļè¿ĩ
ĠFa
æŀģç«¯
Ġpsychiat
Ġsustainability
åĲīæŀĹ
(response
çļĦå¤©
åıĹä½ĵ
ä¸»æµģ
ç¨İçİĩ
ĠTurk
åħ¨æ°ĳ
Ġxy
åĨĻæĪĲ
Ġports
ĠTy
aha
ç§įç§į
pol
emed
509
ĠPhilosoph
%%%%
ãģ§ãģĤãĤĭ
Ġcontrary
Despite
Ġexped
Ġbeneath
è½»è½»
isphere
Õ¥Õ
Ġgastro
çĺĻçĹĴ
usalem
Ġborders
Whe
åįĳ
Ġremoves
Ġnn
ĠTOBN
å¸Ĥåľºä¸Ĭ
aires
uction
Ġrealistic
é¢Ĩå¯¼å¹²éĥ¨
omon
Ġbanking
æĦīå¿«
âģ
Ġobl
éĥ¨éĹ¨çļĦ
Ġhang
ĠRelations
æĢĸ
Ġpoetry
%.Ċ
ĠSong
Member
prov
mented
Ġpays
Ġforever
emat
Ãły
Scient
ĠØ¨Ø§ÙĦ
åĩıå¼±
Ġcounterpart
Ġfacial
éĻķè¥¿
phantom
Ġadjustment
Ġunemployment
outheast
topl
bris
åĩ¶
ĠMeasure
.options
ĠÙħØ¹
oven
ÂłÂłÂłÂłÂł
Ġallergic
å¿«éĢĴ
×¢
oment
ĠVery
æĹ¢æĺ¯
Ġproducers
æľįåĬ¡ä¸ļ
Ġtrivial
×ķ×¨
è°¦
è¡Ģæłĵ
åºŁçī©
ģ¬
(list
271
Ġwhites
äº²èĩª
çŃīæĥħåĨµ
åıĺå¼Ĥ
å±ķç¤ºäºĨ
]`
Ġauch
Ġlying
Ġturt
eling
ä¸įåĲ«
elles
çŃīçĽ¸åħ³
ĠTour
Ġepisodes
ä»ĸä»¬åľ¨
Ġreign
*w
arded
xc
279
ĠJr
ĠHarr
æĬĹåİŁ
Flag
ĠTs
Ġmeteor
ÑĢÐ°Ð½
hire
ĠMand
pecies
ecture
çĽ´èĩ³
æİ¥åħ¥
umeric
Environment
Ġ$("#
å®ŀåľ°
çŃīåľ°
Ġparliament
Parameters
åĪ©äºļ
zona
verb
æĸ¹ç¨ĭä¸Ń
Ġ}_{
Ġdefeat
ĠArts
Ġproducer
forall
021
æł¹åı·
ĠcÃ¡c
.insert
ä¸ĳ
Ġfraud
Ġwed
Ġnotable
Ġì¤ĳ
æĦŁåħ´è¶£
ç§»æ°ĳ
æīĢæľīæĿĥ
Ġwherein
Ġruling
ï£
éģĵçļĦ
ĠIssue
localhost
Ġsimplicity
Ġcivilization
Commun
ÖĢÕ
ãĥŀ
ä¹ĻèĤĿ
Quant
ĠEquations
burn
phe
Pref
Ġdisput
ĠÂµ
åŁİå¸ĤçļĦ
ĠMach
ĠSET
åĴĮä½¿çĶ¨
ĉĉĉĉĉĉĉ
Ġspeakers
ä¸ĭèĤ¢
Ġsophisticated
ĠGulf
iao
ä¸ĭä¸Ģ
å½ĵæĹ¶çļĦ
éĢ¾æľŁ
Ġwings
åĩıèĤ¥
ĠThink
Ġhung
Ġpermissions
ĠLOG
æĺ¯æĮĩåľ¨
æľĢå°ıåĢ¼
Ġnutritional
çļĦè§£éĽĨ
æĢ»çļĦ
ĠSend
istration
ĠAmendment
ĠLewis
å¤įè®®
éĺ²å¾¡
èµĦåĬ©
.db
çĶµæŀģ
æİ¨æĸŃ
Ġcalculus
Ġpulled
Ġscreens
å½ĵä»Ĭ
äºĮèĢħ
_call
-le
xp
figure
ä¹ĭä¸ĢçļĦ
kind
apon
ÙĩÙħ
enny
åĨħç§ĳ
èĮ«
ighth
Ðŀ
éĩįåĬĽ
è¯ĦåĪĨ
adequ
ĠâīĪ
ĠWednesday
Ġexclusively
æ³ķåºŃ
ĠBO
()).
ĠApplied
åĪĨåĮĸ
ĠActive
uli
apat
287
å®°
çļĦéĤ£
Oh
_K
338
Adv
å«ģ
ÂłZ
å¹¿éĺĶ
ÏĨ
267
ĠDiet
ulture
DTO
æĺİå¤©
Ġmedicines
ä¸ŃåĽ½äºº
University
igious
åŃĲåħ¬åı¸
èĭ·
.service
Ġfracture
iented
Ġsuspected
balance
ffff
Ġconcert
Ġdeleg
ĠChief
illes
Ġofficially
å³»
æį®æŃ¤
ãĥĹ
Ġmembranes
fire
patch
)$ãĢĤĊĊ
-negative
owned
Ġcontainers
oren
Ġspecialist
.Col
Ġbegun
åĩıéĢĢ
åĪ°æĿ¥
è·ŁçĿĢ
Ġdelayed
Ġabol
Ġvegetation
Place
noon
Ġindigenous
ĠBush
Ġ"../
çļĦé¡¹çĽ®
ĠÐ¾Ð´
Ġperpet
éĺ´éĺ³
Ġherb
Ġbrains
á»ĩn
Ĩµ
æıī
Ð¾Ð¼Ñĥ
Tube
#ifdef
Ġmethyl
èĤ¡å¸Ĥ
åľ¨æĸ°
_obj
322
Ġseal
oices
upload
ĠMuslims
Ġhosts
æ¯ĴæĢ§
ĠPrince
-for
âĳ¥
ç»ıèĲ¥èĢħ
voice
Ð³Ð°
å¯¹è±¡çļĦ
Build
ibot
ĠProtocol
ĠJoe
.en
æł·å¼ı
ê°Ħ
/min
ä¼½
_co
æ¯Ĵç´ł
Ġmethodology
ĠBiol
ĠYe
eman
è¿Ļä¸ªéĢīé¡¹
çľĭåĪ°äºĨ
Ġbeach
.replace
æĻ¶ä½ĵ
azione
Ġgentle
Ġmatched
-em
æŃ£ç¡®åľ°
ATED
ĠRadio
éĢļæĬ¥
"},Ċ
Æ°á»Ľ
ĠHong
æķ°æį®æĺ¾ç¤º
åĪ¹
ĠScript
ĠHay
ç½ķ
ĠPennsylvania
rea
Ġfreely
success
âĢĿ.Ċ
Ġkinetic
.check
world
Ġlunch
æ°¨éħ¸
ĠSav
åıĳåĬ¨
Ġinduce
çļĦå¯¹
åįĬå¯¼ä½ĵ
è¾ĸåĮº
Ġdivid
Ġrepresentatives
Ġclosure
å¤įåį°
çĲĥèıĮ
é¹ħ
é¡¶éĥ¨
ä¿®åħ»
ä¸įåĲĪæł¼
_entry
åĽ¾æ¡Ī
à¾
ĠTen
iptic
ä¸ŃæľĢ
Ġdependency
ĠIEEE
çĶŁåĳ½çļĦ
éĴĿ
generate
sort
åĲĦæĸ¹
ĠExtract
èĮ¨
352
014
Ġgli
eda
Ġadapter
è¿ĺåĮħæĭ¬
ARAM
ĠMRI
åĩºçīĪçļĦ
ĠNetherlands
327
æŃ£ç¡®çŃĶæ¡Ī
herence
ĠHon
åıĬä»¥ä¸Ĭ
Ù¾
æłĳèĦĤ
å°¼äºļ
Ġcriticism
igs
åºĶæĶ¶
,k
aro
ĠCou
ĠURLs
Ġfrozen
éļıä¹ĭ
298
away
Ġdialogue
éĢīæīĭ
Ġquiz
.widget
VI
åł´
åľ¨åħ¨åĽ½
é¥²æĸĻ
Points
664
Remember
meta
ĠâĪ§
Ġwinds
Ġdeclaration
Ġpremium
>::
ĠGa
jective
ÃŃn
Ġcurv
åľ°æĸ¹æĶ¿åºľ
hex
æ°ĳåĽ½
Scale
ç¡Ŀéħ¸
ĠPlayer
åħ³èĬĤçĤİ
ĠExchange
ĠLeon
Ġaffili
^-
ä¸Ģéĥ¨
riends
030
ĠPS
çĹħæ¯ĴæĦŁæŁĵ
å±ĢéĻĲ
åĮĸå¦Ĩ
çļĦæııè¿°
åı¯ä»¥éĢīæĭ©
åħ·ä½ĵæĿ¥è¯´
pool
Ġadmitted
ãĢĤĊĊĊ
å¸ħ
Fore
Ġcopied
Ġcarbohydrates
åıĳå¸ĥçļĦ
proof
Ġgaps
Ġsb
Ãªs
èģªæĺİ
çŃīæĸ¹éĿ¢çļĦ
317
tration
è´¯ç©¿
èķī
Mus
åħ¨æĸ¹ä½į
Ġlets
ä½ľä¸ºä¸Ģä¸ª
éª¨å¹²
éķ¿å¤§
åı¯ä»¥ä»İ
å¸¸å§Ķä¼ļ
Ġ(_
)?
uting
ĠSN
ĠCourse
ĠÑĨ
é«ĺå³°
Ġimmigrants
çļĦä¸ĸçķĮ
îĢ
tait
çŃ¾åŃĹ
èĤĭ
æµ·åįĹ
Ġpatent
Ġmemor
fly
çľĭäºĨ
sequence
é«ĺéĢŁåħ¬è·¯
Ġsubstantially
Ġcurrents
æ²³åįĹçľģ
gency
Ġdescriptions
render
åĸĿæ°´
è´¬
ĠCollection
æ°¯åĮĸ
çĶŁæ¶¯
erves
bury
ä¸ŃåĲ«æľī
çī©æĸĻ
.filter
èģĮä½į
æ³Ħæ¼ı
Ġbreed
upported
Ġupt
Ġclin
Ġassay
ĠØ§ÙĦØ¯
ç«ĭæ¡Ī
ĠCu
äº¤çĤ¹
ç§»åĪ°
ç»Īèº«
Ġnah
oker
æıĲåĢ¡
ĠStation
beging
ĠGrid
çļĦåħĥç´ł
ëħĦ
ĉĠĠĠ
ç±³çļĦ
è£ģå®ļ
é¹¤
Ġelimination
è¡Ģæ¶²å¾ªçİ¯
Ġearthquake
Ġreciprocal
elect
×¡
ĠClean
integer
åįķé¡¹å¼ı
ĠìĬ
çĪµ
Ġpiv
ç«ĭä½ĵ
334
_block
ìĨĮ
TM
å¸¦çĶµ
èĪĴæľį
ĠDeath
555
Ġimply
æ±¡æŁĵçī©
temp
Ġphilosophical
Ġdepartments
åĭ¾èĤ¡
ĠFunctions
Three
çŁŃè·¯
begingroup
Ġreserve
ĠSquare
319
å¼ķæĵİ
Ġsimulate
å¸¸è¯Ĩ
Ġdominated
è£ģåĪ¤
ĠEpub
ĠÑģÐ¿
Ġcookie
sf
408
ĠMarsh
Ġoptimize
ä½©æĪ´
Ġvisiting
ç®¡çĲĨèĢħ
.execute
orption
Ġrolling
forEach
ĠStyle
æ¸Ĳæ¸Ĳ
Ġpopularity
negative
åįłæĢ»
buffer
Ġaspir
clear
.parent
Organ
Ġrestriction
Ġdoors
ä¾Ľè¿°
ç¤¾ä¼ļä¿ĿéĻ©
é¤Ĳåİħ
Ġshield
å®ĥåľ¨
Ġconsuming
ĠÄĲ
Ġrubber
269
Ġspreads
ĠABCD
å¹´éĹ´
ç¼ł
å®ļä¹īåŁŁ
Ġmarch
creased
Ġrainfall
ĠHindu
å¥¥è¿Ĳ
Ġmalign
çŁ«æŃ£
éĹ®åį·
_range
Ġfragments
Directory
æľīä¸ĢäºĽ
ç¦»å¿ĥ
åıĳçİ°äºĨ
Ġà°
-width
urated
ä¸įåĪ©äºİ
ulpt
Ġesp
estinal
æĿ¥è¿Ľè¡Į
ILL
æĪıåī§
subseteq
BER
ĠTarget
Ġ})
natural
Ġheritage
Ġdecimals
éĺ¿æĭī
Ġtriggers
Crit
è¿Ļæł·åģļ
äº²åŃĲ
-down
idos
ĠMot
æ¸²
column
Ġhardly
ĠìĿ¼
endgroup
Ġsolo
å¤ĦçĲĨåĻ¨
oys
Ġchips
Ġhyg
åľ¨ç¾İåĽ½
åĳµ
():
ĠChoose
å¤ĦçĲĨçļĦ
éĤ£å°±æĺ¯
Ġgover
ÂłÂłÂłÂłÂłÂł
ç¤¼ä»ª
ĠØ§ÙĦÙĤ
VO
æĦŁåºĶ
ç«£
ĠMaria
å¥¶å¥¶
ĉp
Ġblocked
è´¨çļĦ
Altern
Ġcoordination
æ±īåŃĹ
Ġê²½
fi
ä¿Ŀå®Ī
boolean
LR
brace
Sun
full
.....
Ġrum
opter
Ġdivine
Ġoperated
Ø¨Ø±
arib
æĸ½è¡Į
imento
ĠPoland
åģ¿è¿ĺ
bps
.count
ä¸ĭä¸ĢæŃ¥
ÑĢÐ¾
èŀºçº¹
(!
days
å°±æ²¡æľī
uni
ç¾İå¥½çļĦ
ĠÃī
å®Ŀå®ĿçļĦ
ĠØ¥ÙĦÙī
Ġhelper
_not
attered
ĠMB
ĠNan
Ġrendered
ARN
Ġtech
ä¸¢å¤±
dim
ĠMediterranean
Ġdivisors
ĠDR
éĨĽ
rowing
ä¿Ŀæ¸©
æĹ¥å¸¸çĶŁæ´»
agan
Ġeste
Ġhouseholds
Ġinstitutional
ä¼ĺç§ĢçļĦ
Ġbelonging
ä¸İæŃ¤åĲĮæĹ¶
åĬĽåŃ¦
âĢ¦ĊĊ
Ġsont
ĠCE
_det
Lower
ĠColorado
318
Ġapt
ĠPrevention
å»ºè®¾é¡¹çĽ®
ĠOrth
Ġrear
Ġlattice
anded
ä¸įä»ħæĺ¯
ä¸įæĥ³
ĠQuality
inals
åįģæĿ¡
Ġoffspring
Lat
people
ĠEN
å¤ĩçĶ¨
Bel
Ġ"@
364
å¤ļä¹Ī
oglobin
ä»ĸæĺ¯
ç§°åı·
èĸªéħ¬
olph
Ġpointing
Ġdistress
Ġinvasive
æĺŁç³»
ted
unes
Ġpestic
Ġcompile
Submit
Ġpersonally
ĠAfghan
sky
ĠPoly
google
Ġrepublic
.Y
Lambda
agg
èĴ¸åıĳ
ä¸Ńå°ıåŃ¦
éĹ®é¢ĺä¸Ń
Ġshallow
umat
Ġquart
_ref
ammad
Ġcosm
Ġattended
Ġvas
åĿıæŃ»
ĠÎ´
Ġelevation
WT
Ġpeers
åİ»åģļ
æ³¨éĩĬ
Ġexplored
Ġdevast
åĲ¸åħ¥
æĹ¶æľŁçļĦ
icket
ĠEc
å®ļæĹ¶
Ġamer
Ġ`<
ä¹ĭä¸Ĭ
ä¸ºåħ¶
Ġavoided
_IDX
Ġintelligent
èī¾æ»ĭ
ĠGames
æĺ¯çļĦ
ĠBru
å¹³åĪĨ
uling
oped
Ġbold
omed
åº¸
Ġá
ĠMi
ä¹ŁéľĢè¦ģ
çľŁèıĮ
à¸µà¸¢
æŁ¯
Ġfaculty
(type
{dy
æĺ¥ç§ĭ
Ġcriter
ä¸¤å¤§
ä¾¿æį·
Ġorganisation
super
Ġpend
Ġimpression
Ð¶Ðµ
achers
_no
æĪ·åı£
Ġvomiting
_AL
å¤ļå¹´çļĦ
ä¸įæ»¡
éĩįå»º
ANS
heit
åıĳçĶŁåıĺåĮĸ
Ġpyram
Dto
Ġregulated
æĤ£èĢħåľ¨
å¤ļæł·æĢ§
æ¸²æŁĵ
ĠBelg
Ġ<?
Translate
à®¾à®
}"
Ġentropy
ç²ĴåŃĲ
Ġ"_
éĻ¤æŃ¤
Additional
ä¹³æĪ¿
Ġannounce
ĠHi
Ġic
å°Ĩæĺ¯
headers
ĠSolutions
åĨĻçļĦ
Ġdenotes
,the
ĠRA
Ä±k
Ġcave
news
Ġpromotes
Ġpursue
pathetic
Ġoun
Ġ""Ċ
å¿ĥèĦıçĹħ
oming
é¢Į
++Ċ
æ¬§çĽŁ
orrh
Ġana
Ġliability
Ġcouncil
'$
Ġdrought
terday
èĤ¡ä¸ľå¤§ä¼ļ
ä¸įåģľ
å¼ĢåŃ¦
åħ»èĢģä¿ĿéĻ©
ĠWas
Ġplacement
çĶŁæ´»æĸ¹å¼ı
/R
_En
arium
èĭıå·ŀ
åľĨçļĦåįĬå¾Ħ
)d
*l
_def
Ġoceans
å¿ĥçĲĨåģ¥åº·
504
Ġhumidity
çĶ¨æīĭ
èĬ±çĶŁ
rup
ä½Ĩåħ¶
Ġextens
åĵ®åĸĺ
_DIR
Review
çĽ¸éģĩ
eron
309
_field
çĽ²çĽ®
ĠKil
èµĲ
æģĲæĢĸ
Ġphones
åħħåĪĨåĪ©çĶ¨
ĠNotice
ĠHydro
428
-link
Ġstrip
ä»¶çļĦ
.Name
rov
ako
åį´æĺ¯
ĠOp
Ġash
åĿĩåı¯
Ġincorporate
Apr
ç§ģäºº
040
éħ¿
Ġcentered
utex
å¹¶è´Ń
OTG
vation
Ġadhes
åĳ½åĲį
ĠCubic
å½±åĵįçļĦ
Ġsculpt
BG
cker
ç»Ĩèĩ´
*.
çĸ¯
éªĤ
å¡«åħħ
Ġexplanations
Ġexplos
ĠAssessment
ĠLib
åĲĪåĲĮçļĦ
ushes
çĪ·çĪ·
Ġextending
çļĦåīįæıĲä¸ĭ
akespe
Ġproliferation
åıĽ
READ
unn
levance
Ġenemies
coma
çļĦç»ĵæŀľæĺ¯
Ġawarded
èįĨ
IEL
ĠPerm
Ġmoder
å®īåħ¨ç®¡çĲĨ
uga
QUEST
_mask
ĠëĤĺ
ĠSher
Ġconce
Metadata
Ġcake
æŀģåħ¶
plotlib
à¹Ģà¸Ľà¹ĩà¸Ļ
Mr
Ġdiscussing
ĠCSV
è¿ĽåĪ¶
ĠArticles
files
Ġcontraction
ĠAnti
ĠMike
ĠDraw
ä»Ģä¹Īç½ª
iÃ³
Compar
Ġcitizen
ĠFL
phan
ç§Łéĩĳ
ĠFair
Len
ä¸Ģå¤§
tech
}}}
æĹ¶è®¸
urday
Br
æĤ£çĹħ
Ġunderground
æ¾³å¤§åĪ©
-tion
Har
_offset
Ġalphabet
ĠParameters
iliary
ĠTurkey
ä¼łè¯´
à¹ĥà¸«
risk
lice
æĺĶ
ĠCook
è®¡ç®Ĺåĩº
ĠÃ¤r
ä¸Ģåı¥
ĠGreg
Ġmilit
åħ¨åİ¿
Ġheaven
Ġmedieval
Ġeaten
-side
èĶĵ
YP
ĠFIG
å®ļåĲĳ
$)
Bre
Ġexamining
åħ¬åħ±æľįåĬ¡
å¼Ģå·¥
åĨħå®¹ç®Ģä»ĭ
éĻįä½İäºĨ
irl
ä¸ļåĬ¡çļĦ
ĠNevertheless
INK
Ġspecification
Ġtired
ĠHop
çĦ°
æĪ¿ä»·
Desc
/r
kh
å¼Ģæ°´
à¸±à¸ĩ
Ø§Ø²
ĠFinal
å¿ħé¡»åľ¨
ĠIncreased
ĠMP
ĠJupiter
å¤Ħæĸ¹
Ġhopes
Ġdecomposition
Ġabd
è¯´è¿ĩ
.pop
-rich
.body
Ð°Ð·
æ¾³å¤§åĪ©äºļ
ĠDaily
ä¸ĩçī©
.setText
Ġadaptive
Ġdistinguished
ìŀħëĭĪëĭ¤
ancer
ä¹ıåĬĽ
ĠBureau
}}^{
ĠÐ´Ð¾
Distance
èĹ»
Ġunclear
Ġbears
lier
äº¤éĢļè¿Ĳè¾ĵ
rison
æ¸¯åı£
Ġextinction
å¹´åĨħ
åĬłæ²¹
Ġsums
ĠRab
ĠFib
shared
Ġimmigration
esch
ONG
åħļæĶ¯éĥ¨
asse
Ġgenre
ĠDeep
Ġinterviews
ĠNC
Ġportions
ÙĲ
Ġimports
adelph
$ï¼Ľ
ĠPrimary
bone
Ġprone
ä»¥ä¿Ŀè¯ģ
ĠÂłĊĊ
å°¸
Ġlawyer
Ġscenes
Cu
Ġwie
æĸ¹æ³ķæĿ¥
ĠColon
Ġspreading
cpu
Ġstochastic
Ġappet
èµĦäº§éĺ¶çº§
äººä¹ĭ
æ·±æ·±
å¤ıå¤©
åºĶæ³¨æĦı
Ġconnects
è¦ģä½¿
ä¸Ĭå¼ı
291
æī§æĶ¿
ä¾¦æŁ¥
Ġ[];Ċ
ĠAppl
Ġfunded
ç¦»ä¸įå¼Ģ
å½ĵä¸ĭ
ä¸Ģä¸ªæķ°
çĽ´èĤł
ä¸ĢèĪ¬æĥħåĨµä¸ĭ
è¯·å°Ĩ
Generic
Ġpalibot
Multi
Ġtrim
Ġcorrected
Ġíķľ
æľĪåºķ
ï¼İ$\
Develop
Ġsocio
Ġaltitude
Ġmelan
Ġinitiatives
åħĪè¡Į
ĠHarry
ä»¥åħ¶
Ġmold
å¼Ģå±ķäºĨ
>"
Kind
ä¸»æ²»
Ġcrown
éķ¿æĺ¯
à¹Ħà¸Ķà¹ī
çľŁæĺ¯
361
æĩĴ
ĠÐ´Ð»Ñı
ä¸´åºĬä¸Ĭ
ĠMonitor
Ġaden
cmd
è¿Ļä¸īä¸ª
Ġnums
'].
Ġforeach
Ġretention
ĠAuto
ĠStruct
èºº
292
ĠBrad
ĠTool
ĠAward
æĸ¹åı¯
---------
åı¯èĥ½æĢ§
"I
ĠHung
Ġsheep
ARCH
Âłs
anium
çıįæĥľ
(ctx
Ġvivo
æ¶īå«Į
Ġpermitted
ĠGM
}}\).Ċ
Ġfires
Rend
çĨŁç»ĥ
éª¨è´¨
æĺłå°Ħ
gebras
Ġ×¢
Ġcoupling
ĠCarbon
"].
Ġchemotherapy
æŀĦæĪĲäºĨä»Ģä¹Īç½ª
Feature
ĠTok
Ġdramatically
Ġstraw
è¶ĬæĿ¥è¶Ĭå¤ļ
è§£é¢ĺ
ä¸Ĭå¹´
ĠGit
å®Įåħ¨å¹³æĸ¹
ĠPear
ĠHE
iph
Ġguitar
éĺ»å¡ŀ
åºĶåıĬæĹ¶
åĪ¶åīĤ
Ġtwe
Ġamongst
ĠChannel
(text
Ġrouting
ocyte
Ġrotate
çħ¤çŁ¿
ĠìķĬ
ĠVi
(Y
331
_context
åĬ¿åĬĽ
raham
Ġdecides
_BU
_argument
tein
.label
Events
éĻĢ
Ġpromotion
å¯¹è¯¥
ĠEinstein
assets
åĩŃåĢŁ
connection
æľīä¸Ģå®ļ
ä¸ºéĽ¶
components
Ok
Ġpaste
ĠSweden
èıľåįķ
ĠDavis
css
Ġantibiotic
found
Ġpada
ĠíĶ
025
ä½łè¦ģ
æĭĽåķĨ
ipeline
363
äººéĥ½
ĠJerusalem
éĩıåŃĲ
æ°¸ä¹ħ
ĠKong
Ġvein
Ġsubmission
çļĦæİ§åĪ¶
ĠChamp
Ġobserver
ĠPL
ĠDiabetes
ĠWars
å¹¶ä¸įèĥ½
News
Ġsurviv
Ġfoi
è¯´æĺİä¹¦
ĠExplain
isson
çĥŃçĤ¹
{eq
sters
åĢ¼çıŃ
ĠApply
Plugin
Âłis
Ġtreaty
Ġparticipating
INFO
Ġemployers
çĽ¼
ĠKEY
children
ĠAF
ä¸ŃæľŁ
ĠMoh
æľ¯è¯Ń
Ġrefresh
éķ¿åº¦ä¸º
ĠIncorrect
Ġclarity
Material
Ġconceptual
bg
Ġ\((-
ĠIllinois
olas
Ġskull
414
>Title
Ġ"__
Ġ____
Ġrew
rying
****************************************************************
ķĮ
Follow
ĠPrincip
ç«£å·¥
ropriate
Ġgenetics
Ġincons
Ġprevented
Ġfarms
æĪĸä¸į
ĠSimon
ĠOP
âĪ´
åĽŃæŀĹ
National
ä¸ĭè¡Į
æĽĿ
å°Ħçº¿
470
XY
éļ§éģĵ
Ġexch
é«ĺåİŁ
Ġabandoned
æ²¡æľīä»»ä½ķ
æĶ¹éĿ©çļĦ
Interval
++++++++++++++++
Ġmeg
ogenous
Media
ä¸Ĭæĸ¹
å¼Ģå¿ĥ
ridges
ouses
Ġbriefly
yled
Ġaccused
Ġpackets
Ġshipping
Center
Ġathletes
ĠReference
Ġinspiration
415
Black
Ġeligible
Ġtherapies
Ġdisabilities
Ġbucket
åľ¨å®¶
ĠFarm
Ġdont
ĠMC
ĠWi
xxxx
éĺ¿éĩĮ
æ¿ĢåĬ¨
IOException
åĽ½æ°ĳåħļ
Ġlikes
Ġmosquito
Ġportray
Ġzur
é£Łç®¡
.ref
inh
Ġopi
loss
ĠZbl
æĵħèĩª
oup
ĠØ§ÙĦØ¨
çĤº
ijing
Ġdying
éĽĢ
ÛĴ
278
ophil
Ġpneumonia
&&
omp
Ġvow
Ġrefrig
Ġoc
630
åįķä¸ª
ausea
Ġpushing
TEST
sn
Ġneedle
diction
æķ£çĥŃ
åħ¬ç§¯éĩĳ
.co
åĪĨè¾¨
æĥķ
åĽ°å¢ĥ
Ġimposed
_ext
akespeare
)}$
ä¸ºä¸»è¦ģ
quee
.message
ĠHyper
ucket
ä¸ŃæĢ§
Through
Introduction
groups
æļĤåģľ
Ġshirt
Ġexceeds
Aug
NotFound
ĠCert
Ġpressures
Ġpredators
æĿ¡çº¦
Ġsurveys
.items
Ġvoters
Ġprosper
Ġtet
æĢģåĬ¿
ä¸įä½İäºİ
çªĳ
Ġwrap
Ġdeck
ĠProceedings
Ġinspect
criptions
ĠTesting
åĢĴæķ°
aters
è¦ģçĶ¨
æ¨ªåĲĳ
éģĹåĿĢ
åĹľ
ĠMaterials
Ġnou
arians
-block
Ġray
åĥµ
Ġglobe
Ġcontacts
ãģ¡
èħ°æ¤İ
ĠEgyptian
ĠWriting
ĠFall
iffs
Ġmul
Ġoxidation
lang
åĿļå®ŀ
|x
outes
å°ıæĹ¶åĨħ
_valid
è¿ĺåı¯
å¯¹èĩªå·±
ĠFormat
æĹ¶æķĪ
ĠFoot
åħ³çĪ±
Ġancestors
ä¸´åºĬè¡¨çİ°
_ids
_CLK
(char
Ġcreativity
è¯ŀçĶŁ
ĠLower
åĢĭ
oche
Ġreferen
èĤ¾åĬŁèĥ½
ä¸Ģå¸¦ä¸Ģè·¯
Ġdistricts
022
wick
ä¾Ŀèµĸäºİ
Ðł
Ġbowel
asta
Ġpencils
Ġradioactive
mode
ä¼Łå¤§çļĦ
ë¬¸
ĠThursday
æĬ¢æķĳ
æĬļåħ»
hd
Ġinvesting
Ġguaranteed
ĠDM
ä½¿äºº
æĬĢæľ¯åĴĮ
ä»»åĬ¡æĺ¯
çļĦä¸ĵä¸ļ
337
402
çļĦæ°Ķ
åĨľæ°ĳå·¥
ä¸įä¸Ģæł·
æĢ»çĲĨ
ä¸»æľº
Keywords
Ġphysicians
catch
Ġ×ĳ
*}\
ĠBol
Ùı
êµŃ
ä¸ŃåĴĮ
ĠQuiz
ĠMinistry
ĠFilter
Ġscholar
çĻ½å¤©
èİİ
åįµç®¡
Ġmotivated
Ġdisappear
ä¸Ģå®ļä¼ļ
æĳ©æīĺ
CODE
internal
æīĭåĬ¨
Ġdisable
åı¤åħ¸
ĠUnd
Ġerosion
è¶Ĭå¤ļ
team
ĠEar
å¿ĥçĹħ
Ġloops
908
Sch
Ġbreat
ĠSpect
ÑĨÐ¸Ð¸
apore
Ġinvented
Overall
ä¼ļåĦ¿
æĺ¯å¦Ĥä½ķ
Spring
Ġelectroly
prite
ç½ĳé¡µ
Ġencomp
income
(obj
heim
oda
ç¤¾ä¼ļä¿Ŀéļľ
åĢĻéĢī
Ġdisse
mun
ensis
_title
Ġsons
.On
Ġ(.
Ġproton
ĠOften
ä½ľäºĨ
é¢Ŀå¤ĸ
Selection
Auto
Ġangry
Ġaxi
åıĳçĹħçİĩ
ĠIndustrial
æ¬¡æĸ¹
obe
ĠThom
åĲĳå·¦
arity
rik
åĪĨçº§
Ġtile
Ġcollisions
ĠCEO
ĠLCM
_queue
Ġindication
èİ·å¾ĹçļĦ
296
ãģ¿
ootstrap
Complete
ĠSingle
Ġcriterion
Ġreplication
âĢĿ(
Ġintestine
æ®ĭçĸ¾äºº
=b
.dat
(config
ÐµÑĩ
}}(
Ġrises
Ġrigid
Ġstimuli
ocyt
Ġ}\
åı¥æĦı
andid
æīĢä»¥åľ¨
æµģåħ¥
åľºçļĦ
Ġorganizational
351
èĦ±èĲ½
ĠOptim
æ¸ħç®Ĺ
Ġmanipulation
Ġformatted
è¾ĵåįµç®¡
ä¸įå®Įåħ¨
ĠRepresent
çļĦéĢ»è¾ĳ
æİĴåįµ
adelphia
éĩĳéĴ±
Ġphon
Ġimaginary
optim
ĠLag
Ġpurchasing
Ġought
ĠProperties
Ġreservoir
_STATUS
Ð¸ÑģÑĤ
å¡Į
åįķè°ĥéĢĴå¢ŀ
ĠRot
Ġaudit
ãĢĤãĢĤ
ĠHans
Ġassault
Ġaccomplished
...,
mx
ĠNumer
ĠJordan
èĢħåĴĮ
ĠuseState
Ġmelting
Ġgraphical
ClickListener
Ġkidneys
æĦıä¹īçļĦ
_score
æĢ¥æķĳ
gments
ĠDjango
å»¶è¿Ł
èĤļåŃĲ
Ġprecipitation
Ùĭ
Ġpeng
awn
Ġoh
Ġinh
çªģåıĺ
Ġrhythm
017
.post
ĠComments
Ġattorney
åĩłåįģ
Ġinhibition
ĠSpirit
antes
æķĻåŃ¦ä¸Ń
Ġure
Processor
.Field
Ġger
Notification
immune
assign
ç´«å¤ĸ
wait
ĠInternal
Ġcolored
Ġtempl
Ġdiarrhea
\]
Ġbuilds
Ġsuperf
ĠCommunication
æľįåĬ¡ä¸Ńå¿ĥ
ä¹Ļçĥ¯
Copy
ÑīÐµ
ä¼łè¾¾
.md
å®ļåĪ¶
Ġgovernance
ä¸ĢèĪ¬çļĦ
ĠElectric
utations
æ±°
Age
ĠRather
ÅĦ
Timer
}},
Ġstimulate
éĩİçĶŁ
ĠBoy
]["
Mac
ĠBud
ially
metry
åĨ°ç®±
å¾Īé«ĺ
ĠOnt
Ġdefeated
çº¢åĨĽ
äº²å±ŀ
Ûģ
ä¼łå¯¼
Ġelectrode
Ġstakeholders
hend
æĺ¯éĿŀ
.U
ç¥ŀç§ĺ
è¿ĩç¨ĭçļĦ
.cn
éĴ¢çŃĭ
Ġarrangements
Ġprescription
åį¿
åĬłæ·±
çĶ²åŁº
è§£æŀĲå¼ı
éģįåİĨ
éĥĬ
çļĦè¡¨è¾¾å¼ı
Ġseasons
iaz
328
.last
.event
phones
ĠAnton
Win
Ġmonetary
éĻĲåº¦
ä¸¥èĤĥ
284
RAY
_inter
åľ¨å¤ĸ
)$.Ċ
æµ·ä¸Ĭ
ĠPlus
icted
Ġbehave
å»ºç«ĭåģ¥åħ¨
ĠNeed
\le
ä¸İä¹ĭ
åİ¿çº§ä»¥ä¸Ĭ
Ø§Ø¬
Ġmicrobi
åĬłæĭ¿å¤§
ADER
Ġbrush
Ġpandas
Ġinferior
ÑģÐºÐ¾Ð¹
Ġtelephone
è¯Ńå¢ĥ
(dev
ĠTABLE
acci
åĲ¯åıĳ
åĪĨå¼Ģ
ĠADC
æĮģä¹ħ
ĠExercise
=%
ç§°ä¹ĭä¸º
çļĦæĶ¿æ²»
è¿ĩéĶĻ
_func
é»ĳé¾Ļæ±Ł
Ġfractional
rific
æİ¥å¾ħ
rology
eff
-test
Ġextensions
ĠIOException
Water
é³ŀ
ĠWeight
åĨĽäºº
èī²ç´ł
èŃ¦ç¤º
åİķ
ĠHz
æ±ĩæĢ»
Ġmortgage
Ġjoining
Social
Ġneighbour
çĹĶ
ĠReplace
çŃ¾åĲį
,m
Ġseu
æĺ¯åŁºäºİ
æ¸©é¦¨
Ġanalytical
(args
#ifndef
å¦ĤåĲĮ
è·µè¡Į
èģĶéĤ¦
.lang
ĠØ§ÙĦØ¬
425
Sci
layout
æĺ¯æĹł
ä¼´éļı
ĠEmperor
æłĩå¿ĹçĿĢ
ëł¥
Ġ../
ç»ĻæĪĳä»¬
Ġdemonstration
habil
ĠSleep
æĪĳè®¤ä¸º
Ġik
ĠKent
_content
ç¬Ķå½ķ
rifice
alla
{cm
âĸ²
335
æľ¬æ³ķ
Facebook
çººç»ĩ
ĠMerc
æĦŁåĬ¨
åĨľèį¯
Ġthoroughly
å¸Ĥçº§
åŀĴ
ĠStructure
bum
_matrix
åĲĦéĥ¨éĹ¨
aza
ulent
Ġobtaining
Ġgolden
Ġaxes
çĬ¯ç½ªçļĦ
äººéĻħ
æŃ¤åīį
Ġreversed
Ġresonance
ĠSix
è¯¥åħ¬åı¸
éĽ¶çĤ¹
."""Ċ
His
è¡Įæĥħ
éĥ¨åĪĨçļĦ
çº¢ç»Ĩèĥŀ
å¨©
Ġmounted
Pres
irq
Ġaccidents
åĽĽèĤ¢
Ġate
éĢļè¡Į
Ġreproduce
ä»¥éĺ²æŃ¢
åĢºåĬ¡äºº
ĠSL
è½¿
Ġbehalf
_port
è´¿
)$$
Ġcant
355
å±±æ°´
.pre
æ±ŁåįĹ
task
è¯ķåį·
Ġdispers
å°ıå¹³
Ġperme
Ġinfinity
ĠPsychology
Ġ-(
æŃ£å¼¦
Ġpricing
å¸®æī¶
åĭĩæķ¢
..Ċ
åİ¨æĪ¿
Ġimplant
Ġthirty
Meta
ivariate
ĠjQuery
Ġbrothers
å»ºè®¾åĴĮ
Ġcatalog
åĢŁè´·
Ġmaintains
Ð¼ÐµÐ½
Ġstir
ç«¯åı£
Ġweighted
åľ¨æł¡
ĠCold
åĨ¬å¤©
ï¼ģâĢĿĊ
ä¸įä»ħä»ħæĺ¯
ç²¾åŃĲ
çļĦåŃĺåľ¨
å¿łè¯ļ
ĠSex
Ġlegacy
ĠEditor
Ġtod
beit
Ġsurre
å¤·
ç¿ģ
Bi
Ġdispar
æŃ£å¥½
ATCH
ARK
Ġrescue
Ġdoctrine
Si
è§Ĵä¸º
ĠHebrew
èģĮç§°
æĪĲåĵģ
è£ħéħį
Ġswallow
åĨ²æ´Ĺ
Ġstopping
Ð¾ÑĤÐ¾ÑĢ
çĻ¾åĪĨä¹ĭ
ĠSaturday
ĠPHP
ĠÑģÐ»
è½¨è¿¹
æ½Ń
Life
Ġoffices
Ġconcurrent
prises
Ġmathematic
Ġdenied
itudinal
äººæ°ĳåĮ»éĻ¢
Ġrecovered
_TIM
ogonal
ĠKr
Ġintroducing
comment
ĠMess
Ġdebris
è§ģäºİ
ibern
åĽ½åľŁ
ä¾ĿæĹ§
çīĽèĤī
Ġrecru
-oriented
upyter
ĠPlot
"ï¼Į
Ġmism
å¸ĤæĶ¿åºľ
åį³ä¾¿
otional
ĠPas
ĠRCC
åıĤåĬłäºĨ
åĭ¾èĤ¡å®ļçĲĨ
åľ¨ä¸Ĭ
Ġsorting
åĴĮå·¥ä½ľ
æĪĳä»¬åı¯ä»¥å¾Ĺåĩº
è¾©è¯ģ
Ġstruggling
pton
æĳĦåĥı
ä¹°åħ¥
çļĦæľĢä½³
Ð¸ÑĩÐµ
Ġtx
ãģĦãģŁ
ç»Ļå®Ŀå®Ŀ
Ġfiltering
èĦĳè¡Ģç®¡
Ġsymbolic
è¿Ļä¸¤ç§į
Ġvoor
jamin
Ġoverflow
ĠÃº
ENS
ë¹Ħ
Ġretirement
Ġdiets
iente
Ġoperates
rrb
Ġproud
iblical
onder
ä½Ĩå®ĥ
342
ä¸ĭåĪĹæĸĩæľ¬
Ġauthentic
èĥļèĥİ
èģĮæĿĥ
estination
ä¸īä¸ªæľĪ
Ġrecruit
Ġintestinal
inian
ĠPier
ãģĦãģ¦
nament
åĪĿå¿ĥ
à¸¡à¸µ
Ġarrested
_update
Ġepoch
Ġruntime
Ġdeterminant
arten
æ²»çĸĹçļĦ
Ġlasting
(np
ĠPrem
opus
ä¸ĭæĿ¥çļĦ
Ġtamb
æ±īæĹı
çº¿ç´¢
å®ŀæĸ½æĸ¹å¼ı
Ġannually
Ġtá»
Ġvocal
ç»Łä¸ĢçļĦ
å®ŀæķ°æł¹
ĀĀĀĀĀĀĀĀĀĀĀĀĀĀĀĀĀĀĀĀĀĀĀĀĀĀĀĀĀĀĀĀ
ĠRail
Ġprolonged
ĠIron
åĽ½å®¶å®īåħ¨
Ġìļ°
è®¡åħ¥
æľĪèĩ³
American
æĺ¯å¾Ī
ç§¯æŀģçļĦ
ĠLiu
Match
å°ıéº¦
ĠRecord
æĢİæł·çļĦ
Ġtidak
è§£æ¯Ĵ
ØªØ±
(U
ĠGuid
Ġimpairment
Ġlith
canic
orse
èĩªå¾ĭ
Ġoverhead
ç¾İåĽ½çļĦ
$z
Pointer
ylon
ĠMexican
Ġmud
Comb
å¹´åĲİ
å¸Ĩ
OME
Ġodds
icion
åľ¨å¯¹
Ġfarmer
plain
ï¼ļ(
_OP
ania
ØªÙħ
åĪĺæŁĲ
åĽĽå·Ŀçľģ
çĻº
åĩĨç¡®åľ°
erk
å°ıçº¢
Ġparab
errors
åĲĥçļĦ
ULE
}&
esthes
ysql
allic
è¡ĢèĦĤ
Ġcrossing
/N
UES
Ġshelf
Ġbiodiversity
_pred
ĠMiller
ĠChris
äºĶåįģ
å¾®ç¬ĳ
Ġstrengths
Ġrecursive
outing
)):Ċ
ĠStory
Ġcd
Ġsixth
ĠProtest
èµ°åĩº
åı¯ä»¥çĽ´æİ¥
Ġ'@
å½±åĵįåĬĽ
Ġinert
inea
Ġblocking
igator
avy
Ġimportantly
çļĦèĩªçĦ¶
ĠSession
Ġ},ĊĊ
Ġeconomies
Vertex
fare
æ¯«æĹł
èĥ¡èĲ
Ġrs
two
Ġmarrow
alin
é¢Īéĥ¨
Ġmanuscript
Å£
ĠGuard
ĠSI
Ġshore
Ġ&\
æŃ¢çĹĽ
izar
Ġarrange
-American
ä¸ªä½į
conn
äºĭçī©çļĦ
èĸĽ
exec
ĠOthers
ceptor
modules
ãģĿãģ®
Ġpione
^{-\
_ind
oco
å®ŀäºĭ
050
çļĦå¢ŀåĬł
Ġarises
æĪĺå½¹
éĩįè¦ģä½ľçĶ¨
__`
ĠInv
å¼ĢåıĳåķĨ
.ui
opsy
reduc
amos
ĠMO
-bl
osterone
Ġfeatured
_______
Package
Ġfluor
ĠEric
é¥¥
naire
Ġalleged
Ġhabitats
NET
çļĦçĽ´æİ¥
åħ±å»º
æĬĴ
ĠCham
ĠEffects
Ġtrap
æ¯Ķä¸º
Ġautomated
çĳ°
ĠNap
plicates
å½±çīĩ
media
ĠØ§ÙĦÙĨ
å®ĮæĪĲçļĦ
debug
å½±è§Ĩ
ç»ĵèĤł
iemann
341
å¤§å®¶éĥ½
Ġalien
Ġthrom
Ġgeographic
Ġcompeting
iii
=c
ĠStone
åİĨåı²çļĦ
Ġsustained
æĮĩéĴĪ
ahan
Ġplanes
opor
Ġtoxicity
Ġcalc
âħł
ä»İä¸ļäººåĳĺ
å®¶ä¹¡
.getName
Ġheading
ĠWW
Ġtargeting
Ġdiagnose
Ġburned
Ġoils
å¤ļä¸º
ĠAdditional
çĹīæĮĽ
ç½ĳæł¼
èįīåİŁ
random
Ġconsiderably
ĠFried
ĠCopy
353
å¹³è¡ĮåĽĽè¾¹å½¢
éĩıåĮĸ
Ġsoils
ç¦ģå¿Į
_OFF
ariables
èº²
Sym
Ġhasn
ĠCos
Ġchapters
Ġket
Ġpound
Ġmart
Standard
ÑĥÐ¿
å®ĮæĪĲåĲİ
Ġidentifies
çĶ²åħ¬åı¸
éĺĢéĹ¨
ĠFocus
ì°
Ġapopt
ĠÎ³
æ¼Ķç»ĥ
Ġcameras
!)
parser
~Ċ
Ġcoach
ĠÐºÐ°Ðº
Ġpurely
äºĨä¸ŃåĽ½
è¡Ģå°ı
è½»åº¦
ä¸įå°ĳäºİ
æ¯Ķéĩį
=t
æĺ¯ä¸º
Ġcompiled
SETVL
580
è½´çļĦ
Keys
ç¾İå®¹
ropic
åĳĬè¯īæĪĳä»¬
Ġliters
çļĦä¸Ģæ¬¡
èµ·æĿ¥çļĦ
åĬ¨åĳĺ
ĠLoss
ĠPerformance
æ¨¡ä»¿
(error
-bottom
%=
ĠPap
Ġbandwidth
åĴĮæ°´
nc
fred
385
èŃ¦æĥķ
Ġencouraging
Ġillnesses
æ²»åĽ½
åĪĻæľī
ç½®äºİ
estock
åĴĮæĸ¹æ³ķ
éĢıè¿ĩ
æĭĺçķĻ
Ġinclusive
ĠDI
Ġ`(
ĉfmt
unique
\beta
had
ĠĠĠĠĠĠĠĠĠĠĠĠĠĠĠĠĠĠĠĠĠĠĠĠĠĠĠĠĠĠĠĠĠĠĠĠĠ
âĦĥï¼Į
è¡°èĢģ
èī°èĭ¦
MAP
å¿ħé¡»è¦ģ
çī¢åĽº
ĠTB
ĠÐºÐ¾Ð¼
Ġë²
iste
è§ģåĪ°
\t
nik
ï¼ŁĊĊ
Ġaluminum
çļ±
ifiable
ĠEXPECT
ĠCollect
è¯¦æĥħ
Ġpositively
å¤ĸä¼¤
Ġspecimens
Ġfulf
ç®¡çļĦ
ç¾İé£Ł
ĠPositive
ĠìĥĿ
Es
å«Įçĸĳäºº
ĉelse
$$=
ä»»èģĮ
Ġconject
ĠBroad
ä½łéľĢè¦ģ
çı¾
OLD
,N
è¿Ļä¹Ł
undo
è®®æ¡Ī
Week
Ġinhibitors
Symbol
ĠStack
Ġconsolid
Ġwise
ĠStop
âĸł
Ġdissolved
Ã«
/e
Ġstruck
Hi
çĹ´
omics
Ġsuite
ÂłZbl
æľĿé²ľ
master
esar
Ġexcit
ç°¿
_Chapter
ä¸įçŃī
å¯¹çĹĩ
å¤ĸèµĦ
Ġeditors
izoph
æīĢä»¥æĪĳä»¬
Ġchron
-friendly
match
protected
Ġpresenting
Ġclarify
æĺ¯æĢİä¹Ī
empor
çĥŃå¸¦
Ð»ÐµÐ½
å®īåħ¨äºĭæķħ
åįģäºĮæĿ¡
$|
Ġanymore
ãĥĭ
ĠHad
è¿Ļä¸ªæķ°
èĥ¡èĲĿåįľ
åıįå¼¹
cepts
Ġdass
é¢Ħçº¦
Ġyeast
Ġì¹
éªĦ
Ġpuzzle
Remove
Ġunited
lad
æĹ©å·²
depend
Ġpathogens
Ġcompleting
Ġbrill
\{\
isse
Ġexpressing
åķĨå®¶
Summary
åįķä»·
Ġoutbreak
ĠBegin
_HE
Ġtickets
Ġ$_
åģļä¸Ģä¸ª
Ġafternoon
Ġì¶
èĦĬæŁ±
ãĥī
rivacy
æĦ¿æľĽ
ĠQuery
680
hedral
joint
×Ŀ
æ¼Ĥäº®
çĪ±å¿ĥ
Ġreserves
aug
ĠEL
789
_color
ĠScore
æĹ¥åľ¨
åĽŀè´Ń
$M
çĶ«
Ġdiscusses
ĠAvailable
ä¼ģä¸ļåĴĮ
ä¸ºäºĨä½¿
into
åħīçº¿
Ġfeat
çĭ®
cache
æīĵç®Ĺ
Ġpink
åŃ¦çĶŁå¯¹
outine
åĪĽä¼¤
ä¸»ä¹īçļĦ
Ġbeer
à¥ģ
ĠFive
Ġterritories
lrb
Ġjs
Fields
è¯±å¯¼
AU
bits
habilitation
ç»Ļå¤§å®¶
cot
Ġbite
ä¹łä¿Ĺ
_ENTRY
Ġinhabitants
Ġforcing
æ¸ħåįİ
}\,
Dim
åĩºä¸Ģä¸ª
estone
Ġattracted
Ġko
å§ļ
Low
LINE
ordinary
Ġcheaper
éĢļå¸¸åľ¨
Ġfailures
Ġfulfill
Ġzip
äº§åĵģè´¨éĩı
Ġsubgroup
ahl
ê³µ
Ġtransformations
à¸²à¸ĩ
Ġseasonal
_VSETVL
Ġcomprises
-way
ĠMonte
ĠEmail
çļĦä¿ĿæĬ¤
eton
Ġnecessity
æµģå¤±
Ġinfluential
ç»ıåİĨäºĨ
ä¹Łæ²¡
åį¡çīĩ
å´Ķ
Ð°ÑĢÐ°
æķĻèĤ²åĴĮ
ÑģÐºÐ¸Ð¹
SSERT
CCESS
éĶħçĤī
æĮĩå¯¼æĦıè§ģ
pair
çļĦæĹł
ĠTCP
Ġwashing
Ġconjunction
Ġveins
ĠEmb
ç»Ħéķ¿
Ġemit
æĺ¥åŃ£
Ġdefinite
Ġlocked
ĠBand
Ġheated
,d
åĪĽå§ĭ
Ġcerebral
ĠGas
ç¡¬å¸ģ
Ġtwelve
oons
332
fen
å¼ĢéĢļ
æĽ´å¿«
è¿ĽæĶ»
Ġinfluenza
çİ¯å¢ĥä¸ĭ
ä¾į
relation
Ġbrows
æĪĳå¸Ĥ
æĸ°åĨłèĤºçĤİ
Feb
}}$Ċ
è®°æķ°
Posted
ĠTOP
ìĹĪ
ä¸Ĭå¸Ŀ
ä»£è¡¨äºº
çļĦåģ¥åº·
Ġinitiated
æĸľè¾¹
å¼¥è¡¥
èĢĥéªĮ
ViewController
===
×Ĵ
_files
ril
326
Ġfate
çĦ¶åĲİå°Ĩ
èĪĨè®º
ifi
ä¾¿å®ľ
ç¼ºè¡Ģ
{Number
racking
Del
Ġvolatile
Region
620
åİŁæ²¹
å¤§åľ°
èĦĲ
åĽŀäºĭ
ê³Ħ
çŃĽæŁ¥
å°ĳæķ°æ°ĳæĹı
Speed
Ġ(((
ä¸Ńè¿Ľè¡Į
ï¼İ$
ĠForum
Scene
èī¯æĢ§
Ġobsc
Resources
osex
Ġcomparisons
Ġmystery
490
$s
ĠAncient
loading
Ġsequencing
ĠStream
âĤ¬
ä½ĵå¤ĸ
åİ¦éĹ¨
019
ĠìĤ¬ìļ©
Ġchloride
æīĢè¯´çļĦ
Understanding
predict
Factor
Ð½Ð¾Ð²
DateTime
Ġfounder
é¹°
æ¶ĪçģŃ
åĨįåĬłä¸Ĭ
White
Ġsatisfying
ç§ī
classes
Ġrocket
ACH
âĦ¢
.all
ĠOd
.contains
Ġfascinating
?)
elson
è®²ç©¶
Ġconfigurations
èĤ½
Modal
oard
Ġsink
ĠTa
Ġliteracy
_buffer
Ġrevision
Ã¤h
çļĦåħ¨
æ¾¡
Clear
Ġartic
Ġgovernor
.plot
odal
à¹Ģà¸£
å¤§å¤«
æ´Ĺæīĭ
ìĭĿ
_dim
Ġmaximize
Ġmga
è¿Ľåĩºåı£
å¼ºçĥĪçļĦ
Ġrearr
åŁºçĿ£
ĠMuch
å¿ĥå¾Ĺ
osaurs
Ġorbital
à¤ķ
æ·ĭå·´ç»ĵ
izophren
Ids
ĠBuff
Ġlatitude
ä¸ºåĩĨ
----------
Ġupgrade
Ġweren
uar
Ġshooting
372
VT
åħ¬é¡·
Ġgum
Ġ";Ċ
018
ĠâĢĻ
Ġquit
çĶµèį·
ĠKat
cretion
Ġpizz
Ġrelatives
æµģæ°´
Â»,
Ġmanipulate
Ġrecycling
}'
ĠRegular
ĠRF
åĬ¨èĥ½
lessly
éķ¿æ²Ļ
åĭĩæ°Ķ
law
ĠMalays
áº·
Ġexpectation
è°Īè¯Ŀ
ĠDiagn
Ġcran
ĠĠĠĠĠĠĠĠĠĠĠĠĠĠĠĠĠĠĠĠĠĠĠĠĠĠĠĠĠĠĠĠĠĠ
lon
ĠCF
ãĥĩ
Ġduplicate
çłĶç©¶ä¸Ńå¿ĥ
-driven
Flags
Ġsake
åĢ¦
ĠAllow
otle
ãģ«ãĤĪ
Ġcurvature
ĠML
('#
Â«Ċ
Ġingredient
ç«ĭåĪ»
éª¨é«ĵ
æĿ¥æī¾åĪ°
Ġcomprom
åĲĮå¹´
èħķ
Ġcorruption
Ġviewing
Ġassessments
è½¬éĢŁ
ĠØ§ÙĦØ¥
equation
ĊÂłĊ
åľ°å½¢
ç¾İä¸½çļĦ
æŃ¤é¢ĺ
å¼ºåĽ½
}ĊĊĊ
èĤºéĥ¨
Ġstudio
Ġdenominators
Hub
_RO
Ġverification
éĤ£å°±
United
ä½ĵç³»çļĦ
Ġmethane
æĶ¿æĿĥ
Students
\ln
()));Ċ
Ġsab
çĢ
ĠLemma
å°ıçĲĥ
çĶµå®¹
Ġformulation
ilage
à¸ĵ
ä¸İåıĳå±ķ
Ġambig
Ġparte
Ġcoronary
western
ĠOpp
ĠMos
åı¯ä»¥è¢«
ouri
å¸ĪèĮĥå¤§åŃ¦
Ġ`[
large
èĤ¢ä½ĵ
ä¸ĢçĻ¾
Ġliked
ĠBrook
:[
obacter
éĢļå¸¸çĶ¨äºİ
(model
åįĸåĩº
inge
Ġdistribut
ĠSW
çĲĨè§£åĴĮ
Ġguilty
stdio
/day
ĠJob
èŁ¹
Ġbunch
ĠComb
Ġwarrant
éĢīé¡¹éĶĻè¯¯
Ġmedi
push
-sized
å°¤åħ¶æĺ¯åľ¨
.Println
äººå®¶
ä¼ļéķ¿
æĬķæĶ¾
ç»ĵæŀĦåĴĮ
Ġcampus
ĠTib
ä¸Ģæł¹
åįģä¸īæĿ¡
Ġnegatively
âĨĵ
={{
åĲ»
ä¿ĿæĮģä¸įåıĺ
ç©¿è¿ĩ
576
ĠCup
ĠNi
åı¦æľī
ĠPolitical
ĠDA
354
Ġcrystall
bad
æĹ¶è¦ģ
ãĢįĊ
Ġillustrates
ĠTaiwan
\limits
usc
Ġclip
Human
å¸¦å¤´
ĠÎº
ĠPhilip
Ġintrinsic
ä¸ĢæĬĬ
344
å·¦è¾¹
\%$
burgh
å°ıåº·
éĥ½å¸Ĥ
Ġtopological
Ġwithdrawal
/bin
Dict
-hour
Previous
pliers
ĠRange
Cr
Ġheap
ä¹¦çļĦ
ãĤª
Ġlimb
FAULT
Ġìĥģ
margin
bian
ĠFest
çļĦç©ºéĹ´
à¸Ĥà¸Ńà¸ĩ
Ġsurveillance
Ãłn
çļĦäººæķ°
å¼Ģåıĳä¸Ģä¸ª
Ä±z
çļĦæīĭ
éĺ¿å°Ķ
æĦıä¸º
ĠSuccess
åĪĨç»Ħ
iking
Ġcrystals
Internal
Prop
Ġscored
Ġflowing
Ġterrible
åĢĴåħ¥
ãģ¨ãģĹãģ¦
Ġpanic
issa
optional
571
oping
å¹³æĸ¹åħ¬éĩĮ
iances
Ġpowered
vic
âĢĿĊĊ
Proxy
(double
åŃ¤çĭ¬
Ġaccompany
.style
ĠAstron
ĠFer
Render
ç¬¬ä¸īä¸ª
Ġpent
Ġmaternal
usions
ä¼ļå¼ķèµ·
å¦Ħ
æ··ä¹±
Ġhub
æĦŁåĴĮ
ĠMind
Ġsine
Ġabroad
Ġquotes
èī°éļ¾
Ġjaw
éĢģè¾¾
ä¸Ģæľ¬
Ġgrace
_LE
iseconds
Ġweekend
Ġaggregate
ä¸¤åĽ½
ãĥ¡
.http
è´¢æĶ¿éĥ¨
Ġinference
èµ¢å¾Ĺ
Skip
Elect
ĠVill
Ġdried
URI
ctl
çŃīå·¥ä½ľ
çļĦç»Ħç»ĩ
ç®ĢåĮĸä¸º
530
äººçĶŁçļĦ
Ġboss
èķ´åĲ«
Äĵ
Ġ:ĊĊ
èīĩ
$ï¼Į$\
ĠRoss
Ġchurches
uru
åįģä¸ĢæĿ¡
External
_free
åºĶå½ĵæĮīçħ§
åªĴä»ĭ
Ġrelaxation
kappa
ĠDark
Ġswap
Rob
{O
.draw
æĭĲ
Ġpremise
ãĤ¦
.As
Ġcrowd
character
ÙĬÙħ
éĩįçĹĩ
Ġantenna
æ¶Īéĺ²å®īåħ¨
ĉb
inv
etadata
Ġguns
çİ²
å¾Ĺå¤ļ
åĽŀè·¯
ï¼Į\(
Ġlakes
_PER
Determine
nas
icator
åĽĽç§į
Ġcontamination
ä¹³èħºçĻĮ
}}=\
ç¬¦åĲĪé¢ĺæĦı
åĪĨè§£ä¸º
.delete
Ġdownt
é¥®æ°´
ĠArizona
LOW
Super
Ġretained
æ¶¨å¹ħ
Ġunchanged
ĠImages
ĠKnowledge
Ġaber
*-
rar
èĽĭç³ķ
iors
orry
iciency
Ġinvited
éĻĨç»Ń
organisms
_tag
è·¨è¶Ĭ
/H
ificant
Ġmagnesium
å·´é»İ
Ġdescent
$:Ċ
ĠCass
ĠDMA
åĮĸåŃ¦åĵģ
________________________________
science
anding
Ġcentimeters
×Ļ×ª
åįģåĽĽæĿ¡
ĠmL
sets
ĠEt
Ġsacred
ÑĤÐ¾ÑĢ
ç§ĳåŃ¦è®°æķ°
ç²¹
Customer
èµ°åĬ¿
Ġdimens
EventListener
-o
Ġclay
Ġfollowers
-dis
Ġdesirable
vised
è¿Ļä¸ªè¯´æ³ķ
åĿĩæľī
è¿İæĿ¥
è¡ĮæĶ¿æ³ķè§Ħ
FY
Ġ,Ċ
Put
ä¾§éĩį
åİ¥
å¯¹ä¸ŃåĽ½
Nd
çļĦç¡®
åįĥå¹´
æĿ¥æºĲäºİ
431
restrial
ennes
amic
ĠAqu
éĻįä»·
åıĭå¥½
Ġtalked
\<^
Design
course
å»ĵ
éĽĨä¸Ńåľ¨
Ġbowl
ä»ĩ
Publication
izard
Ġoutdoor
GT
agic
çĽ¸åħ³éĥ¨éĹ¨
Ġboards
ĠSyndrome
ĠVictor
å±¡
å®īéĿĻ
Ġabnormalities
Ġtrail
Ġvolunteers
Ġcervical
åĩºèĩª
ç¨ł
ï»¿ï»¿
ĠSA
Ġobs
events
Ġzijn
ä¸ľéĥ¨
ĠLocation
Ġsucceeded
çģ¼
Ġdiscontin
ĠDarwin
Ġobserving
Ġtogg
áĢº
Ġeiner
çİ°è¡Į
çŁ¢
å°±æĺ¯è¦ģ
ÅŁt
ĠRegion
èĥ½å¤Łåľ¨
ä¸ªäººä¿¡æģ¯
ĠSummary
ä¸įé«ĺ
ä¼ŀ
-wide
è¡Ģå°ıæĿ¿
|$
isy
çļĦè¿ĲåĬ¨
)\]ĊĊ
-ing
æĳĶ
)^{-
à¥¤
atories
insula
æľīæ¯Ĵ
ippi
ĠGro
ultural
å°±ç®Ĺ
ifacts
çĲĥéĺŁ
çļĦéĩįè¦ģç»ĦæĪĲéĥ¨åĪĨ
Ġê³µ
åľ¨åĨħçļĦ
è°ħ
371
Ġdeployment
encia
Master
Ġunre
å¾®åįļ
Ġsurvived
olate
ìļ´
ĠTypes
ÑĥÐ±
ãĤīãĤĮ
åģĩæľŁ
ĠØ§ÙĦØ´
.Forms
wen
inely
çļĦæĵįä½ľ
æĢĿæĥ³æĶ¿æ²»
Ġpoliticians
Ġcampaigns
[$
Ġintensive
Ġsoy
æ¾Ħ
æ³ķåŃ¦
è¡¨éĿ¢çļĦ
Ġzoom
åħļåĨħ
åħ¨ä¸ĸçķĮ
rada
Ġsecretion
Ġinjected
/{
è½°
^k
ĠMong
mac
Ġdiscomfort
Ġwins
åħ¬ä¼Ĺåı·
éĻ¶çĵ·
æĪĲä¸Ģä¸ª
Ġmachinery
ĠForeign
ç»Ĵ
ĠĠĠĠĠĠĠĠĠĠĠĠĠĠĠĠĠĠĠĠĠĠĠĠĠĠĠĠĠĠĠĠĠĠĠĠ
Ġbinomial
å°ĳåĲĥ
_order
ellen
å¦Ĥå®ŀ
Ġorganize
æľ¬åľŁ
Ġcontroversial
ĠGrant
å¥ĩåĩ½æķ°
Ġsubtle
ockets
ç¼ĸè¯ĳ
thens
Ġeleg
æĽ´æĶ¹
æŃ£å¸¸è¿Ĳè¡Į
Ġcompete
ä¹īåĬ¡æķĻèĤ²
>)
çļĦåĲĦç§į
ÑİÑĤ
InputStream
æĳĨèĦ±
ä¼ļå¢ŀåĬł
ä¸īç»´
æ±Ĥå¯¼
347
Ġfallen
åĬłåĿ¡
åīįèĢħ
éĴĵ
Der
Ġbee
Fil
Ġharsh
èĲ½åľ¨
/G
Ġll
å¯ĴåĨ·
ĠFox
æ²īç§¯
.op
tle
ä¸ªäººæīĢå¾Ĺç¨İ
å°¿éħ¸
ĠAssume
ehicle
è´¢ç»ı
å®ļéĩı
Single
otive
ĠSY
Ġbullet
inin
æ¶©
Ġskilled
olith
Ġincredibly
ä¸Ģå¯¹
Ġseq
Ġdreams
edback
Ġbelt
åľ¨è¿ĻäºĽ
Âłto
fp
Ġtear
åĽ½äº§
âĹĭ
Ġphrases
omat
å¸§
Ġpublicly
æ·±è¿ľ
æļ¨
Ġunders
Ġrecipient
adequate
Ġparticipant
LAB
ĠLive
åĪ¶å®ļçļĦ
Rot
Ġresidential
ĠðŁ
intestinal
é¢ĺåŀĭ
ĠMT
Ġreconstruction
Ġhunt
çİĩåħĪ
å½±åĵįäºĨ
Ġokay
åĪĨçļĦ
357
åĨĪ
Ġemerge
è¥¿äºļ
(arr
Ġoutlined
Ġdamp
å¤Ħåľ¨
Ġfiled
arb
åı¯èĥ½æľī
{h
ĠAlice
!!!!
ustral
Ġ[(
ragma
Created
ogly
éĶ¤
fix
itched
Ġprayer
Mill
dem
Ġconstitute
Ġnasal
ĠBall
Ġtalent
ĠRomans
ĠProc
åħ¬å·®
ãĤµ
Ġdisplaying
olly
parency
NOT
Ġpossession
ÐµÑĤÑģÑı
ĠRole
Ġlipid
æ£ķ
ä¸Ĭçľĭ
UPD
çļĦæĬķèµĦ
Ġcelebrated
:%
è¾īçħĮ
çļĦæĥħå½¢
441
ĠTransform
Ġfired
ĠMir
angered
HB
éĽĨç¾¤
à¤Ĥ
entially
æĿ¿ä¸Ĭ
è¯ģä»¶
quirements
æĮ£
åĬ¨æīĭ
ĠÐ³Ð¾Ð´Ð°
ç®¡åĪ¶
æĿĲè´¨
ÑıÑĤ
ä¹ĭéģĵ
ĠTestament
Ġhighlighted
åĲı
çĹ¹
ä¹ĭéĻħ
åħ¥éĢī
Ġvillages
ĠHashMap
ä½įç§»
Ġdistinctive
Ġtin
èĢĮæĿ¥
Ġdispatch
äºĮæīĭ
åĬŁå¤«
-gener
Ã¯
ceiver
ĠAmb
Ġfeather
learning
çļĦéĿŀ
ĠGram
velope
Ġinvariant
,A
387
á»ģu
ĠPOST
Sample
atum
Ġdiscre
è°ĥè¯ķ
æĭ¿åĪ°
Ġvaccination
ĠCP
éĻ¤æŃ¤ä¹ĭå¤ĸ
502
Ġvolt
.For
äººæĺ¯
392
090
ercul
bsite
Internet
Ġmeanings
Ġguest
arin
Sequence
ãĢģĊ
ä¸įæĺİ
Ġstandardized
Ġelectronics
ollo
çķħéĢļ
ĠTools
Ġinsufficient
ĠØ§ÙĦÙģ
æĮ½
isible
è¯ķåīĤ
367
ÐĶ
çºªå½ķ
olitan
Ġfoo
æĸ°ä¸ŃåĽ½
Ãī
Ġpets
åºĶä»ĺ
Ġinvestigations
ĠGh
Ġoverwhelming
{G
Ġpupils
');
ĠFollow
ichael
Ġparking
ĠTemple
Ġdigestion
570
Ġdwar
Expr
Ġlegitimate
Ġjury
éĻĮçĶŁ
berries
å¾®éĩı
zip
Ġà¹Ģà¸
ä¾¨
ä¹ĻéĨĩ
è¿Ļæľ¬ä¹¦
Ġsinus
Ġmx
antine
åıĤèµĽ
è´¦æ¬¾
Ġcomme
èªĵ
Ġsail
ĠWolf
ĠGrowth
æĶ¾çĶµ
æ¶Īè´¹èĢħçļĦ
æ¥Ń
iencies
kle
é¢Ŀå®ļ
378
æ¶ĤæĸĻ
ĠRaj
åĤ¨èĵĦ
rett
rock
è¿ĩéĩı
è¿Ļç§įæĸ¹æ³ķ
åľ¨è¿Ļç§įæĥħåĨµä¸ĭ
ĠSyria
å©´å¹¼åĦ¿
Ġmonop
Ġnuclei
ĠDataFrame
Ġviable
UTF
elian
ä¿±ä¹Ĳ
.top
èĥĨåĽĬ
Ġàª
ç²¾åĵģ
è¶ģ
Ġtoy
ĠClose
ĠStaff
vens
åį³ä¸º
Ġsilicon
.o
sto
Ġsubjected
Ġhorizon
è¦ģåıĬæĹ¶
æľ¬åħ¬åı¸
éŁ³é¢ĳ
ĠIntelligence
æĿłæĿĨ
Simplifying
Ġpassengers
Ġà¤¸
Ġimpaired
è¿Ķè¿ĺ
áº§n
Ġcombustion
è¼
Ġcope
-def
åıªæľīä¸Ģä¸ª
CESS
Ġexams
(index
-lo
åĨĢ
Ġtestim
Ġtender
stan
Ġbugs
regon
scale
ISO
Ġbay
Ġzinc
Ġfertility
Ġfart
æĦŁæĤŁ
arker
.first
Ġassessing
æ¶ĪåĮĸéģĵ
é¢ģå¸ĥ
Ġbirthday
Ġì²
ä½Ļå¼¦
åĪĽéĢłæĢ§
#####
Ġoverse
æĭĨéĻ¤
567
éĺ¶æ®µçļĦ
ãģĽ
Focus
Begin
è·¨å¢ĥ
Ġhumor
éĸĭ
ĠOil
Db
ĠÐ¤
æ®·
__________
ĠAnswers
.clear
owired
366
Ġpizzas
çĸ£
Idx
{/
äººéĹ´
åĽ½çİĭ
borne
lated
Ġselective
Ġultras
scr
dates
crets
Ġwr
Ġ$(\
Ġagreements
Ġvisibility
Ġsenses
ãĤ¨
åĸĤåħ»
Ġurinary
:-
åĲĵ
parameters
ediated
UTH
ĠPersonal
ÑĢÑĭ
mates
406
pit
Ġfake
ĠClin
æľīéĻĲè´£ä»»åħ¬åı¸
Ġbei
åıĮéĩį
ĠÐ¾Ñģ
-go
ç§¯æŀģåıĤä¸İ
æĺ¯çĶ¨
Ġdamages
æŃ¥ä¼Ĳ
Ġdynamically
itored
ĠScal
ä»¥å¤ĸçļĦ
erto
æł¸å®ŀ
ĠFDA
åĳĺçļĦ
358
Ġstaying
Ġprogn
å®ļçĤ¹
å¥½è½¬
global
ä½ľçĶ¨çļĦ
348
ĠLawrence
Ġindividually
ĠRs
(test
æĶ¹åıĺäºĨ
Ġcasual
$q
ï¼Į`
Î©
396
æħ¨
ĠKa
Ġhint
å°±éľĢè¦ģ
Ġrecognizing
Ġanemia
æĢ§ä¸İ
ĠÂ§
åľ¨ä¸Ń
Ġspectra
æľĪåĪĿ
å¤ªç©º
386
ahn
filename
Ġfeasible
Ġqed
Ġallergies
åĤ¬åĮĸåīĤ
æģ°å¥½
bm
ĠPCR
768
ĠSimp
ä¸įåı¯ä»¥
ĠkÃ¶
Mouse
ctrl
Ġregisters
_CO
contact
æ¬²æľĽ
Ġimagination
æ®ĸæ°ĳ
èĥ°èħº
ä½łåľ¨
Ġentrance
Ġlocate
Ġtoys
ĠOPT
024
è¿Ľåİ»
-only
Ġvolcano
etry
Ġsuggestion
åĪĨæ³Įçī©
çĶŁæĦı
ÂłC
åĵĪå°Ķ
bx
jar
ä¸įå¯¹
Ġblame
åħīçļĦ
èĦīåĨ²
ä¸įåĬ¨äº§
Ġrealm
Ġsimilarities
Ġconversations
Ġwires
çĭĲ
ä¿®é¥°
|:----------------
çļĦéĢļçŁ¥
ëł¤
Ġattr
çłĶåĪ¶
Ġneglig
Arr
èħ¹èħĶ
ĠDelete
é¢Ŀåº¦
Ġpressed
igest
åĸľçĪ±
ĠRO
Ġtelescope
Sur
Ġcher
åĳĺå·¥çļĦ
Ġparsed
flags
å¼ıåŃĲ
evin
>\
ä»ĳ
çŁ³å¤´
-un
yers
åģļäºĭ
éĶĻè¯¯å¤ĦçĲĨ
Ġscripts
eno
çļĦå°±æĺ¯
Ġammon
è¿Ńä»£
fields
é¥®çĶ¨
Ġadolescents
çļĦå¼Ģ
çļĦå®ļä¹īåŁŁ
,T
Ĥ°
356
ä»įçĦ¶æĺ¯
ä¸įæľį
Ġscattering
Ġcurious
Ġstatistically
train
æĸĩåĮĸéģĹäº§
adic
_SY
.String
Limit
ĠPromise
èı©èĲ¨
_query
çļĦé£İ
Ġgathering
uty
acht
Edge
Constants
714
è´Ŀå°Ķ
Ġ"",
Ġdice
Ġheadache
submit
023
å¾·èĤ²
Ġpacked
Employee
dn
å¹´èĩ³
è°£
ÑģÐºÐ¾Ð³Ð¾
ãĤĪãģĨ
.request
Ġcommenting
åįłåľ°
èĤ¿èĥĢ
Pal
íļĮ
çļĦæ¸©åº¦
çļĦåĬŁæķĪ
Ġíı
ĠPrivate
Basic
Ġinstanceof
Spe
ĠPu
orship
è¯·æ³¨æĦı
çľ¼éķľ
Ġpromoted
Ġdialect
(root
vable
çļĦå¯¹è±¡
Ġnormalized
é¦ĸè¦ģ
840
åĽłæŃ¤åľ¨
trim
çī©ç§į
Ġtriple
ä¼´éļıçĿĢ
ä¸ªå°ıæĹ¶
****Ċ
Required
Elements
turn
Ġimpressive
æĸ°èĥ½æºĲæ±½è½¦
xd
Ġdrainage
Ġquasi
éĢłæĪĲäºĨ
ĠParticip
ÄŁÄ±
Ġwondering
Ġdimensional
,âĢĻ
ÂĢ
usive
æłĪ
éĢīæĭĶ
æķĻè®Ń
æ¸ħæĺİ
Ġeducated
ĠÐºÐ¾Ð½
Ġglobally
-weight
emen
åĻ¨ä»¶
(current
Ġcompressed
Ġconsiders
æĪĺèĥľ
Identifier
æĪĺå£«
Ġpresidential
ä¸ĢæĶ¯
éĥ½å¾Ī
äºĨå¤ļå°ĳ
èĤłèĥĥ
çĥ¦æģ¼
ĠMountain
æ¯Ķäºļ
ĠÐĹ
Ġcatalyst
çŃīé¢ĨåŁŁ
åı¯ä½¿
æĭįåįĸ
å¸ĸ
Ġpublications
Ġacres
æľīä¸Ģç§į
ĉc
iento
ä½İåİĭ
å®Įæķ´æĢ§
660
-----------
ĠCas
çļĦäººæīį
Ġrestoration
Ġshelter
ä¸»åĬŀ
Ġpriest
Ġalgae
çºµåĿĲæłĩ
ä¿¡çĶ¨åį¡
efits
Ġfundament
[a
Ġexplosion
ĠPhiladelphia
æ²»çĸĹæĸ¹æ³ķ
Ġactivate
æıĲåĪ°çļĦ
åľ¨ä¸įåĲĮ
Ġprisoners
ĠNazi
bib
Ġë¶Ģ
,z
æľŁæĿĥ
ĠCentury
Ġignor
åĲĽåŃĲ
China
ĠEdit
ç¢±æĢ§
sembl
Ġjurisdiction
HL
çļĦåĩºçİ°
äº§å¦ĩ
nesota
Ġstationary
_ON
Ġbien
æ·«
Animation
åĪĩæĸŃ
Æ°á»Ŀi
{(-
Ġspell
è¾ĥå¼ºçļĦ
çĽĨèħĶ
ĠJersey
.base
ä¸ĬçıŃ
LETE
ĠTro
æłĸ
ĠMeanwhile
å¹´ç¬¬
_loss
è¯Ĺè¯į
Ġinteracting
']['
411
ĠStage
NAL
Ġhopefully
Pane
ä¸Ģå±Ĥ
chester
âĪ¶
Ġsorry
åıĳçĥ§
å¾ĹçŁ¥
èģĮä¸ļæķĻèĤ²
Ã©l
ï¼ģï¼ģ
Has
ĠINTO
Ġdescriptive
è¿Ļä¸ªè¡¨è¾¾å¼ı
ĠUl
Ġvegetable
Ġlogged
Ġsulfur
olk
ĠÂłĠÂłĠÂłĠÂłĠÂłĠÂłĠÂłĠÂł
Ġsaves
ĠCountry
çĸıæķ£
ĠNear
ç³Ł
issippi
æĪĳåĴĮ
>n
Ġvine
Intent
Ġnons
çĶ¨åĬĽ
[s
Ġns
ä¸Ģåº§
ĠMu
æŀľå®ŀ
iscon
åºĶæł¹æį®
å¾®æ³¢
Suppose
Ġgym
ä¸»è¦ģçĶ±
à½¦
æ²¿æµ·
.be
Ġgy
oidal
Ġreef
Ġlumin
ivation
ĠGrade
Ġsucc
è´£ä»»çļĦ
rado
æĶ¾å¿ĥ
loader
é«ĺçŃīæķĻèĤ²
åħ»èĢģéĩĳ
ordon
çĻ£
ä»£è¡¨çļĦ
ĠDuke
çĲĨå·¥
å¼ķå¯¼åŃ¦çĶŁ
{Q
reset
ĠArgent
etheless
ĠCertain
wi
ĠYears
æĪĲç«ĭçļĦ
ä¹ĺåĿĲ
ĠImpact
.models
ToString
Ġìĸ´
Ġsoap
ĠWatch
çĶ»å®¶
Ġsubjective
Ġìľł
èīºæľ¯å®¶
Ġprojected
æŀģå¤§çļĦ
eland
æĸ°åįİ
Ġinvoke
435
uario
.Drawing
ĠUtil
ĠSteve
ĠTu
_create
ä¹ĭåľ°
ĠKal
Ìģ
ĠNP
å¤±æķĪ
Ġallergy
åĲ¬åĬĽ
|=
Ġordering
éľĢè¦ģæł¹æį®
Ġtravers
416
æķĻç»ĥ
çĹħäººçļĦ
astics
åħļåĳĺå¹²éĥ¨
Ġcombines
(float
Ġacknowledge
ĠCaptain
Setting
ä¸ªæĢ§åĮĸ
Ġyard
æŁĲçļĦ
Ġmissions
Pad
çº½çº¦
å§ĳå¨ĺ
èļģ
Ġwealthy
éĩįåĲĪ
ä¿¡æģ¯ç³»ç»Ł
Ġdefendant
ä»Ĺ
Ġfolks
åħ¨åĽ½äººå¤§
,M
æīĶ
Iterator
ĠRap
Ġwooden
Ġwhilst
ocon
âĢĿï¼ī
åħ¨æĸĩ
èľĢ
åĪ«çļĦ
Ġfailing
ç¯ĩæĸĩç«ł
Ġpic
ocrine
Self
both
cakes
Ġile
agle
resource
conv
\leqslant
$X
Ġpassenger
ograf
èĤ¾ä¸Ĭ
ĠMatthew
é«ĺå±Ĥ
Ġverse
æ¨ªåĿĲæłĩ
Ġwinner
å¯¹æķ°
å¯Įè£ķ
è¾©æĬ¤
ĠCategory
Ġaccepts
Ġdit
ĠALL
Ġoriginated
osomes
íĸĪ
ulatory
åı¯è¾¾
ĠìĨĮ
çĸ±çĸ¹
çļĦå¢ŀéķ¿
åİŁæĸ¹ç¨ĭ
ä¸įå¾Ĺè¶ħè¿ĩ
ä¿¯
æ´»è¡Ģ
æķ°æĺ¯å¤ļå°ĳ
Ġspherical
ãĥĲ
èĤĽéĹ¨
íĮ
å°¤ä¸º
ĠSerial
Ġbean
uropean
Ġathe
ä½Ĩå¦Ĥæŀľ
'])Ċ
Ġobligations
archical
åıªæľīåľ¨
ĠGermans
ĠStandards
Hy
[key
×Ľ
Ġï¼İĊ
Prob
ä¸ĬåŃ¦
æļĹç¤º
è¡¨çļĦ
Ġjun
Ġtrains
ä¼łåªĴ
à¸¡à¹Ī
ioni
\int
Ġlacking
ä¸¥æł¼çļĦ
ĠìŀĪëĬĶ
çŃīæ¯Ķ
é¦ĸéĥ½
æķ¢äºİ
æĪĬ
ROL
ĠADHD
Ġfitting
æľīæīĢä¸įåĲĮ
æĪĳä»¬å¯¹
Ã¼ck
æĬĺæī£
Ġconcaten
421
æľ¬ä½ĵ
æĸŃè£Ĥ
çĳŁ
Ġwalked
ĠIce
ç®¡çĲĨç³»ç»Ł
éħįçĶµ
rupted
ĠTherm
Ġeq
Ġ`"
ĠShakespeare
radient
åĭº
&gt
Ġmalaria
Ġdeclined
Ġties
etes
åŃĺåľ¨äºİ
Ġshirts
æľĢé«ĺçļĦ
_al
ĠConsequently
Ġtraditionally
åº§ä½į
Ġfold
ĠReserve
Ġathlete
æ¶¡
è¡¨æĥħ
åħ·ä½ĵæĥħåĨµ
ĠPope
åĬłéĢŁåº¦
ç¼Ģ
Ġeliminated
Present
ĠTherapy
.image
ĠëķĮ
çĳľ
610
ĠMode
æ£ĺ
à³įà²
seq
åĲ¬åıĸ
Ġpaintings
ĠAllah
andy
èľĤèľľ
ĠCells
ĠEND
ÑĤÑĥ
Ġsnake
ÅĤa
prod
368
ç¬¬ä¸īäºº
xa
æ¨¡åħ·
åıĪèĥ½
å¾ģæ±Ĥ
éĻ¤æķ°
æ²³åĮĹçľģ
æ¸´æľĽ
stock
çİ°ä»»
åıĬçĽ¸åħ³
éĤĵå°ıå¹³
å¼ķåĬĽ
Ġartistic
Ġshortly
SSN
Fi
çķĻåŃ¦
è´§å¸ģæĶ¿çŃĸ
limited
ä¹ĭéĹ´çļĦè·Ŀç¦»
}\]Ċ
Ġradar
ïľ
Ġcomprising
ä½łæĺ¯
iosity
Ġgay
_CR
Ġâĸ
ĠStra
ä¸ĢèĪ¬åľ¨
.al
è¿Ľä¸ĢæŃ¥çļĦ
)+\
413
æĦĪåĲĪ
ĠAustria
install
$$(
Ġvá»Ľi
äº¤ç»Ļ
audio
Ġappetite
ÑĩÐµ
éķĢ
Chat
ounded
åĬ©çĲĨ
Mock
Ġdei
Ġexempl
acet
ä¸įå®¹æĺĵ
è¥¿åĮ»
è§ĦèĮĥåĮĸ
(View
Ġtil
Ġhind
åĶĲä»£
orems
Ġdeficit
ä¼°ç®Ĺ
ÙĬÙĩ
äºĮå¹´
éĢīé¡¹æĺ¯
ä¸ºäºĨç¡®ä¿Ŀ
uzzy
Ġseverely
$[
åĲ¯ç¤º
æ¯Ķå¦Ĥè¯´
ĠPeace
Ġalternate
ĠCru
Typ
åĪĨå±Ĥ
Ġcontaminated
Ġds
.default
)*(
æĮª
æĵįä½ľç³»ç»Ł
éĻªä¼´
503
ĠTag
(uint
Ġhazards
888
çĶŁæ´»ä¸ŃçļĦ
Ġpreceding
ĠArthur
Ġcomplexes
ĠSingapore
Ġnoteb
fold
Ġbol
æ°´è´¨
Ġdepriv
æĬĽçī©çº¿çļĦ
priv
ĠBalt
ĠScale
è´¨çĸĳ
åĪĩæĪĲ
áº¡n
city
ä¸įçĦ¶
åı³è¾¹
ĠSample
Ġkeywords
\infty
çļĦå£°éŁ³
ĠDVD
ĠChanges
399
Ġsacrifice
Ġexclude
Ġattain
ĠSynt
_height
Ø¥
950
åĪĨå¨©
ĠPhase
æĪĳä»¬å·²ç»ı
exists
æĸ¹æ³ķåĴĮ
Ġmicroscope
Ġinheritance
ETHOD
å¯¼çº¿
Dev
ä¸Ĭè¯īäºº
Pi
åħ³æĢĢ
Ġdevoted
èĤ¾ä¸Ĭèħº
329
Ø¹Ø¯
Ġnotify
.layout
termin
Ġshifted
çŃīèħ°ä¸īè§Ĵå½¢çļĦ
è¡Įç¨ĭ
ĠÐ¿Ð¾Ñģ
Ġgeographical
æ·ĺæ±°
Ġ###
inear
æĳ©æīĺè½¦
525
DT
äºĴè¡¥
éģĹåĺ±
ĠAuth
Domain
ãĢī
Ġhill
å®¶åĽŃ
éĿŀå¸¸éĩįè¦ģ
.init
clock
521
VP
.junit
Ġbaking
îģ
çº¢å¤ĸ
çĶŁæ´»ä¹łæĥ¯
ĠTreaty
Ġregards
çħ§å°Ħ
ØŃØ¯
Ġtroubles
IH
/ml
<string
ĠNick
Ġresidence
oscow
Ġfles
());
Ġdeterior
Ġverbal
åı¯çĶ¨äºİ
ä¹ĭæĹ¶
Ġtourism
å¯¼çĶµ
åķĨåľº
383
Username
';
æ²¥
åķĨåĵģçļĦ
Ġmerged
:/
\[=
Ġgrey
Ġemergence
åĩłæ¬¡
Ġseemingly
Ġassignments
itzerland
Ġ([@
è¾ĥå·®
Unknown
ĠÃ©s
ORK
Ġsubsid
ĠMetetra
ĠSets
æľĢå¤ļçļĦ
çĭł
Ġphoton
æĬ¥çº¸
_Q
èĢ»
å°ĳçļĦ
thag
è¦ĭ
çŃīåİŁåĽł
being
æĿĳåºĦ
Ġmaximal
ĠkhÃ´ng
485
Ġrated
IDE
ĠíĮ
åįĬå¾Ħä¸º
oporosis
mask
Ġcement
åģļä»Ģä¹Ī
tic
ĠBlog
ĠNig
_PATH
Æ°Æ¡
çĲ³
è¯Ħå®ļ
èĥĥèĤłéģĵ
é«ĺåº¦éĩįè§Ĩ
çļĦè§ĤçĤ¹
ĠIcon
Ġseeks
Ġsensation
èįīæ¡Ī
(row
cart
æĮģèĤ¡
æī¾åĪ°äºĨ
Ð°Ð½Ð´
ãĤŃ
è§Ħç«łåĪ¶åº¦
qq
å¹´ä»¥æĿ¥
Mask
ä¸Ĭçļ®
å·²ç»ıæĪĲä¸º
Ġlex
åĩ½æķ°åľ¨
412
enable
ĠRose
Ġcad
ä¸Ģé¢Ĺ
æīĭåĨĮ
åĽºå®ļè¿ŀæİ¥
Ġstriking
èĦĬé«ĵ
types
æľīçĲĨæķ°
èº¯
ãģ«ãģ¯
éľĢè¦ģè¿Ľè¡Į
åıĪåĽłä¸º
å¤ļå½©
å¼ºè°ĥäºĨ
aying
éķ¿è¿ľ
auer
rosion
Ġagenda
å·²è¢«
Ġpackaging
ĠElement
ĠTRUE
ç»ĨåĪĻ
.debug
ä»ĸå¯¹
settings
-md
é£İéĻ©ç®¡çĲĨ
(GL
Ġrelevance
ç»¸
æŃ£çļĦ
ĠVar
Ġfluctuations
ä¸Ńåħ¨ä¼ļ
äººç±»çļĦ
otics
æİĪè¯¾
(.
åĪºæ¿ĢæĢ§
Ġbom
éĻĲå®ļ
çĨı
Alert
alism
äºĨå¾Īå¤ļ
ĠEvidence
æ¶Īæŀģ
ÙĪØ³
ĠSymptoms
around
ĠBlo
ÂłÂłÂłĠ
ĠStrateg
.empty
ĠGib
Ġrecre
ä½İä¸ĭ
pio
Ĩį
æĦļ
otide
éĵ¶è¡Įä¸ļ
åıĭè°Ĭ
ä½ĵçļĦä½ĵç§¯
Ġgraphic
à¸Ńà¸¢
åĪ¶è®¢
imetro
.Test
æŁ¿
Interest
è´¦åı·
åıĳçĶµæľº
æºº
Ġmanifold
Ġmonitored
gged
Ġsupervision
çī¢è®°
Course
logen
ä»ħä¾Ľ
Ġcytok
_->
ENGTH
æľīä¸ĭåĪĹ
each
æºĲå¤´
æīĭä¸Ń
é£İæľº
important
043
oT
é«ĺéĵģ
åİ»æİī
åıĮåĲĳ
349
åħ¼å®¹
Ġcylind
whe
urer
Ġ$\{
ĠsÃ©
Ġsein
ä¸İç¤¾ä¼ļ
áĥĿ
ĠManual
father
(:
ç»¼åĲĪæĢ§
ioned
ourses
Ġreconstruct
thening
erView
æµģåŁŁ
Ġhyperbol
pire
Without
éķ·
æĢ§çĶŁæ´»
Ġfungi
pository
Ġjew
ç½ĳç»ľå®īåħ¨
Ð¾Ðµ
è¿Ļä¸ªæĹ¶åĢĻ
Ð·Ð°
Ġrotating
346
äºĨä¸ĢäºĽ
èĩªçĦ¶çļĦ
Ġcircumference
ĊĊĊĊĊĊ
Ġpolygon
æĥ©ç½ļ
è¿Ļå¯¹
éĺ²çĸ«
-back
Ġë°©
adium
=\{
Ġcontinuity
Cart
Xml
Ġgaining
åĭī
Pair
Ġalkal
Ġprotects
ä»·æ¬¾
åĻ¨æĿĲ
ä½ľä¸ºä¸Ģç§į
Ġblockchain
èµ·ä¹ī
ÙħÙĦ
-label
healthy
^+
å¿ħè¦ģæĿ¡ä»¶
olen
Ġdozen
ĠNight
Ġdispute
çļĤ
wich
Ġ×©×ľ
Ġcomprehension
loaded
å°¿æ¶²
ĠIllegal
othesis
å½ĵæĹ¥
urchase
.github
aribbean
ĠKon
Ġdepicts
033
äº¤éĢļå®īåħ¨
å¤§åĽ½
="-
æŁ¥å¤Ħ
Ġorganisations
èĢģçĻ¾å§ĵ
å®¿èĪį
/index
å¤§éģĵ
ĠHab
Ġworried
ä¸ĢçĽ´åľ¨
ÑĩÐ°
odox
ĠYouTube
å¹³åİŁ
_top
çĽ®æłĩçļĦ
ĠSubject
Ġencourages
é²ľæĺİ
ç§ĳåŃ¦è®°æķ°æ³ķ
anh
Ġsyll
å®¢äºº
ĠPH
æµ·åĨĽ
ãĢĪ
ĠHope
ĠEuler
Ġimped
éķ¿åŁİ
å¤§çº¦æĺ¯
Descriptor
èµ°åĪ°
ç³Ļ
Ġwatched
810
Jo
ä¸Ģå¼Ģå§ĭ
ĠProduction
Ġshortest
Ġtie
isl
èĢĥåı¤
ciplinary
.url
usep
Ġflies
çŃīåĪ°
Ġprelim
andra
Ġintact
å°±ä¸įä¼ļ
æĹłå½¢
362
Ġrestored
ç´§ç´§
Sep
ĠPublishing
Ġepidem
Ġlesser
ĠColumn
ÙĴ
Ġinability
å¹´æľ«
åħŃä¸ª
æľ¬éĩĳ
åħ¨çĲĥåĮĸ
_STR
Ġlux
ĠConsole
æĶ¯ä»ĺçļĦ
à¸Ħà¸§
ĠLam
\neq
æĪļ
éĩįå¿ĥ
åĪĨæŀĲåĴĮ
AULT
ĠSound
åİĤå®¶
Ġresponded
æłĳæľ¨
èĩ´çĹħ
373
Ãłnh
è¯Ħä¸º
ç½ªåĲį
ĠAbraham
ĠNumbers
Ġoutstanding
mercial
Ġgenetically
é¾Ī
ì²´
DU
Shape
_Y
è«
Ask
ĠFont
Ġgrat
åħ¨éĿ¢çļĦ
èģĮä¸ļéģĵå¾·
Insert
Ġdishes
{q
ä¿¡è®¿
æµ¸æ³¡
æŃ¥è¡Į
Ġlisting
Ġcelebrate
Â½
åľ¨æĪĳä»¬
éħįéĢģ
(image
Ġê°ľ
Ġ))
Static
å®¢è¿Ĳ
ÂłL
åĬłæ³ķ
ynchronous
çľ¼åīį
å¤Ħå¤Ħ
appropriate
æ¹ĸåįĹçľģ
Ġcumulative
:@"
å¤ļäºº
ctive
Ġevolve
Ġcontest
Ġjar
åĲĪä½ľç¤¾
claimed
ĠBurn
422
City
è¯¦ç»ĨçļĦ
Ġadalah
urate
åĴĮä¸į
ĠIsa
Ã¼k
"`Ċ
èĲĿåįľ
_handler
Ġulan
Die
çĶ¨å¿ĥ
ĠÃ¢
ãģĵãģ®
ĠPO
ĠMarine
å¾Ĺå¾Ī
Ġrevised
_header
ĠDub
857
.exports
$?Ċ
ĠDomin
è§ģè¯ģ
layer
åİ»ä¸ĸ
Ġmilimetro
ĠìŀĪëĭ¤
Ġwerden
è´§è½¦
apture
,i
ittest
expression
èĤĩ
Ġbottles
Âła
åĪĽåĬŀ
ä¸īä½į
åĬ³ç´¯
429
åħīæĺİ
stitutes
çĽ¸æľº
Her
.common
David
Ġblast
ĠAh
ĠØ¹ÙĨ
Ġfs
_function
Food
ç½ĳèĨľ
ç§ĭåŃ£
(J
ugs
æįŁèĢĹ
åı¤èĢģ
upper
ê¹
ï¼Į"
ĠCreated
Ġ}}Ċ
éĩĩæł·
Ġdraws
Side
601
ĠFord
ĠCommunications
Ġmapped
economic
Ġheal
Ġreadings
ç®¡çĲĨå±Ģ
à®°
çĹħçĹĩ
359
æĺ¯æ²¡æľī
Ġstays
Ġidentities
ĠDougl
Ġmeditation
Ġpunct
wal
æ·±åľ³å¸Ĥ
Ġhell
å°Ĩæĸ¹ç¨ĭ
untu
ritannica
ĠGovernor
USE
è´ŀ
ĠFun
ĠÐ¿ÑĢÐµÐ´
Ġgetter
CLA
Ġneuron
Ġneurological
æ®ĭçķĻ
è®¤å®ļä¸º
åĽŀèĲ½
376
Ð½Ð°Ñı
fmt
è¦ģæī¾åĪ°
Äĥm
å¤§èĤł
Ġextr
Ġrecommendation
larÄ±
ç¨İåĬ¡æľºåħ³
Ġentertainment
]|
uno
é£İéĽ¨
omo
[...]
